, 1595326
. 1141815
the 1030885
in 809822
de 691537
a 658781
of 474011
si 436214
to 428824
and 401893
sa 268527
@-@ 247203
ca 207955
that 204854
la 204836
is 200622
pentru 191867
&quot; 174696
din 172907
for 169592
care 169091
o 156549
cu 143842
on 137126
este 135886
i 128607
this 120401
we 117704
un 116158
nu 113814
are 112726
as 111099
european 109887
it 108824
be 100268
mai 100028
pe 96792
with 91397
- 91239
au 83314
have 83044
se 81097
will 76840
&apos;s 76252
by 74752
not 74138
va 70430
al 67672
which 62185
/ 61390
am 60898
has 60195
at 59125
an 58846
acest 58591
aceasta 58347
trebuie 57768
sunt 55352
fost 53400
ar 52842
ce 51399
fi 51304
eu 51282
from 47300
also 45124
ue 43382
would 39840
all 37916
was 36474
but 36249
president 35415
its 34854
ale 34571
prin 34110
important 33253
s 32479
our 32348
their 31855
been 31721
should 31560
said 31476
commission 31079
kosovo 30930
sau 30922
must 30676
&apos; 30114
more 29209
they 29097
there 29042
member 28923
union 28722
states 28439
-- 28210
ne 28158
privind 28099
mr 27751
toate 27086
parliament 26833
vor 26487
you 26469
asemenea 26434
or 26384
can 26174
new 26146
? 26024
one 25523
europeana 25265
europene 25248
fie 24985
europe 24594
countries 24448
lucru 24280
these 24173
daca 24082
economic 23646
serbia 23640
us 23136
report 22700
dintre 22564
ceea 22475
trebui 22454
people 22302
membre 22262
who 22107
&#91; 21922
le 21828
declarat 21799
&#93; 21777
do 21639
very 21456
about 21386
he 21302
asupra 21214
international 21115
foarte 21095
other 21032
intr 20862
like 20797
state 20785
acestea 20731
dupa 20468
unei 20345
cele 20312
need 20290
so 19901
euro 19899
if 19780
country 19742
what 19405
aceste 19253
only 19216
mod 19164
dar 18920
support 18126
council 18048
time 18032
europa 18028
acesta 17884
presedinte 17792
mult 17702
because 17666
cum 17587
however 17532
unui 17366
up 17305
exista 17301
faptul 16969
between 16941
ani 16846
policy 16797
rights 16780
no 16696
were 16593
noi 16560
comisiei 16524
comisia 16511
iar 16451
cadrul 16437
government 16318
timp 16292
poate 16254
my 16236
statele 16164
special 16143
political 15997
year 15983
area 15859
politica 15804
now 15759
putea 15755
acord 15697
such 15696
catre 15679
into 15187
out 15177
insa 15176
fata 15161
acum 15141
when 15105
mare 15099
minister 15039
astfel 14979
social 14925
two 14828
doua 14682
some 14681
uniunea 14641
intre 14546
cand 14523
face 14316
agreement 14311
doar 14300
against 14187
his 14152
multe 14080
first 14063
tara 14026
despre 14007
public 13941
times 13936
dori 13934
dle 13882
financial 13799
impotriva 13741
work 13729
pana 13705
urmare 13689
precum 13669
deoarece 13668
national 13656
than 13645
those 13567
uniunii 13558
(@@ 13509
therefore 13489
cel 13487
take 13266
munca 13157
crisis 13127
tari 13097
make 13019
lor 13005
many 12985
el 12952
citizens 12935
privire 12924
parlamentul 12777
them 12751
well 12702
years 12667
macedonia 12631
ii 12614
energy 12592
problema 12588
development 12576
priveste 12397
ati 12315
croatia 12257
cat 12178
cred 12165
avem 12136
market 12056
made 12055
over 12028
general 12013
being 11998
after 11993
parte 11967
world 11777
pot 11725
southeast 11623
bih 11510
urma 11427
isi 11382
most 11366
alte 11291
fara 11227
security 11227
believe 11186
human 11137
any 11133
way 11080
last 11058
nato 11048
acestui 10974
vom 10969
re@@ 10850
future 10821
data 10768
inca 10696
could 10638
under 10630
raport 10506
had 10494
vedere 10484
atat 10458
avea 10358
turkey 10296
measures 10171
romania 10129
order 10099
situation 10088
cea 10085
bulgaria 10023
think 9994
lui 9957
part 9928
unor 9865
during 9843
tarile 9838
issue 9838
cei 9837
primul 9811
consider 9751
loc 9747
acestei 9747
say 9694
see 9692
nivel 9680
parlamentului 9675
nevoie 9665
importanta 9634
group 9616
today 9594
stat 9391
ate 9348
afirmat 9330
even 9316
both 9298
albania 9274
reprezinta 9270
economica 9261
decat 9175
process 9132
consiliului 9125
same 9124
where 9117
10 9102
criza 9095
how 9061
raportul 9047
noastre 9045
law 9012
setimes 9000
l 8994
sector 8993
right 8949
members 8926
level 8899
able 8884
just 8853
masuri 8813
possible 8808
use 8789
foreign 8785
fact 8783
luni 8735
may 8713
ci 8708
still 8700
system 8650
piata 8648
asa 8645
putem 8612
ul 8569
sale 8556
economice 8542
prime 8533
good 8526
through 8474
2009 8467
rand 8466
since 8464
commissioner 8397
ensure 8358
chiar 8288
while 8287
party 8245
want 8169
presedintele 8106
: 8104
trade 8096
baza 8063
much 8057
vote 8045
does 8044
domeniul 8038
guvernul 8014
end 8012
aplicare 8002
atunci 8002
within 7993
omului 7991
dna 7958
plan 7948
resolution 7921
drepturile 7920
clear 7908
ata 7891
procesul 7865
cannot 7852
nou 7842
doresc 7833
continue 7829
place 7821
ma 7815
here 7804
deja 7802
proposal 7792
protection 7771
ei 7750
1 7741
ai 7732
il 7723
democratic 7685
already 7675
astazi 7670
prezent 7669
11 7667
voted 7660
debate 7648
votat 7642
high 7640
in@@ 7618
potrivit 7600
facut 7589
budget 7588
region 7574
fiind 7562
including 7541
dezvoltare 7531
turcia 7530
12 7494
case 7464
help 7459
celor 7439
three 7434
action 7425
according 7422
trei 7417
favoarea 7409
common 7406
number 7390
statelor 7379
000 7366
situatia 7360
strategy 7350
drepturilor 7345
long 7337
putin 7331
ministrul 7329
partea 7318
particular 7306
avut 7302
cooperation 7297
without 7253
timpul 7233
2010 7232
treaty 7212
consiliul 7177
co 7176
recent 7175
global 7157
politice 7148
ia 7143
anul 7131
presedinta 7127
committee 7098
totusi 7073
information 7064
madam 7040
bine 7036
noua 7011
why 7007
nici 6986
bosnia 6971
issues 6956
next 6950
legal 6949
before 6946
tot 6929
ului 6910
serbian 6909
favour 6870
authorities 6801
parlament 6784
question 6767
spus 6745
probleme 6716
institutions 6700
change 6695
noastra 6694
directive 6693
role 6682
peste 6668
persoane 6668
your 6648
women 6647
cauza 6635
hope 6625
economy 6612
dl 6575
un@@ 6564
inainte 6563
own 6552
point 6548
domnule 6541
2008 6530
know 6521
clar 6520
buna 6515
respect 6510
scris 6495
problems 6490
progress 6486
continua 6480
financiare 6465
aici 6451
tuturor 6450
drept 6449
cazul 6440
belgrade 6421
decision 6421
community 6407
k@@ 6406
current 6402
numai 6397
ele 6381
comisar 6377
then 6376
based 6372
acestor 6371
una 6344
desi 6339
set 6325
problem 6320
told 6317
me 6314
areas 6307
siguranta 6306
securitate 6286
regional 6282
externe 6281
needs 6263
too 6244
necessary 6241
punct 6225
cateva 6217
2020 6217
control 6215
major 6196
unul 6182
local 6181
transport 6180
put 6164
moment 6162
sub 6121
given 6093
united 6064
turkish 6058
greece 6057
towards 6041
suntem 6027
cetatenilor 6002
better 6001
acelasi 5993
cetatenii 5980
taken 5975
nationale 5954
fapt 5935
onu 5932
operation 5918
fel 5913
20 5908
particularly 5908
multumesc 5906
course 5896
thank 5891
crime 5873
internationale 5859
perioada 5854
e 5853
asigura 5826
multi 5819
final 5815
dezvoltarea 5789
exemplu 5785
images 5779
masura 5765
ne@@ 5746
inclusiv 5737
programme 5719
further 5712
getty 5687
impact 5675
euros 5664
; 5660
negotiations 5652
pristina 5644
publice 5596
tarii 5592
arii 5574
means 5573
autoritatile 5569
viitor 5562
privinta 5552
former 5542
rules 5537
fundamental 5520
war 5502
court 5498
presidency 5495
2 5481
milioane 5477
mea 5467
per 5459
media 5453
acestora 5445
prima 5445
come 5438
framework 5433
orice 5429
unele 5429
growth 5428
free 5424
membru 5405
unite 5400
example 5391
efforts 5386
europei 5385
permite 5383
among 5367
) 5363
(de) 5359
mari 5345
referitoare 5341
sociale 5340
mi 5333
increase 5331
give 5326
another 5326
meeting 5322
health 5319
provide 5317
fiecare 5307
ing 5279
police 5272
regulation 5272
numele 5269
power 5264
acordul 5245
s@@ 5244
trecut 5240
day 5220
whether 5192
ea 5188
ic 5181
crestere 5178
far 5163
incat 5161
nostru 5137
freedom 5127
initiative 5126
afla 5123
talks 5119
aproximativ 5117
importante 5109
lisbon 5107
include 5104
again 5087
terms 5072
reuters 5070
result 5070
funds 5069
conditions 5069
lisabona 5063
relations 5060
view 5057
different 5053
2007 5050
ladies 5044
gentlemen 5044
climate 5042
ales 5006
grecia 4985
term 4983
services 4979
domnilor 4972
legate 4961
business 4953
used 4947
food 4926
agree 4925
implementation 4923
regard 4920
toti 4919
unde 4902
great 4901
doamna 4899
together 4895
mrs 4894
acestia 4893
elections 4886
afp 4884
making 4875
doamnelor 4874
adopted 4870
every 4853
15 4848
europeni 4827
working 4822
real 4808
legatura 4797
position 4797
aceea 4790
second 4785
become 4780
montenegro 4775
small 4766
politicii 4764
zi 4763
writing 4760
legislation 4750
bank 4743
ed 4741
sectorul 4740
instrument 4729
did 4721
alta 4697
z@@ 4696
propunerea 4683
uri 4680
resources 4679
says 4677
access 4659
afaceri 4648
key 4648
specific 4643
let 4643
parties 4634
sprijinul 4632
project 4618
companies 4617
ministru 4615
democracy 4607
million 4603
welcome 4599
h@@ 4597
faca 4578
plus 4576
cresterea 4574
standards 4568
luna 4551
going 4538
cooperare 4537
printre 4534
products 4521
belgrad 4519
locuri 4515
... 4512
regiune 4495
30 4489
caz 4483
rapporteur 4474
eur 4471
calitate 4470
especially 4468
main 4463
fund 4461
investment 4457
children 4456
following 4455
certain 4454
integration 4447
necesare 4439
money 4439
third 4434
zona 4431
reduce 4431
cooperarea 4427
termen 4426
sprijin 4424
research 4422
dreptul 4410
workers 4410
policies 4409
informatii 4408
3 4402
09 4400
doilea 4396
27 4389
bun 4389
impreuna 4382
step 4381
cultural 4378
go 4375
deal 4375
d@@ 4367
i@@ 4365
opportunity 4362
2011 4357
politic 4357
comune 4351
effective 4351
she 4347
05 4343
done 4341
posibil 4333
aid 4333
force 4332
t 4323
serious 4321
n@@ 4318
called 4301
months 4301
importance 4296
sper 4293
approach 4284
meu 4283
razboi 4280
stability 4271
border 4253
era 4249
lupta 4232
avand 4232
spune 4221
house 4221
nivelul 4219
russia 4219
inceput 4217
04 4214
06 4206
03 4204
g@@ 4200
matter 4196
t@@ 4191
da 4191
eforturile 4185
few 4173
context 4170
al@@ 4165
asistenta 4163
down 4160
week 4159
energie 4156
greek 4156
aproape 4153
full 4151
fac 4147
call 4147
basis 4146
greater 4145
forward 4140
07 4139
act 4131
several 4128
spun 4125
education 4123
voi 4118
military 4114
intrucat 4108
find 4104
accession 4100
08 4098
central 4095
aspect 4081
eficienta 4081
agency 4080
es 4080
grupului 4074
inseamna 4071
problemele 4070
viata 4066
currently 4066
get 4065
er 4060
safety 4056
crearea 4052
mici 4048
comisie 4038
her 4037
comuna 4034
2006 4030
legislative 4028
opinion 4022
yet 4019
non 4017
direct 4013
justice 4012
industry 4006
date 4001
back 4001
each 4000
actiune 3999
once 3996
sistem 3993
nuclear 3990
zile 3990
taking 3987
extrem 3972
society 3971
allow 3971
internet 3970
internationala 3969
sarb 3968
reform 3966
anului 3961
v@@ 3960
best 3960
), 3958
summit 3951
responsibility 3951
aiba 3947
conform 3940
single 3931
news 3914
create 3914
mediu 3907
officials 3900
large 3892
vederea 3891
masurile 3889
prea 3888
grupul 3886
strong 3885
billion 3885
agenda 3877
solution 3872
life 3869
difficult 3868
financiar 3865
intreaga 3861
positive 3861
fight 3860
p@@ 3859
jobs 3858
2004 3844
due 3844
motiv 3843
facem 3842
b@@ 3841
ar@@ 3834
scopul 3832
directiva 3830
25 3823
protectia 3819
agreements 3819
adevarat 3815
potential 3813
start 3808
least 3804
conflict 3802
civil 3800
open 3789
anumite 3780
joint 3778
situatie 3777
proposals 3772
fully 3768
less 3767
prim 3762
monday 3761
essential 3753
office 3751
sfarsitul 3745
declara 3744
internal 3744
china 3742
necesar 3734
an@@ 3731
mn 3727
y@@ 3723
crimes 3722
serbiei 3721
results 3721
sua 3717
behalf 3716
sud 3712
r@@ 3711
aderare 3703
sociala 3702
croatian 3702
eaza 3698
whole 3697
bune 3696
lume 3695
employment 3695
politici 3692
financiara 3692
5 3688
doi 3683
de@@ 3682
tratatul 3679
diferite 3673
sens 3664
reforms 3659
private 3656
cent 3654
interne 3652
held 3652
guvernului 3645
total 3645
achieve 3632
month 3628
rol 3626
majority 3626
eze 3624
significant 3623
account 3619
interest 3618
spre 3612
centre 3612
move 3612
herzegovina 3606
saying 3605
saptamana 3604
rezolutie 3602
around 3602
interests 3594
l@@ 3590
ask 3589
although 3589
crizei 3585
clearly 3583
improve 3583
rusia 3578
confrunta 3577
expected 3577
o@@ 3572
est 3571
period 3568
finally 3566
present 3565
dorim 3557
ilor 3555
nostri 3552
ajuta 3551
attention 3548
peace 3546
albanian 3538
fortei 3534
partidul 3534
acesteia 3526
sistemul 3520
pare 3508
miliarde 3503
regions 3502
something 3499
pas 3498
membership 3489
projects 3487
really 3486
oameni 3481
service 3480
proces 3477
tarilor 3475
raportului 3475
j@@ 3473
3@@ 3472
cases 3467
bring 3466
ori 3458
initiativa 3457
pozitia 3455
ago 3452
groups 3450
strategic 3446
ari 3439
proposed 3439
en@@ 3435
m 3431
management 3422
solidarity 3422
independent 3421
assistance 3417
quality 3411
4 3410
urile 3405
dumneavoastra 3404
c@@ 3399
environment 3399
patru 3388
muntenegru 3388
four 3385
status 3383
environmental 3381
tax 3380
fundamentale 3379
past 3377
off 3370
m@@ 3369
capital 3363
barroso 3358
wednesday 3357
ation 3355
e@@ 3345
18 3342
agricultural 3339
text 3335
at@@ 3330
miercuri 3328
adevar 3327
dlui 3325
violence 3322
nicio 3321
13 3318
anti 3317
until 3313
young 3310
u@@ 3304
reason 3304
having 3301
personal 3300
17 3299
dis@@ 3296
pune 3294
aderarea 3293
climatice 3291
oamenii 3290
tadic 3286
pietei 3286
dialogue 3281
momentul 3277
domeniu 3270
desigur 3264
sustainable 3262
leaders 3261
always 3258
rolul 3256
labour 3256
el@@ 3247
majoritatea 3246
production 3243
ramane 3232
affairs 3231
( 3229
crucial 3227
opposition 3224
involved 3218
risk 3216
defence 3212
document 3208
aspecte 3205
dvs. 3204
rather 3202
er@@ 3201
things 3200
gas 3199
cadru 3194
needed 3191
14 3186
ofera 3185
company 3184
succes 3183
d 3181
prezenta 3178
various 3172
rule 3171
esential 3165
6 3164
macedonian 3163
added 3160
agreed 3158
corruption 3157
itself 3156
institutiile 3155
five 3154
chestiune 3153
probabil 3150
minutes 3150
sofia 3147
! 3146
objectives 3141
poata 3140
concerns 3140
adoptat 3131
look 3129
consumers 3124
acestuia 3123
cohesion 3121
f@@ 3117
cinci 3116
conformitate 3116
continuare 3115
). 3114
lung 3112
hand 3111
considerare 3109
16 3107
partidului 3106
vorba 3106
independence 3105
protectie 3102
principle 3101
mentionat 3100
imi 3098
2005 3095
conditiile 3095
investitii 3094
remain 3093
ie 3091
subject 3091
conference 3087
parti 3085
meet 3084
activitatea 3082
locale 3081
trecuta 3077
him 3073
africa 3072
turciei 3070
schengen 3067
often 3067
rapid 3064
funding 3064
ica 3061
led 3059
viitorul 3051
punerea 3048
met 3048
propunere 3047
lack 3046
procedure 3044
referitor 3043
modul 3043
partnership 3041
tuesday 3032
markets 3030
relatiile 3029
representative 3026
zagreb 3016
serie 3015
presa 3015
01 3010
oferi 3002
guvern 3001
necesara 3001
ers 2999
marti 2992
concerned 2992
acordului 2991
produse 2986
sources 2986
dezbatere 2985
02 2985
statement 2980
balkans 2971
regarding 2965
elor 2963
presedintia 2963
independenta 2961
7 2955
decizia 2953
competition 2947
republic 2944
propuneri 2942
parliamentary 2941
concrete 2939
tirana 2935
cerut 2933
8 2933
punctul 2932
arata 2928
december 2918
dat 2914
posibilitatea 2913
comerciale 2913
review 2912
activities 2912
proiectul 2910
points 2909
transparency 2906
reducerea 2901
toata 2899
k 2899
y 2896
lumea 2891
challenges 2891
decembrie 2885
hertegovina 2885
external 2884
evident 2881
wish 2881
visit 2881
organised 2877
schimb 2876
indeed 2876
responsible 2875
raspuns 2870
pre@@ 2869
curand 2867
numarul 2866
comun 2865
population 2864
commitment 2864
changes 2861
utilizarea 2860
salut 2860
line 2860
conditii 2858
western 2857
solicita 2853
locul 2844
soon 2844
curs 2841
others 2841
show 2838
days 2838
urilor 2835
bugetul 2834
urmeaza 2834
ti@@ 2831
developing 2828
inceputul 2827
a@@ 2827
procedura 2826
focus 2826
credit 2824
24 2822
systems 2816
pay 2815
ankara 2814
lipsa 2813
ministry 2810
alegerile 2804
strategia 2797
solutie 2796
noul 2795
(it) 2793
adoptarea 2791
priority 2786
proiect 2778
dezbaterea 2778
programmes 2777
announced 2777
numar 2775
2013 2772
nord 2770
subliniez 2767
securitatea 2766
programul 2763
istanbul 2763
verbal 2760
doreste 2759
thursday 2758
ap 2744
costs 2744
concerning 2741
co@@ 2737
despite 2737
primit 2727
ita 2725
poverty 2724
joi 2718
administrative 2718
(fr) 2716
actuala 2710
on@@ 2709
representatives 2709
ch@@ 2708
provided 2705
negocierile 2703
plans 2702
serb 2701
atentia 2699
increased 2699
libertatea 2696
niciun 2694
june 2694
words 2694
marea 2692
bulgarian 2692
post 2687
cetateni 2687
afirma 2686
ite 2682
atentie 2681
concern 2677
victims 2676
march 2674
available 2671
package 2670
obiectivele 2669
aim 2669
seen 2669
anuntat 2668
republica 2663
amendments 2658
south 2657
left 2655
economiei 2653
discutiile 2649
u 2646
im@@ 2646
vedea 2645
natural 2645
sarajevo 2642
individual 2641
mladic 2638
culture 2638
visa 2637
ashton 2636
acordat 2636
form 2634
tribunal 2633
sase 2632
ciuda 2632
luat 2631
opinia 2629
am@@ 2628
randul 2627
six 2627
(pl) 2618
as@@ 2618
femeilor 2616
abordare 2614
reforma 2614
iunie 2612
took 2612
response 2610
regiunea 2609
eficient 2609
leader 2609
prezentat 2607
prevent 2606
votul 2602
martie 2602
festival 2601
organisation 2600
vigoare 2597
9 2597
unii 2596
rate 2596
forces 2596
regulamentul 2593
promote 2591
signed 2590
election 2589
st@@ 2588
official 2586
objective 2584
decisions 2583
multa 2580
sustine 2579
tratatului 2579
criminal 2576
4@@ 2575
lead 2575
actually 2575
deplin 2574
cursul 2574
procesului 2573
reports 2573
afara 2572
enough 2568
romanian 2562
skopje 2560
23 2559
sustin 2558
publica 2557
energetica 2554
forma 2553
remains 2553
press 2552
cost 2551
addition 2551
job 2550
membri 2549
calea 2539
ala 2538
pace 2536
erdogan 2534
ajuns 2533
21 2533
considera 2532
19 2531
economia 2531
governments 2529
alt 2525
extremely 2525
reusit 2522
ultimii 2520
exprimat 2519
aduce 2519
living 2518
imbunatatirea 2516
creation 2513
comes 2508
intampla 2502
100 2502
necesitatea 2502
statului 2500
rs 2500
decizie 2498
principles 2497
german 2494
ated 2494
event 2493
obiectivul 2492
devenit 2490
ice 2488
it@@ 2480
across 2478
simply 2478
transparenta 2477
sistemului 2477
january 2477
viitoare 2474
5@@ 2473
head 2472
play 2470
deputati 2469
film 2468
legislatia 2464
ianuarie 2462
brussels 2462
balkan 2460
roma 2459
domenii 2459
singura 2456
close 2455
join 2454
thus 2452
along 2452
centrul 2450
motive 2449
guarantee 2448
externa 2447
inalt 2447
principal 2445
found 2445
amendment 2443
early 2441
agriculture 2441
castigat 2437
director 2436
cercetare 2431
ethnic 2431
22 2430
ajutor 2427
nations 2427
old 2427
en 2426
fondurile 2423
doing 2422
innovation 2421
anume 2419
aimed 2417
persoanelor 2414
voting 2414
eforturi 2412
ac@@ 2411
is@@ 2410
cyprus 2410
50 2408
increasing 2407
combaterea 2401
mondial 2400
500 2399
bruxelles 2397
subliniat 2395
benefit 2395
businesses 2393
ministers 2393
values 2393
schimbarile 2391
mentioned 2391
&apos;t 2389
conferinta 2387
efficiency 2387
illegal 2387
complet 2385
semnat 2382
mediului 2380
practice 2376
or@@ 2375
above 2374
vital 2371
organisations 2369
ab@@ 2368
chestiuni 2366
won 2362
asigure 2361
inter@@ 2360
requirements 2359
chief 2358
stim 2357
protect 2357
address 2354
contribui 2350
ec 2350
governance 2346
cazuri 2342
unfortunately 2342
questions 2341
recently 2339
banca 2337
zone 2335
consumatorilor 2334
bani 2333
criteria 2333
consolidarea 2332
il@@ 2332
strategie 2330
negocierilor 2330
ile 2328
idea 2327
instruments 2326
integrarea 2323
ceva 2323
top 2322
specifice 2321
sea 2320
using 2319
iran 2316
fondul 2307
actions 2305
north 2304
mar@@ 2301
achieved 2300
andu 2298
fim 2297
28 2297
obiectiv 2294
draft 2293
muncii 2290
reprezentant 2289
short 2289
enterprises 2289
simplu 2286
26 2285
intotdeauna 2284
osce 2284
fellow 2284
consiliu 2283
obiective 2283
similar 2283
october 2282
ad@@ 2280
quite 2277
though 2275
reached 2273
institutii 2268
scurt 2267
subiect 2264
alegeri 2263
existing 2263
compromise 2262
additional 2262
surse 2261
octombrie 2259
longer 2259
refera 2258
ali 2257
progrese 2257
fair 2257
contextul 2254
lua 2254
program 2254
training 2254
appropriate 2254
os 2253
aware 2250
implement 2250
understand 2250
servicii 2249
totii 2249
coming 2248
ajutorul 2247
active 2246
altor 2246
w@@ 2245
building 2241
belarus 2238
strengthen 2238
referendum 2237
thing 2237
presedintiei 2236
bilateral 2236
reasons 2235
consequences 2235
acorda 2234
farmers 2234
uniune 2233
model 2233
coeziune 2232
ana 2230
2012 2230
procedures 2230
received 2229
home 2226
discutii 2223
ina 2223
pressure 2220
decide 2219
dezvoltarii 2218
oficialii 2217
sarbi 2216
required 2216
obtine 2215
established 2215
everyone 2214
solutii 2209
financing 2209
instead 2207
negative 2202
accesul 2202
cooperarii 2201
adaugat 2201
sure 2201
responsabilitatea 2200
fonduri 2200
men 2200
pus 2198
produselor 2197
ambele 2191
themselves 2191
promovarea 2190
establish 2189
urgenta 2188
a: 2188
develop 2186
certainly 2185
prices 2185
curtea 2182
field 2182
faptului 2181
priorities 2178
application 2178
supported 2176
mission 2175
regionale 2174
reach 2173
november 2172
puternic 2171
noile 2170
american 2170
might 2170
august 2168
ic@@ 2166
family 2166
kind 2166
decided 2165
success 2163
road 2162
constituie 2159
turc 2159
germany 2158
serviciile 2156
autoritatilor 2155
rehn 2154
oil 2154
true 2153
age 2153
opportunities 2151
finance 2150
croat 2149
energiei 2145
finantare 2144
ultimul 2144
pleased 2143
noiembrie 2142
2003 2142
putut 2142
ultimele 2141
medium 2141
infrastructure 2140
membrii 2139
acolo 2139
air 2139
sunday 2135
serbs 2135
proiecte 2133
asadar 2131
iti 2131
regulations 2129
6@@ 2126
asked 2126
duminica 2124
valoare 2122
candidate 2122
energetice 2121
steps 2115
intentioneaza 2112
apoi 2107
asiguram 2106
liderii 2106
adoption 2105
throughout 2104
ever 2103
produce 2102
ajunge 2101
previous 2100
regime 2097
tourism 2091
keep 2090
persoanele 2089
technical 2089
aceeasi 2086
comunitatea 2086
liber 2086
eastern 2085
borders 2085
discuss 2084
rezolutia 2083
dintr 2082
nationala 2081
mondiala 2081
almost 2081
e: 2078
cross 2078
planul 2077
te 2076
little 2074
low 2073
construction 2072
op@@ 2068
whose 2068
incheiat 2067
sanatate 2067
everything 2066
expect 2066
association 2064
ensuring 2061
aplicarea 2059
incepe 2057
movement 2056
slovenia 2055
drepturi 2055
re 2054
departe 2052
saptamani 2052
realizat 2051
declaratie 2049
industria 2046
list 2046
unemployment 2045
sai 2044
femei 2044
share 2041
april 2040
monitoring 2039
affected 2039
nimic 2037
ant 2037
effort 2036
initial 2035
never 2035
alliance 2034
con@@ 2033
included 2032
crea 2031
ten 2031
perspectiva 2025
lucruri 2025
administration 2025
mechanism 2024
related 2023
carried 2023
annual 2023
actiuni 2022
article 2022
terte 2021
7@@ 2021
permanent 2019
consumer 2016
democratice 2015
vot 2013
contribution 2013
centrala 2010
return 2010
aprilie 2009
athens 2009
alternative 2008
vest 2007
value 2006
asteapta 2005
40 2004
competitiveness 2004
pur 2003
implemented 2001
earlier 2000
im 1998
quickly 1997
east 1995
intreprinderile 1994
nothing 1993
committed 1992
brought 1990
vizita 1989
unmik 1984
constitutional 1984
italy 1983
8@@ 1983
ridicat 1982
ul@@ 1981
intermediul 1978
rezultat 1978
statul 1975
tocmai 1975
contribuie 1974
outside 1972
boris 1971
civile 1971
grave 1970
justitie 1970
stiu 1969
later 1969
matters 1967
ator 1966
li 1965
interna 1965
suficient 1965
rezultate 1964
presedintelui 1963
city 1963
propus 1959
br@@ 1959
firstly 1959
setimes: 1958
effect 1958
naturale 1957
prioritate 1956
rezultatele 1954
partners 1954
offer 1953
receive 1953
ahead 1950
printr 1949
varsta 1949
populatiei 1947
copii 1947
bosnian 1946
ag@@ 1944
deveni 1943
corect 1942
july 1940
moldova 1939
czech 1939
institutiilor 1938
came 1938
debt 1933
finantarea 1932
acorduri 1931
france 1931
kostunica 1930
makes 1930
scop 1928
implementing 1928
contribute 1928
basic 1927
stabilitate 1926
em@@ 1926
calls 1926
perhaps 1926
securitatii 1925
par@@ 1924
agricole 1924
accept 1924
weeks 1923
price 1921
ovic 1920
intra 1920
sub@@ 1919
providing 1916
team 1915
mean 1915
si@@ 1913
es@@ 1912
levels 1912
iulie 1910
pacate 1907
tribunalul 1906
speak 1906
intalnit 1904
name 1904
expressed 1904
terrorism 1904
huge 1904
asylum 1904
israel 1902
decis 1901
comunitatii 1900
indoiala 1900
di@@ 1900
creating 1900
budgetary 1900
closed 1899
hard 1898
adopt 1896
banks 1896
ere 1895
mine 1889
deosebit 1888
devina 1887
history 1886
parteneriat 1883
behind 1883
aflat 1882
domestic 1881
luate 1880
seful 1879
secretary 1879
feel 1878
1995 1876
bineinteles 1876
violenta 1875
cuvinte 1875
ruling 1875
provinciei 1874
implementarea 1874
express 1874
complete 1871
rezultatul 1869
stop 1869
niciodata 1868
agricultura 1868
29 1868
discrimination 1868
demand 1867
apply 1865
existat 1864
radio 1863
water 1863
germania 1862
introduce 1861
supply 1861
structural 1860
improving 1860
live 1859
ap@@ 1858
approved 1858
balcani 1857
resurse 1857
c 1857
leave 1857
serviciilor 1856
strengthening 1856
presented 1856
politicile 1854
langa 1853
bugetului 1852
ban 1852
discussion 1852
ind 1851
cheie 1850
sfarsit 1850
washington 1848
lege 1846
numeroase 1846
standardele 1845
capacity 1845
cut 1844
nucleare 1843
february 1843
powers 1841
venit 1840
ating 1840
opening 1840
rural 1839
(pt) 1838
februarie 1838
discuta 1838
pozitie 1838
request 1837
fostul 1836
laws 1836
practica 1833
necesita 1833
forta 1833
srpska 1831
stress 1831
secondly 1829
unit 1827
fisheries 1827
introducerea 1826
intreprinderilor 1826
solutions 1826
ready 1825
trafficking 1825
events 1824
copiilor 1823
produsele 1822
discussed 1822
experts 1821
urgent 1819
grup 1819
higher 1819
mass 1817
200 1817
2002 1815
talking 1815
equal 1815
implica 1813
se@@ 1813
20% 1813
existente 1812
friday 1812
pl@@ 1811
suplimentare 1810
stand 1809
encourage 1809
regiuni 1808
interesul 1807
recovery 1804
acces 1802
articolul 1798
politicians 1796
provisions 1794
enable 1794
aplica 1793
relatiilor 1793
1999 1791
pozitiv 1790
socialist 1790
tip 1789
buget 1788
et@@ 1788
regionala 1787
assessment 1787
relation 1787
daily 1786
fondurilor 1785
side 1785
emissions 1784
regulament 1783
imediat 1783
solidaritate 1782
(the 1781
goal 1781
democratie 1780
ideea 1780
zece 1777
actiunile 1776
intrebare 1776
skopie 1776
curtii 1775
esentiala 1775
balance 1775
goods 1775
ka 1773
italia 1773
ol@@ 1773
companii 1772
respectarea 1772
treatment 1772
actual 1771
erii 1771
man 1770
confidence 1767
reduction 1767
permiteti 1766
agentia 1764
ma@@ 1764
itate 1759
materie 1759
avoid 1759
duce 1758
semnificativ 1758
treilea 1757
ara 1756
apel 1755
(nl) 1755
rata 1755
us@@ 1755
half 1755
popular 1753
run 1753
september 1752
ir@@ 1751
evaluare 1749
vineri 1749
septembrie 1748
datelor 1748
build 1747
mei 1746
datorita 1746
lunii 1745
populatia 1744
po@@ 1744
ireland 1744
puncte 1743
message 1743
mandate 1742
obtinut 1740
vizeaza 1740
opened 1740
compania 1737
considered 1737
31 1735
incredere 1735
kfor 1733
totodata 1733
eulex 1731
saraievo 1730
late 1729
competitive 1727
negocieri 1727
imf 1727
sprijini 1726
relevant 1726
leading 1726
facing 1726
standard 1725
majore 1725
numara 1723
hungarian 1723
decizii 1722
bar@@ 1722
lista 1721
lot 1721
strategiei 1720
ordinea 1720
prevede 1719
organizate 1718
talk 1718
initiatives 1718
macedoniei 1717
em 1717
facute 1716
os@@ 1715
humanitarian 1715
aspects 1714
campaign 1714
adoptate 1713
car@@ 1712
experience 1712
femeile 1711
situatiei 1711
excellent 1711
2001 1709
g 1709
minority 1708
oficial 1707
northern 1707
known 1707
canada 1705
waste 1705
directia 1704
resurselor 1704
puternica 1703
om@@ 1703
karadzic 1702
ora 1701
b92 1700
ations 1700
deputy 1700
fmi 1699
solicitat 1699
ultima 1698
element 1697
try 1697
entire 1697
russian 1697
includes 1696
effects 1695
progresul 1694
interesele 1693
sized 1692
authority 1691
benefits 1691
vorbim 1690
celelalte 1690
relating 1690
comisarul 1689
supporting 1689
legislatiei 1688
crescut 1688
georgia 1688
angajamentul 1688
asigurarea 1687
tr@@ 1687
wants 1687
atena 1683
juridic 1682
compromis 1682
light 1682
death 1682
principalele 1681
durabila 1681
legea 1680
exchange 1680
ambitious 1679
creste 1678
motion 1678
investments 1677
lives 1676
oamenilor 1675
amount 1675
putere 1674
communication 1674
globala 1673
army 1673
cresterii 1672
provides 1672
organizat 1671
entry 1671
democrat 1670
arile 1670
successful 1670
possibility 1669
created 1669
milosevic 1668
diplomatic 1668
ministerul 1668
ofere 1668
religious 1668
maritime 1667
croatiei 1665
apararii 1665
hold 1664
promoting 1664
rating 1662
regards 1661
participa 1659
posibila 1659
mediterranean 1659
shown 1659
ti 1657
ukraine 1657
respecta 1656
oferit 1656
eficiente 1656
sustinut 1654
sectors 1654
dovada 1652
politia 1650
begin 1650
enlargement 1650
urmatorul 1649
societatii 1649
industrial 1649
austria 1647
transparent 1645
cere 1645
aprobat 1644
resursele 1643
comertului 1642
v 1642
principiul 1641
constitution 1641
incearca 1640
turn 1639
reprezentantii 1638
cultura 1638
integrare 1638
democratiei 1637
sh@@ 1637
statements 1637
eri 1634
capacitatea 1633
ies 1632
travel 1632
exact 1631
2000 1630
away 1630
ec@@ 1629
luam 1629
meanwhile 1629
vice 1628
convention 1628
liderul 1627
puna 1626
seama 1626
green 1626
completely 1626
gr@@ 1624
coalition 1624
cont 1623
instrumente 1623
sanatatii 1623
overall 1623
lucrurile 1622
furthermore 1622
deficit 1620
challenge 1619
calling 1619
felicit 1618
efficient 1617
beginning 1617
trying 1614
minorities 1613
standarde 1611
zoran 1611
prepared 1611
perspective 1610
politie 1610
abordarea 1609
activitatile 1609
documents 1609
reglementare 1608
capat 1608
hague 1608
fishing 1608
either 1608
thanks 1606
italian 1605
libera 1604
statutul 1603
g20 1603
shall 1603
absolutely 1603
situatii 1602
direction 1602
prezinta 1599
paid 1599
coordination 1597
draw 1597
mijlocii 1596
so@@ 1596
li@@ 1594
stage 1594
colleagues 1593
bo@@ 1591
veti 1591
p 1590
garanta 1589
sectorului 1589
seems 1589
ent 1587
contact 1587
communities 1587
participation 1587
directivei 1585
60 1584
zonele 1583
condus 1583
ante 1583
mind 1583
wanted 1583
cuvant 1582
jumatate 1582
carbon 1582
largest 1582
ine 1581
ire 1581
takes 1581
intrebarea 1580
ed@@ 1579
haga 1579
parlamentare 1578
ur@@ 1577
america 1577
destul 1577
looking 1577
nikola 1575
justitiei 1575
iei 1574
ts 1574
dnei 1572
schimbarilor 1572
reala 1571
mii 1571
economies 1571
teritoriul 1570
ez 1569
network 1568
moreover 1568
agencies 1567
caused 1566
developed 1565
franta 1563
mention 1563
sense 1562
experienta 1561
imbunatati 1561
organizata 1561
institutional 1559
carora 1556
effectively 1555
alegerilor 1552
cale 1552
atie 1551
tomorrow 1551
gen 1549
2@@ 1549
stabilit 1549
fiscal 1549
written 1548
ahtisaari 1546
(es) 1544
odata 1544
failed 1544
bbc 1543
technology 1543
task 1543
clara 1542
declaratia 1542
educatie 1542
unica 1541
poor 1541
delegation 1541
congratulate 1539
establishing 1539
ov 1538
careia 1538
militare 1537
comprehensive 1536
motivul 1534
vizelor 1533
politicilor 1532
echipa 1532
afecteaza 1531
red 1531
aims 1531
economie 1530
pescuitului 1530
pact 1529
alti 1529
existe 1528
lucratorilor 1527
adesea 1526
globale 1524
adecvate 1524
indiferent 1523
azil 1523
solicit 1522
combating 1522
french 1521
self 1521
atoare 1520
actuale 1520
stabilitatea 1519
coruptiei 1519
discutat 1519
propunerile 1518
big 1518
limita 1517
legii 1517
energia 1516
british 1516
interes 1514
rise 1514
usor 1513
intreprinderi 1510
totul 1510
participat 1509
anual 1507
answer 1507
analiza 1506
session 1506
discussions 1506
shows 1505
giving 1504
sarcina 1503
minimum 1503
generale 1502
requires 1502
controlul 1499
s: 1499
follow 1499
reducere 1496
mondiale 1496
represents 1496
discutie 1494
grupuri 1494
thousands 1494
declaratii 1493
intrebari 1493
orasul 1491
statutului 1491
applied 1491
gaze 1490
clare 1490
beyond 1490
language 1490
maine 1489
sigur 1488
arilor 1488
reality 1488
sign 1488
sansa 1486
consecinta 1486
pachet 1485
refer 1485
regret 1485
banii 1485
opt 1485
sprijina 1484
opozitie 1483
deci 1480
cr@@ 1479
export 1478
reformele 1477
ak@@ 1477
(bih) 1477
speech 1477
e; 1475
factor 1475
discutam 1475
altele 1475
discutiilor 1474
van 1473
publicatiei 1472
bugetare 1471
chestiunea 1468
vi@@ 1468
inregistrat 1467
adoptata 1466
deschis 1466
culturale 1466
land 1465
ha@@ 1464
nature 1464
goals 1464
regiunile 1463
km 1462
erea 1461
dialog 1461
reducing 1461
usd 1459
pietele 1459
university 1459
ates 1459
9@@ 1458
structurale 1458
companiile 1457
anii 1457
combat 1456
implicate 1455
lumii 1455
calitatea 1454
irlanda 1454
greciei 1454
relatii 1453
atori 1453
improved 1452
raised 1450
conduce 1449
majoritate 1446
bucharest 1446
eliminarea 1445
george 1445
dez@@ 1444
limba 1443
investitiile 1442
activitati 1441
property 1441
organizatiei 1439
happen 1439
families 1438
measure 1437
recognise 1437
domnul 1436
absolut 1435
provocari 1435
atii 1435
politiei 1435
threat 1435
primi 1434
acela 1433
imm 1432
pkk 1432
india 1432
fortele 1432
asteptam 1431
hungary 1431
incheierea 1430
lost 1430
permita 1429
juridice 1429
colegii 1429
likely 1429
adresa 1428
growing 1428
sp@@ 1427
natura 1426
(various 1426
ourselves 1426
aj 1423
bancii 1422
dificil 1421
productia 1420
influence 1420
reforme 1419
300 1419
maintain 1419
(hu) 1417
arrest 1416
aspectele 1415
iraq 1415
(el) 1414
bilaterale 1413
macedonean 1413
stabilirea 1413
th@@ 1413
near 1413
online 1412
copenhagen 1412
equality 1412
vietii 1411
ability 1411
presei 1410
basescu 1410
represent 1410
saraciei 1408
fondului 1408
immigration 1407
ro@@ 1405
adecvat 1405
middle 1405
promis 1403
acordurile 1403
costurile 1403
ci@@ 1403
itatea 1403
degraba 1402
romaniei 1402
forum 1402
started 1402
copenhaga 1401
partidele 1401
fiscale 1401
dispute 1400
heard 1398
quoted 1397
allowed 1397
principala 1396
libertate 1395
nor 1395
commercial 1395
commitments 1395
concurenta 1394
bl@@ 1392
functie 1392
closely 1392
sitting 1391
scientific 1391
profit 1389
esentiale 1389
carry 1389
bulgariei 1388
centrale 1387
plant 1387
masurilor 1386
nation 1385
staff 1384
cause 1384
nimeni 1383
item 1383
targets 1383
reported 1383
problemelor 1382
gdp 1382
school 1381
activity 1381
failure 1381
anterior 1379
comertul 1379
programului 1378
proper 1378
elected 1378
test 1377
sides 1377
5% 1376
stabilite 1376
adopte 1374
av@@ 1372
ot@@ 1372
incepand 1371
ev@@ 1371
alimentare 1370
erau 1370
tunisia 1370
closer 1370
establishment 1370
fl@@ 1369
cuvantul 1368
gasi 1368
b 1368
approval 1368
nearly 1368
namely 1367
difficulties 1367
caruia 1366
aratat 1366
abil 1366
dificila 1366
grec 1366
ucraina 1365
nevoia 1365
abile 1365
pib 1365
ted 1365
pro 1364
speranta 1364
marii 1362
rapida 1362
unacceptable 1362
intended 1361
bi@@ 1360
puse 1359
complex 1359
alaturi 1359
functioning 1359
a; 1358
man@@ 1358
province 1358
attacks 1358
principiile 1355
adopta 1355
trust 1355
infrastructura 1354
nevertheless 1354
jovanovic 1353
monetary 1353
generala 1352
h 1352
cativa 1351
ting 1349
lucreaza 1348
sanader 1348
intrarea 1347
conclusion 1345
consideram 1344
vazut 1344
influenta 1344
larga 1344
propune 1343
greu 1343
boost 1343
sine 1342
ways 1341
vrea 1340
raportor 1338
impactul 1338
ura 1338
icty 1338
durata 1337
acts 1337
depinde 1336
europeans 1336
pacii 1335
vota 1335
patients 1335
speram 1333
acesti 1333
rest 1333
sarbe 1332
productie 1331
launched 1331
obligations 1331
mecanism 1330
ov@@ 1330
cererea 1330
declaration 1330
extindere 1329
realiza 1329
speaking 1329
continues 1328
anti@@ 1327
gul 1327
tine 1326
proiectului 1326
participarea 1326
supraveghere 1326
dorit 1326
strongly 1326
vad 1325
inaintea 1324
srebrenica 1324
esc 1324
seven 1324
armata 1323
su@@ 1323
multor 1322
libertatii 1322
propriile 1322
chamber 1322
achieving 1321
fr@@ 1320
disaster 1320
dpa 1319
site 1318
pericol 1318
akp 1318
$ 1318
comercial 1317
judicial 1317
involvement 1316
noted 1316
ob@@ 1315
ore 1314
dezbateri 1313
nucleara 1312
responsabilitate 1312
lea 1312
mele 1312
programe 1311
becoming 1311
atlantic 1310
co2 1309
latest 1308
study 1308
over@@ 1307
producers 1307
ocuparea 1306
asia 1306
dreptului 1306
transportul 1306
pakistan 1306
ly 1306
persons 1306
sef 1305
ex@@ 1305
dreptate 1305
origin 1303
recognition 1303
dea 1302
detine 1302
realizarea 1302
raspunsul 1302
round 1302
urmatoarele 1301
obiectivelor 1300
realitate 1300
.@@ 1300
tratat 1299
com@@ 1299
scazut 1298
afectate 1298
upon 1297
immediately 1297
gestiune 1296
minoritatilor 1296
partid 1296
af@@ 1296
practices 1296
acorde 1295
ni 1295
pescuit 1293
proteja 1293
le@@ 1292
refugees 1292
ism 1291
integrated 1291
directly 1291
majora 1290
gestionarea 1290
traficului 1290
child 1289
pierdut 1288
mediul 1287
efect 1287
(diverse 1286
secretarul 1285
datoria 1285
merita 1285
increasingly 1285
ocazia 1284
fosta 1284
copiii 1284
apa 1284
sapte 1283
protejarea 1283
urged 1283
comert 1282
path 1282
societatea 1281
customs 1280
dispozitie 1279
atia 1278
fall 1278
ant@@ 1276
existenta 1275
3% 1275
note 1274
diverse 1272
science 1272
board 1272
chance 1272
be@@ 1271
democrats 1271
procedurile 1268
spirit 1266
suma 1266
del 1266
terorismului 1265
elaborat 1265
knowledge 1264
lansat 1263
depus 1262
intamplat 1262
modern 1262
intai 1261
extinderea 1261
starting 1261
origine 1260
(ro) 1260
partner 1260
singur 1259
critical 1259
mechanisms 1258
progres 1257
ac 1257
respecte 1257
submitted 1257
trial 1257
guvernele 1256
ist 1256
persoana 1255
followed 1255
privitoare 1253
iz@@ 1253
republicii 1253
comunitar 1253
highest 1253
nordul 1252
eight 1252
haiti 1251
globalisation 1251
tarziu 1250
muntenegrului 1250
setting 1250
schimbare 1249
alimentara 1248
pozitive 1248
fighting 1248
tayyip 1246
ta 1246
substantial 1246
send 1246
developments 1246
recep 1245
ong 1245
ungaria 1245
parerea 1244
tell 1244
circumstances 1244
az@@ 1243
ridica 1243
gruevski 1243
sta 1243
constructive 1242
accordance 1241
primele 1240
semnificative 1240
normele 1240
propunerii 1239
votes 1239
ici 1238
recommendations 1238
cypriot 1237
operate 1236
depuse 1234
introduction 1234
territory 1234
emphasise 1234
convenit 1233
f 1233
propuse 1232
um@@ 1232
increderea 1232
agentiei 1232
ones 1232
operations 1232
planned 1232
rates 1232
recognised 1231
irii 1230
invest 1230
technologies 1230
raise 1230
normal 1229
investigation 1229
albanez 1228
aprobarea 1228
grava 1228
albaniei 1227
pr@@ 1226
require 1226
credem 1225
kosovari 1225
scale 1225
infiintarea 1224
alone 1224
trebuit 1223
spain 1223
ally 1223
gender 1221
parts 1221
sufficient 1221
stiinta 1220
cal@@ 1220
gaza 1219
bucuresti 1218
oficiali 1218
bloc 1218
damage 1218
respectiv 1216
natiunilor 1216
activ 1215
ta@@ 1215
mica 1215
transfer 1215
prioritatile 1214
cine 1214
energetic 1214
30% 1214
protocol 1213
ivo 1210
traditional 1210
medical 1209
ki 1209
masa 1209
thaci 1209
introduced 1209
consecintele 1208
camera 1208
respond 1208
deschiderea 1207
enter 1207
product 1207
corecta 1206
regulamentului 1206
sarba 1206
principalul 1206
evaluarea 1206
ity 1206
economii 1205
et 1205
connection 1205
doubt 1205
lower 1205
democratica 1204
premierul 1203
somajului 1203
domeniile 1202
traiesc 1201
to@@ 1201
worth 1201
smes 1201
preturilor 1200
aceleasi 1200
(lt) 1200
person 1198
began 1198
acele 1197
cre@@ 1197
sistemele 1197
ramana 1197
ja 1196
consolida 1195
reduced 1195
utilizate 1194
norme 1194
limited 1194
institution 1194
charges 1194
record 1193
corespunzator 1192
raspunde 1192
goes 1191
35 1190
straine 1190
sent 1190
precisely 1190
subliniaza 1189
umane 1189
balcanii 1189
separate 1188
parere 1187
southern 1187
seriously 1187
cor@@ 1186
concept 1186
min@@ 1184
risks 1184
reformelor 1183
dialogul 1183
biggest 1183
ridicate 1182
igor 1182
series 1181
scope 1181
consumatorii 1180
activitate 1179
town 1179
income 1179
positions 1179
provision 1179
creat 1178
liberal 1178
yugoslavia 1178
vedem 1177
caror 1176
mesaj 1176
target 1176
ra@@ 1175
exercitiu 1175
demonstrat 1175
cap 1175
specifically 1175
bodies 1175
directorul 1174
king 1174
politics 1174
duty 1173
ko 1172
forms 1172
etnice 1171
ratko 1171
secure 1171
seek 1171
libya 1171
orasului 1170
mutual 1170
assembly 1170
mon@@ 1169
competenta 1168
yes 1168
iu 1167
faced 1167
bazeaza 1166
ocazie 1165
spanish 1165
planning 1165
guvernanta 1164
resolve 1164
tabled 1164
highly 1164
legislativ 1163
victime 1162
10% 1161
ppe 1161
car 1161
managed 1161
mil@@ 1160
societate 1159
19@@ 1159
criteriile 1157
ramas 1157
1992 1156
linked 1156
territorial 1156
adus 1154
prevention 1154
reale 1153
average 1153
helping 1153
obtinerea 1152
electoral 1152
des@@ 1152
albanians 1152
evidence 1152
evita 1151
vorbit 1151
operational 1151
consensus 1151
turci 1149
contine 1148
mandat 1148
serios 1147
aparare 1147
sprijine 1146
youth 1146
problemei 1145
extent 1145
schimbari 1144
partide 1144
bid 1144
anta 1143
counterpart 1143
elaborarea 1142
mentinerea 1142
ad 1141
asta 1141
integrarii 1140
dr@@ 1140
des 1140
immediate 1140
spent 1140
bulgar 1139
sanctions 1138
confruntam 1137
terrorist 1137
issued 1137
manner 1136
oc@@ 1136
informare 1135
works 1135
stressed 1135
paper 1135
obviously 1134
crize 1133
natiuni 1133
improvement 1133
solana 1132
rezolutiei 1132
legislatie 1132
roman 1132
consultati 1131
differences 1131
id@@ 1130
bringing 1130
gives 1130
spera 1128
civila 1128
deputatii 1128
participate 1128
exprim 1127
s; 1127
altii 1126
ri@@ 1126
interior 1126
deplina 1125
punem 1125
zonei 1125
outcome 1125
serviciul 1124
citat 1124
om 1124
strict 1123
industriei 1123
membra 1123
structures 1123
burden 1123
presupune 1122
students 1122
sustinerea 1121
impune 1121
schimba 1120
figures 1120
fond 1119
berisha 1119
ground 1119
migration 1119
remember 1118
electricity 1118
spending 1118
constant 1117
prezentate 1117
contract 1117
vreme 1116
properly 1116
speciale 1115
alimente 1115
balanced 1115
medicale 1114
demands 1114
petrol 1113
rezolutii 1113
legi 1113
oral 1113
aflate 1112
uk 1112
protecting 1112
accepta 1111
york 1111
numerous 1111
ongoing 1111
legata 1110
relationship 1110
seeking 1110
ponte 1109
simple 1109
leadership 1109
forced 1108
ties 1108
meps 1108
produs 1107
atul 1107
kosovar 1107
valorile 1107
disponibile 1106
facilitate 1106
puternice 1105
valori 1104
dorinta 1104
adequate 1104
olli 1103
animal 1103
mainly 1103
promova 1102
i: 1102
obama 1102
strasbourg 1100
mobile 1099
continued 1099
vojislav 1098
asociere 1097
liberalisation 1097
rapporteurs 1097
int@@ 1096
considerat 1095
raman 1095
enta 1095
50% 1095
ziua 1095
voice 1095
payments 1094
sanatatea 1093
afghanistan 1093
happened 1093
permis 1092
ren@@ 1091
attack 1091
rog 1090
stiti 1090
discharge 1090
propria 1089
angajament 1089
strategii 1089
parcursul 1088
table 1088
belgradul 1088
supervision 1088
albanezi 1087
me@@ 1087
wrong 1087
stie 1086
practici 1086
tehnice 1086
bucura 1086
tineri 1086
col@@ 1086
poland 1086
tinerilor 1085
corespunzatoare 1085
efectele 1085
incercat 1085
gu@@ 1085
lider 1084
administratia 1084
um 1084
journalists 1084
companiilor 1083
demonstreaza 1083
cerintele 1082
professional 1082
saturday 1082
ferm 1081
safe 1081
passengers 1080
uitam 1079
irish 1079
finala 1078
standardelor 1078
mat@@ 1078
summer 1078
str@@ 1077
purpose 1077
passed 1077
minute 1076
pachetul 1076
regiunii 1075
carui 1074
adding 1074
dealing 1074
conclusions 1074
puterea 1073
can@@ 1073
tv 1073
competente 1072
mandatul 1072
coordonare 1072
views 1072
piete 1071
via 1071
compared 1071
hit 1070
summitul 1069
per@@ 1069
recunoscut 1068
sambata 1068
aeriene 1068
no@@ 1068
misiunea 1068
militara 1067
rezolva 1067
textile 1067
negotiating 1067
conflicts 1067
principiu 1066
sar@@ 1066
prosecutor 1066
expression 1065
published 1065
conturi 1064
raportorul 1064
fi@@ 1064
budgets 1064
arrested 1064
firm 1064
practical 1064
prevenirea 1063
iau 1063
ulterior 1063
monitorizare 1063
democratia 1062
excelenta 1062
80 1062
elements 1062
mentine 1061
atiile 1061
singurul 1061
confirmed 1061
serve 1061
mal@@ 1060
&amp; 1060
type 1060
equipment 1060
continuing 1060
ati@@ 1058
atorii 1058
anumitor 1057
sprijinirea 1056
organizatia 1056
black 1056
discussing 1056
textul 1055
lo@@ 1055
stated 1055
40% 1054
troops 1054
spania 1053
body 1053
supports 1053
whom 1053
cl@@ 1052
probably 1052
freedoms 1052
organizatii 1051
informat 1051
itatii 1051
easy 1051
crima 1050
vine 1050
juridica 1050
presence 1050
informatiile 1049
amendamente 1049
responsabil 1049
proceduri 1049
protest 1048
sursa 1047
fortelor 1047
functionarea 1046
te@@ 1046
revizuirea 1045
1990 1045
add 1045
renewable 1045
rejected 1045
companiei 1044
guarantees 1044
partile 1043
ver@@ 1043
bal@@ 1043
overcome 1043
gotovina 1042
sprijinit 1042
functioneaza 1042
conclude 1042
reflecta 1041
celui 1041
reprezenta 1041
moneda 1040
penal 1040
aderarii 1040
precedent 1040
mobility 1040
a) 1039
guvernamant 1039
recunoasterea 1039
ut@@ 1039
exist 1039
noilor 1038
prezinte 1038
stabili 1038
suficiente 1038
(sk) 1038
eforturilor 1037
investitiilor 1037
inteleg 1037
solicitam 1036
oficiala 1036
comments 1036
solidaritatea 1035
pi@@ 1035
proiectele 1034
slobodan 1033
repede 1033
locurile 1033
grupurile 1032
impiedica 1032
adecvata 1032
mo@@ 1032
investors 1032
moartea 1031
gar@@ 1031
performance 1031
presus 1029
dovedit 1029
centru 1028
acp 1028
he@@ 1028
attempt 1028
asking 1028
granted 1028
privatisation 1028
sexual 1027
cabinet 1026
worked 1026
forget 1026
consideration 1026
implicarea 1025
pozitiva 1025
domnului 1025
unice 1025
omologul 1024
ilegale 1024
emisiilor 1024
ministrii 1022
and@@ 1022
wide 1022
speaker 1022
tii 1021
irea 1021
bugetar 1021
cover 1021
barbati 1020
istoria 1020
respective 1020
do@@ 1020
monitor 1020
recente 1019
trece 1019
poporul 1019
directe 1019
acordarea 1018
speciala 1018
crede 1018
charter 1018
ise 1017
nabucco 1017
individuale 1016
amendamentele 1016
atorilor 1016
nine 1016
welcomed 1016
voters 1016
acea 1015
solutionarea 1014
choice 1014
armed 1014
anything 1014
abila 1013
ene 1013
religioase 1013
source 1013
convinced 1013
noului 1012
mi@@ 1012
cipru 1012
instrumentele 1012
ance 1012
puteti 1011
indeplinirea 1011
poporului 1011
mijlociu 1010
ane 1010
respins 1010
buildings 1010
described 1010
guidelines 1010
tackle 1010
ajunga 1009
rapoarte 1009
lucratorii 1009
ter@@ 1008
conditiilor 1008
conducted 1008
2% 1007
diferitele 1007
tinerii 1006
banking 1006
understanding 1006
plants 1005
addressed 1005
similare 1004
tema 1004
incheia 1003
macar 1003
bat@@ 1003
healthcare 1003
libia 1002
400 1002
dus 1001
victimelor 1001
oportunitati 1000
risc 1000
animalelor 999
activitatii 999
operating 999
restul 998
putting 998
killed 998
recunoaste 997
n 997
cer 997
currency 997
azi 996
deciziile 996
elemente 996
acquis 996
programele 995
vointa 995
voturi 995
contribuit 994
est@@ 994
1% 994
intervention 994
podgorica 993
jucat 993
djindjic 993
luka 993
ings 993
scrise 992
for@@ 992
island 992
sometimes 992
institute 991
situations 991
stronger 991
regimului 990
binding 990
1,@@ 989
propose 989
britanie 988
beneficia 987
maximum 986
japan 986
shared 986
meetings 986
structure 986
emergency 986
pietelor 985
changed 985
intalnire 984
islamic 984
accounts 984
transition 984
otherwise 984
atiilor 983
celei 983
lansarea 983
z 983
auditors 983
indeplini 982
stable 982
ceha 981
anyone 981
hopes 980
montenegrin 980
x@@ 979
armatei 979
oare 979
res@@ 979
oportunitate 978
dezvolta 978
went 978
mesic 977
auzit 977
portugal 977
vulnerable 977
violations 977
culturii 976
uneori 976
swedish 976
eti 975
destinate 975
west 975
african 974
ambassador 974
responsibilities 974
affect 974
ing@@ 973
electronic 972
offered 972
intalnirea 971
contributie 971
cheltuielile 970
agricola 970
granita 970
reprezentantul 970
altfel 970
aerian 970
la@@ 970
4% 970
speed 970
permit 969
contributia 969
revizuire 968
val@@ 968
happy 968
imports 968
getting 968
inceapa 967
mis@@ 967
republika 967
fraud 967
obtina 966
inteles 966
win 966
sustinem 965
rau 965
launch 965
unable 965
posibile 964
avertizat 964
traficul 964
signal 964
aliantei 963
za 963
membrilor 963
valoarea 962
allowing 962
exercise 962
stabilisation 962
dem@@ 961
ocupa 961
negociere 960
alianta 960
aflam 960
preveni 960
scara 960
century 960
prison 960
radical 959
produced 959
deosebita 958
70 957
orientul 957
ente 957
drumul 957
papandreou 957
heads 957
analysis 957
devine 956
larg 956
confirmat 956
opozitia 956
ous 956
thought 956
inclusion 956
accident 955
dificultati 955
indeplineasca 955
vreau 955
plata 955
hours 955
employees 955
activitatilor 954
acordata 953
sisteme 953
privat 953
fer@@ 953
broad 953
efectuate 952
palestinian 952
crimei 951
deschisa 951
directie 951
r 951
6% 950
sute 950
ieri 950
polonia 950
continuarea 949
circulatie 949
educatiei 949
ideas 949
regulatory 949
organizatiile 948
stockholm 948
rurale 948
incep 948
ministerului 948
pension 948
evenimentele 947
-@@ 947
evenimentul 947
pipeline 947
focused 947
18@@ 946
har@@ 946
dec@@ 946
pre 946
sistemelor 945
numarului 945
individuals 943
totala 942
(sv) 942
mentionez 942
completed 941
sprijinim 940
emis 940
semnificativa 940
fear 939
taxe 937
organizarea 937
neighbouring 937
atiei 936
dificile 936
joaca 935
als 935
semnal 935
castiga 934
communist 934
presidential 934
obligatia 933
exprima 933
intregul 933
severe 933
10) 932
moving 932
estimated 932
suffering 932
pregatita 931
implicati 931
dayton 930
protectiei 930
candidates 930
concluded 930
partenerii 929
sk@@ 929
urmatoarea 929
desfasoara 929
annan 929
exactly 929
colleague 929
kar@@ 928
inchisoare 928
reprezentat 927
durabile 927
considerable 927
1@@ 926
determina 926
bil@@ 926
ded 926
constienti 925
ashdown 925
2014 925
became 925
yugoslav 925
thinking 925
bazata 924
sch@@ 924
amendamentul 924
ho@@ 924
ks 924
ended 924
ans 922
unic 921
mic 921
s) 921
reading 921
gave 921
limit 920
atinge 919
ig@@ 919
reglementari 919
experti 918
victimele 918
ecologice 918
released 918
bu@@ 916
ban@@ 916
continent 916
urge 916
planului 915
provocare 915
construirea 915
front 915
efort 914
seara 914
ru@@ 914
weapons 914
grav 913
subiectul 913
informed 913
aveti 912
resolved 912
completa 911
stabilizare 911
noii 911
pretul 911
networks 911
heart 911
promotion 911
abroad 911
protected 911
criterii 910
animals 910
consens 909
violentei 908
dezbaterii 908
colegilor 907
finantelor 907
comunitare 907
hear 907
significantly 907
placed 907
cate 906
go@@ 906
don 906
truly 906
built 906
reduse 905
og@@ 905
interested 905
warned 905
egypt 905
e) 904
deschide 904
heritage 904
devreme 904
urban 904
ent@@ 903
razboiului 903
up@@ 903
ge@@ 903
offers 903
statistics 903
signing 903
alde 902
traffic 902
militar 901
mitrovica 901
defend 901
ir 900
ohrid 900
urmat 900
cur@@ 899
sensitive 899
expenditure 899
negativ 898
pe@@ 898
(aplauze) 898
urmatorii 898
atingerea 898
tratament 898
raportorului 897
consistent 897
formarea 896
publicat 896
sarbii 895
premiul 895
inaltul 895
(applause) 895
practic 894
appeal 894
constructia 893
acuzat 893
itati 892
evenimente 892
consecinte 892
competitivitatea 892
intreb 892
ultimately 892
riscul 891
149 891
schimbul 891
honourable 891
ai@@ 890
obtain 890
deputatilor 889
plati 889
stream 888
conflictului 888
capitala 888
radovan 888
apara 887
aj@@ 887
09) 887
qu@@ 887
reguli 886
respectiva 886
autoritatea 886
8% 886
independentei 886
eveniment 886
millions 886
regimul 885
merge 885
ez@@ 885
mark 885
vehicles 885
places 885
inchisa 884
useful 884
enforcement 884
arme 883
preturile 883
interese 883
reaching 883
chairman 883
trai 882
150 882
creeaza 882
strainatate 882
iile 882
conventia 882
continuam 882
file 882
remind 882
bosniac 881
tranzitie 881
(ec) 881
accepted 881
lungul 880
grupurilor 880
restrictions 880
folosite 879
putine 879
serviciu 879
ce@@ 879
legale 879
tion 879
executive 878
involving 878
greatest 878
tool 878
contrary 878
2,@@ 877
incheie 877
spatiul 877
compliance 877
easier 877
bosniei 876
intregii 876
ative 876
fiscala 876
facilities 876
decades 876
tina 875
temeiul 875
exports 875
studiu 874
ilegal 874
gestionare 874
out@@ 874
judiciary 874
content 874
partidelor 873
vechi 873
egalitatea 873
incercam 873
airlines 873
solve 873
vision 872
release 872
actioneze 871
publicului 871
expertii 871
danube 871
evaluation 871
joined 871
range 871
por@@ 870
incerca 870
consumatori 870
port 869
mas@@ 869
profesionala 868
redus 868
decisive 868
obligation 868
peaceful 867
estul 866
alineatul 866
votului 866
documentul 866
spori 866
prospects 866
requirement 866
stricte 865
award 865
easca 864
animale 864
producatorii 864
intrat 864
ministrului 864
utilizarii 864
hundreds 864
guvernare 863
eni 863
frontex 863
tomislav 862
vin 862
leg@@ 862
bad 862
phase 862
administratiei 861
combatere 861
disasters 861
neighbourhood 860
adaugand 859
0@@ 859
tar@@ 859
locala 859
ko@@ 859
tehnologii 858
costurilor 858
sanctiuni 858
adopting 858
convins 857
del@@ 857
genuine 857
imposed 857
factors 857
sufera 856
vara 856
candidat 856
reusi 856
iri 856
oase 855
sal@@ 855
nevoile 855
played 855
procedurii 854
deloc 854
obligatiile 854
ay@@ 854
neither 854
straini 853
kurdish 853
impuse 852
afacerilor 852
net 852
salutat 852
sectoare 852
beneficii 851
irak 851
constitutionale 850
deputat 850
conditie 850
actualul 850
facilita 850
stay 850
extend 850
opposed 850
incuraja 849
regiunilor 849
afganistan 849
safeguard 849
mentionate 848
abdullah 848
please 848
vorbesc 847
principale 847
got 847
oficiale 847
reference 847
adjustment 847
punctele 846
monitorizarea 846
iv@@ 846
inc@@ 846
criticism 846
joining 846
idee 845
intern 845
senior 845
neighbours 845
comply 845
ast@@ 844
word 844
taxa 843
ian 843
atrag 843
delay 843
plenary 843
greci 842
provocarile 842
medicala 842
highlight 842
japonia 841
reprezentanti 841
eficientei 841
loss 841
claims 841
planurile 840
sporirea 840
desfasurat 839
ev 838
luata 838
sejdiu 838
secret 838
allows 838
scheduled 838
modalitate 837
atins 837
reporters 837
consumption 837
loans 837
instance 837
dangerous 837
conducerea 836
visited 836
sunteti 835
mana 835
reuniunea 835
bh 835
of@@ 835
debates 835
07) 834
afectat 834
belgian 834
lucram 833
adica 833
pan@@ 833
lines 833
pro@@ 832
rightly 832
cheltuielilor 831
rel@@ 831
realizate 831
mor@@ 830
judiciar 829
garanteze 829
envoy 829
improvements 829
potentialul 828
id 828
politicienii 828
gl@@ 828
happening 828
option 828
yesterday 828
incluse 827
(cs) 827
format 827
creeze 827
festivalul 827
totalitate 827
acordam 827
spunem 826
refugiati 826
condusa 826
folosit 826
dragan 826
dodik 826
holding 826
inapoi 825
agriculturii 825
dezvoltate 825
voa 825
schools 825
peoples 825
vrem 824
idei 824
concurentei 824
stabileasca 823
aborda 823
angajati 823
calitatii 823
functia 823
verde 823
cities 823
advantage 823
uc@@ 822
populatie 822
bosniaci 822
electrice 822
partial 822
incident 822
colegi 821
disease 821
dimension 821
thereby 821
nr 820
pas@@ 820
payment 820
recenta 819
metoda 819
bancile 819
else 819
correct 819
indica 818
atorul 818
partener 818
echilibru 818
vina 818
foundation 818
analysts 818
fo@@ 817
economiile 817
hal@@ 817
ansamblu 817
studies 817
drawn 817
soldiers 817
stabileste 816
pensii 816
ef@@ 816
(fi) 816
regatul 815
welfare 814
contains 814
revision 814
vecinatate 813
ciprului 813
stirile 813
participe 813
tim@@ 813
lies 813
commander 813
enormous 813
officers 813
spatele 812
controls 812
respected 812
integrate 811
mandatului 811
vizitat 811
strategice 811
pen@@ 810
abuse 810
primarily 810
remaining 810
causes 809
inv@@ 808
actiunea 808
utilizat 808
ski 808
portugalia 807
stabilitatii 807
flexibility 807
immigrants 807
sustainability 807
faza 806
djukanovic 806
presiuni 806
1998 806
7% 806
ve 806
regular 806
umanitar 805
indeaproape 805
intereselor 805
sali 805
campania 805
2.@@ 805
ombudsman 805
coordinated 805
9% 804
afecta 804
redresare 804
fish 804
1991 803
05) 803
inovare 802
itor 802
sport 802
britain 802
documente 801
crvenkovski 801
ak 801
methods 801
determination 801
stransa 800
transfrontaliere 799
j 799
lu@@ 799
original 799
citizen 799
furnizarea 798
gain 798
awareness 798
finding 798
credibility 798
cuts 798
actiona 797
chestiunile 797
hands 797
rezolvarea 796
adresez 796
(ce) 796
semnarea 796
muslim 796
apararea 795
discursul 795
ber@@ 795
cop@@ 795
paragraph 795
charge 795
cercetarea 794
etapa 794
bucur 794
informatiilor 793
fine 793
structura 793
relevante 793
prioritati 793
sis 793
expert 793
tried 793
3,@@ 792
comise 792
independente 792
educational 792
loan 792
determined 792
believes 792
acceptable 792
taxes 791
encouraging 791
coordonarea 790
08) 790
tone 790
olympic 790
manage 790
conduct 790
accused 790
primeasca 789
datele 789
ling 789
fail 789
ised 789
vladimir 788
normelor 788
bear 788
considerabil 787
transportului 787
associated 787
anniversary 787
enti 786
critica 786
are@@ 786
11) 786
details 786
sports 786
preventing 786
suggested 786
80% 785
termeni 785
barriers 785
urmatoare 784
fatmir 784
cazurile 784
ovski 784
innovative 784
participants 784
personally 784
viitorului 783
tur@@ 783
sl@@ 783
teroriste 782
balcanice 782
fin@@ 782
descarcarea 782
sur@@ 782
voiced 782
principii 780
combate 780
trans@@ 779
amenintare 779
egal 779
distribution 779
impactului 778
armate 778
ajustare 778
reduca 777
christian 777
companie 776
threats 776
opozitiei 775
tribunalului 775
department 775
sovereignty 775
stiintifice 774
mijloacele 774
sound 774
includa 773
ecr 773
tin 773
coruptie 773
method 773
baroness 773
reconstruction 773
ajute 772
topic 772
ceremony 772
fulfil 772
sedintei 771
eliminate 771
democratilor 771
educatia 771
criticat 771
split 771
loc@@ 771
drug 771
expectations 771
fuel 771
alegerea 770
cineva 769
trimis 769
elimina 769
eg@@ 769
imbunatatire 768
sec@@ 768
shadow 768
viza 767
procedurilor 767
inalta 767
prepare 767
worst 767
pointed 767
obvious 767
pregatit 766
cunoscut 766
cifra 766
globalizare 766
acordurilor 766
netherlands 766
serviciului 765
strategica 765
tions 765
sigurantei 764
agentii 764
angajamentele 764
designed 764
effectiveness 764
attended 764
learn 764
programelor 763
bur@@ 763
dreapta 763
merkel 763
dau 763
pregatiti 763
locurilor 763
obstacles 763
rompuy 762
dincolo 762
fundamentala 762
na 761
britanic 761
pusa 761
entity 761
referred 761
impossible 761
primului 760
solicitarea 760
exprimare 760
lunga 760
iceland 760
institutie 759
productiei 759
comunicare 759
90 759
vo@@ 759
accepte 759
anilor 759
arctic 759
insurance 759
lose 759
savings 759
defined 759
anumita 758
material 758
accesului 758
numit 758
definitely 758
astept 757
courts 757
croati 756
corecte 756
rec@@ 756
od@@ 756
droguri 756
chinese 756
space 756
(articolul 755
oferite 755
digital 755
atras 754
06) 754
gaz 754
hoop 754
prior 754
equally 754
mijloace 753
atrage 753
sosit 753
tu@@ 753
scena 753
transactions 753
modificari 752
incalcare 752
rea 752
treia 752
firmly 752
strategies 752
industrie 751
gaseasca 751
generally 751
processes 751
tic 750
explained 750
ceilalti 749
interesate 749
dimineata 749
paris 749
imagine 749
pat@@ 749
read 749
intr@@ 748
asigurari 748
reg@@ 748
plateasca 748
trading 748
exploitation 748
primary 748
faces 748
serioase 747
prevazute 747
frontiera 747
carei 747
misiunii 747
scheffer 747
federation 747
games 747
spoke 747
condition 747
explicat 746
sarace 746
concluziile 746
spatiu 745
acceptat 745
inter 745
paul 745
recommendation 745
incercarea 744
bush 744
punere 744
extreme 744
conducere 744
prosecutors 744
nefericire 743
swift 743
gener@@ 743
amendament 743
facuta 743
aduse 743
supravegherea 743
alizarea 743
enjoy 743
oras 742
succesul 742
intentia 742
componenta 742
votez 742
socialists 742
pensions 742
aplicate 741
acordate 741
forme 741
ence 741
waiting 741
represented 741
arestarea 740
rusiei 740
pret 740
under@@ 740
cauta 739
universal 739
strengthened 739
tests 739
declared 739
worse 739
proiectelor 738
inacceptabil 738
1.@@ 738
link 738
iugoslavie 737
legislativa 737
emisiile 737
anterioare 737
goran 737
art 737
historic 737
transmite 736
lucreze 736
cercetarii 736
iranian 736
reflect 736
taxpayers 736
demonstrated 736
includerea 735
angajat 735
electorale 735
es: 735
alleged 735
cap@@ 734
solutia 734
stiri 734
infrastructurii 734
tinand 734
ip@@ 734
lucratori 734
promised 734
contributions 734
facility 734
schimbat 733
gre@@ 733
du@@ 733
considerata 733
intreg 733
fe@@ 733
formal 733
ib@@ 733
cream 732
oferim 732
acel 732
responsabile 732
gh@@ 732
capable 732
ministri 731
incantat 731
(c@@ 731
demonstrate 731
pacientilor 730
dam 730
bugetara 730
stat@@ 730
descris 730
ds 730
tia 730
times: 729
25% 729
gaddafi 729
gasim 729
(rule 729
gasit 728
sel@@ 728
vat 728
addressing 728
linda 727
sporita 727
iti@@ 727
libere 727
mereu 727
vuk 727
identified 727
parliaments 727
modificare 726
ep 726
victory 726
numbers 726
liberalizarea 725
rad@@ 725
determine 725
base 725
actionam 724
ou@@ 724
permanenta 724
medicines 724
obligatoriu 723
ang@@ 723
industries 723
costuri 722
croata 722
gandim 722
changing 722
teren 721
au@@ 721
resolutions 721
existence 721
someone 721
diversity 721
adaugata 720
turned 720
rising 720
2015 719
considering 719
fostului 718
formare 718
ind@@ 718
proprii 718
garantarea 718
mid 718
procurement 718
extended 718
preparing 718
criticised 718
simt 717
responsabila 717
universitatea 717
claim 717
guaranteed 717
competitivitatii 716
deschise 716
folosi 716
adera 716
cuba 716
track 716
legaturi 715
disputa 715
90% 715
adere 715
60% 715
perfect 715
traian 715
ismul 715
turca 714
turism 714
lucrat 714
hertegovinei 714
bel@@ 714
collective 714
closure 714
ably 714
apropiat 713
itoare 713
izarea 713
opinie 713
civilian 713
degree 713
deciziilor 712
pedeapsa 712
vizitei 712
croate 712
ambasadorul 712
ase 712
jurul 712
600 712
sin@@ 712
excessive 712
parteneriatul 711
electricitate 711
gasirea 711
ari@@ 711
planuri 711
bunuri 711
declaratiile 711
prosperity 711
directives 711
nikolic 710
ary 710
crises 710
vorbi 709
pac 709
sugereaza 709
coerenta 709
turi 709
eau 709
surselor 709
card 709
morning 709
pass 709
intend 709
applies 709
reportedly 709
carta 708
rl 708
coasta 707
stanga 707
caracter 706
bazate 706
studii 706
declarand 706
skills 706
impose 706
statut 705
ter 705
intelege 705
intelegere 705
regim 705
comunicarea 705
urmareste 705
motivele 705
ete 705
atacuri 705
(october 705
figure 705
competence 705
duties 705
adresata 704
interiorul 704
solid 704
albaneze 704
th), 704
urgently 704
introducing 704
fac@@ 703
utilizare 703
ten@@ 703
modificarea 703
cancer 703
assess 703
divided 703
turismului 702
hashim 702
alocate 702
players 702
saracie 701
karamanlis 701
juca 701
suferit 701
ecologica 701
sol@@ 701
prize 701
carefully 701
adevarata 700
cars 700
covered 700
merely 700
acting 700
cerere 699
der@@ 699
organizatiilor 699
thirdly 699
pasagerilor 698
aur 698
consultation 698
parlamentar 697
ui 697
grant 697
scheme 697
allocated 697
bei 696
agricol 696
q@@ 696
explain 696
laid 696
eta 695
multumit 695
10@@ 695
keeping 695
vize 694
letter 694
implicat 693
aplice 693
conditia 693
3.@@ 693
playing 693
sarkozy 692
dialogului 692
inclus 692
form@@ 692
&apos;@@ 692
eurozone 692
agentiile 691
presiune 691
mesajul 691
redusa 691
rfe 691
55 690
lumina 690
fire 690
45 690
purposes 690
ngos 690
inregistrate 689
penalty 689
treaties 689
depuna 688
campanie 688
04) 688
industriale 688
regenerabile 688
aparut 688
atac 688
20@@ 688
temporary 688
myself 688
parents 688
profesionale 687
targeted 687
operators 687
judges 687
harmonisation 687
consta 686
acte 686
reformei 686
worldwide 686
saw 686
activa 685
procedura) 685
intention 685
legally 685
submit 685
helped 685
materials 685
comment 685
anumit 684
refugiatilor 684
250 684
repeat 684
arul 683
alternativa 683
cer@@ 683
comparatie 683
arta 683
contributed 683
showed 683
tva 682
par 682
referire 682
soldati 682
maintaining 682
stake 682
lucra 681
sugerat 681
sarbilor 681
identity 681
seem 681
coruptia 680
ova 680
insist 680
dimensiunea 680
pun 680
murder 680
prove 680
casa 679
niveluri 679
ph@@ 679
dan@@ 679
realise 679
housing 679
friendly 679
insemna 678
imbunatateasca 678
principiului 678
adauga 678
costa 678
truth 678
alisation 678
milorad 677
cuprinzatoare 677
doamnei 677
minim 677
mentioneaza 677
cul@@ 677
nivelurile 677
television 677
aviation 677
double 677
venituri 676
haideti 676
creasca 676
reliable 676
charged 676
suficienta 675
rapoartele 675
friends 675
reporterilor 674
conflictul 674
dezvolte 674
ut 674
church 674
biodiversity 674
adoptam 673
egipt 673
parteneri 673
son 673
entirely 673
leaving 673
promoveze 672
usa 672
ilegala 672
book 672
jeremic 672
collection 672
theatre 671
religion 671
emphasis 671
bill 670
sa@@ 670
pal@@ 670
remarks 670
condamnat 669
analizam 669
antonio 669
street 668
ocuparii 668
turcesti 668
runda 668
sets 668
employed 668
running 668
appear 668
transporturilor 667
regulile 667
sad 667
ay 667
alul 666
pledged 666
requested 666
exhibition 666
users 666
assist 666
milk 665
comisii 665
luarea 665
ini 665
oasa 665
tre@@ 665
highlighted 665
choose 665
concentreze 664
crearii 664
cu@@ 664
incalca 664
refuzat 664
rich 664
largely 664
arrived 664
import 663
arestat 663
spiritul 663
albaneza 663
deliver 663
ins 662
importanti 662
successfully 662
reasonable 662
finances 662
suggest 662
parlamentara 661
generate 661
san@@ 661
legitimate 661
technological 661
(march 661
biroul 660
efortul 660
finantarii 660
austerity 660
consolidate 659
recomandarile 659
erilor 659
desire 659
legat 658
joace 658
05; 658
arab 658
unless 658
lithuania 658
demanding 658
realitatea 657
70% 657
recunoastem 657
determinat 657
actiunilor 657
ser@@ 657
ical 657
dutch 657
belgium 657
compensation 657
historical 657
mentinere 656
ion 656
apart 656
balcanilor 655
efectuat 655
provocat 655
zero 655
drum 655
code 655
suffered 655
schimbarea 654
decenii 654
ach@@ 654
baltic 654
ment 654
asistentei 653
ingrijorare 653
obligatorii 652
brazil 652
division 652
professor 652
insista 651
concentram 651
ahmet 651
bancar 651
propriul 651
involve 651
tasks 651
adjunct 650
0.@@ 650
previously 650
deseurilor 649
publicul 649
sigure 649
mer@@ 649
contracts 649
w 648
internationali 648
sought 648
colaborare 647
banci 647
lectura 647
ics 647
(may 647
paying 647
(november 647
obtinute 646
procurorul 646
pol@@ 646
exceptional 646
viitoarea 646
room 646
06; 646
fast 646
danger 646
behaviour 646
diferita 645
(vot) 645
inovatoare 645
ep@@ 645
(vote) 645
eficace 644
punerii 644
executiv 644
bazat 644
drag@@ 644
postul 644
sfor 644
mecanisme 644
autoritati 643
fic@@ 643
emisii 643
federal 643
diplomatice 643
sustina 643
survey 643
honour 643
je 642
oz@@ 642
03) 642
korea 642
attitude 642
semn 641
familie 641
acasa 641
sudul 640
consolideze 640
assets 640
berlin 639
rele 639
zeci 639
heavy 639
whilst 639
depends 639
committees 639
teritoriala 638
apropiere 638
familiile 638
ants 638
labelling 638
includ 637
curent 637
decent 637
guvernelor 637
guvernamentale 637
proceedings 637
sovereign 637
dependenta 636
ni@@ 636
solicitare 636
discriminare 636
introdus 636
primesc 636
georgi 636
raspunda 636
dependent 636
save 636
brings 636
offering 636
interim 636
approximately 636
societati 635
egalitatii 635
judiciare 635
precise 635
politically 635
limits 635
stands 635
scadere 634
datoriei 634
beta 634
indu 634
pregatirea 634
languages 634
visas 634
tie 633
lideri 633
apar@@ 633
identify 633
pilot 632
decade 632
regardless 632
reamintesc 631
folosesc 631
geneva 631
incalcarea 631
specifica 631
branko 631
indicated 631
forthcoming 631
unfair 631
javier 630
ivan 630
infiintat 630
aduc 630
vamale 630
depune 630
deficitul 629
medi@@ 629
sc@@ 629
ambitios 629
electorala 629
gone 629
difference 629
perspectivele 628
politicieni 628
fur@@ 628
aduca 628
diferit 628
aza 628
transatlantic 628
comunitatilor 628
ordine 628
deep 628
registered 628
realistic 628
tourists 628
(debate) 628
tools 628
uz@@ 627
alitate 627
puteri 627
cipriot 627
sen@@ 627
luand 627
eib 627
34 626
provin 626
pactul 626
losses 626
suffer 626
ativa 625
depusa 625
eye 625
misiune 625
sigura 625
somajul 625
festivalului 625
ada 625
argument 625
push 625
entities 625
resulting 625
cuprinde 624
forte 624
ton 624
naturally 624
raising 624
opinions 624
med@@ 623
granitele 623
milan 623
malmström 623
800 623
monetare 622
furniza 622
progresele 622
multilateral 622
patr@@ 622
london 622
generation 622
standing 622
karadaku 621
votarea 621
tariceanu 621
felul 621
ri 621
football 621
died 621
menite 620
gap 620
modului 620
stock 620
municipalities 620
enhanced 620
ordinary 620
(dezbatere) 619
foloseasca 619
emerging 619
actively 619
clause 619
sweden 619
seeks 619
ajutorului 618
mentina 618
block 618
stations 618
isti 617
respectate 617
wi@@ 617
ju@@ 617
jos 617
ba 617
cerinte 617
sanse 617
alizare 617
15% 617
radic 617
treated 617
inchiderea 616
hotarat 616
hamas 616
reciproc 616
contrar 616
cetatean 616
07; 616
web 616
kovic 616
showing 616
holds 616
succeed 616
culturala 615
explica 615
centrului 615
trecere 615
poarta 615
gold 615
interesting 615
folosirea 614
prezentata 614
estimeaza 614
protests 614
imbunatatiri 613
esti 613
evenimentelor 613
rep@@ 613
res 613
flexible 613
break 613
attempts 613
officially 613
construi 612
continutul 612
concluzie 612
util 612
comunitati 612
reactie 612
willing 612
ically 612
centres 612
slovakia 612
tul 611
fa@@ 611
pacea 611
atului 611
proprietate 611
reglementarea 611
tendinta 611
diferitelor 611
beneficiaza 611
natasa 611
guantánamo 610
colegul 610
simplificarea 610
imprumut 610
factori 610
rurala 610
europol 610
inaintat 610
buy 610
register 610
commissioners 610
powerful 610
warning 610
saracia 609
garantii 609
efecte 609
scoala 609
author 609
fields 609
resolving 609
increases 609
museum 608
sort 608
extension 608
kingdom 608
resulted 608
dealt 608
regulate 607
stabilim 607
pierde 607
miscare 607
spokesman 607
aflata 606
oportunitatea 606
articolului 606
lasa 606
post@@ 606
inflation 606
subsidies 606
detailed 606
prim@@ 605
preconizeaza 605
intrerupt 605
stau 605
fiecarui 605
neagra 605
unilateral 605
supplies 605
wait 605
diseases 605
supuse 604
obstacol 604
audit 604
confirm 604
airport 604
isation 604
civilians 604
televiziune 603
progresului 603
asume 603
desfasurare 603
familiei 603
pozitii 603
ah@@ 603
massive 603
settlement 603
ality 603
mobilizarea 602
scopuri 602
cas@@ 602
beijing 602
ex 602
homes 602
dezastru 601
inaltului 601
cooperate 601
stance 601
(february 601
mostly 601
americane 600
diferenta 600
comitetului 599
evidenta 599
simpla 599
ash@@ 599
lin@@ 599
16@@ 599
gresit 599
francez 599
tinut 598
exclusiv 598
parvanov 598
tive 598
dramatic 598
reporting 598
becomes 598
genocide 598
purtatorul 597
tor@@ 597
ese 597
14@@ 597
120 597
village 597
impartasesc 596
respectul 596
documentele 596
constitutia 596
medicamente 596
complicated 596
violation 596
exclusion 596
transforma 595
atitudine 595
instituirea 595
conferintei 595
afectati 595
adresat 595
centr@@ 595
comerciala 595
size 595
(christian 595
sites 595
kept 595
examples 595
tele 594
orase 594
responsabili 594
vecine 594
oara 594
veni 594
arms 594
grounds 594
4.@@ 593
reuniune 593
cat@@ 593
iata 593
gen@@ 593
moral 593
totally 593
umana 592
considerate 592
priv@@ 592
learning 592
astepta 592
confirma 592
periculoase 592
speci@@ 592
manuel 592
door 592
interview 592
seats 592
deadline 592
directa 591
relatia 591
organizatie 591
sincer 591
é@@ 591
migrants 591
prezenti 590
guverne 590
veniturile 590
tipuri 590
violent 590
advance 590
minime 589
novi 589
opiniile 589
5.@@ 589
unity 589
restructuring 589
georgiev 588
sesiune 588
altceva 588
ft 588
istoric 588
ons 588
sharing 588
mayor 588
controversial 588
voluntary 588
(january 588
floor 588
sectoarele 587
ke 587
(june 587
judge 587
teama 586
prezidentiale 586
reciproca 586
sedinta 586
lucrarile 586
locali 586
anuale 586
ur 586
plays 586
owned 586
enhance 586
substances 586
salvare 585
cealalta 585
principiilor 585
ry 585
israeli 585
y: 585
links 585
ratification 585
brazilia 584
vicepresedintele 583
ambitioase 583
austeritate 583
interventie 583
acuzatiile 583
und@@ 583
asi@@ 583
forest 583
ators 583
ked 583
proposing 583
personale 582
competentele 582
structurile 582
handicap 582
retele 581
(bih), 581
recomandari 581
bancilor 581
implice 581
dovezi 581
1990s 581
dignity 581
spend 581
amounts 581
missing 581
appears 581
applying 581
stipe 580
excelent 580
observat 580
apropierea 580
drugs 580
promoveaza 579
alocat 579
declare 579
autor 579
imbunatatit 579
anticipate 579
carrying 579
partilor 578
povara 578
white 578
fourth 578
residents 578
abordam 577
interviu 577
reteaua 577
propusa 577
abia 577
seeing 577
negotiation 577
speculation 577
integrata 576
tehnica 576
valorilor 576
ram@@ 576
75 576
chosen 576
reconciliation 576
ca@@ 575
imediata 575
turismul 575
romani 575
sudan 575
sold 575
guaranteeing 575
coreea 574
mir@@ 574
15@@ 574
participating 574
suitable 574
martti 573
lajcak 573
ajungem 573
descoperit 573
700 573
ist@@ 572
04; 572
alzheimer 572
vulnerabile 572
hiv 572
moscow 572
rare 572
reject 572
prisoners 572
tiei 571
abtinut 571
obstacole 571
ferma 571
reduceri 571
(b@@ 571
comunitara 571
5,@@ 571
options 571
dura 570
belgradului 570
murit 570
saluta 570
legala 570
sit 570
(september 570
recession 570
meat 570
exercita 569
inf@@ 569
acopera 569
lituania 569
below 569
governing 569
approve 569
entered 569
firms 569
answers 569
imprumuturi 568
ingrijorarea 568
4,@@ 568
raportoare 568
maniera 568
bre@@ 568
interinstitutional 568
monedei 568
tem 568
uniform 568
chair 568
autonomy 568
viziune 567
creative 567
malta 567
ridicata 567
electronice 567
grateful 567
criminals 567
exploatarea 566
ge 566
niste 566
compar@@ 566
polish 566
cypriots 566
polls 566
involves 566
actor 565
false 565
fran@@ 565
socio 565
proved 565
organiza 564
her@@ 564
granting 564
spring 564
(april 564
species 564
suspects 564
termenul 563
macro 563
marine 563
doha 563
initiativele 563
jo@@ 563
texts 563
sri 562
valabil 562
17@@ 562
beneficieze 562
imigranti 562
i; 562
umanitare 562
pasi 562
woman 562
depend 562
sustinuta 561
sfera 561
granitelor 561
ch 561
refuza 561
exceptia 561
indictees 561
suplimentara 560
ug@@ 560
belgia 560
nastere 560
operatiunile 560
ras@@ 560
image 560
wing 560
delighted 560
electrica 559
estic 559
deciziei 559
acuzatii 559
grecesti 559
trimite 559
ocupare 559
ler 559
pic@@ 559
mediterana 559
depasi 559
serioasa 559
rail 559
river 559
surveillance 559
viol@@ 558
modelul 558
alegatorii 558
(n@@ 558
function 558
consequently 558
meant 558
alege 557
delegatia 557
celorlalte 557
opinii 557
iste 557
generalul 557
coopereze 557
banja 557
core 557
replace 557
night 557
felt 557
coalitia 556
referinta 556
perioade 556
transferul 556
comandantul 556
barnier 556
jocurile 556
acuzati 556
utilizeaza 556
consolidare 556
pescuitul 556
gazprom 556
telekom 556
6,@@ 556
evaluate 556
match 556
ships 556
remove 556
profund 555
x 555
coeziunea 555
beneficiul 555
alitatea 555
met@@ 555
ern@@ 555
spoken 555
definition 555
significance 555
missions 555
turning 555
numirea 554
verts 554
capacitatii 554
don@@ 554
interimar 554
0,@@ 554
yemen 554
the@@ 554
ities 554
intalniri 553
islanda 553
vremuri 553
iilor 553
coalitie 553
facand 553
prevederile 553
ute 553
camp 553
ages 553
inform 553
lastly 553
progressive 553
exists 553
host 553
nec@@ 552
atorului 552
suedia 552
tehnic 552
utiliza 552
strike 552
libertatilor 552
requests 552
news: 552
mobilisation 552
comitetul 551
subiecte 551
vizite 551
indicat 551
oppose 551
whatever 551
prevenire 550
tranzactiile 550
destinat 550
presiunea 550
maritim 550
grad 550
altul 550
pa@@ 550
erile 550
ors 550
justified 550
experienced 550
chain 550
leads 550
christians 550
privatizare 549
editie 549
trend 549
ending 549
universities 549
adevarul 548
rapide 548
aplicarii 548
summitului 548
tin@@ 548
qaeda 548
evening 548
unemployed 548
tal@@ 547
fil@@ 547
feed 547
examine 547
representation 547
integrity 547
rezistenta 546
discriminarii 546
metode 546
nic@@ 546
protejeze 546
iza 546
tan@@ 546
criteriilor 546
drawing 546
rezerva 545
atic 545
eliberarea 545
cheltuieli 545
talat 545
indeplinit 545
spread 545
proud 545
upcoming 545
pollution 545
atacurile 544
00@@ 544
wall 544
dispozitia 544
subsidiarity 544
valuable 544
inceperea 543
entei 543
presidents 543
himself 543
reuniunii 542
ou 542
enti@@ 542
provincia 542
salutam 542
buckovski 542
ms 542
scazute 541
personalului 541
extinde 541
marina 541
orii 541
music 541
1st 541
tensions 541
insula 540
preocuparile 540
bunastarea 540
conflictelor 540
esenta 540
preturi 540
sensul 540
reglementarile 540
egala 540
procesele 540
applications 540
entitled 540
reaction 540
imposibil 539
absenta 539
egalitate 539
tului 539
irile 539
latin 539
clean 539
advertising 539
receiving 539
votare 538
comunitate 538
tackling 538
happens 538
occurred 538
investeasca 537
grija 537
obicei 537
nivelului 537
bazeze 537
marked 537
comunitatile 536
ros@@ 536
producatorilor 536
slovacia 536
abordeze 536
ajutam 536
abstained 536
affecting 536
believed 536
atilor 535
reze 535
relativ 535
bul@@ 535
functioneze 535
egale 535
medie 535
65 535
mecanismul 534
hi 534
sincere 534
13@@ 534
ost@@ 534
viitoarele 534
kr@@ 534
absolute 534
player 534
born 534
types 534
institutul 533
abilitatea 533
p) 533
rezerve 533
ili@@ 533
(july 533
ends 533
tonnes 533
repetat 532
americii 532
(crestin 532
ker 532
arului 532
detalii 532
costul 532
raspunsuri 532
dimpotriva 532
suspended 532
located 532
riscuri 531
abordari 531
pofida 531
ek@@ 531
obligatorie 531
solidaritatii 531
specul@@ 531
ra 531
condemn 531
hearing 531
preluat 530
32 530
anuala 530
penale 530
club 530
ping 530
scurta 530
efectiv 530
(bg) 530
battle 530
(december 530
instanta 529
structuri 529
ivica 529
cotidianul 529
unesco 529
scandal 529
6.@@ 529
ness 529
section 529
obtinem 528
diferentele 528
acta 528
pres@@ 528
revenue 528
ought 528
parteneriatului 527
concentrat 527
opun 527
exemple 527
tiile 527
analistii 527
schulz 527
route 527
sitting: 527
healthy 527
marking 527
liderilor 526
firma 526
miroslav 526
oferta 526
syria 526
competent 526
bridge 526
nationals 526
intends 526
driving 526
costas 525
posibilul 525
nica 525
ment@@ 525
wealth 525
refused 525
representing 525
evalua 524
les 524
numita 524
evic 524
christofias 524
observa 524
amintim 524
experiencing 524
pursue 524
raportorilor 523
ke@@ 523
cruciala 523
fiu 523
ik@@ 523
liber@@ 523
stocks 523
promises 523
weak 523
romilor 522
tab@@ 522
garanteaza 522
ativ 522
36 522
transmis 522
proposes 522
refugee 522
detention 522
emphasised 522
negotiated 522
speakers 522
penalties 522
hel@@ 521
londra 521
istorie 521
echitabil 521
ska 521
served 521
supervisory 521
simplification 521
mother 521
wishes 521
operatiuni 520
boala 520
isa 520
tiilor 520
ol 520
carne 520
ard 520
achievement 520
communications 520
hence 520
define 520
multi@@ 519
trafic 519
aproba 519
joc 519
gal@@ 519
ham@@ 519
deosebire 519
rolului 519
realizeze 519
david 519
institutionale 519
latter 519
contributing 519
encouraged 519
constitutie 518
credibilitatea 518
micro 518
regretabil 518
van@@ 518
martie) 518
attend 518
failing 518
geographical 518
vecinii 517
promise 517
auto 517
star@@ 517
vis 517
trupele 517
telecom 517
blue 517
sell 517
stakeholders 517
satisfied 517
taxation 517
opune 516
finalizarea 516
comisarului 516
octombrie) 516
depline 516
starea 516
cont@@ 516
reprezentantilor 516
jean 516
indeplinite 516
threatened 516
smaller 516
referring 516
arrangements 516
introduse 515
responsabilitatile 515
ezi 515
hasani 515
cererii 515
protectionism 515
passenger 515
constantly 515
endorsed 515
agricultorii 514
alimentelor 514
down@@ 514
provocarilor 514
marile 514
marks 514
preparation 514
disposal 514
economiilor 513
eva 513
religioasa 513
flexibilitate 513
mijloc 513
cadrului 513
asociate 513
instrumentul 513
ying 513
widespread 513
financed 513
aside 513
vorbeste 512
sustinere 512
confruntat 512
bazele 512
izate 512
speeches 512
lasting 512
mit@@ 511
tratate 511
intelegem 511
tender 511
undoubtedly 511
names 511
optiune 510
organiz@@ 510
sus 510
violente 510
riscurile 510
intelligence 510
organise 510
engage 510
dairy 510
eventually 510
bancare 509
definite 509
9.@@ 509
proof 509
amending 509
easily 509
switzerland 509
lawmakers 509
profits 509
elsewhere 509
backed 509
familia 508
rob@@ 508
(ap 508
th 508
alism 508
exclusive 508
modernizarea 507
cartea 507
managing 507
din@@ 506
noiembrie) 506
25@@ 506
kon@@ 506
producatori 506
aflati 506
eri@@ 506
marketing 506
intellectual 506
(august 506
bearing 506
promovare 505
vmro 505
guardian 505
fenomen 505
congo 505
austrian 505
slow 505
careful 505
founded 505
increderii 504
echipei 504
petersen 504
societatile 504
reprezinte 504
48 504
lipsei 504
carte 504
tragic 504
courage 504
incidents 504
wider 504
personnel 504
cuvintele 503
plen 503
credite 503
armonizarea 503
obiectul 503
acknowledge 503
economically 503
jessen 502
recunoasca 502
sediul 502
adoptarii 502
constitui 502
pactului 502
principalii 502
transit 502
wage 502
negotiate 502
relatively 502
incentives 502
fabrica 501
var@@ 501
favorabil 501
inalte 501
facts 501
restore 501
arguments 501
struggle 501
indicted 501
assume 501
expects 501
australia 500
cererile 500
profunda 500
crimele 500
schimbe 500
ses 500
es; 500
appointment 500
seekers 500
macedonene 499
nis 499
tare 499
eu@@ 499
count 499
generations 499
modificarile 498
scoli 498
rap@@ 498
gandesc 498
eur@@ 498
pierderea 498
automobile 498
ohr 498
rezultatelor 498
foundations 498
unique 498
beneficiile 497
platilor 497
oricarei 497
concentra 497
politician 497
estonia 497
ela 497
brief 497
coherent 497
appointed 497
greatly 497
lessons 497
none 497
beneficial 497
proceed 497
sublinia 496
recunosc 496
vicepresedinte 496
legile 496
considerabile 496
zilei 496
putinta 496
tarie 496
hdz 496
echilibrat 496
orthodox 496
decline 496
assure 496
candidati 495
vi 495
afacerile 495
greaca 495
facilitarea 495
+ 495
5m 495
ists 495
losing 495
extending 495
rugova 494
detrimentul 494
democratii 494
tinta 494
nationalist 494
not@@ 494
bit 494
tilor 493
arestati 493
cereri 493
teritoriale 493
ble 493
carla 493
game 493
informal 493
bureaucracy 493
modernisation 493
indicators 493
madeira 492
detin 492
materiale 492
sive 492
euobserver 492
y; 492
expensive 492
greens 492
willingness 492
incercare 491
importurile 491
furnizate 491
sprijinului 491
apropie 491
stare 491
provocate 491
uman 491
ill 491
ding 491
expansion 491
signs 491
slabe 490
utilizeze 490
februarie) 490
esuat 490
consolidam 490
radioactive 490
nice 490
faceti 490
pozitiile 490
transparente 490
enabling 490
covering 490
possibilities 490
employers 490
succeeded 490
intensificarea 489
nobel 489
granitei 489
istorice 489
abordeaza 489
lov@@ 489
dor@@ 489
decisiv 489
uta 489
israelul 489
asigurare 489
cup 489
widely 489
units 489
drafted 489
acelor 488
parcurs 488
dificultatile 488
stimati 488
maghiara 488
ion@@ 488
tourist 488
farming 488
ila 487
jocurilor 487
dezbatem 487
calcul 487
concentrate 487
slovenian 487
hospital 487
doubts 487
sentence 487
roads 487
familii 486
robert 486
marca 486
delegatiei 486
exercitiului 486
accentul 486
productive 486
09; 486
student 486
all@@ 486
sending 486
knows 486
birth 486
33 485
ista 485
solutiona 485
detail 485
poorest 485
speaker) 485
insasi 484
adunarea 484
ambelor 484
familiilor 484
uti 484
respectarii 484
echo 484
adresate 484
top@@ 484
exprimate 484
ising 484
distanta 483
deseuri 483
taiwan 483
iul 483
toamna 483
aki 483
laura 483
oricine 483
1996 483
folosim 483
macedoneni 483
rome 483
operator 483
ignore 483
wto 483
houses 483
relatie 482
sti@@ 482
eni@@ 482
finante 482
ameninta 481
arate 481
cauzate 481
rus 481
retea 481
ula 481
43 481
libertatile 481
mai) 481
supreme 481
cam@@ 481
organism 481
angajamente 481
multiannual 481
removed 481
situat 480
initiala 480
puterii 480
prezentarea 480
imbunatatirii 480
ve@@ 480
ik 480
exit 480
obtained 480
electric 479
21st 479
favourable 479
credible 479
abordat 478
entele 478
ismului 478
hour 478
sion 478
formed 478
accompanied 478
salaries 478
euro@@ 477
invit 477
eti@@ 477
ls 477
dpmne 477
streets 477
nume 477
procurorii 477
preia 477
inchise 477
responsabilitatii 477
jumatatea 477
ped 477
check 477
citizenship 477
adapt 477
apar 476
asteptat 476
pregatite 476
ven@@ 476
autoritatii 476
constitutionala 476
omc 476
aspectul 476
societatilor 476
destruction 476
named 476
visits 476
1993 475
desfasura 475
industriala 475
unitate 475
alesi 475
angajatii 475
sw@@ 475
vanzarea 475
tra@@ 475
endorse 475
ambition 475
chapter 475
aud@@ 474
barcelona 474
durabil 474
intensifice 474
deseori 474
datoreaza 474
devin 474
mostar 474
capacitate 474
davutoglu 474
cel@@ 474
affects 474
newly 474
phenomenon 474
strength 474
deals 474
mc@@ 473
arestare 473
ridicarea 473
aplicat 473
borisov 473
vast 473
investing 473
indreapta 472
sexuala 472
conflicte 472
super@@ 472
adunarii 472
executia 472
kal@@ 472
ial 472
domnia 472
preventive 472
michael 472
soviet 472
moscova 471
formata 471
solutionare 471
bor@@ 471
septembrie) 471
100% 471
auto@@ 471
bas@@ 471
waters 471
embassy 471
visitors 471
collaboration 471
delays 471
initially 471
couple 471
stranse 470
discriminarea 470
alocarea 470
sf@@ 470
constructiv 470
atele 470
scaderea 470
ful 470
recomanda 470
tinem 470
inovarea 470
pozitiei 470
race 470
producing 470
preserve 470
actors 470
deeply 470
undertaken 470
olimpice 469
spaniola 469
ucisi 469
ie@@ 469
ger@@ 469
frontierele 469
mexico 469
counter 469
seat 469
female 469
amongst 469
listen 469
ori@@ 468
catch 468
interventia 468
cen@@ 468
august) 468
prevazut 468
elementele 468
secolul 468
siria 468
agentiilor 468
subliniem 468
ide@@ 468
ens 468
indictment 468
moved 468
tragedy 468
strans 467
permitem 467
multumita 467
corec@@ 467
concentreaza 467
viz@@ 467
inform@@ 467
gazelor 467
intensive 467
coal 467
confident 467
proportion 467
resource 467
sed 467
quarter 467
considers 467
mecanismele 466
specific@@ 466
software 466
luptei 466
constructie 466
instrumentelor 466
integral 466
dead 466
revenues 466
invited 466
inst@@ 465
flo@@ 465
lactate 465
clauza 465
dunarii 465
presedintie 465
alternativi 465
combined 465
platform 465
stefan 464
votam 464
oportunitatile 464
combaterii 464
actioneaza 464
personalul 464
nevoilor 464
lobby 464
initiate 464
absence 464
cutting 464
stiintifica 463
echilibrul 463
tate 463
libertati 463
alexander 463
restrictii 463
jose 463
mijlocul 463
transitional 463
drop 463
privitor 462
elvetia 462
evski 462
spatiului 462
manifest@@ 462
intarziere 462
legitimacy 462
constitute 462
maintained 462
concret 461
evaluari 461
transparentei 461
natiunile 461
apei 461
reaza 461
comentarii 461
redresarea 461
lay 461
sions 461
ises 461
contained 461
frauda 460
privata 460
comunist 460
cazurilor 460
kg 460
import@@ 460
critici 460
intregime 460
den@@ 460
noroc 460
tratamentul 460
determinarea 460
tat 460
extra 460
forests 460
repeatedly 460
prosecution 460
nonetheless 460
maternity 460
sales 460
favor@@ 459
arhiva 459
bulgari 459
josipovic 459
iunie) 459
mes@@ 459
imaginea 459
proprie 459
capabila 459
dinkic 459
drafting 459
mandatory 459
oficiul 458
incalcari 458
aferent 458
intrebarile 458
primavara 458
aliza 458
rom@@ 458
08; 458
weekend 458
preparations 458
causing 458
larger 458
invitation 458
headed 458
cursa 457
exporturile 457
zonelor 457
traditionale 457
tehnologie 457
ministrilor 457
jaap 457
vienna 457
uses 457
urging 457
functional 456
izare 456
consolidata 456
conferinte 456
salariile 456
bloomberg 456
cerinta 456
simplify 456
observers 456
verdict 455
inte 455
(s@@ 455
prioritatea 455
if@@ 455
incurajarea 455
reducerii 455
afectata 455
martin 455
precizat 455
monetara 455
condition@@ 455
ass@@ 455
societies 455
instability 455
allegedly 455
internationally 455
deaths 455
practicile 454
demonstra 454
primii 454
profesor 454
inculpati 454
paddy 454
constitutiei 454
rezolve 454
functiona 454
sume 454
opera 454
journalist 454
imported 454
sufficiently 454
cerem 453
aprilie) 453
tion@@ 453
vada 453
suveranitatea 453
dublin 453
izeze 453
aw@@ 453
freely 453
reflected 453
transferred 453
highlights 453
a), 452
der 452
fiecarei 452
consumul 452
nerabdare 452
afirmand 452
john 452
conce@@ 452
depasit 452
2050 452
egf 452
directed 452
supposed 452
possibly 452
democrata 451
autoritate 451
suspect 451
cehe 451
dati 451
competitivitate 451
contrast 451
debating 451
veniturilor 450
echilibrata 450
performanta 450
dist@@ 450
desfasurate 450
conflictele 450
hotararea 450
inside 450
afford 450
reprezentand 449
0 449
initiativei 449
iranul 449
urmarit 449
razboiul 449
pregatire 449
moderne 449
finale 449
version 449
contain 449
entering 449
destroyed 449
returned 449
negre 448
gata 448
modalitati 448
ali@@ 448
impresia 448
legilor 448
dnevnik 448
intense 448
provincie 448
retelelor 448
minoritati 448
ner 448
faith 448
concert 448
war@@ 448
portuguese 448
suspected 448
remained 448
shares 448
disputes 448
desfasurata 447
entii 447
st 447
sera 447
han 447
articol 447
port@@ 447
7.@@ 447
ic: 447
bulgare 447
flows 447
understood 447
ratified 447
amended 447
analyst 447
wine 447
demographic 447
acknowledged 447
suplimentar 446
cnn 446
trecem 446
diferente 446
extinderii 446
atitudinea 446
banilor 446
regula 446
praised 446
humanity 446
appreciate 446
icii 445
atata 445
numelui 445
milo 445
lupte 445
pasok 445
regenerabila 445
izat 445
izata 445
gi@@ 445
criminalitatii 445
sedere 445
firme 445
constructiva 445
12@@ 445
sun@@ 445
story 445
manufacturers 445
impression 445
features 445
railway 445
realizam 444
1989 444
parti@@ 444
inchis 444
dovedi 444
comm@@ 444
search 444
christmas 444
welcomes 444
shortly 444
propun 443
ianuarie) 443
moon 443
(12 443
ajutat 443
lasat 443
vieti 443
conventiei 443
clima 443
baroneasa 443
continuat 443
collapse 443
feeling 443
vreo 442
imp@@ 442
entitati 442
filmul 442
oferind 442
adriatic 442
municipality 442
olympics 442
closing 442
complaints 442
qualified 442
obliged 442
react 442
tehnologia 441
bugete 441
solida 441
spuna 441
olanda 441
multiple 441
logic 441
rescue 441
relates 441
implicare 440
uit 440
turisti 440
cifrele 440
incurajeaza 440
imigratia 440
frecvent 440
draskovic 440
ect@@ 440
echipamente 440
neg@@ 440
03; 440
amid 440
muslims 440
utmost 440
participated 440
(left) 440
patrulea 439
respectam 439
alitatii 439
minoritatile 439
voteze 439
retelele 439
zimbabwe 439
conduc@@ 439
restrictive 439
75% 439
mehmet 439
honest 439
offices 439
piece 439
tough 439
lanka 438
ancheta 438
abordate 438
salariilor 438
locuinte 438
limitat 438
dispozitiile 438
(p@@ 438
sporite 438
platit 438
fundament@@ 438
intample 438
liberties 438
regrettable 438
citing 438
invested 438
torture 438
connected 438
sala 437
inovarii 437
decembrie) 437
armenia 437
treaba 437
pierderi 437
emisa 437
privesc 437
ann@@ 437
extensive 437
focusing 437
deficits 437
wages 437
unprecedented 437
surely 437
identifica 436
albanezii 436
majoritatii 436
consolidat 436
asumat 436
mediapool 436
clinton 436
eufor 436
pragul 436
miscarea 436
ea@@ 436
extraordinary 436
populations 436
covers 436
mearga 435
comandant 435
discurs 435
(presedintele 435
anterioara 435
certainty 435
worrying 435
constanta 434
comentariile 434
incantata 434
itatilor 434
pun@@ 434
taxelor 433
controlului 433
intreprinse 433
locuitori 433
lovitura 433
comp@@ 433
books 433
ship 433
killing 433
finished 433
owners 433
victim 433
percentage 433
kosovare 432
investigate 432
transfrontaliera 432
sursele 432
macedoneana 432
conceptul 432
convingerea 432
10; 432
federatia 432
sem@@ 432
intele 432
acted 432
viable 432
expressing 432
artists 432
obstacle 432
commit 432
blocked 432
investigations 432
insulei 431
competitiva 431
angajatilor 431
depind 431
nik 431
37 431
viena 431
istorica 431
cuprinzator 431
ajung 431
cumpara 431
bro@@ 431
sexuale 431
grow 431
claimed 431
consent 431
dispozitii 430
jurnalistilor 430
incheiate 430
acuzare 430
sporit 430
europenii 430
intregului 430
fukushima 430
parlamentarii 430
memorandum 430
maritima 430
barrot 430
class 430
phone 430
picture 430
antul 429
extins 429
milion 429
scrisoare 429
socialistilor 429
public@@ 429
soci@@ 429
ciocoiu 429
reconstructie 429
latvia 429
competences 429
supporters 429
checks 429
garantie 428
bus 428
fotbal 428
ade 428
municipal 428
processing 428
somewhat 428
greeks 428
timely 428
bunurilor 427
muntenegrean 427
contribuabililor 427
explicit 427
diplomat 427
ya 427
jic 427
sarcini 427
taxele 427
hom@@ 427
sion@@ 427
indicate 427
redundant 427
helps 427
alise 427
command 427
insufficient 427
irregularities 427
indeosebi 426
c) 426
kosor 426
47 426
college 426
unions 426
dynamic 426
readiness 426
tells 426
headquarters 426
incepem 425
expozitie 425
respectat 425
protejate 425
mobilitatea 425
alizate 425
ets 425
nobody 425
falls 425
earthquake 425
uncertainty 425
essentially 425
separat 424
cifre 424
ilegali 424
parlamentele 424
risca 424
cladirilor 424
ces@@ 424
nicosia 424
incurajam 424
clarify 424
rapidly 424
repeated 424
eyes 424
scientists 424
occasions 424
organe 423
vujanovic 423
iune 423
extinsa 423
ocupe 423
aud 423
numarat 423
categorii 423
lan@@ 423
metri 423
indirect 423
website 423
substance 423
meets 423
undermine 423
solicite 422
organismele 422
00 422
penala 422
hotarare 422
itori 422
criminale 422
deschidere 422
stirilor 422
studiul 422
imigratiei 422
149) 422
efficiently 422
accessible 422
condemned 422
heading 422
advanced 422
conduca 421
voturilor 421
pachetului 421
linii 421
norm@@ 421
aderat 421
multianual 421
implementare 421
retelei 421
sex 421
ino 420
remarcat 420
ceku 420
organizeze 420
s), 420
elaboreze 420
interzice 420
cota 420
ation@@ 420
accent 420
ier 420
46 420
cladiri 420
broader 420
terrorists 420
patient 420
massacre 420
38 419
actiunii 419
datoriilor 419
dubla 419
pacific 419
stimulente 419
map 419
pillar 419
announcement 419
solved 419
noting 419
funded 419
greenhouse 419
glad 419
subsidiaritatii 418
perioadei 418
constructii 418
filme 418
firmele 418
supus 418
asociatia 418
(21 418
(1 418
utilizata 418
deb@@ 418
potentially 418
quick 418
revised 418
libyan 418
physical 418
declarations 418
privim 417
propunerilor 417
49 417
purtate 417
dezbaterile 417
urgente 417
pap@@ 417
ure 417
pasageri 417
opereaza 417
macroeconomic 417
accidents 417
retain 417
afraid 417
category 417
puts 417
prevederi 416
latina 416
psd 416
ivanovic 416
etc. 416
mur@@ 416
ida 416
turile 416
39 416
repet 416
(15 416
jointly 416
achievements 416
hoping 416
stabilita 415
alele 415
ucis 415
itare 415
ine@@ 415
calatori 415
opus 415
(28 415
ingrijoratoare 415
video 415
pacientii 415
stimul@@ 415
rus@@ 415
ivanov 415
pagina 415
english 415
sensible 415
folosita 414
irlandez 414
blerta 414
limitata 414
pir@@ 414
suedeza 414
locuiesc 414
ben@@ 414
consolidarii 414
belief 414
ambitions 414
items 414
discutate 413
americani 413
speculative 413
dar@@ 413
plan@@ 413
spunand 413
presedintii 413
depaseasca 413
constitu@@ 413
conduse 413
iere 413
facto 413
daniel 413
aparitia 413
veto 413
poll 413
ess 413
ownership 413
explanations 413
denied 413
boosting 413
argue 413
sake 413
ceara 412
kov@@ 412
imagin@@ 412
victoria 412
mac@@ 412
comunicat 412
boli 412
eventual 412
initi@@ 412
sing 412
fishermen 412
bureaucratic 412
annually 412
treptat 411
(6 411
(23 411
treaca 411
num@@ 411
efectelor 411
nat@@ 411
locului 411
sat 411
apelul 411
limitate 411
asteptarile 411
asigurat 411
erele 411
read@@ 411
admit 411
linie 411
topics 411
environmentally 411
controlled 411
discovered 411
meaning 411
newspaper 411
alongside 411
shortcomings 411
tangible 411
ecologic 410
uciderea 410
da@@ 410
greseala 410
vietile 410
tri@@ 410
smart 410
tradition 410
dolari 409
asasinarea 409
procent 409
ofiteri 409
pastra 409
dezastre 409
accord 409
looks 409
iraqi 409
gathered 409
urgency 409
introduca 408
uni 408
maxima 408
iulie) 408
urmeze 408
superior 408
vicepremierul 408
etnica 408
(h@@ 408
necessity 408
partnerships 408
flow 408
tem@@ 407
solvit 407
subliniind 407
privatizarea 407
disponibilitatea 407
asociatiei 407
ample 407
(f@@ 407
end@@ 407
patrimoniului 407
watch 407
limitele 406
interzicerea 406
studenti 406
biroului 406
procese 406
justifica 406
functionarii 406
are: 406
orasele 406
pregateste 406
fre@@ 406
compete 406
deserve 406
cited 406
inov@@ 405
vitala 405
intrebarii 405
evolutia 405
ici@@ 405
urmator 405
necesitatii 405
estimates 405
fairly 405
feroviar 404
actualei 404
finanta 404
na@@ 404
amintesc 404
foniqi 404
reding 404
ere@@ 404
42 404
1997 404
mentinem 404
identificarea 404
ek 404
engagement 404
democrats) 404
applicable 404
numeroasele 403
inconjurator 403
reactia 403
posibilitati 403
similara 403
referendumul 403
sim@@ 403
obiectivului 403
report: 403
reflects 403
10th 403
visiting 403
respects 403
convergence 403
talked 403
contra 402
bania 402
sil@@ 402
riv@@ 402
circumstante 402
spite 402
everybody 402
regimes 402
(17 401
41 401
intalni 401
escu 401
uci@@ 401
americana 401
nota 401
opoulos 401
rama 401
ciprul 401
arctica 401
flights 401
rely 401
contacts 401
creditelor 400
genocid 400
aprobata 400
ideal 400
reiterat 400
copilului 400
kic 400
merg 400
jazz 400
delegatie 400
dezvoltat 400
nikolovski 400
substante 400
d) 400
44 400
administratie 400
primeste 400
dumping 400
(rs) 400
movie 400
assessments 400
parallel 400
solely 400
kinds 400
lovit 399
armelor 399
inacceptabila 399
bugetele 399
exclude 399
existent 399
vari@@ 399
sto@@ 399
participare 399
aplicata 399
investitie 399
reunit 399
nastase 399
termin@@ 399
locuitorii 399
dispune 399
ats 399
coordinate 399
initiated 399
ously 399
ently 399
decida 398
organ 398
nes@@ 398
entelor 398
reuniuni 398
colectarea 398
privacy 398
5th 398
harmonised 398
unnecessary 398
telor 397
ratei 397
economici 397
aniversare 397
mu@@ 397
dj@@ 397
oper@@ 397
orul 397
prezentei 397
fragile 397
ty 397
wind 397
creates 397
consultations 397
conservarea 396
hol@@ 396
petr@@ 396
agricultorilor 396
mobilitate 396
sti 396
credeti 396
incurajeze 396
petrecut 396
(3 396
haradinaj 396
sdp 396
formul@@ 396
makfax 396
underline 396
intrebat 395
exemplul 395
reveni 395
sustinute 395
popescu 395
lit@@ 395
obligatii 395
vreodata 395
competentelor 395
hor@@ 395
asigur 395
transport@@ 395
tpii 395
formarii 395
tibet 395
naz@@ 395
prospect 395
luxembourg 395
thorough 395
foremost 395
defending 395
replaced 395
stabila 394
unitati 394
putina 394
adaug 394
revista 394
9,@@ 394
entul 394
complexe 394
real@@ 394
internetului 394
femeie 394
oficialilor 394
aparea 394
11; 394
station 394
brutal 394
viewed 394
proven 394
arrests 394
importantly 394
quotas 394
composition 394
intalnirii 393
stabil@@ 393
antii 393
musulmani 393
impus 393
interesati 393
desfasurarea 393
esec 393
riscului 393
finalizat 393
ement 393
fears 393
authorisation 393
protejam 392
coalitiei 392
umanitara 392
doriti 392
participantii 392
irakului 392
lev@@ 392
compromisul 392
reglementarilor 392
char@@ 392
chapters 392
purchase 392
usually 392
maternitate 391
evite 391
uita 391
jan@@ 391
catorva 391
dusan 391
inchei 391
insistat 391
operatiunea 391
patent 391
wake 391
coast 391
illegally 391
expense 391
inadequate 391
warrant 391
coopera 390
propriilor 390
absoluta 390
vestul 390
(9 390
investitorilor 390
gama 390
identitate 390
fat@@ 390
deocamdata 390
prelua 390
rezulta 390
undp 390
scene 390
blame 390
conservative 390
visible 390
reinforce 390
interpretation 390
agricultori 389
departamentul 389
substantiale 389
judiciara 389
expresie 389
usoara 389
babacan 389
incheiere 389
lansata 389
indic@@ 389
apele 389
crizelor 389
opri 389
cunoaste 389
regulated 389
donors 389
20th 389
peacekeeping 389
background 389
autumn 389
gambling 389
gue 388
ratificat 388
fermitate 388
amenintari 388
klaus 388
echitabile 388
kofi 388
ecolog@@ 388
parlamentari 388
raspundere 388
germana 388
resort 388
inclusive 388
harmful 388
begun 388
census 388
urg@@ 387
t: 387
finantate 387
ano 387
uti@@ 387
primarul 387
invatat 387
indeplinesc 387
revolution 387
suggests 387
floods 387
immunity 387
coastal 387
guilty 387
iat 386
gestionarii 386
cauzele 386
cancún 386
functionare 386
som@@ 386
repetate 386
tras@@ 386
ah 386
ath@@ 386
administrativa 386
arrangement 386
undertaking 386
propriu 385
7,@@ 385
(5 385
minut 385
optiuni 385
kol@@ 385
ceremonia 385
exercitiul 385
pan 385
ited 385
frequently 385
asuma 384
obliga 384
aje 384
oarecare 384
genera 384
cerintelor 384
comun@@ 384
vreun 384
backing 384
consolidation 384
fewer 384
imbalances 384
(29 383
inteleaga 383
victorie 383
ascultat 383
intei 383
intoarce 383
preocupari 383
capabili 383
zilele 383
maxim 383
nation@@ 383
programata 383
discipline 383
lie 383
ning 383
train 383
debated 383
reply 383
delivered 383
banned 383
stabilire 382
consum 382
lapte 382
explicatii 382
saraci 382
(8 382
supusa 382
oglu 382
transformarea 382
bloc@@ 382
sor@@ 382
prob@@ 382
sky 382
witness 382
occasion 382
tolerance 382
dependence 382
engaged 382
ered 382
mistakes 382
occur 382
ruled 382
fell 382
punishment 382
advice 382
platforma 381
realizata 381
bulgara 381
moderna 381
ena 381
istii 381
stimula 381
antilor 381
mainile 381
cauzat 381
feg 381
alizata 381
bol@@ 381
caracterul 381
telefonie 381
bos@@ 381
prominent 381
red@@ 380
investitorii 380
constient 380
cunosc 380
gazduit 380
preocupare 380
tom@@ 380
alizat 380
(27 380
rice 380
telecomunicatii 380
square 380
drive 380
constitutes 380
sentenced 380
moves 380
wrote 380
saving 380
amend 380
completion 380
facilitating 380
demonstrates 380
transportation 380
professionals 380
suggestions 380
prevented 380
buni 379
atlantica 379
uz 379
mag@@ 379
biodiversitatii 379
hrana 379
ibrahim 379
aleksandar 379
masini 379
infractiuni 379
azerbaijan 379
ned 379
consequence 379
routes 379
consistency 379
difficulty 379
films 379
finish 379
inima 378
lum@@ 378
unitatea 378
(22 378
ferme 378
muzica 378
comisari 378
raportoarei 378
retrospectiva 378
avantaj 378
(20 378
dacic 378
asigurarii 378
ech@@ 378
islam@@ 378
verheugen 378
efd 378
turnout 378
allocation 378
handed 378
injured 378
spuneti 377
intentiile 377
comparativ 377
rat@@ 377
gun@@ 377
telecommunications 377
mining 377
biserica 376
minim@@ 376
invatamant 376
ot 376
sho@@ 376
(afp 376
elabora 376
peter 376
internetul 376
calcul@@ 376
formula 376
spuse 376
mobila 376
ha 376
zi@@ 376
cards 376
tobacco 376
opens 376
storage 376
respecting 376
gradually 376
liberals 376
older 376
expand 376
ape 375
mexic 375
revine 375
investi 375
neaparat 375
calatorie 375
campaniei 375
trans 375
islam 375
reconstructia 375
fal@@ 375
(11 375
foster 375
ish 375
gained 375
conventions 375
cai 374
terorismul 374
viziteaza 374
critic 374
militari 374
orientarile 374
inteligente 374
riscurilor 374
raportoarea 374
emise 374
rutier 374
treime 374
deceniu 374
colon@@ 374
ljajic 374
debts 374
terrible 374
promoted 374
hosted 374
except 374
correctly 374
multumi 373
sondaj 373
premier 373
compl@@ 373
afaceri: 373
ame 373
aviz 373
reform@@ 373
marfuri 373
atent 373
ents 373
title 373
depunem 372
avertizeaza 372
alatura 372
actionat 372
petrolului 372
dev@@ 372
pil@@ 372
lampedusa 372
evitam 372
facebook 372
di 372
gross 372
1,000 372
diplomats 372
expertise 372
location 372
serving 372
iii 371
mercosur 371
avantaje 371
climat 371
alegere 371
(25 371
inregistreaza 371
unanimitate 371
ratificarea 371
oarecum 371
justitia 371
pedepsei 371
(18 371
participanti 371
motiv@@ 371
apreciez 371
efectul 370
imbunatatim 370
slab 370
iugoslave 370
men@@ 370
eurovision 370
computer 370
(7 370
diversitatea 370
tape 370
ring 370
winter 370
fails 370
imposing 370
surrounding 370
fifth 370
passports 370
agrees 370
terorism 369
urmatoarei 369
ios 369
operatiune 369
itat 369
platile 369
discutia 369
negociat 369
abilitate 369
civili 369
far@@ 369
pensiilor 369
reprezentata 369
posibilitatile 369
google 369
io 369
ub@@ 369
balcanica 369
profita 369
economist 369
intervene 369
ageing 369
teatru 368
dur@@ 368
initiat 368
orientari 368
detin@@ 368
voce 368
cred@@ 368
urmand 368
implementarii 368
depunerea 368
scazuta 368
initiale 368
ecb 368
accountability 368
withdraw 368
attract 368
removal 368
opposite 368
atmosphere 368
exception 368
realizare 367
felicitat 367
oettinger 367
legaturile 367
uriase 367
consecventa 367
cod 367
pastreze 367
ambitioasa 367
(da) 367
independenti 367
ish@@ 367
reiterate 367
reiterated 367
entrepreneurs 367
edition 367
abolition 367
trebuia 366
san 366
pel@@ 366
protejeaza 366
intocmit 366
ean 366
aeriana 366
ear@@ 366
vis@@ 366
brut 366
mel@@ 366
erul 366
robust 366
resistance 366
score 366
partly 366
pose 366
whereas 366
presentation 366
rotating 366
follows 366
tranzit 365
iv 365
urbane 365
promovam 365
condamna 365
mustafa 365
infr@@ 365
(in 365
jurnalisti 365
rig@@ 365
intregi 365
aveau 365
luare 365
val 365
davor 365
corporate 365
outstanding 365
8.@@ 364
fiindca 364
lansa 364
populare 364
aca 364
frontierelor 364
mentionand 364
favorabila 364
concluzii 364
publicate 364
proprietatea 364
colaborarea 364
crimelor 364
design 364
aprovizionarii 364
ging 364
optimism 364
star 364
sum 364
championship 364
selling 364
telling 364
invent@@ 363
ner@@ 363
vin@@ 363
jel@@ 363
deschida 363
tripartite 363
transmit 363
ignora 363
posibilitate 363
departamentului 363
mand@@ 363
ely 363
stimulate 363
saa 363
teams 363
delayed 363
presenting 363
towns 363
territories 363
mps 363
viteza 362
refuzul 362
coelho 362
tehnologiei 362
parea 362
sarcinile 362
(reuters 362
baltice 362
extr@@ 362
sefii 362
formulate 362
ps 362
commerce 362
flag 362
detained 362
afirm 361
respinge 361
constructiilor 361
judecata 361
demonstreze 361
motor 361
ill@@ 361
plat@@ 361
observed 361
wonder 361
fires 361
inhabitants 361
raw 361
construiasca 360
aprovizionare 360
camere 360
une 360
consolideaza 360
monitoriza 360
produsul 360
avantajele 360
emo@@ 360
itatile 360
richard 360
sen 360
deutsche 360
anovic 360
markovic 360
ratings 360
tour 360
hunger 360
diplomacy 360
operatiunilor 359
acoperi 359
cipriotii 359
servi 359
obligatiilor 359
dict@@ 359
sarbesti 359
milovanovic 359
furnizeze 359
io@@ 359
millennium 359
exp@@ 359
twice 359
allegations 359
gets 359
roundup 359
(4 358
inzko 358
remedi@@ 358
alimentar 358
analizeze 358
bot@@ 358
candidatura 358
stimularea 358
rezolvate 358
(26 358
luati 358
alizarii 358
breviar 358
indata 358
gor@@ 358
verhofstadt 358
(24 358
atr@@ 358
pri@@ 358
cope 358
schemes 358
notes 358
ancient 358
rezonabil 357
lehne 357
sedinte: 357
ajutoare 357
indemn 357
tensiunile 357
(13 357
colective 357
asi 357
marilor 357
district 357
threshold 357
activists 357
qualifications 357
deserves 357
disabled 357
outlined 357
atare 356
personala 356
pasnica 356
regulilor 356
misiuni 356
lim@@ 356
.) 356
incidente 356
ich 356
excesiv 356
detaliu 356
invita 356
evolutii 356
duc 356
wh@@ 356
beings 356
dropped 356
aged 356
chestiunii 355
8,@@ 355
observe 355
miliard 355
fapte 355
efectuata 355
sansele 355
democrate 355
ace 355
somalia 355
factorii 355
u: 355
raspund 355
adverse 355
fresh 355
allies 355
respectively 355
elderly 355
implications 355
croats 355
angajare 354
distrugerea 354
producerea 354
consumului 354
reducem 354
our@@ 354
usi 354
franceza 354
satisfactory 354
clarity 354
scrutiny 354
presents 354
serves 354
blocat 353
desfasoare 353
pretului 353
berisa 353
publici 353
curajul 353
purtat 353
ascunde 353
atelor 353
sanction@@ 353
creata 353
dezbate 353
absurd 353
impuna 353
wave 353
feature 353
stopped 353
suspendarea 352
air@@ 352
inclusa 352
capabile 352
neglij@@ 352
durres 352
magazine 352
bosniace 352
crossing 352
considerably 352
reserves 352
advantages 352
regarded 352
surprised 352
articles 352
genuinely 352
decentralisation 352
besides 352
finalul 351
ingrijorati 351
abil@@ 351
oricand 351
indeplineste 351
detentie 351
multumiti 351
mentiona 351
ingrijire 351
intru 351
etichetarea 351
aprobate 351
pericolul 351
kyoto 351
lag@@ 351
opel 351
clasa 351
league 351
winner 351
aging 351
famous 351
ajului 350
lungi 350
plasat 350
monetar 350
restructurarea 350
valentin 350
referit 350
cresteri 350
marginea 350
prom@@ 350
urmari 350
stressing 350
hopefully 350
destination 350
postului 349
partenerilor 349
inteligenta 349
intern@@ 349
convergenta 349
usaid 349
amanarea 349
sanctiunile 349
aferente 349
struck 349
retirement 349
convince 349
campaigns 349
consult@@ 348
cotidianului 348
obligati 348
coordonata 348
fbih 348
strada 348
recunoscator 348
def@@ 348
ration@@ 348
demisia 348
c7 348
nebojsa 348
tun@@ 348
furnizeaza 348
dedicat 348
kurdistan 348
impunerea 348
mistake 348
choices 348
recognises 348
romanians 348
hoped 348
recomandarea 347
gradul 347
ste 347
itorii 347
copil 347
actele 347
infiintata 347
jevic 347
amendamentului 347
democrat) 347
limbi 347
mus@@ 347
11@@ 347
recunoscuta 347
cautarea 347
ochii 347
officer 347
aspirations 347
recommended 347
terror 347
falling 347
season 347
bucurat 346
rexhepi 346
ampla 346
educ@@ 346
imigrantilor 346
upi 346
ze 346
fena 346
a). 346
modificat 346
considerabila 346
ology 346
6th 346
concep@@ 345
sporeasca 345
verzilor 345
utila 345
retragerea 345
bakoyannis 345
54 345
teritoriu 345
teme 345
elaborate 345
itarea 345
popul@@ 345
jan 345
index 345
invite 345
primei 345
alului 345
mental 345
gulf 345
models 345
disappointed 345
tarea 344
dimensiune 344
avizul 344
basel 344
forestiere 344
(10 344
germaniei 344
reciproce 344
duca 344
mut@@ 344
fice 344
pet@@ 344
amendamentelor 344
conturile 344
sof@@ 344
slav@@ 344
congress 344
shape 344
damaged 344
vessels 344
assassination 344
functions 344
appeared 344
compulsory 344
attractive 344
researchers 344
barbatii 343
urmata 343
viziunea 343
exprime 343
sensibile 343
calm 343
kov 343
favorabile 343
temerile 343
jur@@ 343
propaganda 343
atmosfera 343
procedural 343
tuna 343
career 343
renewed 343
islands 343
fermierii 342
competitia 342
proprietatii 342
mentionata 342
(16 342
investitori 342
insusi 342
sahara 342
provocarea 342
relevanta 342
investigatii 342
die 342
insisted 342
lists 342
organising 342
fulfilled 342
85 341
generatii 341
prioritare 341
siguri 341
extrema 341
nic 341
deseurile 341
intre@@ 341
micro@@ 341
mediteraneene 341
adaptarea 341
inalti 341
randuri 341
secrete 341
dovedeste 341
producer 341
travelling 341
toleranta 340
potrivita 340
akis 340
evolutie 340
autor@@ 340
exporturilor 340
test@@ 340
solide 340
petar 340
á@@ 340
asist@@ 340
volume 340
warming 340
registration 340
salary 340
programming 340
jur 339
topi 339
chestiunilor 339
vit@@ 339
enterprise 339
tribune 339
comis 339
associations 339
intelligent 339
father 339
impuls 338
urii 338
medicamentelor 338
actu@@ 338
declar@@ 338
excesive 338
(bih). 338
dob@@ 338
blic 338
belong 338
sorry 338
orientation 338
satisfaction 338
muzeul 337
cvetkovic 337
ole 337
deze 337
re: 337
mad@@ 337
calin 337
27@@ 337
herald 337
milososki 337
rose 337
statute 337
harm 337
coach 337
anim@@ 336
reprezentate 336
letonia 336
enorm 336
arm@@ 336
controale 336
51 336
fizice 336
ters 336
inutile 336
ok@@ 336
puterile 336
concluzia 336
grele 336
arch@@ 336
farms 336
pharmaceutical 336
ngo 336
variety 336
doctors 336
transposition 336
persecution 336
chances 336
tariff 336
amb@@ 335
rational 335
pretext 335
invitat 335
modifica 335
prevazuta 335
grade 335
uniuni 335
(ga) 335
we@@ 335
entertainment 335
trials 335
stages 335
traditions 335
7th 335
blocking 335
lipseste 334
satul 334
frontiere 334
110 334
tei 334
medicamentele 334
manager 334
plecat 334
finantat 334
relor 334
consultare 334
convinge 334
ins@@ 334
pon@@ 334
parintii 334
hotel 334
accelerate 334
undertake 334
treat 334
momentum 334
messages 334
deployment 334
dedicated 334
britanici 333
circa 333
microsoft 333
unora 333
renunta 333
rein@@ 333
extern 333
djelic 333
estimate 333
unda 333
actul 333
exercite 333
tel@@ 333
protocolul 333
solutiile 333
conducta 333
muhamet 333
chemical 333
lawyer 333
ensured 333
optimistic 333
placing 333
stan@@ 332
politi@@ 332
recunoastere 332
contrac@@ 332
evidentiat 332
investit 332
plin 332
oni 332
(30 332
nov@@ 332
legislatii 332
renunte 332
islamice 332
cin@@ 332
airports 332
preliminary 332
vehicle 332
urges 332
regularly 332
credinta 331
action@@ 331
enorme 331
continuu 331
abordata 331
maj@@ 331
imediate 331
propuna 331
aspectelor 331
oferita 331
aga 331
umanitatii 331
ij@@ 331
mobil@@ 331
(2) 331
land@@ 331
ash 331
guard 331
conservation 331
recorded 331
depth 331
winning 331
ecological 331
3rd 331
eroare 330
informati 330
ona 330
izeaza 330
eng@@ 330
estim@@ 330
marcat 330
milit@@ 330
brok 330
indicator 330
turkmenistan 330
ola 330
oricare 330
openness 330
arise 330
bosniak 330
friend 330
recall 330
subsequent 330
desemnat 329
ax@@ 329
bce 329
actori 329
unita 329
limiteaza 329
ordin 329
ajul 329
trimita 329
lar@@ 329
interpre@@ 329
mann 329
cazut 329
goldstone 329
put@@ 329
politicienilor 329
acceptam 329
26@@ 329
rest@@ 329
(19 329
pur@@ 329
finland 329
demanded 329
democratisation 329
intergovernmental 329
monitored 329
beneficiaries 329
slightly 329
consistently 329
listed 329
factory 329
errors 329
label 329
sentinta 328
campanii 328
bun@@ 328
frantei 328
gratie 328
prlenda 328
dp 328
coeziunii 328
é 328
dure 328
slaba 328
baze 328
livestock 328
mines 328
formally 328
incapacitatea 327
alature 327
intensifica 327
recesiune 327
vlado 327
ajungand 327
chp 327
categoric 327
dezvoltam 327
ust@@ 327
folosind 327
ministerial 327
hy@@ 327
ports 327
timber 327
pressing 327
week: 327
defining 327
lowest 327
accusations 327
arising 327
bureau 327
determinata 326
distributie 326
genereaza 326
afle 326
cerand 326
atura 326
institutia 326
evidente 326
angajeze 326
tipul 326
dimensiuni 326
valid 326
albastru 326
imperative 326
exchanges 326
simplified 326
publicly 326
fans 326
necessarily 326
alised 326
turks 326
findings 326
adds 326
inaintate 325
ritmul 325
sesiunea 325
amenintarea 325
achizitiile 325
prosperitate 325
dispunem 325
(sl) 325
pa 325
preda 325
bio@@ 325
convinsa 325
implementat 325
prefera 325
quo 325
broadcasting 325
ed: 325
ordered 325
4th 325
seventh 325
electrical 325
ament 324
prezente 324
person@@ 324
tehnologice 324
originea 324
lucrarilor 324
semnul 324
(2 324
putini 324
asumate 324
dificultate 324
etnic 324
construit 324
automat 324
intrarii 324
precis 324
dual 324
0m 324
extradition 324
responsabilitati 323
israelului 323
depaseste 323
i) 323
intampina 323
sup@@ 323
moarte 323
conf@@ 323
istoriei 323
sab@@ 323
(14 323
contest 323
ures 323
ys 323
grants 323
sees 323
redundancies 323
menit 322
ajele 322
pregati 322
statisticile 322
capabil 322
gj@@ 322
ucrainei 322
): 322
indicatori 322
enii 322
sy@@ 322
revina 322
ministries 322
continuation 322
refuse 322
passing 322
raises 322
codecision 322
displaced 322
maybe 322
lasam 321
vehicule 321
lucrul 321
cit@@ 321
rosu 321
exploatarii 321
diver@@ 321
gresita 321
fericire 321
voie 321
intelectuala 321
rezolvata 321
pragmatic 321
trip 321
subsequently 321
recommend 321
echitabila 320
hina 320
aut@@ 320
let@@ 320
extinse 320
implementeze 320
apartin 320
propunem 320
tur 320
esecul 320
minor 320
crimin@@ 320
universitati 320
pic 320
cro@@ 320
900 320
eb@@ 320
ebrd 320
hen@@ 320
ths 320
ency 320
resignation 320
abuses 320
restricted 320
neighbour 320
(right) 320
surprise 320
ngl 319
nave 319
mic@@ 319
29@@ 319
promovarii 319
temporara 319
institutului 319
sav@@ 319
inceteze 319
popoarelor 319
somaj 319
cant@@ 319
regulat 319
aducem 319
gra@@ 319
clas@@ 319
binele 319
lic@@ 319
assad 319
cunostinte 319
expozitia 319
lip@@ 319
ery 319
trends 319
foods 319
weight 319
collected 319
underlying 319
hardly 319
arrive 319
grav@@ 318
municipalitati 318
maria 318
indoieli 318
cons@@ 318
provoaca 318
opiniei 318
zaman 318
incerce 318
apartine 318
mirko 318
gaz@@ 318
contracte 318
vocational 318
assured 318
performed 318
governmental 318
aria 317
definirea 317
scuze 317
implicata 317
vanzare 317
intors 317
accesibile 317
pacienti 317
datorii 317
actualele 317
premierului 317
dumnealui 317
guvernantei 317
trecute 317
bunurile 317
extinda 317
sentimentul 317
amiaza 317
operatorii 317
nascut 317
fis@@ 317
iana 317
pastrarea 317
carti 317
halt 317
ease 317
pending 317
ners 317
manufacturing 317
awarded 317
poses 317
exclusively 317
ances 317
residence 317
problematic 316
transformat 316
asca 316
mun@@ 316
dezbatut 316
agentie 316
venezuela 316
200@@ 316
contr@@ 316
(ic@@ 316
revin 316
kosovara 316
accelerarea 316
vol@@ 316
anov 316
platite 316
migratiei 316
cruciale 316
cunoscuta 316
comanda 316
pos@@ 316
doors 316
tens 316
distance 316
repression 316
solving 316
periods 316
accounting 316
providers 316
sentences 316
buying 316
ingly 316
realised 316
statistical 316
identificat 315
oarea 315
traim 315
conteaza 315
caderea 315
situatiile 315
operationale 315
digitala 315
cupa 315
rock 315
primar 315
cad@@ 315
apare 315
1994 315
complexa 315
secular 315
generatie 315
discrimin@@ 315
350 315
categoria 315
interference 315
unlike 315
advocate 315
12th 315
drivers 315
briefly 315
platesc 314
efectua 314
secolului 314
germane 314
totalul 314
recomandat 314
uriasa 314
evidentiaza 314
oi 314
bajram 314
bulgar@@ 314
hurriyet 314
ator@@ 314
protest@@ 314
integr@@ 314
kabashi 314
zeljko 314
edi@@ 314
aircraft 314
ged 314
fate 314
perform 314
eligible 314
justify 314
owner 314
describing 314
capitole 313
mers 313
organisme 313
disponibil@@ 313
reusita 313
casele 313
republici 313
contributiile 313
fosti 313
comportamentul 313
accelera 313
ga 313
traieste 313
introducerii 313
prealabila 313
vukovar 313
ns 313
pays 313
excluded 313
critics 313
accurate 313
populara 312
urias 312
vel@@ 312
victima 312
evolutiile 312
comportament 312
obligatie 312
permanente 312
consumatorului 312
tajani 312
stabil 312
stojanovska 312
comisiilor 312
iesc 312
generat 312
parasit 312
filip 312
profile 312
dubrovnik 312
waiver 312
teachers 312
contributes 312
fought 312
disagree 312
purely 312
unified 312
jurisdiction 312
subventii 311
liberalizare 311
alaturat 311
dinamica 311
alimentele 311
preocuparea 311
madrid 311
mergem 311
impozitare 311
ital@@ 311
vorbitor) 311
geografice 311
vremea 311
noti@@ 311
zilnic 311
prefer 311
permitand 311
dss 311
schimburile 311
proteste 311
academic 311
côte 311
mijloacelor 311
ran 311
ideile 311
kers 311
shift 311
enables 311
femeii 310
mp 310
calatoresc 310
logica 310
moisiu 310
maghiare 310
hr@@ 310
premiu 310
protejarii 310
fostei 310
tice 310
entului 310
11.@@ 310
haris 310
soarta 310
thessaloniki 310
engleza 310
vojvodina 310
iugoslava 310
armonizare 310
metodele 310
trad@@ 310
cunoscute 310
creare 310
fugitive 310
5,000 310
governor 310
listened 310
learned 310
experiences 310
cunoastem 309
rei 309
teste 309
ee 309
set@@ 309
alegatori 309
osi 309
turce 309
utile 309
hadzic 309
maghiar 309
invins 309
actelor 309
suspecti 309
antului 309
gazduieste 309
mediator 309
prefer@@ 309
alegatorilor 309
bolilor 309
inlocu@@ 309
dem 309
sentiment 309
park 309
directorate 309
regulating 309
emigr@@ 308
deficitului 308
moduri 308
kosov@@ 308
ulterioara 308
ultimelor 308
garantam 308
gasesc 308
artisti 308
cotelor 308
den 308
stankovic 308
vorbeasca 308
berd 308
constituit 308
africii 308
destinatie 308
pensiile 308
nano 308
prietenii 308
pregatirile 308
dosar 308
padurilor 308
ku@@ 308
al: 308
semneze 308
g17 308
brammertz 308
che@@ 308
28@@ 308
smuggling 308
isolation 308
lived 308
concessions 308
15th 308
planificate 307
bra@@ 307
acceptarea 307
cumpar@@ 307
achizitii 307
aplic@@ 307
respingerea 307
cuprinse 307
nevoiti 307
iesi 307
zivkovic 307
ide 307
53 307
voluntar 307
und 307
pluralism 307
incentive 307
promotes 307
suspension 307
makers 307
basically 307
categories 307
intentions 307
explanation 307
materi@@ 306
tor 306
sha@@ 306
alia 306
acuz@@ 306
integritatea 306
lucrari 306
alelor 306
urez 306
daunatoare 306
dom@@ 306
ordinii 306
tabara 306
elimine 306
institution@@ 306
xinhua 306
ilic 306
brajshori 306
etc 306
business: 306
ements 306
fixed 306
safeguarding 306
iarna 305
ocupat 305
ley 305
circumstantele 305
detinute 305
craciun 305
cote 305
konjikusic 305
regulamente 305
limitarea 305
ba@@ 305
banana 305
2m 305
bound 305
dates 305
proliferation 305
afternoon 305
pasi@@ 304
contest@@ 304
orientare 304
w. 304
critice 304
invata 304
identificate 304
echipe 304
titlul 304
dimitris 304
studentii 304
eda 304
timpului 304
particip@@ 304
cartei 304
launching 304
authorised 304
innocent 304
filed 304
registru 303
remuner@@ 303
globalizarii 303
romana 303
atacurilor 303
venitul 303
cia 303
acceptabil 303
pasnice 303
pav@@ 303
iranului 303
fel@@ 303
incetarea 303
bog@@ 303
construita 303
resumed 303
academy 303
dominated 303
ranking 303
coherence 303
refers 303
unanimously 303
returning 303
fix@@ 302
instruc@@ 302
mileniului 302
iesit 302
lat@@ 302
durat 302
investigatie 302
activ@@ 302
tica 302
sociali 302
modalitatea 302
almunia 302
slab@@ 302
afirmatiile 302
bojana 302
sam@@ 302
capacities 302
emphasises 302
perfectly 302
openly 302
insists 302
macedonians 302
subjects 302
capabilities 302
appropriations 302
referendumului 301
planurilor 301
vehiculele 301
noapte 301
trupe 301
semne 301
diversele 301
placere 301
modalitatile 301
trec 301
excesiva 301
dureaza 301
depasirea 301
vocea 301
climei 301
coordonate 301
restructurare 301
(i@@ 301
arena 301
strain 301
rati@@ 301
broadband 301
shot 301
withdrawal 301
demonstrations 301
worthy 301
prioritatilor 300
ei@@ 300
realiz@@ 300
crezut 300
demografice 300
chimice 300
avantajul 300
declaratiei 300
conver@@ 300
transmiterea 300
kurda 300
araba 300
els 300
complic@@ 300
arm 300
costisitoare 300
medicinal 300
destroy 300
obtaining 300
accordingly 300
fines 300
reprezent@@ 299
bogate 299
tehnologica 299
incalcarile 299
serv@@ 299
candidatul 299
tehnologie: 299
ratele 299
camerei 299
inaugurat 299
foloseste 299
periculos 299
discute 299
lemn 299
atinga 299
ud@@ 299
aliz@@ 299
ws 299
lacking 299
oriented 299
sincerely 299
saptamana: 298
füle 298
pasagerii 298
granite 298
albanezilor 298
66 298
retrage 298
ama 298
lunile 298
obtinerii 298
ologie 298
chinei 298
nea@@ 298
angela 298
importantei 298
agim 298
stricta 298
capacitatile 298
ton@@ 298
retired 298
ed; 298
posed 298
airline 298
celorlalti 297
greva 297
restrictiile 297
expertilor 297
fraudei 297
acti@@ 297
linia 297
occidentale 297
rutiere 297
codecizie 297
rezervele 297
importate 297
practi@@ 297
institutionala 297
olandez 297
ie: 297
uk@@ 297
ber 297
relax@@ 297
ü@@ 297
aids 297
aiming 297
resident 297
ratify 297
mixed 297
altora 296
inta 296
fund@@ 296
distribu@@ 296
africane 296
purta 296
atac@@ 296
frank 296
gradual 296
prevenirii 296
marovic 296
iului 296
migratia 296
major@@ 296
vrut 296
salarii 296
anticip@@ 296
deficiente 296
kovski 296
,000 296
holiday 296
exposed 296
thousand 296
disabilities 296
ignored 296
expecting 296
&apos;m 296
managers 296
runs 296
experiment@@ 295
clarifica 295
produca 295
paraseasca 295
locuitor 295
natiune 295
europenilor 295
informatiei 295
nomin@@ 295
problem@@ 295
dic@@ 295
cooperari 295
cotonou 295
golden 295
belene 295
page 295
cast 295
impetus 295
threatening 295
opponents 295
mobilise 295
notably 295
caucasus 295
forgotten 295
systematic 295
containing 295
transfers 295
lansate 294
angaj@@ 294
inchide 294
tineret 294
vorbind 294
prompt 294
menita 294
treimi 294
gan@@ 294
raport@@ 294
wo@@ 294
my@@ 294
temeri 294
ker@@ 294
ulterioare 294
bahrain 294
ste@@ 294
med 294
channel 294
zones 294
fulfilling 294
incomes 294
emerged 294
chancellor 294
focuses 294
dictator 293
onor@@ 293
stabilizarea 293
journal 293
candidata 293
doctor 293
tiva 293
alba 293
utilizam 293
lipsit 293
construim 293
canadian 293
bin 293
romi 293
inevitabil 293
tehnologiile 293
1244 293
incluzand 293
realizeaza 293
urmariti 293
agre@@ 293
yo@@ 293
adrian 293
law@@ 293
monopoly 293
norway 293
authors 293
denmark 293
mep 293
decrease 293
revealed 293
ched 293
securing 293
arabe 292
luptam 292
tiv@@ 292
pilon 292
iunea 292
oricarui 292
functii 292
reflecte 292
52 292
turistice 292
marfa 292
56 292
complet@@ 292
f) 292
bonds 292
piracy 292
demonstration 292
medal 292
highway 292
error 292
preferences 292
evaluarii 291
relief 291
capitol 291
amen@@ 291
statistica 291
tehnologiilor 291
contin 291
administr@@ 291
mark@@ 291
trecerea 291
reloc@@ 291
occidentala 291
modern@@ 291
prof@@ 291
aeroportul 291
emergente 291
3m 291
shipping 291
enhancing 291
examined 291
japanese 291
delegations 291
elimination 291
breach 291
burdens 291
petitions 291
fruit 291
tension 291
solicitarile 290
spaniole 290
barbutov 290
identitatea 290
scrutin 290
stipuleaza 290
submineaza 290
forumul 290
volumul 290
bozidar 290
aplicabile 290
conventie 290
suferinta 290
62 290
relate 290
emb@@ 290
economics 290
stringent 290
responses 290
communism 290
violated 290
stepped 290
equivalent 290
piatra 289
adunat 289
evidentiez 289
scolile 289
autonomie 289
euractiv 289
lac@@ 289
fundatia 289
raspunsurile 289
emite 289
mecanismului 289
berlusconi 289
educationale 289
datoriile 289
accelereze 289
participarii 289
istilor 289
publicarea 289
contribuind 289
efectuarea 289
awards 289
love 289
usual 289
tribute 289
handling 289
8th 289
subjected 289
reunification 289
ranging 289
issuing 289
2nd 289
approaches 289
limit@@ 288
salva 288
unitatii 288
entilor 288
mul@@ 288
observam 288
tot@@ 288
soc@@ 288
proasta 288
dui 288
impiedice 288
aminte 288
iesire 288
administrarea 288
sloven 288
obstacolele 288
jurnalistii 288
ferate 288
paralel 288
survive 288
responded 288
earmarked 288
perpetrators 288
dossier 288
adaptation 288
customers 288
alizeze 287
situeaza 287
cunoastere 287
recunoscute 287
urmaresc 287
multime 287
solutionata 287
stiintei 287
guvern@@ 287
nu@@ 287
animalele 287
apere 287
%) 287
plas@@ 287
tata 287
solar 287
ceh 287
turk@@ 287
steel 287
macroeconomice 287
indreptam 287
guinea 287
simplifying 287
alarming 287
emerge 287
hazardous 287
centralele 286
premiului 286
capit@@ 286
supusi 286
izarii 286
marko 286
destinata 286
eurostat 286
judecatorii 286
capitalului 286
ingrijoreaza 286
(r@@ 286
inflatiei 286
impozite 286
sed@@ 286
prevad 286
imbunatatita 286
disproportionate 286
passport 286
autonomous 286
cold 286
tly 286
clearer 286
subject: 286
thirds 286
inundatii 285
1,5 285
swoboda 285
caz@@ 285
reconciliere 285
ans@@ 285
grab@@ 285
imbunatatite 285
reluarea 285
irlandei 285
beneficiat 285
treptata 285
medvedev 285
interdictie 285
codul 285
salv@@ 285
plina 285
ambasada 285
geoana 285
constatat 285
efectueze 285
trac@@ 285
prop@@ 285
(d@@ 285
banane 285
symbol 285
ual 285
mere 285
hiding 285
avoiding 285
driven 285
pushing 285
indication 285
examina 284
produc 284
modificate 284
secretarului 284
liberalizarii 284
ank@@ 284
masina 284
frecvente 284
subiect: 284
franceze 284
oricum 284
tas@@ 284
lor@@ 284
miscarii 284
migratie 284
profesionisti 284
ord@@ 284
foc@@ 284
had@@ 284
alb@@ 284
disparities 284
arguing 284
convicted 284
counterfeiting 284
mothers 284
faster 284
distruge 283
observatii 283
specii 283
serii 283
preocupa 283
alii 283
aceia 283
itorilor 283
org@@ 283
oriunde 283
jacques 283
insul@@ 283
banda 283
ran@@ 283
programate 283
ater@@ 283
d), 283
inequalities 283
counts 283
responding 283
transaction 283
argued 283
atlantice 282
repeta 282
anunta 282
etul 282
sprijinita 282
ys@@ 282
zel@@ 282
eliminat 282
transmitem 282
antele 282
faliment 282
preliminare 282
acordarii 282
comunicatiilor 282
nor@@ 282
cererilor 282
solicitari 282
que 282
sac@@ 282
nationalism 282
wife 282
camps 282
secondary 282
motions 282
pleasure 282
doesn 282
demonstr@@ 281
aleaga 281
bucuros 281
prevederilor 281
ovo 281
urmarirea 281
criticile 281
buc@@ 281
raportori 281
expuse 281
onoare 281
inregistra 281
dan 281
solicitand 281
evitarea 281
rac@@ 281
itului 281
blood 281
organs 281
sight 281
comparison 281
congratulations 281
observ 280
plenara 280
erie 280
vot: 280
uganda 280
multumiri 280
stanishev 280
traiasca 280
pnr 280
momente 280
planificarea 280
atenti 280
spaniol 280
construite 280
celalalt 280
ridice 280
dezastrelor 280
radic@@ 280
waldner 280
abilitatii 280
nem@@ 280
implic@@ 280
smoking 280
surrender 280
originally 280
badly 280
denum@@ 279
primite 279
op 279
deport@@ 279
invitatia 279
140 279
pasnic 279
finlanda 279
tihic 279
religie 279
presedintilor 279
acy 279
estimat 279
distribuirea 279
sarbo 279
abuz 279
cash 279
130 279
interzis 279
ocazii 279
nigeria 279
sel 279
bec@@ 279
ingrijorat 279
s). 279
capture 279
ukrainian 279
boycott 279
ranks 279
ottoman 279
unfortunate 279
17th 279
acceptance 279
formularea 278
cites 278
krasniqi 278
atica 278
numerosi 278
cariera 278
declar 278
ldk 278
uni@@ 278
citit 278
anticipeaza 278
detaliate 278
explo@@ 278
mentinut 278
is: 278
preservation 278
spectrum 278
intoarca 277
decizional 277
necon@@ 277
contributii 277
licitatie 277
planificata 277
(t@@ 277
š@@ 277
dimitrova 277
observ@@ 277
formatiunea 277
proces@@ 277
interdictia 277
implementa 277
someri 277
rang 277
masive 277
feder@@ 277
trateaza 277
roman@@ 277
organizare 277
kovacevic 277
locuintele 277
inregistrarea 277
dejan 277
pastram 277
vaccin@@ 277
ford 277
obisnuiti 277
scr@@ 277
ey@@ 277
amnesty 277
istic 277
transformation 277
prague 277
strictly 277
hundred 277
19th 277
ensures 277
reductions 277
recognising 277
returns 277
killings 277
stood 277
substantiala 276
civililor 276
urm@@ 276
soldatii 276
supravegherii 276
buzek 276
marija 276
dr 276
consecintelor 276
controla 276
detaliile 276
95 276
silajdzic 276
coup 276
enjoyed 276
damaging 276
assessed 276
corrections 276
characteristics 276
ranked 276
toler@@ 275
glob@@ 275
trecutul 275
importurilor 275
argumente 275
corpor@@ 275
implementate 275
descrie 275
profite 275
tortura 275
romane 275
asigurand 275
mia 275
1m 275
stick 275
slovak 275
apparent 275
looked 275
claiming 275
morocco 275
unresolved 275
clauses 275
selected 275
9th 275
reciprocity 275
bigger 275
relationships 275
singure 274
colegului 274
excep@@ 274
regulamentele 274
reglementeaza 274
78 274
aer 274
schwarz 274
tentativa 274
predarea 274
berg 274
studiile 274
tac@@ 274
aprobare 274
competitie 274
comand@@ 274
interesant 274
cunostinta 274
organismelor 274
scan@@ 274
breaking 274
thanking 274
conducting 274
semna 273
dateaza 273
devenind 273
cabinetul 273
atacul 273
eh@@ 273
migr@@ 273
constienta 273
arie 273
ned@@ 273
solutionate 273
ramase 273
popor 273
punand 273
transforme 273
supra@@ 273
drumuri 273
strikes 273
planet 273
channels 273
renewal 273
stresses 273
emission 273
lesson 273
detinut 272
cum@@ 272
belgiana 272
pop@@ 272
amplu 272
informatie 272
ombudsmanului 272
demers 272
raniti 272
salariul 272
abol@@ 272
cooper@@ 272
swiss 272
postponed 272
breaches 272
fallen 272
ordonat 271
faciliteze 271
climatul 271
tineretul 271
63 271
vac@@ 271
onul 271
64 271
incalcat 271
moderate 271
ref@@ 271
raportorii 271
analize 271
lucr@@ 271
catherine 271
marcheaza 271
à 271
mladjan 271
revizuit 271
retail 271
twenty 271
athletes 271
fied 271
donor 271
outermost 271
demnitatea 270
martorii 270
praga 270
luptat 270
plateste 270
function@@ 270
intrebam 270
vii 270
obstruction@@ 270
franco 270
blair 270
distruse 270
divertisment 270
ule 270
sia 270
kir@@ 270
patra 270
ferrero 270
12.@@ 270
clashes 270
forestry 270
addresses 270
soil 270
bills 270
resettlement 270
meantime 270
avoided 270
characterised 270
limite 269
juc@@ 269
acuzatiilor 269
iter 269
camp@@ 269
integrat 269
claritate 269
stabilirii 269
prezentul 269
metr@@ 269
cam 269
corporation 269
etelor 269
investim 269
oficiului 269
industrii 269
petitii 269
masacrul 269
realist 269
itari 269
contractual 269
spun@@ 269
tanjug 269
scrie 269
concedi@@ 269
scrisa 269
vorbitori 269
erasmus 269
ments 269
investigated 269
iting 269
reservations 269
adequately 269
judgment 269
harmonise 269
stabile 268
avansa 268
harbour 268
recentele 268
evalueze 268
birocratia 268
lukashenko 268
comercializare 268
insulele 268
hur@@ 268
raspunderea 268
non@@ 268
aloca 268
vizele 268
sesiunii 268
finantele 268
jadranka 268
vote: 268
wording 268
formation 268
belonging 268
exemption 268
credits 268
everywhere 268
provisional 268
farm 268
&apos;re 268
refugiatii 267
turk 267
efectiva 267
inovatie 267
transform@@ 267
progresiste 267
concreta 267
definit 267
bil 267
memorial 267
muncitorilor 267
informarea 267
(g@@ 267
mol@@ 267
acordare 267
67 267
kat@@ 267
salonic 267
ilo 267
barierele 267
arts 267
storm 267
celebrate 267
posts 267
wars 267
pursuing 267
dictatorship 267
clarification 267
informa 266
solutioneze 266
comisi@@ 266
disciplina 266
unicef 266
hab@@ 266
exceptionale 266
depl@@ 266
re; 266
tam@@ 266
pul@@ 266
aspiratiile 266
euronews 266
iva 266
58 266
nimetz 266
prev@@ 266
amentul 266
panel 266
orders 266
survival 266
sponsored 266
worried 266
compromises 266
strive 266
acquired 266
soren 265
sperante 265
intervina 265
pes@@ 265
kurzi 265
abordarii 265
indator@@ 265
hot@@ 265
protestele 265
diaspora 265
net@@ 265
itara 265
biljana 265
rid@@ 265
sii 265
fly 265
drew 265
worry 265
safeguards 265
analyse 265
occupation 265
flight 265
this: 265
deputies 265
conviction 265
rejection 265
contribuabilii 264
pierdem 264
retras 264
ides 264
contractele 264
dora 264
exploatare 264
birocratice 264
distr@@ 264
urmareasca 264
intentionam 264
work@@ 264
usurinta 264
celebr@@ 264
vot@@ 264
ich@@ 264
ayhan 264
simsek 264
rusesti 264
(lv) 264
isi@@ 264
ria 264
sad@@ 264
tratatelor 264
ious 264
ing: 264
tuberculosis 264
corrupt 264
signals 264
apparently 264
deployed 264
handle 264
explains 264
ological 264
admitted 264
liability 264
medicine 264
numi 263
vamal 263
inei 263
delicate 263
eco@@ 263
moder@@ 263
necesitate 263
simtit 263
proceselor 263
minoritare 263
totdeauna 263
sm@@ 263
ecofin 263
continut 263
wa@@ 263
ambigu@@ 263
villages 263
isolated 263
deadlines 263
removing 263
helpful 263
struggling 263
liked 263
reactions 263
monthly 263
accountable 263
mer 262
rezolvat 262
sectiunea 262
preced@@ 262
actualului 262
schilling 262
lichid@@ 262
domin@@ 262
acopere 262
danemarca 262
capitalul 262
stop@@ 262
dol@@ 262
ania 262
jen@@ 262
arele 262
rusa 262
demetris 262
cert 262
proba 262
e), 262
tuzla 262
familiar 262
maintenance 262
spokesperson 262
connections 262
whereby 262
scenario 262
eeas 262
centralelor 261
tranzactiilor 261
reuseste 261
ox@@ 261
definitiv 261
kemal 261
posibilele 261
schimbarii 261
reactii 261
yl@@ 261
angajamentelor 261
direction@@ 261
reglementarii 261
dezbaterilor 261
cata 261
lanseze 261
constiinta 261
dep@@ 261
salvgardare 261
cast@@ 261
invatam 261
artist 261
sole 261
considerations 261
caught 261
strongest 261
promising 261
oc 260
comentariu 260
comuniste 260
verifica 260
suedeze 260
luxemburg 260
categorie 260
ken@@ 260
sing@@ 260
complicate 260
suveranitatii 260
etica 260
pierderile 260
coe 260
transfrontalier 260
minoritate 260
rezonabile 260
iasca 260
extraordinar 260
medic@@ 260
intelegerea 260
nev@@ 260
promisiunea 260
confederal 260
surplus 260
calendar 260
2,000 260
architecture 260
bottom 260
liquidity 260
establishes 260
kurds 260
globally 260
forming 260
hi@@ 259
temporar 259
decursul 259
bloca 259
viitoarei 259
totale 259
amenintarile 259
aviatiei 259
popoarele 259
off@@ 259
periculoasa 259
asista 259
ny 259
sdsm 259
o) 259
ast 259
barack 259
exceptie 259
amenintat 259
(m@@ 259
component 259
lawyers 259
refusal 259
witnesses 259
attempting 259
assurance 259
journey 259
fugitives 259
backs 259
alternatives 259
suppliers 259
billions 259
evasion 259
alizeaza 258
inlocui 258
minoritatii 258
itat@@ 258
genetic 258
baltica 258
aprobe 258
deasupra 258
castige 258
incurajat 258
poti 258
racan 258
posturi 258
posi@@ 258
accidente 258
benefic 258
italiei 258
creditele 258
schimbam 258
centrele 258
asculta 258
oane 258
republican 258
secretariat 258
bosniaca 258
voices 258
row 258
compatible 258
writer 258
heavily 258
symbolic 258
similarly 258
argues 258
promisiunile 257
parlamentarilor 257
frattini 257
rot@@ 257
tranzitia 257
bic@@ 257
delegate 257
sum@@ 257
utilizatorilor 257
sprijinite 257
conect@@ 257
creand 257
pion@@ 257
(e@@ 257
extraordinara 257
furnizarii 257
legitime 257
prizren 257
kil@@ 257
persista 257
corridor 257
root 257
resume 257
disastrous 257
discriminatory 257
conservatives 257
limiting 257
weaknesses 257
catastrofa 256
jusuf 256
practicilor 256
vicepresedinta 256
imb@@ 256
dnevnik.bg 256
mladen 256
suspendat 256
monitorizeze 256
labus 256
georgiei 256
realizarile 256
mot@@ 256
mama 256
recomandare 256
jak@@ 256
ovska 256
masur@@ 256
ster@@ 256
tratatele 256
coordonat 256
onto 256
shut 256
prerequisite 256
timetable 256
indicates 256
insisting 256
dependency 256
culturi 255
rul@@ 255
etape 255
erelor 255
textului 255
inacceptabile 255
varf 255
urne 255
citi@@ 255
intens 255
imensa 255
tiune 255
raz@@ 255
inculpat 255
vinde 255
navig@@ 255
bariere 255
tent@@ 255
primirea 255
birou 255
nordic 255
wel@@ 255
divide 255
lea@@ 255
telephone 255
fundamentally 255
newspapers 255
hospitals 255
precarious 255
devoted 255
receives 255
impun 254
justificata 254
reactionat 254
61 254
sida 254
erori 254
marele 254
suprafata 254
transpunerea 254
ze@@ 254
birocratie 254
respectand 254
dezvaluit 254
57 254
alei 254
angajeaza 254
calendarul 254
crestinilor 254
prieten@@ 254
datorie 254
islamica 254
aparent 254
etichetare 254
grand 254
toxic 254
reserve 254
squ@@ 254
voter 254
diversification 254
attending 254
candidacy 254
lifelong 254
kos@@ 253
optiunea 253
azerbaidjan 253
voturile 253
stiinte 253
observatiile 253
od 253
alismul 253
abandon 253
cost@@ 253
rev@@ 253
98 253
10.@@ 253
abuz@@ 253
band 253
touch 253
rhetoric 253
28th 253
assumed 253
adapted 253
eurobonds 253
atory 253
vulnerabili 252
piebalgs 252
alatur 252
sustinand 252
sensibil@@ 252
concediu 252
(icty) 252
aloc@@ 252
inaugurata 252
report@@ 252
utilizand 252
argumentele 252
jos@@ 252
divizat 252
cere@@ 252
antelor 252
meta 252
sudanul 252
papadopoulos 252
ili 252
welle 252
urmarim 252
transnational 252
copyright 252
mountain 252
accepting 252
seized 252
cheap 252
bought 252
reusim 251
acoperite 251
tanar 251
acceptabila 251
protocolului 251
colega 251
11% 251
.com 251
ina@@ 251
suverane 251
negativa 251
tam 251
simplificare 251
lo 251
lukic 251
gn@@ 251
on: 251
automotive 251
foodstuffs 251
havens 251
pointing 251
exceptions 251
echipament 250
semnat@@ 250
administrare 250
felicita 250
reprezentanta 250
documentelor 250
intarzieri 250
christ@@ 250
strategiile 250
ote 250
intrebarilor 250
aratam 250
birocratiei 250
pin@@ 250
incercand 250
unea 250
portal 250
controalelor 250
dam@@ 250
just@@ 250
diplomatica 250
flu 250
incorporate 250
estate 250
song 250
silver 250
speaks 250
atrocities 250
disadvantaged 250
fishery 250
unanimous 250
elling 250
objections 250
generated 250
distributed 250
witnessed 250
lent 249
medalii 249
mail 249
ga@@ 249
zat 249
mecanismelor 249
c6 249
ok 249
stim@@ 249
tetovo 249
biometric 249
ily 249
ours 249
mutually 249
movements 249
productivity 249
listening 249
rapoartelor 248
fili@@ 248
firmelor 248
industriile 248
colaboreze 248
acces@@ 248
asasin@@ 248
aman@@ 248
dioxid 248
mediei 248
majorarea 248
james 248
cent@@ 248
caracteristicile 248
impiedicat 248
lantul 248
eco 248
vizitatori 248
drastic 248
consili@@ 248
interveni 248
nik@@ 248
tax@@ 248
outlook 248
ering 248
aries 248
misleading 248
sustained 248
financially 248
suggestion 248
metres 248
directors 248
adviser 248
quote 248
douazeci 247
negoci@@ 247
planificat 247
aprovizionarea 247
morala 247
anna 247
textelor 247
potentialului 247
punc@@ 247
fiabile 247
suport@@ 247
distrus 247
transmita 247
acei 247
itorul 247
vede 247
combustibil 247
jas@@ 247
descarcarii 247
imigratie 247
deleg@@ 247
indian 247
burns 247
satellite 247
assisting 247
alising 247
advocates 247
disappointment 247
&apos;ve 247
ordination 247
quota 247
stricter 247
determining 247
delegated 247
divisions 247
enforce 247
abandoned 247
painful 247
frequent 247
declansat 246
angajamentului 246
asteptarilor 246
analistul 246
optim@@ 246
secretar 246
clauze 246
multilaterale 246
tru@@ 246
pagini 246
bilaterala 246
repar@@ 246
83 246
rusine 246
rasim 246
p), 246
mafia 246
girls 246
troika 246
worker 246
severely 246
delivery 246
stimulus 246
repercussions 246
cycle 246
bids 246
campionatul 245
prosperitatea 245
boz@@ 245
e). 245
tiv 245
kan 245
durabilitatea 245
pierd 245
sportive 245
presupun 245
prelungirea 245
margin@@ 245
gucht 245
admir@@ 245
dedicata 245
mediteraneana 245
mie 245
introducem 245
log@@ 245
vietnam 245
anadolu 245
195@@ 245
strange 245
tennis 245
transmission 245
bulgarians 245
eliminating 245
concluding 245
technology: 245
threaten 245
welcoming 245
dream 245
unclear 245
collect 245
reforming 245
insotit 244
plecare 244
atributiile 244
preferat 244
lópez 244
preluarea 244
profunde 244
sacri@@ 244
subventiile 244
federatiei 244
discursurile 244
ive 244
72 244
apreciat 244
impas 244
garantiile 244
vest@@ 244
new@@ 244
sondajele 244
trait 244
ato 244
transplant 244
locuintelor 244
galileo 244
gest 244
conduc 244
urmatoarelor 244
rezolvam 244
(k@@ 244
binevenita 244
descuraj@@ 244
sessions 244
keen 244
pillars 244
11th 244
motivated 244
practically 244
automatic 244
trat@@ 243
golful 243
considerati 243
caute 243
cabinetului 243
actorii 243
stiintific 243
af 243
orient@@ 243
compens@@ 243
alista 243
stag@@ 243
domeniului 243
aflu 243
pregateasca 243
bah@@ 243
d. 243
sandzak 243
conturilor 243
santi@@ 243
stem 243
prezint 243
equ@@ 243
ders 243
wal@@ 243
guide 243
reverse 243
broken 243
leaves 243
republics 243
eness 243
at: 242
ational 242
ajutoarele 242
producator 242
cauzata 242
veche 242
norvegia 242
siune 242
epu@@ 242
interventii 242
pac@@ 242
roll 242
adreseaza 242
pse 242
ward 242
ergenekon 242
proprietati 242
infec@@ 242
agendei 242
ero@@ 242
(8) 242
rezerv@@ 242
pack 242
artistic 242
selimaj 242
iling 242
linking 242
selection 242
irrespective 242
gaining 242
tered 242
permitted 242
decommissioning 242
usoare 241
locu@@ 241
cheia 241
reunificare 241
probe 241
grea 241
ramanem 241
uite 241
autonomia 241
vre@@ 241
atenta 241
versiunea 241
frustr@@ 241
imprumuturile 241
rasmussen 241
intarirea 241
vacanta 241
fabric@@ 241
catastrofe 241
vizate 241
starnit 241
seae 241
excluderea 241
cartonasului 241
cos@@ 241
detaliat 241
politic@@ 241
pdk 241
mix 241
anywhere 241
ation; 241
begins 241
systemic 241
dozens 241
flooding 241
tunisian 240
adop@@ 240
diversi@@ 240
analizat 240
managementul 240
publicitatii 240
modernizare 240
papoulias 240
premi@@ 240
predat 240
etic 240
tim 240
(stanga) 240
ficata 240
universitatii 240
studentilor 240
ungariei 240
(31 240
invest@@ 240
colectiv 240
banka 240
nordica 240
ain@@ 240
tensiuni 240
ves 240
frozen 240
wins 240
assistant 240
warn 240
sums 240
sends 240
ethical 240
deepening 240
exploit 240
amanata 239
pot@@ 239
formele 239
crestine 239
casator@@ 239
angajarea 239
sustinatorii 239
daul 239
musulmane 239
consultari 239
strazile 239
automobilelor 239
iunile 239
unhcr 239
cresc 239
eli@@ 239
sz@@ 239
í@@ 239
efectueaza 239
comunic@@ 239
partenere 239
temei 239
dobanzii 239
planificare 239
telecomunicatiilor 239
saptamanii 239
inlocuirea 239
mandri 239
ars 239
back@@ 239
pieces 239
records 239
sugar 239
consortium 239
conscience 239
incumbent 239
lifting 239
prompted 239
excuse 239
fuels 239
desirable 239
sparked 239
temporare 238
fermierilor 238
stadiu 238
cautam 238
previna 238
ruta 238
control@@ 238
olaf 238
renov@@ 238
excelente 238
echip@@ 238
imparti@@ 238
potentiale 238
prez@@ 238
observatori 238
bisericii 238
certitudine 238
programat 238
ris@@ 238
invecinate 238
permise 238
maastricht 238
novak 238
raf@@ 238
terzic 238
editor 238
tibetan 238
elect 238
medals 238
assessing 238
dly 238
confirms 238
reviewed 238
character 238
verdictul 237
reinfeldt 237
ficat 237
violentele 237
gates 237
dizabilitati 237
sistematic 237
itor@@ 237
intelor 237
coerent 237
articole 237
regatului 237
tratati 237
colectare 237
evaluam 237
satisface 237
disparut 237
detaliata 237
autorii 237
irilor 237
andy 237
eci 237
tis 237
fashion 237
freight 237
counterparts 237
admission 237
14th 237
conciliation 237
encourages 237
awaiting 237
afghan 237
thinks 237
expanding 237
centuries 237
presiunile 236
arma 236
indivizi 236
burgas 236
muntenegrul 236
procente 236
instituie 236
reactiona 236
interesanta 236
jankovic 236
sperantele 236
portile 236
obligat 236
vat@@ 236
obligate 236
miss 236
raspandirea 236
reusesc 236
piarda 236
scos 236
pasapoarte 236
condamnarea 236
existentei 236
fon@@ 236
const@@ 236
17% 236
finalizate 236
olog@@ 236
broke 236
fies 236
trouble 236
precondition 236
1.5 236
organisers 236
workforce 236
ö@@ 235
ramadanovic 235
festiv@@ 235
capacitatilor 235
compromisuri 235
infractiune 235
instal@@ 235
parlamentelor 235
aplicam 235
digitale 235
sanctiunilor 235
incluziunea 235
.. 235
deaza 235
faciliteaza 235
oportun 235
consum@@ 235
sim 235
inundatiile 235
portul 235
liderului 235
flexibile 235
introdusa 235
las 235
16% 235
ieftine 235
examinarea 235
liniile 235
ucise 235
djokovic 235
concludes 235
ramadan 235
infringement 235
investor 235
weather 235
feasibility 235
abstain 235
finds 235
businessmen 235
chose 235
wherever 235
grassroots 235
deciding 235
founding 235
sphere 235
conceput 234
capitalist 234
uri@@ 234
sumele 234
izam 234
navelor 234
colectiva 234
ficarii 234
trimestru 234
impusa 234
simplifica 234
extradarea 234
lis@@ 234
amploare 234
81 234
cau@@ 234
mobilitatii 234
onia 234
audi@@ 234
violentelor 234
alternativ 234
liv@@ 234
bus@@ 234
laying 234
rigorous 234
households 234
empty 234
reactors 234
structurilor 233
verzi 233
alini@@ 233
liberalilor 233
68 233
,@@ 233
honduras 233
misiunile 233
respinsa 233
simbol 233
satisfacator 233
det@@ 233
tite 233
legisl@@ 233
itul 233
unilaterala 233
deplas@@ 233
dz@@ 233
gazdui 233
sensibil 233
retraga 233
ativ@@ 233
argumenteaza 233
condamnati 233
duble 233
rent 233
burg 233
ret@@ 233
vitale 233
presiunii 233
texte 233
siunea 233
reputation 233
earth 233
rally 233
fill 233
entrepreneurship 233
operates 233
footing 233
irresponsible 233
coverage 233
reinforced 233
ingrij@@ 232
orilor 232
municipale 232
model@@ 232
niciunul 232
olimpiada 232
reconcilierea 232
judec@@ 232
ieste 232
inlocuit 232
plastic 232
socialistii 232
industri@@ 232
predrag 232
fed 232
extremist 232
verific@@ 232
cet@@ 232
chile 232
anu 232
han@@ 232
malaysia 232
equipped 232
challenging 232
grown 232
democratically 232
ished 232
fleet 232
requiring 232
provine 231
suspendata 231
italiene 231
integranta 231
mak@@ 231
culmin@@ 231
orb@@ 231
detect@@ 231
itata 231
exprimandu 231
poluarea 231
asistat 231
sprijinire 231
verificarea 231
atraga 231
apo@@ 231
formeaza 231
curaj 231
bugetelor 231
statistici 231
precizez 231
submina 231
islamist 231
motors 231
concentr@@ 231
controalele 231
cauze 231
kallas 231
croatii 231
b7 231
promite 231
ger 231
sts 231
fit 231
essence 231
identification 231
expanded 231
pesticides 231
celebrated 231
charging 231
thoroughly 231
missile 231
proportie 230
sprijinirii 230
cancun 230
anticoruptie 230
svetla 230
remarca 230
provenite 230
surprins 230
observatorii 230
astepte 230
proiect@@ 230
apreci@@ 230
bb@@ 230
sant@@ 230
fuele 230
scurte 230
(2@@ 230
este: 230
vlora 230
anumiti 230
generali 230
temper@@ 230
stad@@ 230
primim 230
sepa 230
incorporated 230
egyptian 230
ecting 230
alists 230
envisaged 230
aquaculture 230
unrest 230
minors 230
noaptea 229
emiterea 229
finaliza 229
suta 229
iasa 229
orientate 229
reglementate 229
angaja 229
capital@@ 229
singuri 229
prejudici@@ 229
farmaceutice 229
urmei 229
functionala 229
autovehicule 229
bunastarii 229
adusa 229
lama 229
display 229
ils 229
roles 229
concentration 229
appeals 229
blow 229
branch 229
trained 229
horizontal 229
sympathy 229
costly 229
overcoming 229
substantially 229
infrastructures 229
olimpic 228
realista 228
reprezentarea 228
alfred 228
77 228
modele 228
princip@@ 228
ameliorarea 228
furnizorii 228
saptelea 228
fermieri 228
obisnuit 228
amana 228
mod@@ 228
trajkovski 228
confrunte 228
tendinte 228
kos 228
inlocuiasca 228
manag@@ 228
feroviare 228
bile 228
candidatii 228
lasand 228
semi@@ 228
viitoarelor 228
unc@@ 228
valid@@ 228
fiti 228
rachete 228
brut@@ 228
thr@@ 228
navigation 228
comparable 228
suggesting 228
coordinating 228
generals 228
impartial 227
zapatero 227
baj@@ 227
sufer@@ 227
bitola 227
absorb@@ 227
vorb@@ 227
respect@@ 227
terorista 227
traditie 227
concediul 227
obligatiuni 227
legitimitatea 227
criminali 227
acceptate 227
optiunile 227
diferenti@@ 227
deficientele 227
responsabilitatilor 227
ingrijorator 227
econom@@ 227
depasesc 227
ben 227
inainta 227
trupelor 227
benefica 227
pierdere 227
eurojust 227
adapteze 227
mw 227
diverselor 227
sarcinilor 227
ard@@ 227
functionari 227
pit@@ 227
vandute 227
170 227
monti 227
beat 227
lithuanian 227
preserving 227
devastating 227
inspections 227
permits 227
competing 227
crossings 227
interventions 227
16th 227
consists 227
identifying 227
boc 226
i), 226
concura 226
prudenta 226
kroes 226
combine 226
elui 226
pensionare 226
evenimentului 226
lun@@ 226
ascul@@ 226
bomba 226
pension@@ 226
avi@@ 226
administrativ 226
politisti 226
(dp@@ 226
asteptari 226
adriatica 226
roc@@ 226
refer@@ 226
scadea 226
nav@@ 226
tat@@ 226
02@@ 226
safer 226
bar 226
singer 226
eth@@ 226
indigenous 226
relatives 226
postpone 226
slowly 226
envisions 226
slov@@ 225
achizitionarea 225
scoate 225
fortat 225
exprimata 225
tutun 225
ationala 225
radi@@ 225
origin@@ 225
disponibilizati 225
document@@ 225
95% 225
fete 225
svetozar 225
simeon 225
cipriota 225
legitim 225
editia 225
potrivite 225
armonizate 225
restriction@@ 225
consensul 225
ple@@ 225
ow@@ 225
invo@@ 225
hungarians 225
undermining 225
unlikely 225
churches 225
tackled 225
handled 225
analisti 224
preferential 224
evaluat 224
raportat 224
acuza 224
vecina 224
stea 224
realizari 224
schimburilor 224
cumpere 224
prezentare 224
cipriote 224
privatiz@@ 224
unuia 224
indelungata 224
cec 224
orale 224
garantate 224
entitate 224
cic 224
tibet@@ 224
gashi 224
59 224
gol@@ 224
rohan 224
helsinki 224
boo@@ 224
specialist 224
sharp 224
recycling 224
lacks 224
depending 224
continuous 224
logical 224
cultures 224
yourself 224
examination 224
cladirile 223
jocuri 223
iugoslav 223
instabilitate 223
exprimam 223
centralei 223
fericit 223
eradicarea 223
analizeaza 223
prieteni 223
imigrantii 223
opreasca 223
provoca 223
plac@@ 223
imposibila 223
siuni 223
intreaba 223
alist 223
urbana 223
prezidential 223
oferirea 223
colabora 223
35% 223
normala 223
varste 223
coordonarii 223
substanta 223
arh@@ 223
liga 223
falsificate 223
neoliberal 223
energ@@ 223
kostov 223
sesiuni 223
stabilise 223
moratorium 223
sectoral 223
criticise 223
alcohol 223
clear: 223
answered 223
wartime 223
&apos;ll 223
escape 223
desired 223
guvernarea 222
pu@@ 222
curte 222
entitatii 222
combata 222
gasite 222
jelena 222
nerezolvate 222
etnie 222
garantata 222
ignor@@ 222
gandire 222
brothers 222
imunitatii 222
revizuirii 222
condamnam 222
cercet@@ 222
biometrice 222
dalli 222
adaptare 222
subvention@@ 222
kostelic 222
locuitorilor 222
deopotriva 222
epoca 222
purt@@ 222
rer 222
tonight 222
carriers 222
shel@@ 222
dangers 222
occupied 222
modified 222
socially 222
output 222
publish 222
defended 222
hosts 222
enshrined 222
numitul 221
impozitelor 221
(sedinta 221
minima 221
inregistrare 221
mentinerii 221
intoarcerea 221
indepartat 221
falsi@@ 221
int 221
predea 221
cefta 221
promovat 221
incheierii 221
promisiuni 221
instrumentului 221
reformarea 221
mixte 221
dei 221
util@@ 221
cancerului 221
hide 221
enorma 221
admis 221
principalelor 221
calatorii 221
examineze 221
emit@@ 221
program@@ 221
les@@ 221
ches 221
eds 221
ation: 221
announce 221
condemning 221
advances 221
uncertain 221
legality 221
controversy 221
kor@@ 220
ultim 220
profituri 220
conservator 220
abuzuri 220
eficacitatea 220
artificial 220
romii 220
patrimoniul 220
biz@@ 220
jurnal 220
soldat 220
martur@@ 220
voluntara 220
sp 220
producatoare 220
eliminam 220
hotar@@ 220
propriei 220
porturile 220
chinez 220
southeastern 220
britanii 220
orului 220
erlis 220
24@@ 220
write 220
paramount 220
shame 220
iled 220
bankruptcy 220
bases 220
observation 220
warmly 220
recover 220
interog@@ 219
israelian 219
imense 219
profesorul 219
satelit 219
serveste 219
arabia 219
ades 219
sn@@ 219
solicitantilor 219
tacti@@ 219
furnizat 219
dependentei 219
has@@ 219
rez@@ 219
castig@@ 219
polu@@ 219
georg@@ 219
maxime 219
196@@ 219
intreprinde 219
ultraperiferice 219
spr@@ 219
vizibila 219
pop 219
continentul 219
ces 219
praise 219
murders 219
pressures 219
deny 219
sections 219
attacked 219
belarusian 219
ambitiile 218
complicata 218
ceremonie 218
impartasim 218
cunostintele 218
hectare 218
intitulata 218
excluziunii 218
municipalitatea 218
fizica 218
flexibilitatea 218
depun 218
supr@@ 218
legaturilor 218
prizonieri 218
eram 218
ombudsmanul 218
parintilor 218
cohn 218
stocurilor 218
sanatoase 218
tak@@ 218
obisnuite 218
etului 218
italiana 218
iev@@ 218
71 218
violate 218
plur@@ 218
peti@@ 218
but@@ 218
acceptata 218
gauzès 218
raspundem 218
homosexu@@ 218
piese 218
impac@@ 218
nicolas 218
dog@@ 218
seas 218
asset 218
length 218
lending 218
undertakings 218
restrict 218
learnt 218
ultimate 218
intentions: 218
novel 218
modernise 218
dezastrul 217
dispusi 217
minsk 217
cheltuit 217
respectare 217
incalcate 217
tinere 217
tiuni 217
rromi 217
credibilitate 217
convinsi 217
fica 217
observatie 217
antren@@ 217
opunem 217
armon@@ 217
dumneaei 217
clari@@ 217
nemultum@@ 217
sie 217
komsic 217
madagascar 217
ip 217
corectarile 217
darfur 217
aliment@@ 217
sange 217
invatamantului 217
posturile 217
autovehiculelor 217
disciplin@@ 217
naturii 217
serveasca 217
situata 217
reprezentare 217
capitalism 217
carbune 217
tournament 217
ksf 217
scur@@ 217
ija 217
procedat 217
excellence 217
modest 217
airspace 217
silence 217
notice 217
jeopardise 217
attached 217
pursued 217
complexity 217
inevitably 217
facilitation 217
reinforcing 217
negocierea 216
inselatoare 216
plangeri 216
familiale 216
ambitia 216
sulejman 216
destabil@@ 216
intampinat 216
operatorilor 216
manipul@@ 216
insistam 216
belgiene 216
pretu@@ 216
mesaje 216
1980 216
pod@@ 216
ł@@ 216
islandei 216
viabila 216
82 216
fiat 216
determinare 216
abolirea 216
atentiei 216
ball 216
bildt 216
region@@ 216
deoparte 216
transporta 216
argentina 216
ritm 216
bon@@ 216
directorului 216
seminar 216
%), 216
insight 216
12% 216
lift 216
quar@@ 216
0,000 216
everyday 216
protesters 216
impunity 216
diary: 216
database 216
ljubljana 215
reprezentantului 215
adresandu 215
ologice 215
ade@@ 215
intensificat 215
testele 215
contingent 215
iesirea 215
europ@@ 215
pi 215
abrog@@ 215
limiteze 215
izati 215
numitele 215
restructur@@ 215
geografica 215
exceptii 215
domniei 215
revizuiasca 215
vas@@ 215
judecati 215
sporirii 215
respectivul 215
ashraf 215
wor@@ 215
bay 215
hing 215
appoint 215
purchasing 215
triggered 215
signatures 215
declined 215
pave 215
adapting 215
execution 215
punished 215
reclam@@ 214
ams 214
monopol@@ 214
motto 214
zboruri 214
padurile 214
fu@@ 214
derivate 214
mr@@ 214
pescarii 214
negocia 214
virus 214
eliminarii 214
fortate 214
bucure 214
daune 214
intar@@ 214
diplom@@ 214
kla 214
aparam 214
formelor 214
electr@@ 214
secre@@ 214
dot@@ 214
acc@@ 214
expertiza 214
1974 214
limbile 214
iunilor 214
monument 214
properties 214
pest@@ 214
asian 214
scores 214
consolidated 214
inequality 214
exploited 214
bronze 214
reflection 214
justificate 213
exempl@@ 213
insine 213
amend@@ 213
initierea 213
civic 213
cupl@@ 213
dispun 213
marc@@ 213
nel@@ 213
cazului 213
jul@@ 213
prost 213
determin@@ 213
turistic 213
reducerile 213
orientarea 213
cercetari 213
s.@@ 213
sculp@@ 213
expedi@@ 213
investig@@ 213
maxim@@ 213
rem@@ 213
bunei 213
endeavour 213
ible 213
assurances 213
opposing 213
settle 213
demonstrating 213
volatility 213
vowed 213
performing 213
received: 213
preferred 213
intention@@ 212
anuntul 212
civiliz@@ 212
o: 212
etele 212
diversificarea 212
greselile 212
ust 212
minore 212
stimulent 212
solutionarii 212
demisionat 212
prot@@ 212
raul 212
disputei 212
baz@@ 212
mpa 212
concediului 212
finalizata 212
august). 212
mubarak 212
verificare 212
trimiterea 212
investitia 212
optimist 212
manifesta 212
(stanga), 212
decisiva 212
conductei 212
terenul 212
gazda 212
rand@@ 212
armele 212
polo 212
rezonabila 212
nuts 212
(es@@ 212
tsunami 212
proprietatilor 212
bet@@ 212
(for 212
ach 212
honoured 212
defenders 212
gaps 212
profitable 212
enforced 212
didn 212
performances 212
10,000 212
availability 212
pagube 211
extremism 211
piesa 211
mld 211
kul@@ 211
diversitate 211
merit 211
invatamantul 211
iugoslavia 211
(&quot; 211
asistam 211
edi 211
catal@@ 211
fond@@ 211
organizeaza 211
leaga 211
simic 211
bendit 211
vic@@ 211
bir@@ 211
trecutului 211
hellenic 211
ivan@@ 211
suprema 211
rever@@ 211
sir 211
73 211
brown 211
201@@ 211
suspend 211
afterwards 211
examining 211
kyrgyzstan 211
industrialised 211
tend 211
ceasefire 211
educated 211
constituents 211
knew 211
remarkable 211
ts@@ 210
discutata 210
tripoli 210
ideii 210
liechtenstein 210
conducerii 210
intreprins 210
strazi 210
placut 210
echilibrate 210
amanat 210
barierelor 210
ç@@ 210
sovietica 210
cancelarul 210
trata 210
diviz@@ 210
vasta 210
difuz@@ 210
gand@@ 210
vinovati 210
k) 210
past@@ 210
oprit 210
ken 210
programare 210
6m 210
hand@@ 210
moldovan 210
audience 210
pull 210
armenian 210
designated 210
friendship 210
demonstrators 210
ideological 210
innovations 210
ened 210
respondents 210
outset 210
gains 210
pacat 209
proprietarii 209
elaboram 209
kurd 209
ordinul 209
stric@@ 209
parteneriate 209
intimid@@ 209
ficarea 209
gasita 209
sid@@ 209
contractelor 209
antic 209
curente 209
diplomatic: 209
barbatilor 209
purtator 209
sect@@ 209
precare 209
realizarii 209
difera 209
jucatori 209
alismului 209
orientata 209
eliberare 209
bogdanovic 209
lab@@ 209
az 209
articolele 209
migranti 209
hoc 209
subiectele 209
conex@@ 209
secur@@ 209
linist@@ 209
liberei 209
exercitarea 209
gerb 209
bak@@ 209
retr@@ 209
finnish 209
3,000 209
counting 209
separately 209
entails 209
exceed 209
inspection 209
uphold 209
announcing 209
chaos 209
translation 209
proves 209
shooting 209
ofer 208
emil 208
indi@@ 208
seychelles 208
multum@@ 208
garrido 208
stone 208
dispozitiilor 208
pamuk 208
inving@@ 208
je@@ 208
sul@@ 208
sport: 208
ingrijirea 208
initiativelor 208
vehiculelor 208
modelului 208
elena 208
divizarea 208
detinuti 208
austriac 208
minoritatea 208
protejat 208
europe@@ 208
aver@@ 208
brazilian 208
revenit 208
navele 208
adjunctul 208
veteran 208
74 208
offshore 208
4m 208
satisfy 208
explicitly 208
harsh 208
underlined 208
restoration 208
uneia 207
suedez 207
coerente 207
oim 207
liu 207
prodi 207
indreptate 207
negat 207
m) 207
purtatoarea 207
potentiala 207
concordanta 207
asociat 207
schimburi 207
limaj 207
functionale 207
uitat 207
procedurale 207
ridic@@ 207
hartie 207
sezer 207
sper@@ 207
eliberat 207
inflatia 207
sf 207
instituit 207
afirmatia 207
munc@@ 207
referindu 207
registrul 207
instig@@ 207
spiric 207
t) 207
ory 207
investigative 207
traceability 207
deeper 207
sooner 207
automatically 207
enabled 207
abolished 207
hatred 207
fled 207
expenses 207
tariffs 207
cantitati 206
rugam 206
abili 206
ficate 206
blocului 206
doban@@ 206
iub@@ 206
asez@@ 206
tendintele 206
incadreaza 206
invatarea 206
restabilirea 206
proclam@@ 206
dest@@ 206
exclusiva 206
93 206
fischer 206
documentelor: 206
ajelor 206
cii 206
necesitatile 206
ific@@ 206
turistii 206
transmise 206
ini@@ 206
destin@@ 206
atingem 206
box 206
venture 206
nationality 206
gallery 206
voicing 206
testing 206
tight 206
reception 206
detrimental 206
indications 206
13th 206
locations 206
er: 205
ambasador 205
xxi 205
urs@@ 205
mediafax 205
conciliere 205
meciul 205
insuficienta 205
eliminare 205
resping 205
antei 205
puterilor 205
barb@@ 205
dare 205
recep@@ 205
bancara 205
anun@@ 205
atinse 205
anders 205
ocup@@ 205
comercializarea 205
scolar 205
terminat 205
poluarii 205
mandru 205
grecii 205
amploarea 205
ru 205
declin 205
suveran 205
ved@@ 205
rav@@ 205
dim@@ 205
alexand@@ 205
nomination 205
sixth 205
starts 205
abolish 205
stating 205
fossil 205
separation 205
falsified 205
stipulates 205
harms 204
confera 204
wood 204
atingerii 204
musulmana 204
laud@@ 204
industrializate 204
satisfacatoare 204
jurnalist 204
voc@@ 204
presupusa 204
eza 204
stangii 204
structurala 204
pom@@ 204
demarat 204
asteptare 204
depart@@ 204
diminuarea 204
parut 204
indeplinirii 204
69 204
ratingul 204
nevoi 204
incorpor@@ 204
76 204
impl@@ 204
nas@@ 204
proprietatile 204
permisiunea 204
accentu@@ 204
kozloduy 204
180 204
contrav@@ 204
96 204
care@@ 204
puternici 204
competitiv 204
justificat 204
ce: 204
atoarea 204
flu@@ 204
simpli@@ 204
ung 204
combination 204
consulted 204
condemnation 204
positively 204
completing 204
abortion 204
controlling 204
diferentelor 203
gran@@ 203
cantitate 203
aren@@ 203
mircea 203
radicale 203
capacitati 203
judecatorilor 203
exploat@@ 203
multinationale 203
elen 203
laden 203
vandut 203
are; 203
incluziunii 203
revenirea 203
mor 203
macro@@ 203
tito 203
relevat 203
ocupam 203
pregatim 203
inutil 203
hum@@ 203
erului 203
licitatia 203
sters 203
č@@ 203
vanda 203
fiinte 203
includem 203
cour@@ 203
elite 203
surprinzator 203
optional 203
infiintarii 203
gent 203
ty@@ 203
disability 203
constraints 203
realisation 203
straight 203
giant 203
likewise 203
refusing 203
multiethnic 203
question: 203
packages 203
structured 203
emphasising 203
constituency 203
publication 203
uted 203
legacy 203
rog@@ 202
intentii 202
trage 202
gestiona 202
plece 202
conforma 202
plaseaza 202
angajate 202
provocata 202
bast@@ 202
adapta 202
purtam 202
remarcile 202
unitatile 202
jat 202
niciuna 202
condoleezza 202
conserv@@ 202
weekly 202
modifice 202
oliver 202
situ@@ 202
bin@@ 202
beautiful 202
rejecting 202
civilisation 202
standardisation 202
indirectly 202
allocate 202
gordon 201
ultimei 201
paralele 201
arunc@@ 201
itar@@ 201
titlu 201
provenind 201
contra@@ 201
pastr@@ 201
insel@@ 201
preocupati 201
sol 201
retinut 201
vice@@ 201
producatorul 201
spital 201
bord 201
dublu 201
imobiliare 201
intrare 201
tic@@ 201
cli@@ 201
imens 201
judecatori 201
q 201
biden 201
rid 201
influx 201
sign@@ 201
(8)) 201
connect 201
outgoing 201
synergies 201
damages 201
attracting 201
overwhelming 201
asks 201
blocks 201
await 201
applaud 201
profound 201
belongs 201
.&apos; 201
seriozitate 200
limbii 200
ingrozitoare 200
martori 200
rompres 200
lase 200
speculatiile 200
18% 200
lam@@ 200
guvernarii 200
pag@@ 200
moldov@@ 200
terorist 200
itele 200
devi@@ 200
dificultatilor 200
relative 200
pasul 200
detina 200
numer@@ 200
recti@@ 200
disper@@ 200
viabile 200
privileg@@ 200
auzim 200
insisi 200
rival 200
defini 200
olul 200
semnate 200
definitie 200
(et) 200
declaratiilor 200
demol@@ 200
mediteranei 200
peninsula 200
pope 200
deforestation 200
korean 200
accords 200
25th 200
restored 200
founder 200
pursuant 200
employ 200
champion 200
dismissed 200
wonderful 200
reminded 200
detriment 200
whatsoever 200
insotita 199
importuri 199
anuntate 199
term@@ 199
hotarata 199
universale 199
decese 199
asoci@@ 199
65% 199
liter@@ 199
tol@@ 199
ofiter 199
intercep@@ 199
preciz@@ 199
bunastare 199
cincilea 199
concursul 199
deschiderii 199
indemn@@ 199
spor@@ 199
salari@@ 199
generatiile 199
tragedie 199
acumul@@ 199
cru@@ 199
rosii 199
resursa 199
functionarilor 199
captur@@ 199
constata 199
apelor 199
stipul@@ 199
albert 199
identi@@ 199
multinational 199
directivele 199
kosova 199
proactive 199
conditional 199
pushed 199
syrian 199
narrow 199
pensioners 199
fairer 199
affordable 199
acquire 199
sports: 199
pressed 199
virtually 199
persuade 199
fees 199
advocated 199
avocatul 198
descarcare 198
implicarii 198
tati 198
tip@@ 198
oricaror 198
convenite 198
marin 198
procentul 198
elaborata 198
insemnat 198
dre@@ 198
inele 198
european@@ 198
ace@@ 198
utul 198
minelor 198
dimensiunii 198
teritoriile 198
transnistria 198
sindicatele 198
gazului 198
relansarea 198
cipriotilor 198
intalneasca 198
boyko 198
cursuri 198
cheltuiti 198
meci 198
degrad@@ 198
examinare 198
mauritania 198
parlamentului: 198
dispus 198
usur@@ 198
water@@ 198
papua 198
nd 198
coun@@ 198
migrant 198
ambassadors 198
antly 198
watching 198
dered 198
heating 198
fragment@@ 197
incrimin@@ 197
victor 197
indrepta 197
diplomati 197
ain 197
selec@@ 197
initieze 197
conven@@ 197
afacere 197
norma 197
plenare 197
azilul 197
protejati 197
tratarea 197
memb@@ 197
lec@@ 197
contradictie 197
garantat 197
georgian 197
statistice 197
cetatenia 197
felicitari 197
conventii 197
ul: 197
corespunde 197
sig@@ 197
arb@@ 197
sanatoasa 197
petroliere 197
studi@@ 197
convinga 197
ivana 197
atacat 197
god 197
danish 197
describe 197
uting 197
defeat 197
reintegration 197
forecasts 197
draws 197
internally 197
7m 197
distinction 197
injuries 197
shortages 197
dezvoltata 196
infiintate 196
mom@@ 196
comunicatii 196
tipurile 196
delegatii 196
stimulare 196
lem@@ 196
regret@@ 196
cultiv@@ 196
i). 196
libiei 196
ratificare 196
ro 196
produc@@ 196
intreb@@ 196
separarea 196
bunavointa 196
nenumarate 196
scapa 196
vizibile 196
identitatii 196
exterior 196
ferreira 196
aspir@@ 196
vechea 196
ji 196
vesti 196
scenariu 196
cir@@ 196
fy 196
ared 196
strengthens 196
simpler 196
palestinians 196
swiftly 196
boskovski 195
proportional 195
bamir 195
colaboram 195
electronica 195
serghei 195
mai). 195
criticii 195
intim@@ 195
incidenta 195
neces@@ 195
alilor 195
vecinatatea 195
ren 195
exclus 195
constat 195
elaborarii 195
turco 195
avansat 195
infiinta 195
inchisoarea 195
gro@@ 195
fotografii 195
cantare@@ 195
(ec@@ 195
herman 195
teatrul 195
recomand@@ 195
trag@@ 195
turistica 195
cantitatea 195
persec@@ 195
circul@@ 195
dy 195
polar@@ 195
slabic@@ 195
impartaseste 195
diyarbakir 195
acordand 195
locatii 195
style 195
agents 195
condolences 195
servants 195
freeze 195
smooth 195
92 194
retragere 194
barbat 194
indemniz@@ 194
termenii 194
despagubiri 194
poz@@ 194
profiturile 194
reun@@ 194
coopereaza 194
interpretare 194
gazdu@@ 194
utilizatorii 194
recomandarilor 194
ideolog@@ 194
vinovat 194
rece 194
orbán 194
flexibila 194
suporta 194
ei: 194
circula 194
may@@ 194
pittsburgh 194
ale@@ 194
shar@@ 194
kosumi 194
rosé 194
tal 194
substantelor 194
evaluarile 194
bis@@ 194
tolerate 194
vor@@ 194
conventional 194
definitive 194
textiles 194
highlighting 194
revise 194
congratulating 194
borne 194
indispensable 194
normally 194
holders 194
fired 194
systematically 194
justification 194
intensify 194
30th 194
courses 194
duplic@@ 193
explic@@ 193
stanisev 193
amplas@@ 193
spaniei 193
simpl@@ 193
reflect@@ 193
virtu@@ 193
infiinteze 193
ate: 193
vizeze 193
autostrada 193
market@@ 193
iu@@ 193
combatem 193
enilor 193
vondra 193
adevar@@ 193
rupel 193
atile 193
georgieva 193
ingrijorarile 193
ljiljana 193
bag@@ 193
av 193
ordin@@ 193
bour@@ 193
ancy 193
(akp) 193
eve 193
alive 193
boundaries 193
cease 193
disadvantage 193
questioned 193
papers 193
knowing 193
attempted 193
existed 193
fortunately 193
ined 193
references 193
lays 193
cheaper 193
finalised 193
wise 193
bosniaks 193
decurs 192
oraselor 192
capitolul 192
88 192
extraordinare 192
martie). 192
dezamagit 192
sotia 192
transatlantice 192
scri@@ 192
kathimerini 192
multumirile 192
regulamentelor 192
ishing 192
tratam 192
dell 192
pretin@@ 192
haitian 192
avansate 192
onului 192
frontierei 192
pretinde 192
josé 192
eticheta 192
interventiile 192
recunoasterii 192
ovic: 192
inregistrata 192
fron@@ 192
tinte 192
ly@@ 192
dance 192
construct 192
synergy 192
50m 192
documentation 192
catholic 192
gather 192
riots 192
railways 192
collecting 192
africana 191
diagnostic@@ 191
adapost 191
citand 191
disponibil 191
examinam 191
raj@@ 191
ansamblul 191
marturie 191
greseli 191
anularea 191
colect@@ 191
alt@@ 191
aleasa 191
repatri@@ 191
focului 191
dum@@ 191
chem@@ 191
entuziasm 191
bogata 191
sus@@ 191
finele 191
lucru: 191
ukip 191
ulate 191
documentului 191
stadiul 191
dunare 191
gas@@ 191
curata 191
subventiilor 191
diversitatii 191
voci 191
cy@@ 191
listei 191
dil@@ 191
disparute 191
observer 191
disc@@ 191
8m 191
perspectives 191
supplied 191
investigating 191
addiction 191
fying 191
alike 191
donation 191
rebuild 191
tand 190
respectata 190
comisiile 190
onoarea 190
succes@@ 190
controversate 190
folositi 190
operatiunii 190
lazarova 190
ambii 190
escal@@ 190
reducand 190
sari 190
semn@@ 190
apel@@ 190
rii 190
statisticilor 190
adevarate 190
it: 190
lap@@ 190
ultimilor 190
adaptate 190
delicata 190
sugestii 190
transfer@@ 190
deficitele 190
defineasca 190
cumva 190
lipsita 190
steiner 190
exporta 190
functionat 190
pierre 190
nam@@ 190
0km 190
icj 190
screening 190
burma 190
20,000 190
secured 190
linguistic 190
laundering 190
analyses 190
&apos;ivoire 190
tonul 189
pronun@@ 189
sarbatori 189
distinc@@ 189
fusese 189
00) 189
sustenabila 189
inaintata 189
alitati 189
cutremur 189
denatur@@ 189
animala 189
achizitiilor 189
nationali 189
transferate 189
wisner 189
argint 189
gandit 189
ilustr@@ 189
intarzierea 189
academia 189
trimise 189
og 189
vizat 189
interpretarea 189
anda 189
dal@@ 189
dedicate 189
mita 189
secular@@ 189
sco@@ 189
furnizori 189
list@@ 189
evidenti@@ 189
gabriel 189
preval@@ 189
caile 189
lju@@ 189
rum@@ 189
biodiversitatea 189
asumam 189
tan 189
materii 189
vetevendosje 189
embargo 189
boys 189
ough@@ 189
engineering 189
electorate 189
replacing 189
semester 189
spreading 189
noticed 189
seemed 189
margin 189
update 189
extremists 189
pick 189
poorer 189
cumparat 188
institui 188
taxei 188
fortata 188
inspir@@ 188
teritoriului 188
fostele 188
calificata 188
directii 188
insuficiente 188
tori 188
simul@@ 188
ves@@ 188
ick 188
(3@@ 188
aducerea 188
obisnuita 188
obtinuta 188
sfert 188
litig@@ 188
part@@ 188
flexibil 188
intoler@@ 188
struga 188
incercarile 188
rotativa 188
aliat 188
rez 188
bursa 188
ky 188
xh@@ 188
adnan 188
vamala 188
dalai 188
spir@@ 188
infrastructuri 188
targeting 188
eligibility 188
oldest 188
driver 188
titled 188
shortage 188
complaint 188
parliamentarians 188
sadly 188
roots 188
murdered 188
components 188
downturn 188
inappropriate 188
notion 188
ambitie 187
b) 187
concluzionat 187
comunismului 187
gratuit 187
proportii 187
originii 187
distrug@@ 187
capete 187
tensiunilor 187
colonel 187
tile 187
devast@@ 187
popoare 187
omul 187
lipsesc 187
precizeaza 187
britanice 187
etr@@ 187
structur@@ 187
ului: 187
berès 187
ofiterii 187
solicitantii 187
mani 187
complicat 187
natiunii 187
0.000 187
prelung@@ 187
reactioneze 187
revol@@ 187
restr@@ 187
protectionist 187
jum@@ 187
euratom 187
dink 187
nur@@ 187
remedy 187
mosque 187
substantive 187
ians 187
clarified 187
influential 187
harder 187
holidays 187
cofinancing 187
intensa 186
viziteze 186
prudent 186
religios 186
revolution@@ 186
dinam@@ 186
djordjevic 186
recuper@@ 186
lega 186
finantari 186
semnale 186
mid@@ 186
prezentam 186
sectoarelor 186
99% 186
vointei 186
informez 186
kur@@ 186
finanteze 186
daianu 186
turn@@ 186
speculatii 186
eli 186
militar@@ 186
realiste 186
sic@@ 186
summ@@ 186
etice 186
vanzarile 186
sos@@ 186
desfiint@@ 186
itu@@ 186
ef 186
cladirea 186
sponsor@@ 186
ruecker 186
fe 186
impre@@ 186
cut@@ 186
descend@@ 186
dg 186
poveste 186
bailout 186
eries 186
amounting 186
teaching 186
favoured 186
vitally 186
memory 186
earn 186
featuring 186
missed 186
albeit 186
proportionality 186
firesc 185
tineretului 185
coment@@ 185
distrugere 185
privita 185
hall 185
fezabilitate 185
constructiei 185
medii 185
arte 185
finantata 185
ess@@ 185
furtuna 185
laptelui 185
dramatice 185
atenei 185
ruga 185
continu@@ 185
conducte 185
coburg 185
avertisment 185
mes 185
comerci@@ 185
incet 185
(rs), 185
evacu@@ 185
jov@@ 185
fostii 185
initia 185
secol 185
atas@@ 185
wireless 185
tabere 185
jordan 185
tical 185
290 185
alert 185
hot 185
chernobyl 185
settled 185
specialists 185
whenever 185
dioxide 185
measuring 185
enjoys 185
taxpayer 185
enters 185
governed 185
18th 185
faculty 185
younger 185
differently 185
vaccines 185
turns 185
delivering 185
stepping 185
fourthly 185
defeated 185
bomb 185
pamant 184
publicitatea 184
autobuzul 184
anchete 184
detinuta 184
dictatura 184
urmarire 184
straina 184
1984 184
telegraph 184
crizele 184
rol@@ 184
scuza 184
navale 184
determinate 184
afirmam 184
160 184
ó@@ 184
desfiintarea 184
restrictiilor 184
albertini 184
confiscate 184
intreprinda 184
schi 184
brcko 184
ale: 184
seselj 184
film@@ 184
cab@@ 184
cevic 184
medieval 184
tar 184
england 184
sun 184
input 184
successes 184
readmission 184
philosophy 184
theme 184
hearings 184
energies 184
arrival 184
contamination 184
controversat 183
aprecierea 183
aruncat 183
sedinte 183
profil@@ 183
clarific 183
repatrierea 183
revizuita 183
amintit 183
intentie 183
presup@@ 183
revizui 183
urmate 183
britanica 183
indeamna 183
separata 183
geografic 183
prud@@ 183
absolv@@ 183
ier@@ 183
86 183
directivelor 183
frecventa 183
fum@@ 183
amin@@ 183
gru@@ 183
controversata 183
parental 183
ced@@ 183
interzisa 183
superioara 183
pareri 183
dps 183
organizatorii 183
nationaliste 183
clar: 183
swe@@ 183
concepute 183
fix 183
reproductive 183
bdp 183
compensate 183
hotels 183
gsp 183
liberty 183
oph@@ 183
monuments 183
crops 183
criterion 183
integrating 183
interethnic 183
collabor@@ 183
cautious 183
introduces 183
deterioration 183
ceiling 183
outbreak 183
specialised 183
specified 183
indictee 183
foreigners 183
blind 183
gathering 183
benchmarks 183
accompanying 183
afis@@ 182
numeroaselor 182
grad@@ 182
inscrie 182
sindicatelor 182
componente 182
blocheze 182
vazuta 182
coordona 182
martorilor 182
siz@@ 182
publicitate 182
universitatile 182
frag@@ 182
productiva 182
coordon@@ 182
iuni 182
avans 182
dos 182
iz 182
scandal@@ 182
observator 182
ruse 182
clarificarea 182
aparat 182
istr@@ 182
constat@@ 182
fant@@ 182
fiul 182
ortodoxe 182
manifestat 182
gand 182
multumim 182
koha 182
ume 182
incalzirea 182
nordului 182
intitulat 182
convingere 182
tel 182
presiunilor 182
dispusa 182
circulatii 182
michel 182
dtp 182
dimitrov 182
13.@@ 182
04@@ 182
internation@@ 182
jac@@ 182
ening 182
silent 182
fostering 182
ented 182
questionable 182
democracies 182
lebanon 182
imprisonment 182
confusion 182
assigned 182
(egf) 182
catastrophe 182
signature 182
portughez 181
intari 181
interesat 181
infractiunilor 181
hid@@ 181
export@@ 181
succese 181
uiesc 181
indice 181
elaborare 181
monitorizarii 181
inchida 181
ce) 181
lj@@ 181
vir@@ 181
coalitii 181
libian 181
gest@@ 181
sit@@ 181
unanim 181
p). 181
robertson 181
identifice 181
singurele 181
substantele 181
disponibila 181
progreselor 181
parinti 181
redac@@ 181
adunare 181
influ@@ 181
versiune 181
inregistreze 181
prizonierilor 181
faptele 181
traditionala 181
super 181
shop 181
store 181
rape 181
literature 181
agreeing 181
psychological 181
risen 181
globalised 181
totalitarian 181
theory 181
perceived 181
forcing 181
verification 181
prisons 181
ticket 181
undermined 181
competitors 181
tested 181
t; 180
informatice 180
limbilor 180
moratoriu 180
seze 180
itand 180
vizibil 180
utilizatori 180
profesori 180
occidentali 180
(a@@ 180
fest 180
sr@@ 180
chineze 180
reprezint 180
fier 180
pedepse 180
contrafacerii 180
vu@@ 180
plasa 180
anch@@ 180
crestinii 180
ahmeti 180
icul 180
procuratura 180
mitchell 180
kes 180
cenzura 180
transl@@ 180
prescr@@ 180
poet 180
modificata 180
delta 180
integritatii 180
mess 180
trai@@ 180
vorbitorul 180
--@@ 180
hu 180
sergey 180
sharply 180
punish 180
prosperous 180
hosting 180
inevitable 180
kicked 180
viability 180
corresponding 180
regulators 180
extraction 180
roughly 180
100,000 180
inhumane 180
fication 180
normale 179
pastrat 179
situatiilor 179
inutila 179
naturala 179
asigurata 179
otul 179
reglementata 179
tanara 179
imper@@ 179
insuficient 179
ime 179
nesiguranta 179
comerciali 179
increzator 179
anulat 179
ingin@@ 179
superioare 179
unu 179
alarma 179
pasii 179
afecteze 179
sensibila 179
bsp 179
cerute 179
efectuarii 179
reamintit 179
instituire 179
(6@@ 179
kurde 179
győri 179
tita 179
incer@@ 179
dire 179
suprap@@ 179
avertiz@@ 179
(sp@@ 179
fugari 179
renuntat 179
ficare 179
blo@@ 179
neo 179
lavrov 179
suit 179
with@@ 179
upgrade 179
minds 179
warm 179
traditionally 179
opposes 179
senate 179
updated 179
partially 179
counterfeit 179
appreciation 179
iving 179
wasted 179
judecat 178
scrutinul 178
prestig@@ 178
distributia 178
matic 178
anuntarea 178
agrav@@ 178
evalueaza 178
defavorizate 178
legiu@@ 178
indign@@ 178
operationala 178
rezolvare 178
circulatia 178
picior 178
ingrijorata 178
sporire 178
concesii 178
apropiate 178
largi 178
arhitectura 178
restitu@@ 178
pensie 178
cladire 178
orchest@@ 178
select@@ 178
implicatii 178
schwab 178
eliberate 178
publicata 178
ome 178
organizarii 178
scap@@ 178
jucator 178
icevic 178
ua 178
sustinator 178
ignorat 178
(blic 178
profitam 178
comunista 178
sekerinska 178
claude 178
fit@@ 178
fatos 178
prosper 178
by@@ 178
vr@@ 178
naval 178
caribbean 178
complement 178
decides 178
encouragement 178
sealed 178
deemed 178
resigned 178
tied 178
noise 178
toll 178
unknown 178
atice 177
cumparare 177
concentrarea 177
flat 177
declans@@ 177
preaderare 177
inovatii 177
minte 177
autorizarea 177
constante 177
ag 177
contravine 177
incercari 177
izbucnit 177
repetarea 177
stoparea 177
stav@@ 177
lau@@ 177
sakharov 177
neloiale 177
comunicarii 177
pasa 177
vechiul 177
lansarii 177
ever@@ 177
perioadele 177
blog@@ 177
iluz@@ 177
stimuleze 177
participante 177
unitar 177
avocat 177
tras 177
amente 177
impunem 177
director@@ 177
atea 177
informeze 177
explicatie 177
vet@@ 177
rich@@ 177
photo 177
ä@@ 177
rab@@ 177
oda 177
examin@@ 177
es) 177
syn@@ 177
budapest 177
50,000 177
eliminated 177
restoring 177
withdrawn 177
bluefin 177
convincing 177
lend 177
object 177
americans 177
neighbourly 177
interfere 177
approaching 177
judgments 177
bananas 177
ordinator 177
scor@@ 176
crestini 176
sovietice 176
cicl@@ 176
estimata 176
secunde 176
91 176
octombrie). 176
inovatia 176
84 176
discre@@ 176
procurorilor 176
prieten 176
suspect@@ 176
germani 176
petrece 176
utilizati 176
viabilitatea 176
cautare 176
trichet 176
valorific@@ 176
consilier 176
carrier 176
defin@@ 176
predic@@ 176
reste 176
transporturi 176
(ft 176
šefčovič 176
clarificam 176
chin@@ 176
examineaza 176
timpurie 176
tex@@ 176
ouri 176
recuperare 176
lake 176
itarii 176
activi 176
incidentul 176
pleca 176
gjorge 176
rationale 176
segment 176
ath 176
bedrana 176
ing; 176
nad@@ 176
ship@@ 176
100m 176
enthusiasm 176
restricting 176
simultaneously 176
ballot 176
biological 176
redress 176
communicate 176
translated 176
advocating 176
clothing 176
aled 176
iate 175
supravietui 175
ader@@ 175
g8 175
litigiilor 175
anticipat 175
interventiei 175
societ@@ 175
privati 175
depasite 175
nest@@ 175
anex@@ 175
irlandezi 175
ajut@@ 175
discursuri 175
sent@@ 175
decente 175
(5@@ 175
45% 175
eca 175
siunile 175
ratifice 175
temelie 175
depasim 175
asemanatoare 175
semin@@ 175
.- 175
fabrici 175
urmatori 175
lucrurilor 175
repres@@ 175
transfera 175
cho@@ 175
ego@@ 175
clarifice 175
implicatiile 175
mostenirea 175
rotatie 175
wil@@ 175
tragem 175
cinematograf@@ 175
esf 175
capita 175
contracting 175
correspondent 175
ecosystems 175
reacted 175
recommends 175
geopolitical 175
understandable 175
impressive 175
exceptionally 175
functiune 174
lasati 174
omir 174
asasinat 174
ate; 174
supravietuirea 174
incertitudine 174
echilibr@@ 174
tul@@ 174
intervenit 174
fotograf@@ 174
comunica 174
tw@@ 174
raportare 174
masiv 174
omenesti 174
amanare 174
cotele 174
oportunitatilor 174
jef@@ 174
facilitati 174
kesh 174
faz@@ 174
doc@@ 174
termene 174
uman@@ 174
tangibile 174
atl@@ 174
constr@@ 174
lucrez 174
azilului 174
echivoc 174
charles 174
mos@@ 174
nikol@@ 174
ajutoarelor 174
interzise 174
izolate 174
acute 174
ioase 174
sacrifice 174
explore 174
dear 174
capability 174
continually 174
seconds 174
permission 174
rooted 174
resumption 174
evaluating 174
stimulating 174
thoughts 174
traffickers 174
workplace 174
archaeologists 174
consolidating 174
choosing 174
donatori 173
weber 173
shalit 173
sarac@@ 173
negocieze 173
87 173
blocul 173
pregatesc 173
izmir 173
itorului 173
ibile 173
itr@@ 173
afili@@ 173
maroc 173
alerta 173
provizoriu 173
preferinte 173
separ@@ 173
pod 173
7,000 173
lectie 173
14% 173
sarbator@@ 173
incet@@ 173
mugabe 173
milos 173
paz@@ 173
angajatorilor 173
alb 173
impartite 173
voluntare 173
rescu 173
impasse 173
inovic 173
marshall 173
suc@@ 173
lady 173
library 173
sciences 173
creativity 173
sation 173
striking 173
gratitude 173
0s 173
unded 173
predecessor 173
nurses 173
dimensions 173
ineffective 173
fruitful 173
differ 173
flood 173
recurs 172
ultimului 172
controleaza 172
miz@@ 172
impun@@ 172
solicit@@ 172
novosti 172
ingrijorari 172
bucurie 172
(de 172
avanseze 172
populist 172
impulsion@@ 172
angajatorii 172
devastatoare 172
teze 172
integreze 172
sustin@@ 172
entitatilor 172
prevedere 172
interesante 172
kilometri 172
bi 172
importul 172
invatare 172
eliberati 172
ota 172
musulmanii 172
calduros 172
142 172
poloniei 172
altern@@ 172
gordana 172
donatorilor 172
bolii 172
las@@ 172
2018 172
frumoase 172
finalizeze 172
trium@@ 172
acoper@@ 172
incantati 172
ao 172
castigatorul 172
romano 172
cailor 172
toxice 172
magn@@ 172
ron@@ 172
dezvaluie 172
organ@@ 172
(l@@ 172
avute 172
oecd 172
p.m.) 172
hon@@ 172
milestone 172
remit 172
caution 172
stabilising 172
contemporary 172
hectares 172
hailed 172
deprived 172
travelled 172
attracted 172
accelerated 172
mentioning 172
underlines 172
maintains 172
fathers 172
flags 172
impozitele 171
alocata 171
intrunire 171
licenta 171
sefilor 171
contractul 171
urmatoarea: 171
sugestiile 171
ramush 171
continuarii 171
devot@@ 171
parlament@@ 171
topolánek 171
colabor@@ 171
vizand 171
incendi@@ 171
fort@@ 171
supravietu@@ 171
medalia 171
intreprindere 171
ima 171
ordon@@ 171
imperi@@ 171
reuni 171
wallis 171
al; 171
icilor 171
simpson 171
° 171
fer 171
variaza 171
cofinant@@ 171
protejare 171
750 171
kermabon 171
kalfin 171
kom@@ 171
spe@@ 171
ja@@ 171
ects 171
grew 171
cyber 171
kill 171
bail 171
fault 171
banning 171
permanently 171
defendants 171
publishing 171
infringements 171
nominated 171
edly 171
petition 171
surprising 171
weaken 171
amenintate 170
pescarilor 170
respinse 170
tro@@ 170
incalzirii 170
valoroasa 170
rusi 170
stagn@@ 170
ament@@ 170
colectate 170
115 170
familiar@@ 170
mina 170
interesata 170
presedinti 170
tragice 170
apreciem 170
anchet@@ 170
sex@@ 170
transferuri 170
adoptare 170
instruire 170
echilibrului 170
varst@@ 170
west@@ 170
stramutate 170
aveam 170
convers@@ 170
denun@@ 170
aim@@ 170
anuntata 170
concerte 170
sava 170
enko 170
contrafacute 170
omor@@ 170
polonez 170
greut@@ 170
rezolutiile 170
structurii 170
holkeri 170
glo@@ 170
iron 170
ives 170
globe 170
securities 170
wild 170
supporter 170
lengthy 170
pledge 170
short@@ 170
freezing 170
aggressive 170
cornerstone 170
guided 170
presidencies 170
devices 170
feasible 170
peacekeepers 170
obiect@@ 169
climatului 169
arest@@ 169
semnificatia 169
erei 169
cetatenie 169
dependente 169
clasat 169
revizuim 169
diz@@ 169
tribunalele 169
varietate 169
portugaliei 169
punctelor 169
memor@@ 169
industriilor 169
dos@@ 169
agr@@ 169
utiliz@@ 169
obligativitatea 169
prosperitatii 169
apr@@ 169
oportuna 169
regimuri 169
drumurile 169
pare@@ 169
trimisa 169
apropiata 169
trimisi 169
obi@@ 169
drama 169
liste 169
rar 169
democrat@@ 169
mam@@ 169
lup@@ 169
citez 169
inelor 169
pfp 169
shor@@ 169
beef 169
broadcast 169
anticipated 169
acknowledges 169
jail 169
mobilised 169
norms 169
censorship 169
offence 169
offences 169
realities 169
guvernatorul 168
dinainte 168
bunele 168
brig@@ 168
itii 168
lanseaza 168
ankarei 168
cubic 168
fez@@ 168
materna 168
transferat 168
apartenenta 168
daunele 168
fluxurilor 168
analizate 168
dez 168
discred@@ 168
gazele 168
analist 168
distric@@ 168
echipele 168
sinuci@@ 168
mile 168
salvarea 168
activelor 168
runde 168
democratizare 168
etichet@@ 168
promovate 168
muzeu 168
restabili 168
inculpare 168
oferte 168
exacerb@@ 168
sefului 168
razvan 168
arelor 168
satisfactia 168
acoperirea 168
obligata 168
majoritar 168
reputatia 168
eroglu 168
bad@@ 168
trajkov 168
year@@ 168
beth 168
gripa 168
sasa 168
89 168
naf@@ 168
ict 168
ail 168
liberation 168
toys 168
fledged 168
appropriately 168
suicide 168
cyanide 168
nowadays 168
utility 168
repair 168
independently 168
spokeswoman 168
adjustments 168
tonului 167
kost@@ 167
arestari 167
petrec@@ 167
studiului 167
autorizare 167
orhan 167
extin@@ 167
turneu 167
gresite 167
drogurilor 167
anul@@ 167
alina 167
categor@@ 167
defineste 167
restaur@@ 167
gandeasca 167
15.@@ 167
indeplinim 167
legitimitate 167
parasi 167
incur@@ 167
imbunatateste 167
demonstratii 167
acvacultura 167
operatori 167
ira 167
unilaterale 167
schimbului 167
nevoii 167
ung@@ 167
caldura 167
cati 167
investigatia 167
olig@@ 167
intorc 167
sutanovac 167
moody 167
conv@@ 167
bac@@ 167
dominant 167
inde@@ 167
shir@@ 167
male 167
default 167
complement@@ 167
shopping 167
evaluated 167
supervised 167
intimidation 167
stipulated 167
websites 167
frankly 167
accessing 167
ologist 167
regain 167
custody 167
sustain 167
ately 167
license 167
suddenly 167
ovac 166
vechile 166
respectivele 166
samardzic 166
arheologii 166
teroristi 166
y), 166
dramatica 166
clientii 166
condamn@@ 166
intreruperea 166
duc@@ 166
incurajez 166
calatoreasca 166
petrovic 166
recunostinta 166
ampren@@ 166
fraud@@ 166
ilustreaza 166
binevenit 166
actorilor 166
covarsitoare 166
interesului 166
fortati 166
sosirea 166
conservatorii 166
partii 166
ghet@@ 166
semi 166
directoare 166
imprumuturilor 166
rromilor 166
ardi 166
pulaj 166
afir@@ 166
kan@@ 166
dezechilibrele 166
protejata 166
karic 166
invete 166
legislatura 166
extremiste 166
discut@@ 166
miroljub 166
apartinand 166
ture 166
bo 166
dark 166
lulling 166
donald 166
ilir 166
palace 166
(saa) 166
user 166
mountains 166
timing 166
skilled 166
rers 166
convey 166
advisory 166
dramatically 166
indicating 166
cloned 166
omagiu 165
slujba 165
considere 165
oti 165
prioritar 165
istul 165
greco 165
restaurant 165
diam@@ 165
guineea 165
istor@@ 165
sexe 165
how@@ 165
consultarea 165
aleg 165
calificare 165
institutiei 165
semneaza 165
avuta 165
meh@@ 165
aci 165
neutr@@ 165
emen@@ 165
nedrep@@ 165
gandi 165
elu@@ 165
hotarari 165
exercitate 165
imagini 165
excav@@ 165
tony 165
contribuim 165
telefon 165
populatiile 165
ries 165
hard@@ 165
err@@ 165
85% 165
hus@@ 165
erg@@ 165
virtual 165
pum@@ 165
ther@@ 165
bond 165
vigilant 165
exceeded 165
cancelled 165
exert 165
turmoil 165
guidance 165
guiding 165
intent 165
generating 165
warnings 165
postponement 165
22nd 165
disarmament 165
portfolio 165
prohibited 165
bologna 164
spar@@ 164
functiile 164
integra 164
haj@@ 164
izetbegovic 164
chir@@ 164
actului 164
exportul 164
permis@@ 164
transporturile 164
legitima 164
strategiilor 164
identificare 164
von 164
fugar 164
multipl@@ 164
elului 164
continutului 164
suporte 164
precara 164
aprilie). 164
politienesti 164
inii 164
viu 164
bc 164
sefi 164
simplificate 164
(dreapta) 164
insistand 164
trimitem 164
zbor 164
clin@@ 164
ascuns 164
suferi 164
ers@@ 164
dere 164
construire 164
kova 164
serbi@@ 164
turneul 164
popovic 164
ads 164
hear@@ 164
transform 164
soft 164
ots 164
impacts 164
county 164
dozen 164
thrown 164
bankrupt 164
successor 164
responsibly 164
negotiators 164
destroying 164
privileged 164
rehabilitation 164
schedule 164
classes 164
bed 164
chairmanship 164
audiovisual 164
inland 164
ity; 164
negotiator 164
offensive 164
lobbying 164
irakul 163
perfecta 163
evo 163
colaborat 163
ianuarie). 163
formulat 163
karolos 163
noiembrie). 163
nereguli 163
specificat 163
haos 163
iunie), 163
castro 163
tionale 163
majorare 163
recomand 163
cercetatori 163
saxe 163
execut@@ 163
combustibili 163
nicholas 163
directiei 163
aglomer@@ 163
bs 163
sarb@@ 163
legalitatea 163
respectului 163
genul 163
lipsite 163
responsabil@@ 163
computers 163
operative 163
ore@@ 163
snsd 163
filmului 163
cell 163
righ@@ 163
pet 163
equity 163
resign 163
frameworks 163
maturity 163
modes 163
performers 163
abide 163
meaningful 163
reformed 163
pursuit 163
legislature 163
operated 163
tables 163
suspicion 163
stefanovic 162
foca 162
iev 162
sporim 162
fragila 162
palestiniene 162
stil 162
admiterea 162
premii 162
pakistanul 162
stiut 162
zh@@ 162
florenz 162
sudica 162
difer@@ 162
uniforme 162
intentionat 162
iale 162
aka 162
semnificatie 162
artist@@ 162
preliminara 162
consider@@ 162
him@@ 162
rutiera 162
octombrie), 162
amentele 162
infrun@@ 162
unile 162
cairo 162
cristian 162
bazam 162
arian 162
cauzeaza 162
solicitate 162
ofen@@ 162
cooperam 162
abund@@ 162
tering 162
simta 162
band@@ 162
tional 162
activist 162
spectacole 162
hillary 162
10m 162
disappeared 162
cavic 162
brand 162
empire 162
native 162
grand@@ 162
palestine 162
bridges 162
hed 162
20m 162
complied 162
exporting 162
threatens 162
authoritarian 162
wished 162
croatians 162
archaeological 162
restriction 162
predicted 162
seriousness 162
lobbyists 162
reassure 162
posted 162
scopurile 161
benefici@@ 161
supar@@ 161
mobilizare 161
septembrie). 161
examinat 161
intrun@@ 161
furnizare 161
stein 161
tali@@ 161
crestin 161
kam@@ 161
obtin 161
obstacolelor 161
mai), 161
inte@@ 161
oh@@ 161
intreprinderea 161
oprim 161
com 161
ocupate 161
resc 161
leinen 161
inch@@ 161
circumscriptia 161
actualelor 161
uniti 161
suger@@ 161
cuprins 161
pahor 161
terestre 161
lumi 161
epis@@ 161
concuren@@ 161
tratata 161
inti 161
complex@@ 161
fluctu@@ 161
legislator 161
30@@ 161
absent 161
vaccine 161
ues 161
consult 161
certification 161
shops 161
prostitution 161
monitors 161
attitudes 161
pain 161
symbols 161
requesting 161
polling 161
drilling 161
terenurilor 160
garantia 160
posibil@@ 160
(ce@@ 160
sanitar 160
galeria 160
bta 160
incad@@ 160
aceluiasi 160
ilor: 160
globalizarea 160
ian@@ 160
nedrept 160
comemor@@ 160
scuti@@ 160
suprem 160
blocheaza 160
eria 160
depoz@@ 160
gig@@ 160
releva 160
incetin@@ 160
formeze 160
conventiile 160
mati@@ 160
numiti 160
valul 160
incredint@@ 160
pasaport 160
volum 160
rafin@@ 160
avion 160
march@@ 160
concedieri 160
discriminate 160
denumit 160
stocurile 160
tranzactii 160
bolile 160
clock 160
ulu@@ 160
nagoya 160
specialisti 160
contribuabili 160
aliatii 160
13% 160
miller 160
suf@@ 160
rezid@@ 160
reli@@ 160
gay 160
cinema 160
i.e. 160
jerusalem 160
fairness 160
concerts 160
lifted 160
stalemate 160
recast 160
renowned 160
sided 160
cleared 160
keeps 160
breakthrough 160
protects 160
warns 160
drinking 160
deadlock 160
detainees 160
veste 159
transformare 159
mare@@ 159
reintegrarea 159
vedeti 159
asum@@ 159
spunea 159
adapost@@ 159
recuperarea 159
amelior@@ 159
contacte 159
rezervelor 159
interetnice 159
labor@@ 159
79 159
sarbatorit 159
atragerea 159
tura 159
(dreapta), 159
ofici@@ 159
scada 159
zid@@ 159
guverneaza 159
oricat 159
asigurarilor 159
specializate 159
parcur@@ 159
tren@@ 159
succesului 159
promitand 159
conceputa 159
competi@@ 159
confer@@ 159
oomen 159
reactiile 159
amestec@@ 159
ierea 159
divizata 159
decenta 159
submin@@ 159
ric@@ 159
inund@@ 159
zadar 159
ciprioti 159
demar@@ 159
inundatiilor 159
civil@@ 159
cot@@ 159
asteptata 159
tric@@ 159
prealabil 159
compare 159
airways 159
monitorizam 159
regizorului 159
zvon@@ 159
matthew 159
incal@@ 159
itelor 159
elevi 159
holbrooke 159
sublinieze 159
aeroporturile 159
indreptat 159
bih@@ 159
roadmap 159
insecurity 159
fragmentation 159
economists 159
acknowledging 159
interpreted 159
harassment 159
intensified 159
cooperating 159
arbitrary 159
perception 159
flagship 159
concerted 159
concentrated 159
symbol@@ 159
unilaterally 159
files 159
ortodoxa 158
rezolutiilor 158
israeliene 158
viabil 158
opon@@ 158
chineza 158
telefon@@ 158
guvernamentala 158
consul@@ 158
manevra 158
jana 158
retorica 158
ange 158
exploz@@ 158
aduna 158
indeplinire 158
capitale 158
chávez 158
etnici 158
cameron 158
deteriorarea 158
moldovei 158
blocate 158
produsului 158
asteptati 158
direc@@ 158
privit 158
situate 158
starii 158
powell 158
poarte 158
expulz@@ 158
adapt@@ 158
combat@@ 158
ala: 158
uca 158
promit 158
dif@@ 158
ghid@@ 158
incetare 158
entitatile 158
mitev 158
bud@@ 158
pekusic 158
abordez 158
primelor 158
tatal 158
procurorului 158
jes@@ 158
uniforma 158
expozitii 158
valoroase 158
böge 158
cav@@ 158
kenya 158
reti@@ 158
dc 158
emp@@ 158
spot 158
saved 158
pers 158
occurring 158
deliberately 158
trialogue 158
circulation 158
ained 158
destinations 158
inspired 158
appearance 158
administrations 158
hidden 158
doub@@ 158
techniques 158
passage 158
basketball 158
expresses 158
poetry 158
dubbed 158
manufacture 158
locally 158
forecast 158
scurg@@ 157
valabile 157
srs 157
calificarilor 157
elul 157
aturile 157
tehnologic 157
zemun 157
trib@@ 157
introducere 157
percep@@ 157
necorespunzatoare 157
prevenim 157
alese 157
masac@@ 157
impovar@@ 157
vuk@@ 157
explor@@ 157
inteligent 157
cashman 157
aeroport 157
kel@@ 157
ruijten 157
instabilitatea 157
fried 157
station@@ 157
ale; 157
erup@@ 157
orchestra 157
cooperative 157
amanuntul 157
cartile 157
venite 157
ack 157
clonate 157
fao 157
ult@@ 157
toare 157
asigurarile 157
auz@@ 157
secole 157
blocarea 157
embr@@ 157
inate 157
ieni 157
saudi 157
ligh@@ 157
shocked 157
contents 157
produces 157
bold 157
oversight 157
tened 157
deficiencies 157
departure 157
blamed 157
constructed 157
designate 157
steering 157
childcare 157
exported 157
ity: 157
fatal 156
secundare 156
reiese 156
troica 156
telefonice 156
ataca 156
dezastrului 156
dezbatute 156
salariale 156
inaltimea 156
implicam 156
intreprinderii 156
ationale 156
muncitori 156
suveranitate 156
eam 156
famili@@ 156
exporturi 156
indrepte 156
fosili 156
consultativ 156
recesiunii 156
abtin 156
veter@@ 156
vide@@ 156
numeste 156
prezentand 156
tassos 156
fyrom 156
emita 156
bay@@ 156
cheltuite 156
roaming 156
numar@@ 156
itar 156
consumator 156
capul 156
ab 156
atrag@@ 156
aspru 156
amenzi 156
gres@@ 156
ineficienta 156
sporeste 156
periodic 156
iulie), 156
gestionat 156
afirmatie 156
combin@@ 156
plec@@ 156
beqiri 156
lunar 156
day@@ 156
sy 156
qatar 156
gy@@ 156
sle@@ 156
barrier 156
8,000 156
reviewing 156
celebrations 156
unanimity 156
wrapped 156
27th 156
arises 156
violating 156
poorly 156
boats 156
appalling 156
criticising 156
plane 156
wholeheartedly 156
absorption 156
finals 156
elled 156
questioning 156
typical 156
renuntam 155
reglementa 155
vesna 155
scrisoarea 155
igh@@ 155
autonome 155
rent@@ 155
guvernamental 155
instructie 155
masiva 155
candidatilor 155
consecvent 155
reduc 155
abuzurile 155
revolutia 155
performantei 155
armat 155
jovic 155
inchir@@ 155
dobanda 155
achizitionat 155
iala 155
elementul 155
propriului 155
arunca 155
oslo 155
traditiile 155
interconect@@ 155
covic 155
nace 155
saptaman@@ 155
populatiilor 155
scape 155
unic@@ 155
eurob@@ 155
inscris 155
(fbih) 155
cres@@ 155
vita 155
irakian 155
yemen@@ 155
pay@@ 155
extrem@@ 155
imperialist 155
aegean 155
cs 155
concepts 155
reveal 155
nearby 155
chairs 155
connecting 155
margins 155
forwarded 155
wed 155
differing 155
paragraphs 155
emergence 155
touched 155
stories 155
ignoring 155
planeta 154
asociatii 154
servesc 154
contractuale 154
numim 154
ghis@@ 154
respingem 154
preconizata 154
citata 154
instalatii 154
osul 154
impozitarea 154
competitiei 154
petrov 154
revi@@ 154
liban 154
nevinovati 154
predominant 154
surpr@@ 154
noiembrie), 154
adusi 154
privatizarii 154
omologii 154
participantilor 154
aparate 154
urmam 154
caracterizat 154
verifice 154
demnitate 154
controlate 154
raspandita 154
tionala 154
stor@@ 154
indrum@@ 154
primara 154
balcanic 154
reinnoirea 154
ziarul 154
morti 154
ieftina 154
profit@@ 154
asigurati 154
poll@@ 154
strang@@ 154
pus@@ 154
entr@@ 154
7) 154
circum@@ 154
sda 154
dementia 154
summary 154
ashed 154
trains 154
toward 154
purchased 154
visibility 154
chaired 154
classified 154
curb 154
feels 154
mentions 154
approving 154
easing 154
minimise 154
weapon 154
courageous 154
replacement 154
yan 153
criteriu 153
columbia 153
protestatarii 153
finlandez 153
televiziunea 153
sugera 153
lansare 153
otoman 153
clasi@@ 153
agro@@ 153
pret@@ 153
rup@@ 153
lauda 153
controlata 153
divi@@ 153
280 153
factorul 153
yilmaz 153
medalie 153
reteta 153
urban@@ 153
reuniunile 153
sire 153
ambasadei 153
coordoneze 153
inat 153
inculpatilor 153
dezastrele 153
pozitiilor 153
separati@@ 153
sre@@ 153
consultanta 153
ang 153
iunie). 153
negociaza 153
battisti 153
return@@ 153
implicit 153
primare 153
simti 153
crude 153
sistemice 153
angel@@ 153
odi@@ 153
credibil 153
tiunile 153
provoc@@ 153
srbija 153
srdjan 153
persistent 153
favours 153
confirmation 153
govern 153
leverage 153
preconditions 153
imprisoned 153
incidentally 153
overhaul 153
marginalised 153
carries 153
reaffirmed 153
regretul 152
sustinatori 152
continentului 152
dominat 152
macroeconomica 152
luarii 152
motor@@ 152
rusesc 152
explice 152
invitatie 152
aqu@@ 152
lux 152
drazen 152
prioriti@@ 152
siv 152
hahn 152
conduita 152
izol@@ 152
aste 152
federale 152
mathieu 152
aceleiasi 152
instru@@ 152
integrala 152
facultatea 152
inspect@@ 152
diamandouros 152
dunarea 152
microfinantare 152
consimtamantul 152
expunerea 152
repercusiuni 152
ras 152
dragi 152
scris@@ 152
exacte 152
acelorasi 152
prevada 152
radmila 152
clu@@ 152
ond@@ 152
dinaintea 152
proaste 152
descriind 152
kampschror 152
cinemat@@ 152
inclu@@ 152
gur@@ 152
serge 152
ico 152
consulting 152
flying 152
machinery 152
hedge 152
tics 152
right@@ 152
disrup@@ 152
tongue 152
haven 152
executions 152
verify 152
rebels 152
degrees 152
explosion 152
gesture 152
devote 152
transformed 152
pledges 152
inci@@ 151
clarificat 151
exper@@ 151
2,5 151
dovedeasca 151
pusi 151
necesitatilor 151
at; 151
francezi 151
indrep@@ 151
judecator 151
criminalitatea 151
aten@@ 151
avantaj@@ 151
zic 151
crescuta 151
12,@@ 151
judecarea 151
muntenegreni 151
sistematica 151
complexitatea 151
exacta 151
progresa 151
unitatilor 151
diesel 151
etapele 151
introduc@@ 151
times- 151
traditia 151
comport@@ 151
kad@@ 151
esecului 151
ić 151
motivate 151
larg@@ 151
itation 151
ianuarie), 151
tit@@ 151
stoc@@ 151
ds@@ 151
there@@ 151
commission@@ 151
wr@@ 151
eat 151
tank 151
counter@@ 151
ines 151
premises 151
foot 151
quantities 151
mayors 151
ching 151
bombing 151
intolerance 151
engine 151
unsustainable 151
describes 151
employee 151
assuming 151
endangered 151
letters 151
adhere 151
diagnosis 151
catastrof@@ 150
americ@@ 150
investigarea 150
executare 150
esm 150
posibilitatii 150
oferindu 150
incurajare 150
confrun@@ 150
literatura 150
conformitatea 150
inegalitatile 150
cateodata 150
muncitorii 150
fut@@ 150
tas 150
intelectuale 150
radicala 150
suportate 150
oaie 150
fatih 150
wolfgang 150
stres 150
ziar 150
muniti@@ 150
cladirii 150
uitati 150
bran@@ 150
dumnezeu 150
intalnesc 150
necdet 150
solicitanti 150
zec@@ 150
ku 150
frica 150
03@@ 150
aspre 150
prioritara 150
caucazul 150
clubul 150
cubi 150
investigatiile 150
contina 150
iliescu 150
nast@@ 150
imperativ 150
petroleum 150
fugit 150
hyseni 150
isl@@ 150
bowis 150
acceptabile 150
inj@@ 150
fse 150
hem@@ 150
bronz 150
benghazi 150
financi@@ 150
amed 150
kaletovic 150
clienti 150
špidla 150
nom@@ 150
carnea 150
smoke 150
hop@@ 150
mobilising 150
landscape 150
mediation 150
ethnicity 150
alling 150
travellers 150
dating 150
exercises 150
bears 150
technically 150
winners 150
tasked 150
attr@@ 150
mitigate 150
branches 150
policemen 150
odds 150
cauzelor 149
administratiile 149
andor 149
apreciaza 149
len@@ 149
pred@@ 149
autocarul 149
ı@@ 149
rem 149
atis 149
wn 149
vecin@@ 149
diplomatii 149
ake 149
diviziunea 149
c. 149
leterme 149
pleaca 149
rul 149
climatica 149
concurs 149
valorii 149
combinatie 149
inos 149
satisfac@@ 149
aminti@@ 149
amsterdam 149
coincide 149
justificare 149
calatoriile 149
abo@@ 149
fundatiei 149
depist@@ 149
kiev 149
protagon@@ 149
emn@@ 149
solid@@ 149
alizati 149
intereseaza 149
farage 149
inovatiei 149
intrunirea 149
privinte 149
natiunea 149
alakbar 149
lers 149
platforms 149
quantity 149
factories 149
owing 149
cautioned 149
teen 149
alleviate 149
cuban 149
exacerbated 149
barely 149
rooms 149
curenta 148
indoiesc 148
hac@@ 148
comparabile 148
cautat 148
voastra 148
primita 148
construc@@ 148
inconjur@@ 148
incalcarii 148
salariu 148
nimanui 148
descoperite 148
expira 148
vand 148
universala 148
beneficiu 148
basha 148
dobanzilor 148
bogati 148
contactele 148
lingvistice 148
aminteste 148
experiente 148
monitorizat 148
fondata 148
targ 148
astronom@@ 148
pakistanului 148
sps 148
atingere 148
inspre 148
izari 148
(4@@ 148
budapesta 148
gravitatea 148
metal 148
riguroase 148
gasirii 148
revizuite 148
condamnata 148
turilor 148
sist@@ 148
tanja 148
42% 148
randurile 148
iulie). 148
h5n1 148
municipalitatile 148
sprijiniti 148
garda 148
mosten@@ 148
psih@@ 148
reafirmat 148
salut@@ 148
conservare 148
dragul 148
prelungire 148
fun@@ 148
zastava 148
raufoglu 148
reiterez 148
govern@@ 148
documentary 148
reconcile 148
guests 148
[...]
