e </w>
n </w>
e r
s </w>
t </w>
e n</w>
c h
d </w>
i n
t h
, </w>
e n
er </w>
a n
. </w>
u n
t i
o r
a l
a r
th e</w>
e i
e s
g </w>
y </w>
d i
o n
o n</w>
e l
o </w>
e s</w>
u r
s t
m </w>
f </w>
l i
ch </w>
i s
i n</w>
d er</w>
a </w>
r e
a u
r o
s i
an d</w>
o f</w>
a t
w i
e in
t o</w>
un d</w>
di e</w>
e d</w>
r </w>
i s</w>
o m
a s</w>
in g</w>
d en</w>
i t
a ti
l </w>
a t</w>
s ch
a n</w>
a s
e t
f or
o u
un g</w>
al </w>
r i
a b
a m
d e
z u
g e
g en</w>
o p
o l
t en</w>
t e</w>
v er
r a
en t
u s
en t</w>
p o
t er
i t</w>
l e</w>
e c
e h
e m
d er
p ro
v e</w>
k </w>
a c
i e</w>
ur </w>
f ü
g e</w>
T h
o t
; </w>
ch en</w>
l y</w>
q u
d e</w>
e g
n i
zu </w>
h r
th at</w>
ati on</w>
h i
th </w>
v i
ch t</w>
n o
s p
for </w>
om m
v on</w>
f f
l o
r es
or </w>
l e
b e
is t</w>
c on
i l
w er
el </w>
c e</w>
s e</w>
fü r</w>
ar e</w>
ti on</w>
u l
ein e</w>
ar </w>
s u
t s</w>
m a
ur op
d es</w>
e x
i c
S t
po s
h a
b e</w>
e t</w>
w </w>
m it</w>
au f</w>
ch e</w>
ei n</w>
b er
V er
e m</w>
ei t</w>
el l
wi th</w>
d as</w>
( </w>
Th e</w>
g h
b er</w>
) </w>
u t
ati on
a g
E urop
i m
a d
c o
s t</w>
- </w>
I </w>
es t
c i
d u
g en
0 </w>
s h
di es
n e
un gen</w>
r ei
o ur</w>
i r
a h
r u
an d
er e</w>
s o</w>
I n
t er</w>
w ei
e d
p or
li ch</w>
ti on
de m</w>
b ei
p l
th is</w>
a f
i m</w>
n en</w>
w h
l l</w>
w or
a p
e b
S ie</w>
A n
l d</w>
m o
s en</w>
: </w>
a pos
& apos
wi r
c k
z i
a k
as s</w>
ou </w>
c om
s o
u m
er i
u m</w>
d a
ni cht</w>
g i
ä n
no t</w>
al l</w>
qu ot
wer den</w>
si on</w>
in d</w>
quot ;</w>
& quot;</w>
w e</w>
un g
b y</w>
at e</w>
g es
p ar
ha ve</w>
d ass</w>
is chen</w>
t r
si ch</w>
D ie</w>
al s</w>
ch t
y ou</w>
p </w>
ti m
w hi
s er
wi r</w>
al l
z </w>
ou ld</w>
wi ll</w>
w as</w>
b u
in g
t ra
m ent</w>
l a
au ch</w>
ro m</w>
g r
S ch
omm is
er s</w>
whi ch</w>
au s
ung s
d en
it y</w>
e v
P ro
b es
f rom</w>
a ch</w>
o w
m en</w>
2 0
b i
h ab
P ar
s ind</w>
ter n
i er
et z
s e
i ch</w>
ol l
p er
ent s</w>
U n
a hr
t u
E n
l ei
th er</w>
ein er</w>
a ch
w en
wir d</w>
l u
f in
ein en</w>
A u
ü ber</w>
h as</w>
ti c
wi e</w>
k e</w>
ur e</w>
o o
sch af
ab le</w>
li c
ou t</w>
i g
m e
ö n
es s</w>
on e</w>
a m</w>
g li
au s</w>
it t
A r
for m
an t</w>
h al
ü r
un d
I n</w>
c an</w>
ommis sion</w>
ge b
e u
D i
o der</w>
g an
e ch
t a
e an</w>
u s</w>
i r</w>
E r
an n</w>
h at</w>
a y</w>
v or
en d
e p
o h
re c
eh r</w>
r ä
st en</w>
en d</w>
f i
hab en</w>
ä r
al so</w>
o b
t s
H er
an y</w>
&apos ;
al ly</w>
d ur
e k
t z
Europ ean</w>
us t</w>
s el
ß </w>
A us
a ge</w>
20 0
E in
r an
w el
t o
au f
at ed</w>
k ön
/ </w>
b et
e f
p e
U ni
! </w>
es s
d ent</w>
o ff
er n</w>
? </w>
m ö
si e</w>
e y</w>
t y</w>
it s</w>
or e</w>
&apos ;</w>
st r
g u
es e</w>
bei </w>
ar k
ti g
l in
w e
po li
5 </w>
d s</w>
z ur</w>
g ro
tion s</w>
ot el</w>
m in
g el
st ell
am m
por t
sch en</w>
s ti
li chen</w>
as s
der n</w>
du c
is che</w>
D as</w>
r ü
2 </w>
ein em</w>
gh t</w>
er t</w>
A l
por t</w>
co un
ation s</w>
d ar
d o
w ur
at es</w>
Uni on</w>
i li
y st
t ri
y our</w>
p res
t ur
t en
es t</w>
A b
&apos; s</w>
ver y</w>
ic </w>
1 9
f t</w>
t ed</w>
o m</w>
I ch</w>
1 </w>
i </w>
at en</w>
e ar
b r
kön nen</w>
ge h
E U
ti ve</w>
z ei
er en</w>
m er</w>
– </w>
W e</w>
w ar
ch te</w>
m ore</w>
as t</w>
c es</w>
b o
k eit</w>
bu t</w>
V or
an ce</w>
S p
el y</w>
i hr
in c
f ol
ar y</w>
an der
en s
h o
u p</w>
v er</w>
an n
p ri
ou s</w>
com p
ti es</w>
A </w>
a v
er n
ei r</w>
li che</w>
w ould</w>
t ak
am ent</w>
c omm
’ </w>
ö r
th eir</w>
fü hr
con t
a y
u b
0 0</w>
si on
g t</w>
En t
s on
i st
r el
l an
n ach</w>
k omm
en s</w>
be en</w>
or d
ch er</w>
eh en</w>
gh </w>
am p
ar i
& #
s sen</w>
Th is</w>
ec t</w>
o g
h in
G es
ne u
3 </w>
ti v
s ol
un s</w>
zu m</w>
R e
r is
ch er
em ber</w>
I t</w>
W ir</w>
i e
p p
Europ ä
dies e</w>
m e</w>
g er
ü ber
as e</w>
. .
k ing</w>
k en</w>
ü n
P res
b </w>
in ter
om e</w>
n ur</w>
dur ch</w>
i el
B e
f ac
o ther</w>
k l
di s
m an</w>
d es
4 </w>
a d</w>
K on
M a
R eg
v or</w>
sh ould</w>
k ann</w>
al i
am e</w>
l en</w>
M it
M r</w>
t ei
c </w>
D er</w>
st a
un ter
h eit</w>
z w
h er
en ce</w>
S </w>
p f
x </w>
en den</w>
k t</w>
l eg
b t</w>
B er
rä si
ei ten</w>
C o
au </w>
schaf t</w>
dies er</w>
no ch</w>
p re
n e</w>
8 </w>
t w
Pres i
d o</w>
r it
k on
t ung</w>
ac c
an t
g er</w>
st ru
ge m
E s</w>
t re
C ommission</w>
b le</w>
d ing</w>
s a
h </w>
s ec
w ä
.. .</w>
li e
m ust</w>
ation al</w>
us s</w>
st ri
tim e</w>
6 </w>
st e</w>
m u
el t</w>
m on
k s</w>
&# 9
n ah
ti g</w>
m ark
da y</w>
h e</w>
m ü
al e</w>
l ä
J ahr
da ß</w>
th ey</w>
K ommission</w>
ne w</w>
ges ch
m an
F or
th ere</w>
f re
s yst
7 </w>
v el
“ </w>
li ke</w>
f en</w>
b en</w>
t ing</w>
wur de</w>
in tern
on ly</w>
b ec
ei </w>
ar d</w>
9 </w>
ing s</w>
l ung</w>
g o
EU </w>
un ser
H otel</w>
no w</w>
ent r
ut z
ä t</w>
ab er</w>
i on</w>
P räsi
l em
G r
wi ck
c k</w>
ab out</w>
ti gen</w>
c re
in n
or i
pro duc
re g
s ein</w>
al en</w>
or t</w>
ä l
tr an
Her r</w>
ec i
wor k</w>
f ir
wen n</w>
poli ti
eh r
Z u
eh men</w>
im mer</w>
t n
o ur
in e</w>
f e
g est
ow n</w>
F r
P o
s ehr</w>
B eri
Presi dent</w>
i h
mü ssen</w>
sch e</w>
ü tz
s en
b el
Au f
u t</w>
ci al</w>
de t</w>
m ents</w>
b en
b eg
tim m
F ra
al le</w>
s oll
I h
f er
em ent</w>
w ay</w>
Mit gli
w is
ein es</w>
m itt
l and</w>
al is
un s
ati ve</w>
ech n
su p
s etz
I hr
in t
st at
th ese</w>
v is
Par l
ac e</w>
B es
res p
an s</w>
g n
m i
w ar</w>
m ehr</w>
a il
et en</w>
con c
d ung</w>
au se</w>
oo d</w>
wh o</w>
p h
ber ei
t et</w>
for e</w>
th o
po si
a ff
vel op
n o</w>
C h
on der
on g</w>
wi th
or s</w>
le m</w>
dies em</w>
de velop
f ahr
j e
o c
f u
wei ter
g re
a st
en en</w>
e ff
m any</w>
i f</w>
M en
di es</w>
er ung</w>
op le</w>
en de</w>
U m
el le</w>
ex p
ch ten</w>
mo st</w>
komm en</w>
im port
th er
a si
ser vi
i d</w>
r in
su b
ü ck
% </w>
ar e
b eh
in form
m en
m er
v es</w>
de ut
un der
e -
ß en</w>
at eg
h ei
wer e</w>
sti tu
on om
o f
vi e
ch an
Europä ischen</w>
Europ e</w>
li ament</w>
ol og
E </w>
ation en</w>
re gi
c y</w>
us e</w>
u p
in to</w>
pe ople</w>
sch i
pro c
su ch</w>
d ed</w>
h e
on s</w>
en ti
Par liament</w>
op er
b is</w>
ell en</w>
lo c
h el
b est
eh t</w>
lo w
at ing</w>
in v
z en</w>
Un ter
ro u
li ch
wh at</w>
e urop
m y</w>
C on
ev er</w>
L i
l au
ti ge</w>
mö chte</w>
h and
l as
r on
et e</w>
di ff
d el
g et
ar bei
vi el
qu i
etz t</w>
R i
a in
wi ch
l ar
z wei
un ter</w>
tri es</w>
g lei
th an</w>
St ates</w>
m is
di g
f e</w>
v en
it e</w>
S i
v ed</w>
sp eci
1 0</w>
b ar
si ble</w>
coun tries</w>
re port</w>
en n
e e</w>
en g
d am
pro vi
st ütz
v en</w>
i l</w>
M o
m at
inc lu
M ember</w>
m p
l l
c le
pro b
un k
v om</w>
ap p
an k</w>
st än
Co un
gi bt</w>
em p
ne ed</w>
europ ä
il li
ihr e</w>
amm en
wh en</w>
bi li
v ing</w>
ec onom
Mitgli ed
Z us
h is</w>
Ü ber
or y</w>
s k
o s</w>
s ome</w>
Präsi dent</w>
er g
stell en</w>
c ri
tion en</w>
el s</w>
ex t</w>
d a</w>
tic al</w>
R </w>
B ei
w oh
wel l</w>
l at
geb en</w>
el n</w>
in u
eb en</w>
hal ten</w>
ci l</w>
z e</w>
h otel</w>
fir st</w>
di rec
so wie</w>
ge t</w>
dies es</w>
O r
o ch</w>
t ro
de c
ab ili
D </w>
ma ke</w>
th em</w>
Coun cil</w>
sch lie
un i
ac k
it ät</w>
ag re
un den</w>
zw ischen</w>
sp e
ur es</w>
we en</w>
co ur
import ant</w>
al ity</w>
b in
T </w>
gr amm
po in
t es</w>
o k
bes onder
for m</w>
ec tion</w>
h ere</w>
th ing</w>
gh ts</w>
eg t</w>
f ri
ä ch
f ic
C omm
for der
bet ween</w>
ier ung</w>
hal b</w>
P </w>
syst em</w>
Q u
st and
el l</w>
b eit</w>
am en</w>
Ent wick
M e
du k
ein g</w>
ver n
ex c
tak e</w>
t or</w>
W i
hi er</w>
o ver</w>
In tern
ac k</w>
pro pos
ta in
g ab
t schaf
r ati
C </w>
st ar
O </w>
l es</w>
p ub
Mitglied sta
bec ause</w>
wh ere</w>
G er
N </w>
m s</w>
f ra
Ar bei
c ul
s ame</w>
c ar
g lich</w>
P er
m uss</w>
b ar</w>
fin an
i de
y p
a in</w>
en e</w>
ear s</w>
w ür
en n</w>
Beri cht</w>
n at
k eine</w>
„ </w>
z ah
sp re
uns ere</w>
t ure</w>
H au
ge gen</w>
w al
j ust</w>
F in
re as
et s</w>
19 9
ß e</w>
E x
ma de</w>
i el</w>
us s
n ung</w>
Ber ei
inform ation</w>
Ih nen</w>
lic </w>
com e</w>
ah r</w>
Parl ament</w>
G e
s hi
i ge</w>
y e
or gan
y ears</w>
lic y</w>
schi ed
ö ff
om p
D e
fin den</w>
S er
or der</w>
c ur
I f</w>
ä u
c an
c u
ha d</w>
z eu
eu te</w>
M on
tic </w>
L än
sup port</w>
f l
th rou
Ges ch
zu s
d r
in i
Mitgliedsta aten</w>
a ir
f ul
me di
ander en</w>
In form
W ir
ar ds</w>
lo s
is su
ä tz
an i
ev en</w>
ö s
tw o</w>
Pro b
S o
g ra
1 ;</w>
&#9 1;</w>
wir k
n um
h er</w>
3 ;</w>
&#9 3;</w>
ul ar</w>
resp on
er k
f o
l än
wor ld</w>
wei se</w>
il l
tho se</w>
ri ght</w>
ow ever</w>
ay s</w>
in di
e der</w>
wä hr
in s
re ad
r en
g ung</w>
M ar
k eiten</w>
W enn</w>
Europ a</w>
ter n</w>
schlie ß
tr y</w>
gli ch
L </w>
b eing</w>
s c
l t</w>
s at
” </w>
u n</w>
si ve</w>
ic i
s ch</w>
an g</w>
j o
ä f
po licy</w>
tion al</w>
ap pro
d ann</w>
s m
ec ts</w>
Zus ammen
v ol
un ity</w>
sch ei
tra g</w>
om s</w>
ag es</w>
W ei
lo b
ier t</w>
Vor sch
lin e</w>
m al</w>
par tic
I m</w>
si te</w>
ent ly</w>
f all
pro t
con si
B et
ß er
qu es
em s</w>
ma y</w>
dies en</w>
stru c
nah men</w>
st er</w>
lo w</w>
diff er
it ed</w>
pl ace</w>
t e
ou s
li sh
dam it</w>
ri f
d at
o w</w>
u tion</w>
K o
ta in</w>
wur den</w>
fu l</w>
G ro
U S
ge ment</w>
at er</w>
w s</w>
e fore</w>
D es
li m
si tu
se e</w>
us ed</w>
de mo
Di ese</w>
ro om</w>
g ood</w>
1 2
vie w</w>
M itt
Pro duk
ge w
ier en</w>
b re
pos sible</w>
ol d</w>
an ti
j ed
gem ein
la ge</w>
op </w>
T ei
h um
ie ve</w>
g es</w>
n is
Fr au</w>
ye ar</w>
c er
B u
ä h
re d</w>
k o
th en</w>
Z eit</w>
ec ted</w>
are a</w>
at t
ä m
c c
as ed</w>
par t</w>
s ur
er rei
h en</w>
ch ar
ou gh</w>
i ce</w>
cht s
w är
st e
lo o
un kt</w>
v el</w>
G eb
et t
ä hr
B ür
w er</w>
l etz
ac t</w>
l er</w>
ho w</w>
Ihr e</w>
f ur
sp iel
unser er</w>
St a
Un tern
j ect</w>
ar ly</w>
bes ch
g ar
an ts</w>
den ti
f a
us in
In ter
t echn
hab e</w>
R o
N e
gen er
d et
ent al</w>
zei ch
Y ou</w>
ig n
G en
s eine</w>
v o
j ek
f rei
Her r
lic k</w>
cht ung</w>
s ei
r e</w>
b il
G em
mark et</w>
woh l</w>
jed och</w>
c al</w>
no w
i gen</w>
throu gh</w>
h ar
son dern</w>
res s</w>
bi et
le gen</w>
af ter</w>
A m
F ü
in du
ic al</w>
al u
s s
b ur
Europä ische</w>
M i
hi gh
n ach
ou se</w>
f am
S yst
ei gen
neu e</w>
M in
tr ä
A k
A s</w>
st and</w>
econom ic</w>
M ark
y s</w>
p er</w>
res ul
amp ;</w>
& amp;</w>
au en</w>
den en</w>
s om
gest ell
St r
ra p
b asi
s or
for t
be d
in ce</w>
Men schen</w>
Si cher
h eute</w>
Th ere</w>
poli tical</w>
et y</w>
tran s
p ra
c ould</w>
t ly</w>
g ent
W eb
in s</w>
0 00</w>
br au
st or
F ran
ge gen
B il
h ö
R es
ommis sion
S u
J ahr</w>
E ur
ti k
on en</w>
sch n
z ur
F or</w>
k un
develop ment</w>
w ant</w>
p s</w>
ob </w>
Ä n
ow n
R ei
de b
qu e</w>
with in</w>
an g
ch ts</w>
un der</w>
sel b
read y</w>
av ail
ain st</w>
berei ts</w>
W or
europä ischen</w>
geh en</w>
tran sp
c entr
c ap
y ing</w>
abili ty</w>
L ei
unter stütz
ec tive</w>
2 0</w>
N ach
D at
ri ghts</w>
go vern
las sen</w>
m m
geh t</w>
bu il
Än der
en z</w>
st ehen</w>
es en</w>
B o
ö l
ci p
omm en</w>
el d</w>
bo th</w>
ß nahmen</w>
er te</w>
Gr und
oll en</w>
per son
ag ainst</w>
en th
em ber
s er</w>
f ind</w>
m ich</w>
st u
coun try</w>
soll te</w>
mu ch</w>
T a
5 0</w>
intern ational</w>
ther efore</w>
Jahr en</w>
ihr er</w>
neu en</w>
l and
ch es</w>
in k</w>
b ri
p rin
ge f
ab </w>
oh ne</w>
H and
G </w>
führ t</w>
pro gramm
ad t</w>
v ari
c or
fahr en</w>
t om
gr am
M ö
in gen</w>
Po li
C hin
poin t</w>
li egt</w>
en st
n ec
ou t
Gem ein
ander e</w>
do es</w>
vi ron
es ts</w>
gr ö
bili ty</w>
h än
er r
u </w>
th re
M </w>
com pl
Z ei
be k
S it
servi ce</w>
öff ent
P ri
cont inu
si cher
politi k</w>
la g</w>
al ten</w>
pub lic</w>
Fin an
ff en</w>
ne ed
ation alen</w>
qu ality</w>
is e</w>
L u
so ci
R at</w>
sion s</w>
zwei </w>
with out</w>
B </w>
wir tschaf
ma chen</w>
biet et</w>
st s</w>
d an
soll ten</w>
in st
Entwick lung</w>
der s</w>
dur ch
Bes ch
cle ar</w>
me as
de m
N o
Fra ge</w>
in stitu
f il
fre e</w>
cht et</w>
B ar
s on</w>
ter s</w>
servi ces</w>
l ast</w>
be wer
all en</w>
f es
k e
li cher</w>
num ber</w>
gre at</w>
f und
h ol
eg r
gan z</w>
mö gli
oper ation</w>
t lichen</w>
g keit</w>
sti ll</w>
n te</w>
ant wor
tig t</w>
w ays</w>
cur r
itt ee</w>
g lob
ver schied
a gement</w>
avail able</w>
w a
c ol
de p
T ra
posi tion</w>
w in
au m</w>
t t
si de</w>
d ru
A d
di g</w>
b usin
c ed</w>
em ents</w>
ro oms</w>
lei st
i z
3 0</w>
f ut
it ä
D ur
organ is
en te</w>
M it</w>
s ehen</w>
differ ent</w>
ru pp
ungs an
e ver
si ch
fac t</w>
in nen</w>
V </w>
chan ge</w>
cu st
fin det</w>
at te</w>
p a
führ en</w>
bes ser
so cial</w>
z eit</w>
le x
st an
al t</w>
e g</w>
sel f</w>
viel e</w>
besonder e</w>
s ay</w>
cour se</w>
l ungen</w>
ul ation</w>
is i
eg en
E in</w>
d ra
ech ni
t lich</w>
n er</w>
l ess</w>
a z
F re
vi du
di tion</w>
eh m
f ast</w>
pri v
la gen</w>
shi p</w>
tw are</w>
W elt</w>
ch ter
B ed
Di es
al ready</w>
c ity</w>
p ur
conc ern
k ur
en viron
Untern ehmen</w>
it al</w>
ti eren</w>
n ehmen</w>
tur al</w>
str ateg
emp lo
ck en</w>
be fore</w>
fut ure</w>
bel ieve</w>
da zu</w>
stell ung</w>
y n
N i
to o</w>
aus ge
is h
gestell t</w>
l ungs
s et</w>
Th at</w>
g s</w>
n ot
ent wick
m ei
g o</w>
J u
d y</w>
ut es</w>
l a</w>
wä h
ep t</w>
k now</w>
Mö glich
n et</w>
fi ed</w>
setz en</w>
wei l</w>
to day</w>
ti schen</w>
at s
on -
ar t
K in
prob lem
j etzt</w>
on d</w>
al ität</w>
r o</w>
wi eder</w>
p le
F </w>
au th
ü h
produc ts</w>
ein f
nah me</w>
c ent
op e</w>
Th em
l ed</w>
cont ro
kl är
ris e</w>
t al
N or
C ommission
ma in</w>
e der
b al
i en</w>
t ru
i g</w>
st er
pres ent
en z
B ut</w>
amp le</w>
R ah
den n</w>
K ol
f r
s einer</w>
gan g</w>
o ver
w o</w>
grö ß
b oo
I s
is ch</w>
can not</w>
su cc
ah er</w>
si cht</w>
f est
le vel</w>
T ran
n eg
c ase</w>
D em
l er
som e
th ink</w>
Inform ationen</w>
v alu
L age</w>
200 9</w>
D is
Sch l
ti z
v oll
Parl am
ation s
im pl
w eb
dar auf</w>
är k
proc ess</w>
t schaft</w>
T o
ur ity</w>
lo se</w>
Berei ch</w>
cht lin
dat a</w>
t liche</w>
gen ommen</w>
H i
off ers</w>
t yp
s af
T re
is cher</w>
indi vidu
ar beit</w>
Ser vi
ein ige</w>
p ut</w>
sa gen</w>
su m
v </w>
Ma ßnahmen</w>
sch on</w>
tra c
n is</w>
da für</w>
at ely</w>
ep t
ab ei</w>
rü n
k an
a de</w>
ma cht</w>
m ar
so zi
selb st</w>
fall s</w>
H o
sch en
h in</w>
eb en
sat z</w>
im pro
an ge
g ni
M an
H in
is m</w>
ti k</w>
ember s</w>
a th
as si
ig n</w>
m us</w>
sp ra
hei ts
re qu
ma j
hum an</w>
n ational</w>
S o</w>
erg y</w>
em ent
Commission er</w>
St and
k ed</w>
no v
k now
er ten</w>
ommis s
m ir</w>
g rei
ver si
cust om
un c
ver b
Me di
situ ation</w>
co m</w>
mö glich</w>
finan cial</w>
f er</w>
Prob lem
- S
vi el</w>
dur ing</w>
z el
F rei
ihr en</w>
c all
s es</w>
ch il
Jahr e</w>
ih r</w>
f t
bes t</w>
m or
K ommiss
dis c
as sen</w>
Herr n</w>
w es
bi eten</w>
ili t
hi gh</w>
bu d
b in</w>
or en</w>
b ro
ri ch
n ing</w>
st eht</w>
1 8
Ein e</w>
issu e</w>
exp eri
ah l</w>
Di es</w>
pe ti
P al
ex ample</w>
Ar beit</w>
deb ate</w>
Aus sch
sa id</w>
s eri
1 0
stell t</w>
H ot
ver k
ul t
al lem</w>
me ans</w>
e very</w>
ges am
al t
u al</w>
is ion</w>
i a</w>
s timm
sm all</w>
app lic
si mp
al o
op p
ver fü
kun ft</w>
F l
is h</w>
1 5</w>
ques tion</w>
wür de</w>
P rei
W el
O ur</w>
inclu ding</w>
m eine</w>
gu t</w>
for t</w>
G u
glei ch
aff en</w>
wor den</w>
propos al</w>
con di
Arbei ts
re qui
s ince</w>
H owever</w>
f ass
hel p</w>
n or
A ll</w>
w ollen</w>
busin ess</w>
res ol
L and</w>
unser en</w>
ma in
F ir
th ough</w>
ad v
es sen</w>
b ased</w>
L and
f ern
b it
m et
t ors</w>
k s
nec ess
e ach</w>
ti vi
h eiten</w>
Ver ein
n et
y -
Fü r</w>
el ec
f ic</w>
p rä
illi on</w>
or ity</w>
lich keit</w>
e k</w>
Per son
ti ert</w>
tak en</w>
st re
N at
lu g
acc ess</w>
is l
p ass
off er</w>
leg al</w>
l ong</w>
k a</w>
de fin
olog y</w>
ar t</w>
ig er</w>
ow s</w>
prob lem</w>
al y
bes timm
ann t</w>
ä hi
gram m</w>
d rei
Hau sh
par tn
S ei
ac tion</w>
Un d</w>
L ös
Chin a</w>
k ün
wel t
ci tiz
en ces</w>
Pro jek
ad op
im p
B el
b ack</w>
A ut
De ut
f äl
Z immer</w>
br ingen</w>
et was</w>
währ end</w>
i es</w>
z un
demo c
am end
O p
sh </w>
al th</w>
partic ular</w>
Län der</w>
c l
so f
al er</w>
U r
n un</w>
W ie</w>
v ot
u l</w>
ä t
ac coun
war en</w>
ini ti
i ly</w>
di re
m it
are as</w>
G re
do ch</w>
ur ant</w>
d est
ever y
gi ve</w>
n ext</w>
ar o
ord in
fe w</w>
d ings</w>
Unter stütz
st en
ab lish
r y</w>
t ät</w>
B eh
spe zi
meas ures</w>
comm on</w>
er fol
whi le</w>
on g
provi de</w>
setz ung</w>
k tion</w>
agre ement</w>
ol e</w>
loc ated</w>
c um
rec ei
Comm ittee</w>
g ar</w>
1 2</w>
gro w
pres ent</w>
G o
EU -
ver wen
sch ein
s si
er gi
fol low
än der
S a
geh ör
s eit</w>
ur s</w>
en ergy</w>
re m</w>
p t
er halten</w>
hi stor
necess ary</w>
z ü
spre ch
ci es</w>
por ts</w>
a k</w>
O n</w>
citiz ens</w>
est ablish
us ing</w>
20 10</w>
ut z</w>
ß t</w>
M r
o l</w>
lar ge</w>
k t
pl ay
ins besondere</w>
ür lich</w>
tig ung</w>
S e
Ver fü
f li
ges etzt</w>
� </w>
M u
P or
u e</w>
. com</w>
ens ure</w>
au tom
ag t</w>
et ing</w>
h äl
comp any</w>
M ad
k ey</w>
end s</w>
inc reas
ag ain</w>
di </w>
12 4
p i
par t
syst ems</w>
tra di
war d</w>
str y</w>
p op
geb o
t ä
all er</w>
d ungen</w>
p unkt</w>
lo s</w>
as k</w>
n ten</w>
en ten</w>
St ra
gemein s
St u
om en</w>
E -
Re chts
ear ch</w>
thre e</w>
s y
H il
emplo y
ord nung</w>
d ri
Unterstütz ung</w>
W in
er sten</w>
H </w>
wh e
un de</w>
sch l
124 ;</w>
&# 124;</w>
Rah men</w>
mo der
fur ther</w>
Ar t</w>
problem s</w>
w rit
Pro z
sec urity</w>
zi eh
T ur
op port
k er</w>
d ate</w>
ti sche</w>
ul arly</w>
Län dern</w>
li fe</w>
f ar</w>
p eri
Gesch äf
di gen</w>
ü ck</w>
at s</w>
vo te</w>
in ing</w>
Intern et</w>
Zusammen arbeit</w>
F ri
com peti
A mer
Men schen
k ri
pra c
du </w>
f te</w>
arbei ten</w>
G el
Parlam ents</w>
200 8</w>
se qu
oo l</w>
Tei l</w>
c oll
O n
b an
pres s
bei m</w>
wh y</w>
Amer ic
gi ven</w>
m a</w>
K ar
d el</w>
par ti
D ar
ul es</w>
g ed</w>
h owever</w>
h ear
sh all</w>
utz en</w>
w ach
trä ge</w>
g s
ob j
D eb
i zi
L eb
B est
best eht</w>
e qui
m ul
so ur
politi schen</w>
si bility</w>
st ay</w>
c a</w>
consi der
st ra
wich tig
R est
j u
T o</w>
B r
inv ol
hi l
G ar
F all</w>
V ol
n ess</w>
d ge</w>
K om
Änder ungsan
sol l</w>
sp ar
gab e</w>
Vorsch lag</w>
Wi th</w>
F ol
ör der
ti l</w>
K </w>
gr und</w>
ti ce</w>
di d</w>
ol o
en nen</w>
lo ssen</w>
O b
ge ther</w>
tro l
Th ey</w>
co operation</w>
le a
Ri chtlin
zu g</w>
einf ach</w>
spre chen</w>
tu n</w>
Ver k
b lei
B i
need s</w>
1 .
ful ly</w>
vie ws</w>
be deut
B ei</w>
li n</w>
al ways</w>
wis sen</w>
gro up</w>
ous ly</w>
I N
si cht
Bür ger</w>
pl at
as es</w>
ad d
B en
mat eri
A f
A t</w>
ha pp
St adt</w>
ri ff
führ ung</w>
Gro up</w>
int egr
d own</w>
An d</w>
ent ru
s einen</w>
re al</w>
leg isl
M illi
W ar
la w</w>
Fra gen</w>
wich tig</w>
comp ani
j a</w>
der en</w>
Or gan
An wen
m ehr
Prob lem</w>
drei </w>
Syst em</w>
ein mal</w>
Par tn
h ope</w>
g lau
wär e</w>
US A</w>
z o
tion s
e p</w>
Un ited</w>
Z iel</w>
letz ten</w>
wor king</w>
a vi
N amen</w>
G i
impl ement
F am
d abei</w>
h oh
be w
g n</w>
dr en</w>
el li
produc tion</w>
del i
sp iel</w>
ord n
k m</w>
o -
r än
bet ter</w>
ven tion</w>
wel che</w>
0 0
tra gen</w>
en ing</w>
ess es</w>
Ent schei
schaf ten</w>
pl ac
re co
cul tural</w>
k es</w>
Wir tschaf
es p
f unc
ett bewer
ec tiv
w w
i ev
ur al</w>
indu stri
tim es</w>
K ri
W hat</w>
se ver
Z iel
pro mis
aro und</w>
et er</w>
da ys</w>
str eng
ap pe
ge führt</w>
H ouse</w>
b l
itä ten</w>
Kol legen</w>
ak e</w>
gab en</w>
sch er</w>
U </w>
V iel
g eri
gen d</w>
chter stat
p ack
fes sion
ver s
zei gt</w>
th em
W oh
er ing</w>
gro ße</w>
al low
es se</w>
Be deut
per f
In stitu
ir e</w>
den ce</w>
ar ch
po wer</w>
gro ßen</w>
sch rif
ol le</w>
M ein
Sp iel
en jo
en cy</w>
S k
prot ection</w>
in a</w>
D aten</w>
to gether</w>
nis se</w>
rü ck
s s</w>
ma king</w>
k re
W er
s ing
W as</w>
port e
t ow
d -
Re cht</w>
1 1</w>
mitt el
inn er
Au f</w>
Rest a
hän gi
komm t</w>
c a
Verfü gung</w>
res ta
ing ungen</w>
t echni
wei ter</w>
ex t
ch en
re chte</w>
p rü
ein zi
Er geb
fer ence</w>
E r</w>
S of
Ih r</w>
f ig
t on</w>
programm e</w>
ex tre
M or
curr ent</w>
tei l</w>
gn is
th ir
O ff
speci al</w>
ur y</w>
min i
un ic
Sei te</w>
Bedeut ung</w>
di c
z ed</w>
in es</w>
Th ese</w>
Comm unity</w>
k om
bec ome</w>
E R
sp ek
R us
Finan z
zur ück
ic ul
A ber</w>
U S</w>
or ig
n t</w>
ei li
m ental</w>
Sicher heit</w>
En ergi
E ben
Geb i
B eg
Au ch</w>
W hen</w>
n am
centr e</w>
regi on
tig keit</w>
ter ms</w>
Sit u
in f
Gen er
m ä
of f</w>
op en</w>
Hau pt
Möglich keit</w>
whe ther</w>
tra de</w>
partic ularly</w>
o ti
an c
diff icul
si a</w>
gu ar
an other</w>
R ep
ic k
ori ties</w>
h r</w>
V i
eigen en</w>
S ec
R ech
ful l</w>
go ing</w>
ran ge</w>
p age</w>
s ere</w>
rü h
glei ch</w>
af f</w>
chil dren</w>
gro ß
D r
u li
t z</w>
N ach</w>
F ahr
h off
g ing</w>
R u
v e
C O
i ma
man agement</w>
resul t</w>
f ar
loo k</w>
st ate</w>
Fra ktion</w>
ab o
Reg ierung</w>
basi s</w>
er mögli
n äch
ent fern
f as
au ßer
not wen
F lug
Al s</w>
x im
rap porte
con tri
* </w>
ul tur
g ern</w>
t sch
é </w>
a -
I m
Beri chterstat
1 00</w>
Sta aten</w>
f ähi
S h
c ris
Mr s</w>
end ed</w>
mu ß</w>
cer tain</w>
is mus</w>
o th
en zen</w>
at or</w>
w are</w>
G ä
condi tions</w>
200 7</w>
Str ateg
schließ lich</w>
regi on</w>
Them a</w>
on d
issu es</w>
peri o
loc ation</w>
tei l
er forder
da von</w>
kön nte</w>
al es</w>
all es</w>
ell er</w>
k ra
w o
ell schaft</w>
wor k
Pro gramm
du ce</w>
d aher</w>
ie der
lex i
tic s</w>
Problem e</w>
d ent
W o
ent schei
entru m</w>
ben ef
compani es</w>
l ag
ut er</w>
pf li
k ein</w>
äm pf
am e
lei ch
to ur
ri eb
F unk
A T
ch o
dar über</w>
ent sprech
us e
g ress</w>
is s
experi ence</w>
olo gi
ec k</w>
bur g</w>
b or
P lat
weiter e</w>
ist er</w>
h and</w>
In du
t -
f av
ra cht</w>
K unden</w>
inv est
esp eci
be findet</w>
we gen</w>
st ance</w>
Fam ili
Wei se</w>
contro l</w>
r a</w>
In v
so li
be au
Kommiss ar</w>
ou th</w>
w ater</w>
so wohl</w>
an zu
c el
Wirtschaf ts
R om
Poli tik</w>
t ot
tur n</w>
u te</w>
fi zi
Di enst
sec ond</w>
su chen</w>
w omen</w>
ation ale</w>
guar ant
T i
Ihr er</w>
end ing</w>
ex ist
all er
ro le</w>
t ungen</w>
in nov
L in
at ten</w>
k tur
A t
vari ous</w>
errei chen</w>
200 0</w>
C omp
d ou
especi ally</w>
sel ves</w>
de f
indu stry</w>
di stri
wei sen</w>
wh ole</w>
Ger man</w>
T echn
it t</w>
mo dern</w>
sec tor</w>
besonder s</w>
re ally</w>
l ing</w>
Eur o</w>
ab ly</w>
zi ehen</w>
C ar
En de</w>
ak tu
K li
cht ungen</w>
h atte</w>
exc ell
lie gen</w>
is ch
call ed</w>
c lose</w>
li ght</w>
govern ment</w>
des ign
mat ter</w>
b lick</w>
m einer</w>
d one</w>
dar f</w>
m il
G rupp
n ei
th e
wor d</w>
ing t</w>
Ar tik
ac i
Zu kunft</w>
he alth</w>
an s
sp or
W ähr
o un
le ben</w>
loc al</w>
ver sch
rit te</w>
priv ate</w>
wirk lich</w>
at y</w>
wis h</w>
accoun t</w>
A N
wi de</w>
A R
In di
Z wei
Servi ce</w>
unterstütz en</w>
wi eri
uns er</w>
2 5</w>
mu si
Bei spiel</w>
t ungs
en der</w>
l ab
+ </w>
p t</w>
an k
ih nen</w>
pro fession
acc ord
nat ürlich</w>
K re
bud get</w>
h ang</w>
cre ate</w>
entfern t</w>
ab hängi
si gn
w eit</w>
inner halb</w>
zah l
h au
t el
verschied enen</w>
n ame</w>
pres s</w>
A fri
speci fic</w>
z ep
c li
glob al</w>
ö h
J un
1 6
gr und
i denti
viel en</w>
gel egt</w>
tre ten</w>
st aff</w>
finan zi
Ger many</w>
neg oti
tim men</w>
autom ati
K un
a ir</w>
resp ect</w>
do cum
gegen über</w>
L an
fe at
con n
P h
W ettbewer
R ück
4 0</w>
inc re
dig keit</w>
P ra
res earch</w>
as se</w>
in ten
öl k
B al
ad ing</w>
lan gu
o d
po se</w>
ter m</w>
gni fic
ati ven</w>
proc ed
N utz
U N
res er
T e
c ro
R olle</w>
Leb ens
Richtlin ie</w>
maj or</w>
s ön
f y</w>
ef ul</w>
fac e</w>
sof tware</w>
re duc
l s</w>
L a
bre ak
des sen</w>
eu er
W eg</w>
her vor
rei chen</w>
For sch
con s
and s</w>
z entr
E m
intern ationalen</w>
I t
m illion</w>
le t</w>
em e</w>
oo k</w>
w a</w>
th s</w>
mö chten</w>
e qu
er a</w>
e ur
200 6</w>
e as
_ </w>
ent er</w>
ein zu
a way</w>
in stru
tiv </w>
K l
ges t</w>
stän d
zw ar</w>
Reg i
some thing</w>
Ihr en</w>
B ri
pro ject</w>
ß en
k rati
1 5
di o</w>
P l
ei cht</w>
sever al</w>
Geschäf ts
är e</w>
it self</w>
a il</w>
ori es</w>
continu e</w>
res our
employ ment</w>
p en
ol s</w>
d ungs
Fr auen</w>
ah n
int ro
fo und</w>
t or
an y
d ür
Indu stri
own lo
on n
u tions</w>
S el
An t
rel i
k omp
dire kt</w>
1 7
fic ation</w>
G ef
europä ische</w>
er st
rapporte ur</w>
ati s
la y
d ort</w>
X </w>
resol ution</w>
mul ti
at ten
F u
mä ß
I r
spra che</w>
gu e</w>
Haush al
mini str
G rün
cris is</w>
stimm ung</w>
el s
19 8
politi sche</w>
su ff
Hot els</w>
es ti
Ta g</w>
reg ul
j ects</w>
of ten</w>
gent lem
S eiten</w>
ver sion</w>
ü s
di sp
as ser
dru ck</w>
excell ent</w>
h under
t ext</w>
schaf ts
2 .
op tim
E C
ge währ
b ut
b lo
Reg ier
EU R</w>
tak ing</w>
ur ch</w>
on ds</w>
er ste</w>
reg ard</w>
us er</w>
Dem ok
t ar
rei ch
star t</w>
pl an
ame work</w>
f all</w>
Deut sch
ec k
gentlem en</w>
re cht
J an
1 3</w>
il t</w>
ati ves</w>
denti n</w>
K omm
p ay
zei tig</w>
Al le</w>
land s</w>
Hi er</w>
le ast</w>
Ne w</w>
es sion</w>
t own</w>
t sp
an st
y o
gen en</w>
as p
li tt
Ges und
gener al</w>
U m</w>
C entr
su pp
sing le</w>
ein zel
transp ort</w>
N eu
er st</w>
H e</w>
Sp ra
m ot
den cy</w>
un tern
zi al
an der</w>
et te</w>
f unk
li es</w>
parti cip
m ilit
follow ing</w>
It ali
f ron
r ules</w>
A ir
pri ce</w>
T er
zus ammen
wel come</w>
thir d</w>
grow th</w>
f ood</w>
con tain
ck s</w>
f el
person al</w>
am men</w>
v ely</w>
mon ey</w>
F il
s ing</w>
per form
wor ks</w>
direc tive</w>
I S
vis ion</w>
tr on
m b
Pro gramm</w>
lich es</w>
Ch ar
litt le</w>
vi a</w>
es ten</w>
on ce</w>
Mu si
cul ture</w>
at er
ab sol
Artik el</w>
bu tion</w>
Ver brau
environ ment</w>
Mein ung</w>
conc lu
me tho
ac tivi
con struc
wi eder
H ar
on line</w>
g l
N ot
st o
ver s</w>
p ic
n on-
fra ge</w>
an ges
c los
stat t</w>
ta ge</w>
h ät
sub ject</w>
gr at
U hr</w>
T ag
re present
rei b
li st</w>
Entwick lungs
T err
b rei
eff ici
ar s</w>
auf en</w>
. .</w>
w ahr
E N
tow ards</w>
ei gn
dec ision</w>
- B
bei den</w>
man u
un til</w>
Lös ung</w>
produc t</w>
on es</w>
lo t</w>
comm unic
institu tions</w>
th ings</w>
pl es</w>
custom ers</w>
det ail
Situ ation</w>
B .</w>
unser em</w>
lan g</w>
beh al
ei gn</w>
E S
up s</w>
f lo
og ra
au t</w>
Wor ld</w>
gen d
Fran k
le ar
a x
P ol
sicht lich</w>
p ro</w>
pl ay</w>
ach iev
re m
Mad am</w>
No v
ac tu
N o</w>
g än
Reg ion</w>
fi eld</w>
H e
d om
an aly
lä ge</w>
st ory</w>
Organ is
Dies es</w>
know n</w>
ver besser
Ab ge
rit t</w>
r ate</w>
ag o</w>
Sch ul
Zusammen hang</w>
ges agt</w>
incre ase</w>
mo sp
In t
individu al</w>
Is ra
uss es</w>
hi m</w>
tur es</w>
b s
agre e</w>
lä u
i d
th ank</w>
for ward</w>
fam ily</w>
stand ards</w>
po ten
opport unity</w>
pre v
Ent schließ
um s</w>
f oc
B au
Win d
E l
rit eri
ra ft</w>
pre par
er war
Ver antwor
S ü
Hil fe</w>
Mitt el
ten s</w>
ä d
an im
Produk te</w>
C or
beg rü
® </w>
wen iger</w>
Tre aty</w>
ist s</w>
er zi
vi l
m el
I C
el eg
j en
z a</w>
ra ther</w>
&apos; t</w>
posi tive</w>
M ehr
qu ite</w>
enti al</w>
activi ties</w>
Dienst leist
si gnific
A c
buil ding</w>
bar en</w>
L e
a de
h ome</w>
des ign</w>
an a</w>
Präsi dentin</w>
s ure</w>
Demok rati
vol l</w>
Mitt el</w>
b au</w>
E N</w>
aus zu
orig in
c all</w>
gu te</w>
appro ach</w>
dec isi
Um welt
e di
w ün
ad s</w>
1 .</w>
c ally</w>
je der</w>
a id</w>
forder ungen</w>
1 4</w>
alis ierung</w>
inter est</w>
200 5</w>
ni ti
P i
si s</w>
wor t</w>
öffent lichen</w>
provi ded</w>
e duc
L eben</w>
bit te</w>
s ätz
p rec
prin cip
g ilt</w>
resour ces</w>
Des halb</w>
valu e</w>
T V</w>
b ed</w>
A S
am es</w>
in o</w>
K or
v ement</w>
dar an</w>
St ru
z immer</w>
ent er
H aus</w>
I niti
An gel
ma ch
Dat en
S ept
gesch lossen</w>
M at
per sön
ann ten</w>
techn ology</w>
y et</w>
st ärk
e gen</w>
ef er
econom y</w>
Er fahr
m om
P ak
w ell
gr ün
sch affen</w>
is ed</w>
re cht</w>
b zw
i chte</w>
so gar</w>
et wa</w>
g ri
ra cy</w>
K ü
bzw .</w>
fi le</w>
fac ili
aus sch
En g
li k
perio d</w>
c o</w>
vis i
ti sch</w>
A n</w>
b ank</w>
com es</w>
T our
sol ution</w>
de ci
Gr und</w>
äch lich</w>
D a
M embers</w>
pro per
Sept ember</w>
mi ght</w>
berei ch</w>
ter r
sion en</w>
Zei t
ex per
inclu de</w>
z ung</w>
fort able</w>
C hi
G ol
requi re
ge macht</w>
Milli onen</w>
st y
beau ti
1 4
hin aus</w>
S ol
H ei
d rin
l on
h ouse</w>
form s</w>
air s</w>
po ol</w>
Sicher heits
ell eicht</w>
Europ as</w>
m embers</w>
K ap
zah l</w>
in dem</w>
am ent
fra gen</w>
ge geben</w>
gen den</w>
Intern ational</w>
lu b</w>
K ur
lei sten</w>
e th
al tung</w>
W </w>
am ong</w>
F rüh
ha ving</w>
la dies</w>
compl et
min utes</w>
st off
lo g
geb racht</w>
kün f
Sch utz</w>
Af ter</w>
ge wi
ri cht</w>
eff ective</w>
Rep ub
St ate</w>
bin dung</w>
co sts</w>
in ion</w>
vi ol
äm lich</w>
us sel
du e</w>
com ing</w>
propos als</w>
al low</w>
poin ts</w>
in e
rec omm
ück sich
er klär
ap art
egen heit</w>
sta in
n ämlich</w>
rati c</w>
ch all
O ne</w>
riff t</w>
i an</w>
us sion</w>
amend ments</w>
Bes u
f ris
Un sere</w>
Haushal ts
Dies er</w>
sch ie
6 0</w>
G leich
cont ent</w>
ch s</w>
G eg
z t</w>
sch rei
ob en</w>
ah l
transp ar
Deutsch land</w>
fr amework</w>
saf ety</w>
200 4</w>
2 4</w>
for ce</w>
Kin der</w>
eben falls</w>
tion ed</w>
B ev
op s</w>
zei gen</w>
p ris
n u
Lei st
re gel
unter schied
en ed</w>
beg inn
er h
appro pri
1 8</w>
D ok
ag ri
wor ds</w>
Th er
z eh
Al l
Ver hand
on a</w>
l et
de ed</w>
reas on</w>
li </w>
d ro
ih n</w>
ag ed</w>
N a
ma kes</w>
ti </w>
J ap
ein igen</w>
Jan u
enjo y</w>
pro gress</w>
pro z
web site</w>
p at
c lim
adop ted</w>
In stru
m ess
f lexi
du zi
er ungs
F ar
s einem</w>
sh ow</w>
de al</w>
li g</w>
olog ie</w>
Dur ch
wes ent
brau chen</w>
Eben e</w>
sp i
ges timm
exc lu
to ber</w>
Abge ordn
char ac
tiv en</w>
unterstütz t</w>
provi des</w>
o se</w>
le ft</w>
difficul t</w>
ih m</w>
st eh
t em
si cher</w>
el i
D ru
a th</w>
hand elt</w>
po wer
ac tiv
ho li
oth ers</w>
Er fol
Sch i
pl an</w>
w eg
en k
ur ants</w>
compl ete</w>
N ä
K omp
am oun
Pri v
R ates</w>
si tes</w>
Uni versi
demo krati
Wel t
Web site</w>
cre di
T ro
arbei tet</w>
eas y</w>
pro jects</w>
c ing</w>
P unkt</w>
an gen</w>
legisl ation</w>
un ver
zeich net</w>
em pf
Aus sprache</w>
Person en</w>
mö glich
ran k
stän dig</w>
op inion</w>
di en
dar in</w>
po st
mi gr
For m</w>
bo dy</w>
1 6</w>
resul ts</w>
o v
ür k
fav our</w>
abo ve</w>
E R</w>
ati c</w>
de ck
applic ation</w>
Qu alität</w>
W ach
mo un
it ing</w>
ä um
st ei
cont act</w>
gro und</w>
a di
s ci
respon sibility</w>
ot s</w>
I I</w>
A C
li ve</w>
b is
atten tion</w>
poli cies</w>
Ber lin</w>
d d
gro ups</w>
ad ministr
W h
S ub
simp ly</w>
el ess</w>
ro ad</w>
Sof tware</w>
mitt el</w>
A p
Resta urant</w>
s weise</w>
tra g
ad dition</w>
beauti ful</w>
A L
En gli
d rück
gen de</w>
fre ed
concern ed</w>
S y
ger ade</w>
dür fen</w>
b are</w>
eh mer</w>
f ang</w>
am eri
end ly</w>
ques tions</w>
en -
s ed</w>
sh ort</w>
D a</w>
k ind</w>
mei sten</w>
glau be</w>
succ ess
behal f</w>
fre und
I T
reg ar
S ek
pro chen</w>
in n</w>
cer tain
Wei ter
n ationalen</w>
Jahr hunder
j e</w>
Ben utz
der zeit</w>
hö h
geb ung</w>
in -
T at
K oll
G ra
ide al</w>
S al
ou ght</w>
200 3</w>
in t</w>
di ge</w>
re alis
W il
Wir tschaft</w>
gen au</w>
1 3
st ation</w>
wir tschaft</w>
p tion</w>
je den</w>
Gro ß
bei spiel
all gem
s el</w>
ni chts</w>
Ab stimmung</w>
pro mo
zus ätz
import ance</w>
sp ru
k einen</w>
4 -
inter est
h y
ier ten</w>
gu i
soll en</w>
c al
ih rem</w>
soci ety</w>
intro duc
ci r
tr au
e f</w>
hal t</w>
E i
Verein ig
ro und
direc tly</w>
strateg y</w>
Gemein schaft</w>
D ec
for ts</w>
ad di
bu s</w>
vot ed</w>
rei che</w>
v al</w>
sh e</w>
T r
b on</w>
Ges etz
sh ar
ro w</w>
gre ater</w>
Besch äf
b li
co ver
Rech te</w>
gehör t</w>
w and
T el
gestimm t</w>
F o
K an
ver ein
weiter hin</w>
ha f
C as
pp ed</w>
zus ammen</w>
tra ining</w>
manu fac
alo g</w>
le b
environ mental</w>
kl ar</w>
beh and
For tsch
an ks</w>
äch st</w>
utz t</w>
se a</w>
extre m
me chan
t able</w>
bet rifft</w>
tei le</w>
z äh
loo king</w>
R O
ho ch
en h
ri eben</w>
Dok um
ko sten
rif f</w>
Koll eg
wirtschaf tlichen</w>
Or t</w>
K amp
B em
tei len</w>
St ad
al ong</w>
mark t</w>
ern e</w>
p rei
ben ö
li ber
nat ural</w>
olog ical</w>
j us
L o
ni ght</w>
den ten</w>
requi red</w>
n ed</w>
su g
am bi
chan ges</w>
s ei</w>
F i
L a</w>
princip le</w>
un a</w>
hear t</w>
fü r
ver ständ
bedeut et</w>
e asi
P le
an o</w>
ges ehen</w>
k ar
ste p</w>
p ages</w>
B ro
wich tige</w>
rec ent</w>
Z i
tr itt</w>
ur ing</w>
An gebo
Wach st
s wi
unk te</w>
respon sible</w>
ar ti
zu stellen</w>
C an
ac ro
re fer
Be zug</w>
vi c
€ </w>
ic ro
uni ties</w>
sa che</w>
5 -
wür den</w>
break fast</w>
k or
lan g
fü h
n utzen</w>
bes ten</w>
J o
stand ing</w>
fam ili
M inu
con f
me eting</w>
sol che</w>
bes ser</w>
de u
L ist
s et
cent ury</w>
ier te</w>
des halb</w>
schn ell</w>
Ges ellschaft</w>
im e</w>
h ot
Be zieh
hal te</w>
0 .
Go vern
c are</w>
trol le</w>
inst all
le x</w>
deut lich</w>
cle arly</w>
S pe
add ress</w>
z es</w>
auth orities</w>
oo ds</w>
setz t</w>
al li
am ental</w>
p hi
en ess</w>
at ors</w>
200 1</w>
Nov ember</w>
pos ed</w>
Zu gang</w>
erfol grei
B oo
auf grund</w>
tig er</w>
ex pl
techni cal</w>
mitt ed</w>
mm t</w>
ei st
Bür ger
I de
us es</w>
z er
D ank</w>
m al
V on</w>
sup port
F eh
P e
sta at
adv an
Ko sten</w>
struc ture</w>
19 7
le dge</w>
ach ieve</w>
sol utions</w>
wer t</w>
or d</w>
t op</w>
Z w
an ten</w>
ad a</w>
s ha
lin es</w>
ah </w>
C om
in dep
A pri
Rus sia</w>
Ri chtung</w>
Bev ölk
con su
ap </w>
R at
näch sten</w>
mo ve</w>
S or
en ough</w>
ni mmt</w>
pro duk
p ast</w>
h ör
an z</w>
need ed</w>
li g
B l
gra m</w>
facili ties</w>
qu ali
ess ential</w>
ci vi
a den</w>
Strateg ie</w>
ein ander</w>
re ach
bek annt</w>
seri ous</w>
stand ard</w>
b em
I T</w>
d au
Mark t</w>
mon ths</w>
ach ten</w>
use um</w>
s po
t ex
re p
ing ly</w>
fe el</w>
sch ön
M et
In n
ü l
J e
nat ure</w>
Ver besser
per son</w>
I ra
st ed</w>
br ing</w>
develop ed</w>
bet ra
h u
aller dings</w>
ic s</w>
Kli ma
si tz
st adt</w>
resta urant</w>
t ation</w>
at trac
A D
hi story</w>
Nä he</w>
Mit arbei
G eri
rel ated</w>
ör den</w>
An sicht</w>
f ish
gu ests</w>
h on
F örder
ris k</w>
con trac
curr ently</w>
cri min
c ar</w>
Di rec
Ple ase</w>
zeich n
ev ents</w>
Au s</w>
F ern
gem ä
ac tive</w>
ant ly</w>
propos ed</w>
k enn
ei ther</w>
da m</w>
zü glich</w>
re h
Um setzung</w>
lon ger</w>
mark ets</w>
sp ä
r es</w>
er neu
car ri
P ub
Menschen rechte</w>
bet re
is cher
Apri l</w>
vis it</w>
require ments</w>
vor gesch
centr al</w>
on i
sch t</w>
So zial
com bin
inter ests</w>
im m
mb H</w>
ac y</w>
spe ak
tn is</w>
W es
comm it
Par tei
par ties</w>
k o</w>
b s</w>
än de</w>
F rom</w>
ne ar</w>
er ed</w>
Wind ows</w>
tic le</w>
intern al</w>
ser v
com fortable</w>
Ziel e</w>
sp ace</w>
wirk ungen</w>
$ </w>
langu age</w>
fü n
wel t</w>
beispiel sweise</w>
schein t</w>
we der</w>
poten ti
Sel b
se par
Ver trag</w>
hoff e</w>
organ iz
R uss
b ra
ple ase</w>
them selves</w>
Ver fahren</w>
ri ch</w>
Verantwor tung</w>
Ver sion</w>
ab les</w>
l ö
c ateg
ag er</w>
vi ous</w>
200 2</w>
ma il</w>
lan ge</w>
wer de</w>
en sive</w>
yo ung</w>
D am
Bed ingungen</w>
invol ved</w>
an te</w>
ef forts</w>
je wei
g a
regi ons</w>
hum an
A m</w>
extrem ely</w>
P f
V ide
terr or
f f</w>
democ racy</w>
st är
f ung</w>
‘ </w>
W is
um fass
su stain
8 0</w>
p an
B ek
P -
competi tion</w>
Dur ch</w>
sch ö
tot al</w>
G mbH</w>
gen u
H a
rei ch</w>
N etz
notwen dig</w>
verwen det</w>
reg ulation</w>
aff ung</w>
Anwen dung</w>
str ong</w>
F est
Po si
all s</w>
ne ver</w>
yn am
Dis k
te am</w>
direc t</w>
D u
S ti
implement ation</w>
c aus
vi elleicht</w>
fri endly</w>
Inter esse</w>
ag ing</w>
c ases</w>
Demokrati e</w>
ur en</w>
ke ep</w>
sp ort</w>
fü l
ig ung</w>
re f
s -
gemeins amen</w>
kl einen</w>
Ih rem</w>
Vorsch läge</w>
mer ks
Tei l
Er weiter
sei ts</w>
ri chtung</w>
O R
ber u
f ail
m us
ur t</w>
Grund lage</w>
20 0</w>
M an</w>
net work</w>
Au ßen
und s</w>
Rei he</w>
mon it
auf ge
Gesch ichte</w>
ar ri
D aher</w>
à </w>
A spek
mo di
freed om</w>
t ory</w>
ev ent</w>
pe ace</w>
ari an</w>
rel ev
Herr en</w>
dan ken</w>
Gebi et</w>
de mon
ehr s
up on</w>
min im
f our</w>
rel e
ma xim
Möglich keiten</w>
am a</w>
P rin
blei ben</w>
errei cht</w>
Inv esti
zo gen</w>
plat z</w>
ass ung</w>
ber ücksich
ist an</w>
D och</w>
f -
in ation</w>
Em pf
situ ated</w>
indi c
k u
is ti
P rä
Ar ch
et c</w>
li ed</w>
democ ratic</w>
äl t</w>
Arbei tsp
Fran ce</w>
sch wieri
bi le</w>
c la
spiel en</w>
sozi alen</w>
hal tung</w>
pri ces</w>
hö ch
get s</w>
r ates</w>
for dern</w>
region al</w>
it te</w>
b ark
forder t</w>
i chts</w>
ver fol
C hr
s st</w>
kön nten</w>
o ft</w>
z er</w>
appropri ate</w>
aus gest
negoti ations</w>
inn en
f eh
ac tions</w>
at ory</w>
Z ah
har mon
v a</w>
er min
tw eit</w>
su cht</w>
Ö ff
gel eg
develop ing</w>
Deb atte</w>
Institu tionen</w>
cre ated</w>
Er klär
s eh
A G</w>
Ver wal
B ra
fort un
consi der</w>
funk tion
c t</w>
uni que</w>
ges etz
tru e</w>
D E</w>
wen ig</w>
b ack
ats ächlich</w>
educ ation</w>
eri es</w>
vi de
al tern
con ven
1 7</w>
bi g</w>
entwick elt</w>
musi c</w>
T ri
H ol
off ici
every thing</w>
B ur
is ches</w>
c lo
ac comm
sh are</w>
materi al</w>
ber eit</w>
Intern et
c op
al most</w>
Fr en
c at
5 00</w>
l d
se en</w>
W ieder
ru n</w>
d ar</w>
st ates</w>
las si
hel d</w>
her r
requ est</w>
ass er</w>
d ownlo
glei chen</w>
cent er</w>
th us</w>
St ell
be ach</w>
K enn
fo und
Y </w>
ari a</w>
verschied ene</w>
vi er</w>
T ex
For m
äu ßer
re form</w>
succ ess</w>
st ly</w>
impro ve</w>
ear ly</w>
p ay</w>
alo gue</w>
3 .
M al
K ö
fund s</w>
le y</w>
d est</w>
ver antwor
R echn
verfü gt</w>
B ank</w>
t a</w>
Her aus
design ed</w>
Früh st
St re
addi tional</w>
cor rec
Fü hr
in en</w>
des cri
be finden</w>
av o
par ts</w>
es si
g ten</w>
me et</w>
Au ßer
im medi
vi ce</w>
fund amental</w>
clim ate</w>
c am
z one</w>
w .
stat t
lä tz
p ment</w>
eff izi
sch ul
wi ll
co st</w>
ent sp
vor sch
for eign</w>
det ermin
ap er</w>
gh out</w>
eff ect</w>
accord ing</w>
än dern</w>
Aus wirkungen</w>
uni k
end ent</w>
fam ous</w>
we ek
ke y
ermögli cht</w>
D amen</w>
typ e</w>
Americ an</w>
tre at
P lan
ru hi
so on</w>
Minu ten</w>
Ho ch
I M
d lichen</w>
fer enz</w>
sen schaf
lin ks</w>
z ation</w>
untern ehmen</w>
Kon tak
le ag
Dienstleist ungen</w>
ectiv es</w>
gemein same</w>
h ard</w>
wel tweit</w>
inclu ded</w>
actu ally</w>
k ol
an gem
li gen</w>
an ischen</w>
Berichterstat ter</w>
gen ie
er -
mis sion</w>
ide a</w>
Ab kommen</w>
Dr itt
ha ps</w>
kon kre
ta x
manufac tur
h atten</w>
hel fen</w>
recei ve</w>
hi er
L A
ww w.
lat er</w>
L is
Fren ch</w>
off en
ber i
sur round
c amp
as h
h eu
gnis se</w>
stan den</w>
Par k</w>
a im
Isra el</w>
Presi dency</w>
su per
K at
under stand</w>
mitt eln</w>
F ischer
en cour
m ing</w>
K ir
g t
ing -
kt ur</w>
ex am
li ving</w>
sh or
pub lish
le ad</w>
ameri kan
C ol
Zu </w>
Off ice</w>
ph ot
fall en</w>
A ff
acc ept</w>
erforder lich</w>
cap ital</w>
Par is</w>
le ading</w>
ch ung</w>
Ein zel
199 9</w>
ob s</w>
P at
Verhand lungen</w>
Hin blick</w>
schl uss</w>
W asser
tak es</w>
ad urch</w>
ent ation</w>
pro gram</w>
or ing</w>
ab led</w>
co ver</w>
u ally</w>
Mitgli eder</w>
g um
sh ow
R E
Programm e</w>
t est</w>
out side</w>
jen igen</w>
bo ard</w>
H ö
ec ting</w>
work ers</w>
F äl
ber g</w>
n ation
as soci
Tat sache</w>
m ut
an den</w>
com b
gesam ten</w>
Regi onen</w>
us ers</w>
fa ir</w>
bil dung</w>
ta x</w>
ri g
invest ment</w>
S an</w>
St at
ah n</w>
» </w>
Di en
feat ures</w>
r ing</w>
initi ative</w>
er seits</w>
z .
eben so</w>
b ath
k ultur
d ents</w>
Finan zi
gli chen</w>
e ch</w>
ei en</w>
B ef
schlie ßen</w>
comm er
p as
H af
L ond
g rupp
D ev
li eg
Z entrum</w>
Außer dem</w>
einzel nen</w>
In st
ver fahren</w>
Grupp e</w>
D en
Por tu
ste ad</w>
re ach</w>
lä ssi
H ow</w>
An g
ei gent
amoun t</w>
häl t</w>
b au
Bet rieb
Woh n
F ot
ri st
proced ure</w>
sp räsi
List e</w>
in ge</w>
Sch ritt</w>
ho urs</w>
ent ed</w>
Reg el
Li ber
weiter en</w>
den ke</w>
intern ationale</w>
sch utz
A s
T ürk
ell ing</w>
we ek</w>
schrif ten</w>
boo k</w>
Au stri
am keit</w>
maj ority</w>
e y
Kon z
fil es</w>
dar um</w>
dra w
an ted</w>
g res
Kolleg innen</w>
e den</w>
al ist</w>
t ook</w>
do ing</w>
län dern</w>
D an
tei lung</w>
G l
s em
c ard</w>
ep tion</w>
er wäh
di st
ver ur
wer k</w>
ex tern
communic ation</w>
ma g
Ergeb nis</w>
Entschei dung</w>
throu ghout</w>
cher weise</w>
B re
änder t</w>
an gen
N et
r un
for men</w>
lä sst</w>
F ur
tu al</w>
le k
li gh
B y</w>
St euer
f ran
lu x
am s</w>
hät te</w>
w ahl</w>
acro ss</w>
Ak tiv
h or
je dem</w>
guarant ee</w>
kon nte</w>
f lä
Berei chen</w>
certain ly</w>
signific ant</w>
ämpf ung</w>
reli gi
b ly</w>
Ver tre
B us
ti n</w>
vi r
par k</w>
an no
en or
l ong
tradi tional</w>
R isi
Ver wen
conn ection</w>
w under
Bes timm
s ex
ch oo
F eb
st ing</w>
Ver tra
fin al</w>
Änderungsan träge</w>
tn is
f ör
P u
at tet</w>
a ware</w>
Vereinig ten</w>
exist ing</w>
con sequ
Ant wort</w>
ult ur</w>
fähi gkeit</w>
v al
zun ehmen</w>
sk i</w>
en ge</w>
Plat z</w>
… </w>
writ ing</w>
res t</w>
ne w
pra k
s ag
K op
t op
fig ur
d on
perf ect</w>
col leag
men tioned</w>
um e</w>
g keiten</w>
19 </w>
el ten</w>
K rise</w>
B lick</w>
Americ a</w>
Ur lau
m et</w>
Änderungsan trag</w>
B innen
Tur key</w>
Erfol g</w>
Bezieh ungen</w>
n a
gegen wär
ent ri
rel ations</w>
e ed</w>
cont ext</w>
medi a</w>
ast ro
S at
perform ance</w>
concern s</w>
gab </w>
Int egr
ra ce</w>
par ty</w>
sp ec
Bevölk erung</w>
gleich zeitig</w>
tr a</w>
c ru
W al
m ember</w>
vor zu
origin al</w>
con sum
z en
wich tigen</w>
sch utz</w>
re ad</w>
gemeins am</w>
custom er</w>
den ken</w>
tim me</w>
ill a</w>
ta g</w>
Sta ats
z. B.</w>
ple as
f al
rich tig</w>
Prei s</w>
wei ß</w>
ul ate</w>
ati v</w>
pro gramm</w>
s ou
ar d
accomm od
re fl
D -
Mark t
U kra
know ledge</w>
L eg
ab zu
M y</w>
th ern</w>
äh ri
A cc
v o</w>
milit ary</w>
O c
je de</w>
v öl
lo k
imp act</w>
c y
demon str
Bu d
S eit</w>
ad d</w>
wal k</w>
d or
Schl ussel
ein ge
M ag
programm es</w>
k lu
acc ept
G eh
ex ten
Ver fass
ander er</w>
vol le</w>
m als</w>
fi ve</w>
ur i
bark eit</w>
mom ent</w>
B ar</w>
pres sion</w>
co ordin
it es</w>
buil t</w>
gt ;</w>
& gt;</w>
be kommen</w>
al -
c ell
S T
Nat ur
n a</w>
b an</w>
en er</w>
kl eine</w>
app ly</w>
i eb
Aus druck</w>
hei ßt</w>
Pro to
conf lic
Un ser</w>
profession al</w>
al though</w>
Abgeordn eten</w>
G eld</w>
blei bt</w>
P an
s end</w>
com par
d re
t el</w>
Auf gabe</w>
b ein
si an</w>
kon z
entschei den
Jap an</w>
Tag es
Tran s
M ot
vel s</w>
ver l
2 1</w>
g ame</w>
complet ely</w>
pop ulation</w>
t in
ec e</w>
Ver bindung</w>
Türk ei</w>
tiv es</w>
mo bili
no thing</w>
A part
s atis
a g</w>
partn er</w>
st ens</w>
erg ie</w>
Th e
A gen
Feb ru
establish ed</w>
un abhängi
zei t
Min ister</w>
u es</w>
reas ons</w>
ri chtungen</w>
h om
comm ittee</w>
= </w>
St abili
län der</w>
do or</w>
inclu des</w>
ch e
k te</w>
ach es</w>
comm unity</w>
Au g
allow s</w>
Z um</w>
w at
verb unden</w>
an ken</w>
rit ten</w>
in ed</w>
sei te</w>
Govern ment</w>
er inn
decisi ons</w>
equi pped</w>
Bar cel
lan gen</w>
dig ung</w>
Ein satz</w>
ep s</w>
M al</w>
re main</w>
concern ing</w>
Ver pfli
V is
st age</w>
agre ements</w>
so ft</w>
S ince</w>
gar anti
basi c</w>
qu ick
j ähri
Kon trolle</w>
O ber
m einen</w>
er lau
y si
co de</w>
3 0
wirtschaf tliche</w>
G egen
Min ist
f s
Förder ung</w>
arch it
sty le</w>
Ho st
z ös
ri chten</w>
unser es</w>
J oh
bec om
Engli sh</w>
erk enn
ver bin
7 0</w>
proc ess
enth alten</w>
Lond on</w>
prac tice</w>
über zeu
cho ice</w>
j obs</w>
gef ähr
Partn er
E ff
it able</w>
res tri
Projek t</w>
m y
sen se</w>
gehör en</w>
b ad</w>
I S</w>
Ver ordnung</w>
partn ers</w>
on t</w>
pl ann
Co urt</w>
alis ation</w>
G lob
h ous
si ze</w>
mo del</w>
, 000</w>
D o
Fri ed
neu </w>
ter ran
Forsch ung</w>
intern et</w>
con stitu
p rise</w>
si eht</w>
bed ingungen</w>
best eh
per at
fron t</w>
Jahr es</w>
inf lu
holi day</w>
con fir
2 2</w>
valu es</w>
il s</w>
ogra ph
pro f
en lar
dem and</w>
recei ved</w>
itä ts
equi pment</w>
Dam it</w>
web </w>
Lös ungen</w>
simp le</w>
dent schaft</w>
sch le
gan genen</w>
K oh
pur ch
C H
geri chtet</w>
develop </w>
construc tion</w>
Inform ation</w>
ann te</w>
ver hin
wi l
tre ffen</w>
a x</w>
f rü
verständ lich</w>
Ge or
prü fen</w>
wis e</w>
inv es
e ed
pack age</w>
hin zu
ani a</w>
applic ations</w>
e es</w>
ge eign
je des</w>
ir es</w>
h of</w>
ob lig
con fi
e .
sh o
integr ation</w>
stan ces</w>
L et</w>
Lu x
Partn er</w>
bo ur
y l
Erweiter ung</w>
er y</w>
potenti al</w>
obj ectives</w>
Aug ust</w>
n s</w>
enti re</w>
t est
ni en</w>
Beh örden</w>
B itte</w>
k ing
st op</w>
st ar</w>
h äu
eff ek
wichtig sten</w>
Entschließ ung</w>
regar ding</w>
r ing
ni ce</w>
c le</w>
g erne</w>
Ver anst
si bili
c as
s ett
C ro
s mo
R ec
E S</w>
p ite</w>
Ir an</w>
at mosp
nach hal
W hi
c r
Bei trag</w>
func tion</w>
se k
Lis bon</w>
V al
bel ow</w>
quick ly</w>
D V
Sch wei
syst em
rei ben</w>
benef it</w>
F eri
Nutz ung</w>
el en</w>
V en
ak zep
p ol
high -
bes u
In nov
A pp
auf zu
mehr ere</w>
r und</w>
ges p
b it</w>
ver ti
Auf enth
sor gen</w>
H ere</w>
Kö ni
gesam t</w>
r aum</w>
dd le</w>
B asi
ent lich</w>
P re
tradi tion
pri m
gemä ß</w>
le ge</w>
ell a</w>
tei lt</w>
G ri
fi ght</w>
foc us</w>
a im</w>
reco gni
tion ing</w>
fortun ately</w>
agri cultural</w>
op h
l eh
stru ktur
conc ern</w>
M ul
stell ungen</w>
c s</w>
Aussch uss</w>
er c
success ful</w>
E ast</w>
ima ge</w>
9 0</w>
k it
L iss
s timmen</w>
z lich</w>
la den</w>
re ports</w>
Wettbewer bs
g te</w>
bal d</w>
hin sichtlich</w>
arbei tung</w>
Ge wal
zur ück</w>
eu er</w>
eigen e</w>
obj ective</w>
gan ze</w>
ter rit
ti sh</w>
enth ält</w>
H am
Vol ks
Liss ab
p e</w>
int eg
f est</w>
E L
Russ land</w>
For der
li cht</w>
treat ment</w>
promis e</w>
P lay
ch eck</w>
gan zen</w>
lim ited</w>
g oods</w>
S outh</w>
5 .
se ems</w>
eur o</w>
Stru ktur
oc c
Ges am
h es
Not wen
ermögli chen</w>
B usin
trans l
s cre
2 7</w>
re mo
contain s</w>
är en</w>
re turn</w>
Hot el
v eh
be ein
erh eb
c ou
l en
Gemein schafts
j our
Mat eri
M ay</w>
E- Ma
ay ing</w>
q </w>
So li
Lan des</w>
d on</w>
ne ben</w>
Wir k
zah len</w>
Verbesser ung</w>
rec ently</w>
wo bei</w>
bet eili
govern ments</w>
19 6
ten den</w>
achiev ed</w>
V or</w>
saf e</w>
ü hr
ch em
Ein k
p al
be züglich</w>
B as
Z entr
S in
Fin ally</w>
sour c
ar ch</w>
ei ch
US -
d aten</w>
ro ffen</w>
d ates</w>
in deed</w>
gen annten</w>
k ei
an ge</w>
Aussch usses</w>
d ynam
av ing</w>
schließ end</w>
fi g</w>
le vels</w>
ra di
y a</w>
T ext</w>
r au
w ech
er sch
Selb st
fas st</w>
end lich</w>
ac ity</w>
S omm
sub si
Untern ehm
{ </w>
m ind</w>
frei </w>
con grat
T O</w>
K rank
hot els</w>
un n
« </w>
gu est</w>
me an</w>
ic ally</w>
Ergeb nisse</w>
well -
Jun e</w>
ge bi
Verbrau cher</w>
los s</w>
st errei
beginn ing</w>
wei s</w>
prev ent</w>
N ational</w>
ge k
el ek
2 3
au er</w>
f ru
4 .
rei fen</w>
hu ge</w>
Angebo t</w>
seri es</w>
we g</w>
ad ded</w>
F ach
Centr al</w>
rel ax
j ob</w>
fü ll
increas ed</w>
re chts
ci ples</w>
key word</w>
L inu
sci enti
plac es</w>
fül len</w>
comp uter</w>
ver pfli
em is
T ä
Gel egenheit</w>
B ul
cle an</w>
h äre</w>
Wo che</w>
ori en</w>
Arbei tn
völ lig</w>
äh n
W ort</w>
Geb äu
si mil
M il
ür f
B ü
di schen</w>
as ked</w>
every one</w>
E lem
l ack</w>
no te</w>
Des ign</w>
ans wer</w>
visi ons</w>
Sch affung</w>
Inform ations
Sp an
verbesser n</w>
fi k
present ed</w>
2 3</w>
pres i
C re
vi ously</w>
chall eng
Am end
Y or
comm itt
K ultur
Dar über</w>
n er
ch ed</w>
Verwen dung</w>
di alogue</w>
grund leg
e vi
off ice</w>
2 -
Initi ative</w>
Am ster
me an
ac ks</w>
S ome</w>
re views</w>
flo or</w>
consum ers</w>
st a</w>
organis ation</w>
Regier ungen</w>
Mitarbei ter</w>
för dern</w>
long -
O N</w>
agre ed</w>
O k
tra ff
gu ten</w>
entwick eln</w>
a i
in i</w>
sh ows</w>
verwen den</w>
groß er</w>
f assen</w>
I D
relev ant</w>
un e</w>
high ly</w>
high er</w>
üs se</w>
b order</w>
M E
un ion</w>
Pri or
Aff airs</w>
verfü gen</w>
inn er</w>
bal ance</w>
kl ar
g le</w>
att emp
N ieder
P C</w>
Gesund heits
R au
direc tion</w>
choo se</w>
sustain able</w>
ast er</w>
suff ici
Ukra ine</w>
cover ed</w>
carri ed</w>
in der
S on
el op
human it
W e
C A
M ac
comp lex</w>
ch ter</w>
g ei
sch ätz
vor schriften</w>
el te</w>
gan gen</w>
bu te</w>
U p
stän digen</w>
en able</w>
dis ku
ologi es</w>
qu ar
Inter essen</w>
sozi ale</w>
en a</w>
ck e</w>
oo m</w>
nu clear</w>
m em
Te am</w>
opp ing</w>
fün f</w>
li ef
di enen</w>
Hand els
L oc
verfü g
hal f</w>
best ehen</w>
spä ter</w>
disc uss
Bil d</w>
f lu
wäh len</w>
kom pl
zi p
O N
gr enz
I P</w>
Famili e</w>
und es
dig lich</w>
wh ose</w>
C ap
Notwen digkeit</w>
amend ment</w>
press ed</w>
4 5</w>
bes it
commit ment</w>
ani en</w>
W ert</w>
ur ed</w>
consider ed</w>
p le</w>
sicher heit</w>
eff ects</w>
Ther efore</w>
N ow</w>
prin ciples</w>
M än
D et
la y</w>
best ä
Zeit punkt</w>
K ern
Gi pf
sch es</w>
W erk
Them en</w>
sh own</w>
geh end</w>
Ser ver</w>
g ül
ar in</w>
Änder ungen</w>
li k</w>
innov ative</w>
tig es</w>
W ahr
Fl ü
veh ic
tra vel</w>
per haps</w>
Dev elop
Arbeitsp lätz
3 00</w>
end a</w>
I tal
Be wer
Frank reich</w>
m einem</w>
zun ächst</w>
C ity</w>
gef unden</w>
ser ver</w>
mo d
J us
lat est</w>
di ent</w>
li er</w>
Man agement</w>
t atsächlich</w>
au di
integ ri
Ad res
Kon fli
Barcel ona</w>
Eur o
en se</w>
ab or
m ed</w>
materi als</w>
Verk ehrs
T age</w>
Ei gen
pos sibility</w>
Gener al</w>
Mi ch
Erfahr ung</w>
f ten</w>
ung sp
ma ßnahmen</w>
spezi f
f onds</w>
set ting</w>
O f</w>
et ary</w>
clos ed</w>
del l</w>
t le</w>
mat ters</w>
Organis ation</w>
H um
Währ end</w>
m ent
n ie</w>
con duc
Gesund heit</w>
w oll
K ultur</w>
K am
1 ,
en heit</w>
Aus wahl</w>
intern ation
M P
form er</w>
th anks</w>
Per son</w>
wi der
plac ed</w>
R ot
im mer
g al</w>
} </w>
migr ation</w>
M icro
ali en</w>
Her zen</w>
ma ins</w>
Beh and
Über ein
C D</w>
ab el</w>
stat us</w>
an genommen</w>
sour ce</w>
f eld</w>
Um gebung</w>
D abei</w>
ein deu
opport unities</w>
s yn
s enden</w>
easi ly</w>
S up
ü bri
c ame</w>
Terr or
beh ind</w>
Ma i</w>
An fang</w>
b auen</w>
pre vious</w>
acc ep
ver se</w>
Fir st</w>
vide o</w>
detail s</w>
Aut om
reib ung</w>
dou ble</w>
rif ten</w>
Ko so
öff net</w>
ex hi
pop ular</w>
S um
Sp ain</w>
accommod ation</w>
Me tho
le -
u ß</w>
frei en</w>
P ass
u en</w>
ef ul
increas ing</w>
press ure</w>
rou ght</w>
re duce</w>
schrif tlich</w>
promo te</w>
d ly</w>
et t</w>
spe ak</w>
asp ects</w>
respon se</w>
star k</w>
pre ci
char ge</w>
ver stehen</w>
au t
bu ff
fol ge</w>
H om
le diglich</w>
atmosp here</w>
An aly
Komm unik
dru ck
reach ed</w>
hoh en</w>
wen den</w>
s al
se arch</w>
H aus
get ra
bis her</w>
spru ch</w>
an ces</w>
b ir
prepar ed</w>
cro ss
a i</w>
z in
al ing</w>
provi ding</w>
comp et
stell er</w>
re mains</w>
— </w>
Mitgli ed</w>
ü b
äußer st</w>
Ein führung</w>
cap acity</w>
t ou
an gebo
cre ation</w>
Afri ca</w>
ic k</w>
Kre di
ó n</w>
jo int</w>
Kamp f</w>
bel ieb
Jun i</w>
Öff ent
y er</w>
gesam te</w>
min ister</w>
R A
is on</w>
sion s
Ar ticle</w>
f is
g ol
Verein bar
eff ectiv
ges prochen</w>
ge wis
An zahl</w>
ex change</w>
M y
ari ly</w>
Me er</w>
n it
dra w</w>
ir gend
er ous</w>
wer s</w>
M är
Aktiv itäten</w>
E ing
o il</w>
b illion</w>
e over</w>
extern al</w>
effici ent</w>
ad ap
S wi
an -
vi er
besch äf
Lu ft
M ass
men te</w>
sh op</w>
ann er</w>
som it</w>
nei gh
tic ally</w>
produc ed</w>
Um welt</w>
Bri tish</w>
o li
ber s</w>
comp reh
par li
Ital y</w>
br ingt</w>
sub mitted</w>
Gä ste
Res er
Al so</w>
mäß ig</w>
M useum</w>
ren e
üs sel
king .com</w>
an ced</w>
Au ff
zeh n</w>
commer cial</w>
bestimm te</w>
Rat spräsi
hervor ra
f ang
Wachst um</w>
W ahl</w>
Spra che</w>
sum mer</w>
gewähr leisten</w>
H inter
Soli dar
ra cht
industri al</w>
Gä ste</w>
wün schen</w>
pl om
T echni
supp ly</w>
pl ant</w>
ek t</w>
Proz ess</w>
gi ves</w>
bew us
mar k</w>
c riteri
er lei
Syst ems</w>
l auf
ver suchen</w>
A gr
l y
ter in</w>
tr auen</w>
so und</w>
erk ennen</w>
J av
W asser</w>
prot ect</w>
e a</w>
ass ess
ein hei
ob wohl</w>
Sp ei
Integr ation</w>
m m</w>
lin k</w>
deci ded</w>
ah len</w>
ev ent
inter ess
th y</w>
selb st
fund ing</w>
is ing</w>
sätz e</w>
üh m
support ed</w>
gew öh
Produk tion</w>
pri ority</w>
i tion</w>
tig ungs
sch ütz
wis senschaf
Dec ember</w>
ro und</w>
l ing
T it
s cri
h t</w>
De z
fil m</w>
c ause</w>
a cht
H and</w>
verk ehr</w>
Kap it
er zeu
lea ve</w>
ti er
Amster dam</w>
vis it
n ehm
H y
ther more</w>
s ent</w>
S onn
m bo
ti li
Con vention</w>
fol low</w>
f air
on nen</w>
bestimm ten</w>
proper ty</w>
charac ter
resta urants</w>
rän k
R aum</w>
is land</w>
Z ahl</w>
O S</w>
D inge</w>
Prei se</w>
Wes tern</w>
enlar gement</w>
eh e</w>
sourc en</w>
indep endent</w>
er weiter
Kommiss arin</w>
wer k
zahl reiche</w>
Am eri
fl ü
g ent</w>
Fortsch ritte</w>
pro duce</w>
fran zös
civi l</w>
sel f-
ish ed</w>
In sel</w>
Bek ämpfung</w>
alis m</w>
R el
lar gest</w>
k rä
D or
es te</w>
ati v
sibili ties</w>
pres ents</w>
wei t
zwei te</w>
l ös
Nat ur</w>
setz ungen</w>
3 5</w>
simil ar</w>
ge m</w>
Industri e</w>
add res
ic es</w>
i tim
con v
M ess
op tion</w>
Tran spar
in fra
racht ens</w>
li ance</w>
geb aut</w>
zeu ge</w>
t licher</w>
j ün
E rachtens</w>
gan gen
lei cht</w>
accept able</w>
Vor aus
hoh e</w>
si tz</w>
S -
kri min
consu mer</w>
assi stance</w>
er ster</w>
sp rün
2 5
e cht</w>
ausgest attet</w>
m eines</w>
ex ec
la un
ek t
syst eme</w>
g as</w>
Funk tion</w>
m ann</w>
berei t
em and</w>
P ap
instru ment</w>
möglich keiten</w>
ni ed
Yor k</w>
mo bile</w>
En ter
größ ten</w>
L auf
min ist
ein schließlich</w>
th ous
Sp iel</w>
qu es</w>
D I
poin ted</w>
au ber
st eps</w>
G al
199 8</w>
O st
b all</w>
cre ating</w>
mo vement</w>
ber ech
zi p</w>
wä l
Servi ces</w>
ari es</w>
cl ass</w>
prä sen
spe ed</w>
R a
D om
apart ment</w>
h old</w>
außer dem</w>
categ ories</w>
ac ts</w>
t ag
fre qu
b ür
w ander
E M
Bestimm ungen</w>
An ti
sch w
qu are</w>
Erklär ung</w>
Posi tion</w>
ill ed</w>
ärk te</w>
g el</w>
ple ased</w>
Jahrhunder t</w>
Mar ch</w>
los sen
Janu ary</w>
terran ean</w>
Dez ember</w>
Web </w>
St elle</w>
sol chen</w>
p r
ins gesamt</w>
vari ety</w>
ru le</w>
g ün
b rought</w>
U N</w>
sag te</w>
d adurch</w>
regul ations</w>
P rü
low er</w>
S am
G ed
a war
il om
air port</w>
L es
eful ly</w>
ges ell
ex </w>
credi t</w>
wi d
inten si
einzi ge</w>
F ak
Hand el</w>
C am
ver gangenen</w>
re t
m ein</w>
St .</w>
pur pose</w>
con ference</w>
oll ar</w>
ev ol
al b
bewer tungen</w>
Oc tober</w>
eh er</w>
Di alog</w>
our selves</w>
Sü d
zwei ten</w>
ateg orien</w>
j </w>
k ür
writ ten</w>
To day</w>
Auf merks
tain s</w>
p ati
ep h
mess age</w>
soli dar
L at
let ter</w>
ber ühm
S A
N ur</w>
v ollen</w>
activ ity</w>
egen heiten</w>
Inst all
st ability</w>
Bil d
versi ty</w>
ec </w>
e jenigen</w>
Boo king.com</w>
Mehr heit</w>
O per
L E
auf genommen</w>
rel ation
sen si
ha fen</w>
G ot
leg t</w>
S c
wur f</w>
st elle</w>
hel pf
disc ussion</w>
d liche</w>
bec ame</w>
instru ments</w>
. 00</w>
B lo
in stead</w>
con tr
lei der</w>
Gewal t</w>
di stance</w>
restri c
k li
Linu x</w>
An forderungen</w>
exp lo
opp el
leg ung</w>
shi ps</w>
Entschei dungen</w>
reser v
pa id</w>
v an</w>
fri ed
L ehr
Investi tionen</w>
einzi gar
Mo d
T or
Stad t
el e</w>
Kü che</w>
St unden</w>
fi x
rel ation</w>
ar ran
Str and</w>
star ted</w>
Ma sch
ne y</w>
C u
distri bution</w>
L og
stu dy</w>
P unkte</w>
c lassi
interest ing</w>
St o
vor h
Vorsch riften</w>
Koso vo</w>
genie ßen</w>
z z
conven i
x is</w>
ologi en</w>
re pe
ca .</w>
Energi e
Aufmerks amkeit</w>
konz entri
ill s</w>
inter pre
as tic</w>
sec tion</w>
allow ed</w>
c lick</w>
Mär z</w>
C ha
por ary</w>
ei l</w>
O pf
comp on
gh t
Gef ahr</w>
al it
k i</w>
docum ent</w>
Gäste bewertungen</w>
Par ty</w>
tain ed</w>
u le</w>
ss el</w>
ag enda</w>
partn er
Er zeu
pro gram
fish ing</w>
d .</w>
ges ellschaft</w>
por ate</w>
y ed</w>
ed ly</w>
y ond</w>
S we
Kin der
En ergie</w>
sh ops</w>
Z un
M us
gi ving</w>
Projek te</w>
St äd
Medi terranean</w>
E is
ec ken</w>
ond ly</w>
üh ungen</w>
vi ll
H ung
S an
p ul
ell es</w>
p u
K ün
Gr enzen</w>
Par k
ges sen</w>
Bal k
- F
nor m
ph ysi
gn is</w>
t oren</w>
T ab
t ool</w>
Repub lic</w>
F eder
pro sp
G oo
legisl ative</w>
T H
Ma cht</w>
B ot
Stu di
reg ards</w>
C lub</w>
Kun st
stat ement</w>
qui et</w>
jün g
Ex per
wei s
ev alu
transp or
com promise</w>
re -
est er</w>
be vor</w>
schie den</w>
po ver
pay ment</w>
k ann
benef its</w>
i de</w>
p ass</w>
S il
Berei che</w>
N ord
dec lar
d lich</w>
lie ß
on t
elec tri
b ase</w>
di se
conc ept</w>
M is
trä gen</w>
ef fort</w>
tri eb
sel n</w>
ser ved</w>
C enter</w>
Develop ment</w>
proced ures</w>
Dur ing</w>
S ou
li eren</w>
V illa</w>
kon nten</w>
geri cht
lich keiten</w>
o ber
Nor th</w>
kei ts
Ne w
gewöh n
et z</w>
aktu ellen</w>
en des</w>
Frei heit</w>
is tischen</w>
ti ef
viol ence</w>
ein gesetzt</w>
Af gh
neu er</w>
dam age</w>
bili tät</w>
Priv at
vil lage</w>
Fol gen</w>
Tel ef
pur su
ger ung</w>
con st
t ell</w>
contri bution</w>
M any</w>
F er
Itali an</w>
wen ige</w>
L ie
histor ical</w>
ck ing</w>
Pro du
Ju ly</w>
ab ri
en ced</w>
eigent lich</w>
ser ve</w>
Ch rist
ex tra</w>
Al b
größ te</w>
grow ing</w>
pro mot
it ali
zi eht</w>
kon trol
be zieh
Wi der
N ation
sch ool</w>
to -
it em</w>
requ ire</w>
V o
get an</w>
Wettbewer b</w>
appe ar
P H
r at
ko sten</w>
Reg eln</w>
dri ve</w>
far m
di men
oper ating</w>
lish </w>
äu ß
stär ken</w>
pub lic
st ung</w>
B undes
k ein
Span ish</w>
Agr ar
sta g</w>
2 6</w>
Land wirtschaft</w>
elec tron
ch ing</w>
y m
pos es</w>
entsprech end</w>
ä st
docum ents</w>
v in
An frage</w>
S im
wichtig er</w>
ye es</w>
m .</w>
dig ital</w>
spor ts</w>
b ru
s amen</w>
Dem oc
f alt</w>
riteri en</w>
Frühst ück</w>
benö tigen</w>
integr ated</w>
fol gt</w>
sch wer
pro visions</w>
cur ren
i k</w>
t ac
f res
Beschäf tigung</w>
w ing</w>
c ast
l am
t ete</w>
P a
Ri ghts</w>
w onder
durch geführt</w>
do m</w>
M eine</w>
europä ischer</w>
di gt</w>
Ver änder
downlo ad</w>
Fir ma</w>
B ad</w>
b el</w>
to ols</w>
men sch
un mittel
Ber u
t ask</w>
b ahn
Re form</w>
Ok tober</w>
2 8</w>
forder ung</w>
typ es</w>
S lo
criteri a</w>
kann st</w>
Portu gal</w>
h ed</w>
ein fa
Bel gi
de cken</w>
Lin ie</w>
Z ur</w>
Unter su
happ y</w>
ci a</w>
Stand punkt</w>
ex press</w>
au lt</w>
Präsi denten</w>
Bil dung</w>
Hö he</w>
chan ged</w>
Fischer ei
Busin ess</w>
for ces</w>
D u</w>
jus ti
erwar ten</w>
Disk ussion</w>
Sch wieri
O -
immedi ately</w>
Janu ar</w>
s us
Empf eh
altern ative</w>
bo x</w>
S ite</w>
N ationen</w>
stand s</w>
S M
Universi ty</w>
go t</w>
n or</w>
b y
Al though</w>
s la
Al ler
wer t
buil d</w>
- in-
ve au</w>
C a
I L
do w</w>
ho st
ver öffent
k tionen</w>
con ver
challeng es</w>
all ein</w>
be ziehen</w>
j ähr
kur z</w>
D el
U R
ast ern</w>
go es</w>
lang fris
si x</w>
E v
offici al</w>
At mosp
H eute</w>
b ot
high est</w>
el ements</w>
B rü
apart ments</w>
al te</w>
Musi k</w>
dra ft</w>
ch i
Forsch ungs
ph one</w>
fahr t</w>
equ al</w>
wor tern</w>
con om
ali zed</w>
tra in</w>
E C</w>
Y our</w>
lö sen</w>
mu t</w>
wi esen</w>
or row</w>
ihr es</w>
5 0
Centr e</w>
emplo yees</w>
C i
ch s
W est</w>
par king</w>
gel ö
Poli tik
uns ch</w>
1 -
Beri chts</w>
kur z
anges ichts</w>
K u
so fort</w>
off izi
transpar ency</w>
ge wäh
ur sprün
sat z
hör en</w>
ü t
helpf ul</w>
ann ual</w>
ma sch
avo id</w>
Fur thermore</w>
K ra
si t
Grün den</w>
gre at
advan tage</w>
Bed ürf
Feh ler</w>
ätz e</w>
E ig
c lu
speci fic
wor ld
Transpar enz</w>
W ell
read ing</w>
contro ll
fri ends</w>
ein gesch
lieg enden</w>
ti ck
r .</w>
tiv al</w>
Sch n
Sa che</w>
Milli ar
her aus
k at
Benutz er</w>
gel ten</w>
analy sis</w>
W ahl
T u
öffent liche</w>
Sin ne</w>
E conom
st ark
Person al</w>
p ho
a der</w>
erneu t</w>
Chr isti
wahr schein
s l
Ver tei
da ily</w>
Bem ühungen</w>
getra gen</w>
se ek
proc esses</w>
Öffent lichkeit</w>
app lied</w>
drück lich</w>
begrü ße</w>
schö nen</w>
un ge</w>
per man
off ering</w>
An satz</w>
num erous</w>
per c
D ownlo
B or
fin ally</w>
199 7</w>
consequ ences</w>
elec tions</w>
tr itt
B on
bath room</w>
Ver s
re ality</w>
Schlussel wortern</w>
C op
Präsi dentschaft</w>
Auff assung</w>
dig keiten</w>
E rei
c .</w>
Kom promis
ord ing</w>
S port
K ör
nah e</w>
G est
On lin
histor ic</w>
ge worden</w>
W est
re view</w>
hel p
pover ty</w>
Pro f
wer te</w>
fol genden</w>
ro ff
requ ires</w>
Bil der</w>
3 -
S af
institu tion
Flug hafen</w>
füll t</w>
hau pt</w>
tal k</w>
S P
ab en</w>
th in
wieder hol
S en
tr aum</w>
conflic t</w>
bei tragen</w>
ut ting</w>
K raft</w>
ade qu
Pal est
st able</w>
effici ency</w>
c raft</w>
si l
lab our</w>
r aten</w>
beg ren
wir ken</w>
oc ca
C amp
be yond</w>
Sch w
tu de</w>
Bul g
B lu
bet rä
entsprech enden</w>
C -
dis crimin
mor gen</w>
mm ing</w>
off ered</w>
H oh
ler nen</w>
R en
zeich nung</w>
j ahr
gen au
Urlau b</w>
se as
solidar ity</w>
r ely</w>
m es</w>
b ran
amm lung</w>
Bet eili
ß er</w>
di ejenigen</w>
Resta urants</w>
modi fied</w>
g yp
sc ap
y our
colleag ues</w>
sel y</w>
Fäl len</w>
al ists</w>
l ate</w>
de ath</w>
Syst em
t esten</w>
s aying</w>
m in</w>
C al
pl us</w>
R oom</w>
Gr ö
timm ung</w>
person s</w>
bed ingt</w>
k in
verhin dern</w>
o x
exp ect</w>
l an</w>
Arch it
@ </w>
b and</w>
2 4
Produk t
D o</w>
ther wise</w>
k ten</w>
K ommission
Ju li</w>
zü gi
buff et</w>
Dat eien</w>
w ine</w>
po or</w>
demokrati schen</w>
ide as</w>
Dru ck</w>
pa ar</w>
ab ge
behand elt</w>
Nat ürlich</w>
H el
Mon aten</w>
fin e</w>
w anted</w>
inst alli
minim um</w>
implement ed</w>
lik ely</w>
w est
us eful</w>
lo sen</w>
prac tical</w>
publish ed</w>
play er</w>
s am</w>
sp ir
hät ten</w>
E ven</w>
tro ll
an lage</w>
stän dige</w>
cli ents</w>
or ed</w>
ut ely</w>
re t</w>
spi ri
s ent
k i
industri e</w>
alis mus</w>
sh opping</w>
k ehr
erfol gt</w>
S ee</w>
d eten</w>
P hi
Ju gend
ber t</w>
terror ism</w>
Sch ließ
establish </w>
Besch l
beh alten</w>
sub -
ep age</w>
re in
il legal</w>
congrat ulate</w>
P au
off en</w>
Ta gen</w>
cru cial</w>
Atmosp häre</w>
tur ned</w>
Deb ian</w>
suffici ent</w>
Bür gern</w>
tom orrow</w>
ne ws</w>
cons ult
car ry</w>
W TO</w>
ver standen</w>
s a</w>
lear n</w>
N AT
F el
si </w>
sec ure</w>
week s</w>
berücksich tigt</w>
h .</w>
rich tige</w>
o t</w>
ar a</w>
zeu g</w>
s ales</w>
Behand lung</w>
einf ach
Nach bar
­ </w>
Tages ordnung</w>
em o
Ma ß
ei lung</w>
compreh ensive</w>
recomm end
s am
si erung</w>
ph as
ver gessen</w>
Ver gangen
Austri a</w>
P D
fi el
T at</w>
zu führen</w>
trans fer</w>
et ten</w>
camp a
l esen</w>
bro w
um -
Whi le</w>
Ber at
war um</w>
N r.</w>
olog ischen</w>
D en</w>
li ves</w>
hin ter</w>
ander em</w>
v ali
l le</w>
Qu al
organis ations</w>
ho ch</w>
G et
min ute</w>
g .</w>
star ting</w>
reduc tion</w>
si gkeit</w>
op tions</w>
nis sen</w>
eh em
archit ec
some times</w>
nat ür
monit oring</w>
ver sucht</w>
M ün
maxim um</w>
sich ern</w>
mach ine</w>
gra phi
Micro soft</w>
deut schen</w>
mark s</w>
ev ision</w>
wei st</w>
stru ktur</w>
moder nen</w>
F lu
n ess
E L</w>
pro jek
Zentr al
Al t
en ger</w>
Bürger innen</w>
s age</w>
s ü
al ter</w>
on s
cir cum
n ä
s se</w>
lau b
Ko ordin
Un ter</w>
ver treten</w>
pro fi
ex ac
lea ders</w>
re ference</w>
G ei
tran si
mor ning</w>
I F
R ed
D ro
Änder ung</w>
A -
f örder
Min der
techn ischen</w>
Li efer
fol gen</w>
prob ably</w>
Itali en</w>
F es
sor gung</w>
pro duzi
gen ce</w>
V ir
über haupt</w>
world wide</w>
dom in
Me er
de gre
Si cht</w>
ämpf en</w>
M and
trä gt</w>
play ers</w>
Al tern
sek tor</w>
reas on
techn ologies</w>
k ro
komm ens</w>
fü gen</w>
any thing</w>
Lissab on</w>
vot ing</w>
caus ed</w>
cla im
6 .
ver wal
L assen</w>
ac qu
Basi s</w>
Amend ment</w>
sor g
al one</w>
L e</w>
Afgh an
beg in</w>
F ähi
Repub lik</w>
chall enge</w>
tig ten</w>
führ te</w>
I s</w>
Chin ese</w>
verantwor tlich</w>
ver th
2 9</w>
res i
mon th</w>
histor ischen</w>
Viel e</w>
ra h
ter en</w>
Ver häl
ther ap
l ess
ander s</w>
or ie</w>
Ein fl
Beg inn</w>
verth eless</w>
K a
gem ents</w>
pl ans</w>
bes te</w>
em ail</w>
sc ale</w>
interest ed</w>
de x</w>
erklär t</w>
Aufenth alt</w>
Res sourcen</w>
Dr .</w>
Best ell
stre et</w>
häu fig</w>
Sp anien</w>
D oppel
m as
P ot
F ac
un er
Sch utz
y s
it ation</w>
erfolgrei ch</w>
Vergangen heit</w>
P en
neu es</w>
Finanzi erung</w>
C li
zei ten</w>
g ames</w>
he ad</w>
An der
du le</w>
br ing
M om
ar gum
rei se</w>
Rechts vorschriften</w>
long- term</w>
ch ance</w>
gew esen</w>
ver age</w>
pe ac
anno un
voll ständig</w>
Kon ferenz</w>
den s</w>
S wis
s ession</w>
langu ages</w>
l auf</w>
Gesam t
zahl reichen</w>
Techn ologie</w>
t au
erwar tet</w>
c on</w>
f ts
moun tain</w>
Woh l
So ci
bre chen</w>
zah lt</w>
Wo chen</w>
cer ti
Dat ei</w>
get ary</w>
St ar
wa ste</w>
str ation</w>
jewei ligen</w>
a zi
Frank fur
wel ches</w>
chil d</w>
Ber g
can di
er füllen</w>
an ische</w>
Adres se</w>
farm ers</w>
ci ties</w>
Zwei tens</w>
th ought</w>
Air port</w>
# </w>
S .</w>
wahrschein lich</w>
c ut</w>
Grupp en</w>
R O</w>
un ten</w>
s av
L ab
bi tion</w>
s äm
di sche</w>
um en</w>
brau cht</w>
Erfahr ungen</w>
institu tional</w>
es ter
tnis se</w>
rele ase</w>
Au di
ban ks</w>
199 6</w>
Th ank</w>
E T
Mor eover</w>
Des ign
lo st</w>
F und</w>
wor ked</w>
it en</w>
empf eh
ail s</w>
´ </w>
An streng
ap preci
ag en
I -
r at</w>
ko st
gar den</w>
zu min
er höh
Sch ritte</w>
ext ent</w>
be für
gesch affen</w>
Bu ch
A gent
F R</w>
metho ds</w>
re chts</w>
Rah men
P P
Ver trauen</w>
appe ar</w>
zumin dest</w>
In halt</w>
flä che</w>
Be weg
proz ess</w>
rel ating</w>
Con ference</w>
sel ection</w>
acc ession</w>
busin esses</w>
ad verti
Ro oms</w>
st ets</w>
W erte</w>
Pro t
conc entr
accord ance</w>
gen utzt</w>
bi g
scienti fic</w>
ima ges</w>
i or</w>
schütz en</w>
metho d</w>
men tion</w>
eb y</w>
wal king</w>
ori enti
angem ess
verpfli chtet</w>
sec tors</w>
gewi esen</w>
genu g</w>
com fort</w>
strateg ic</w>
gre en</w>
gli che</w>
ab kommen</w>
streng th
lo sigkeit</w>
Aspek te</w>
Bes onder
zu setzen</w>
erst ör
außer halb</w>
Heraus forderungen</w>
l ad
Ni cht
en ze</w>
3 1</w>
us sions</w>
ol er
n ö
z .</w>
m ass
power s</w>
ati schen</w>
Or d
wei ten</w>
fiel ds</w>
ti ken</w>
bar er</w>
des pite</w>
k ennen</w>
occ up
s ens
Direc tive</w>
No t</w>
li zi
process ing</w>
k am</w>
Ein ige</w>
influ ence</w>
Aller dings</w>
leg itim
ak tivi
ier ungs
3 2</w>
aus reich
In fra
heu tigen</w>
grei fen</w>
ur ance</w>
su s</w>
ver ab
li ge</w>
k ers</w>
A K
rel and</w>
ep ing</w>
Rus sian</w>
at or
W ein
s eines</w>
Angel egenheit</w>
Da zu</w>
priv aten</w>
Regier ungs
ec t
coun t</w>
letz te</w>
f ish</w>
mo tion</w>
zi g</w>
st -
visit ors</w>
ra ised</w>
men u</w>
innov ation</w>
Kun den
é s</w>
zun ehm
amerikan ischen</w>
sp rü
Ges prä
I reland</w>
ob il
persön lichen</w>
co -
Su per
Di stri
Sec urity</w>
c in
hand eln</w>
leist et</w>
ausge zeichn
ag ieren</w>
es ischen</w>
On ly</w>
es tim
separ ate</w>
kol l</w>
rän kt</w>
Gebäu de</w>
erlau bt</w>
si ert</w>
bes sere</w>
ru ption</w>
um s
Pub lic</w>
di plom
at z</w>
tr ying</w>
w .</w>
Presi dent
M c
ck er</w>
dou bt</w>
ex erc
oper ate</w>
inc or
Partei en</w>
Schwieri gkeiten</w>
tro tz</w>
accep ted</w>
Ob wohl</w>
K al
l aufen</w>
Berichterstat terin</w>
Nach fol
impl ement</w>
absol utely</w>
Goo gle</w>
w inn
jo in</w>
gen s</w>
Sch wer
stu di
F alls</w>
se chs</w>
af ri
V oll
ne ar
aus schließlich</w>
reg ime</w>
St ar</w>
7 5</w>
et er
sch o
automati sch</w>
Sta at</w>
gesch ütz
Spiel er</w>
Menschen rechts
M ilit
S onder
™ </w>
bil den</w>
2 .</w>
dem ands</w>
jus tice</w>
N eben</w>
ament ary</w>
A ss
19 5
wach sen
our able</w>
° </w>
Arbeitn ehmer</w>
elek tron
betre ff
Hin sicht</w>
zeich nen</w>
en ha
ri </w>
aff ected</w>
aff t</w>
ain s</w>
f le
Sec ondly</w>
over all</w>
zu künf
n ern</w>
war ds</w>
g g
D ann</w>
re duzi
exp ected</w>
U K</w>
W er</w>
sc ope</w>
cri tical</w>
rene w
inves tig
sch wer</w>
bor ders</w>
b es</w>
² </w>
neg ative</w>
Milliar den</w>
kon om
is ation</w>
kl ein
en gen</w>
Ihr es</w>
moder ne</w>
ma p</w>
S om
ru s</w>
alis ed</w>
P ati
Fol ge</w>
Ein richtung</w>
stoff e</w>
pris es</w>
M ore</w>
rap hi
H T
Pra xis</w>
s inn
Ö sterrei
on y</w>
ch in
ri gh
Er n
sta aten</w>
P S</w>
Kri eg</w>
ar m
Kün st
swi mming</w>
sel ben</w>
ge kommen</w>
contrac t</w>
i ef
h our</w>
Vertre ter</w>
S Q
your self</w>
ch ann
Proz ent</w>
b lu
auf s
H off
über nehmen</w>
entschei den</w>
int ended</w>
geh ö
co hes
k rise</w>
Fre e</w>
u tive</w>
e- mail</w>
zu dem</w>
Inv est
I ts</w>
Eig ent
us ually</w>
run ning</w>
h eben</w>
get ting</w>
h es</w>
k ap
0 -
sti eg</w>
D enn</w>
bit ten</w>
W unsch</w>
gen e</w>
Jahr es
Angel egenheiten</w>
Arbeitsplätz e</w>
vorgesch lag
bei de</w>
flexi ble</w>
erinn ern</w>
Gr and</w>
ch ern</w>
Comp uter</w>
st anti
hear d</w>
anti -
Opf er</w>
nach ten</w>
Instru ment</w>
A T</w>
tar get</w>
for ced</w>
M el
call s</w>
su itable</w>
lo ve</w>
In deed</w>
ter e</w>
erkenn ung</w>
Auf gaben</w>
dat ab
bewus st</w>
w r
Afghan istan</w>
prü ft</w>
G N
i k
f ying</w>
re forms</w>
ad vis
m and
St ation</w>
R ed</w>
M ex
he al
ra il
j ahr</w>
begrü ßen</w>
h op
bi a</w>
Solidar ität</w>
di enst
f ant
d eine</w>
adop t</w>
k aum</w>
al tet</w>
war m</w>
Prei s
D im
sch ung</w>
curren cy</w>
int elli
ver mei
wh er
O L
cri pt</w>
Al p
relation ship</w>
C z
ein ig
tra v
Con stitu
l ück
main ly</w>
Regi on
r ats</w>
ev ening</w>
allgem einen</w>
us w.</w>
Fri eden</w>
administr ation</w>
Veranst alt
Z er
ri ft</w>
alis iert</w>
initi atives</w>
committ ed</w>
Z </w>
P la
del eg
President -in-
nam ely</w>
aci ous</w>
Syst eme</w>
increas ingly</w>
c tion</w>
. m.</w>
dest ens</w>
ri ffen</w>
Organis ationen</w>
gel egen</w>
ge -
Con t
Re ak
gebi et</w>
lei ten</w>
Ar mut</w>
an ci
Re cht
op ening</w>
President-in- Office</w>
S eh
represent atives</w>
Schi ff
ung st
Ob jek
fre uen</w>
w ood</w>
install ation</w>
gehö ri
ter race</w>
is tic</w>
Di re
main tain</w>
W a
An nahme</w>
itali en
O S
gen der</w>
ex pressed</w>
E l</w>
B an
traff ic</w>
v ital</w>
ali zation</w>
M ini
la ws</w>
il leg
nied ri
plann ing</w>
he ad
L eute</w>
milit är
Zu g
Kredi t
aus ch</w>
ali ties</w>
d ete</w>
nor mal</w>
tal king</w>
et c.</w>
gel ei
Im mobili
ie f</w>
lin ien</w>
pro per</w>
E lek
d ated</w>
ali sten</w>
stärk er</w>
N un</w>
Mittel me
Er stens</w>
and a</w>
frei e</w>
á </w>
a chtet</w>
eg u
grupp e</w>
um fang
struc tural</w>
dar stellt</w>
v ac
is ierung</w>
et ings</w>
Verfass ung</w>
vir tu
em er
größ ere</w>
a .</w>
ati sch</w>
st ress</w>
bor n</w>
steh enden</w>
sp ann
impro ved</w>
ben utzt</w>
b ul
S ign
bour g</w>
stu dents</w>
vorgesch lagen</w>
eindeu tig</w>
re main
l ern</w>
famili es</w>
Kar te</w>
v ements</w>
appro ved</w>
sug ges
Agen da</w>
ä te</w>
prac tic
Sit zung</w>
sti gen</w>
D ub
u ten</w>
go al</w>
roff enen</w>
ti ous</w>
eb ung</w>
dan ke</w>
M ei
ein ger
correc t</w>
automati cally</w>
eu ern</w>
z ing</w>
eng ine
es tic</w>
s agt</w>
rap h</w>
inter essi
Verpfli chtungen</w>
n ationale</w>
T sch
comm ents</w>
zusätz liche</w>
Ven e
H ause</w>
th af
pres er
7 -
k oh
tiv eness</w>
th in</w>
Z immer
rei cht</w>
ech te</w>
competi tive</w>
führ ten</w>
Über wach
ün f
power ful</w>
coun ter
B ahn
erg än
B ec
olog ische</w>
V ic
Pe ople</w>
Anstreng ungen</w>
F alle</w>
confi dence</w>
Onlin e-
em phas
tour ist</w>
ain ed</w>
hil fen</w>
D ol
Funk tionen</w>
a cht</w>
ci ans</w>
A gre
si zed</w>
DV D</w>
f oo
exc ep
2 6
ri d</w>
Feri en
Co sta</w>
p ain
is es</w>
Ide e</w>
un den
äst in
tain ing</w>
infra structure</w>
tz dem</w>
reduc ed</w>
con nec
Ira q</w>
un bedingt</w>
los oph
glob alen</w>
S oll
Indi a</w>
7 .
gestell ten</w>
deci de</w>
bo t</w>
at ure</w>
W äh
b on
i er</w>
- T
gel eist
ch ec
E mp
B ade
co ff
schrei ben</w>
beg innen</w>
deck t</w>
Pro c
R ats
deli very</w>
feat ure</w>
sp richt</w>
Proto koll</w>
Gri ech
re ch
sa chen</w>
entsp richt</w>
un employment</w>
überzeu gt</w>
dec or
Produk tions
prot ected</w>
K riterien</w>
Enter prise</w>
struc tures</w>
k ategorien</w>
pho to</w>
ori al</w>
verein bar
coll ection</w>
Partei </w>
R efer
S ant
D ollar</w>
aktu elle</w>
Er d
de vi
our s</w>
administr ative</w>
sup ports</w>
te ach
schön e</w>
cohes ion</w>
Zus timmung</w>
N ah
r uss
en dence</w>
W ahlen</w>
it an
4 00</w>
Char ak
Sof t
ar tige</w>
o .</w>
k ü
ck t</w>
beg an</w>
mp tion</w>
form at</w>
exten sive</w>
del ines</w>
cri tic
t eten</w>
sour ces</w>
min destens</w>
mit ten</w>
B ank
Fu ß
ni </w>
k al
cel eb
emis sions</w>
G ast
eg el
ter min
z ö
conclu sion</w>
circum stances</w>
kar te</w>
glei che</w>
fäl le</w>
sub stanti
si chten</w>
M er
tim s</w>
ver tre
si m
I st</w>
ver lässi
W ann</w>
ati vely</w>
ad o</w>
eli gi
N ations</w>
found ed</w>
Vereinbar ung</w>
S yn
Verwal tung</w>
r al</w>
a j
ten de</w>
T em
im in
contri bute</w>
Hi gh
Fl or
li ert</w>
0 1</w>
zu l
wor th</w>
O sten</w>
sh e
t our</w>
Re formen</w>
deli ver
pleas ant</w>
ge zeigt</w>
func tions</w>
lo y
be qu
er ungen</w>
T ier
i ze</w>
gen annt</w>
tem perat
Palest ini
V ier
pri orities</w>
I N</w>
vor gelegt</w>
A M
h und
electron ic</w>
unterschied lichen</w>
selbst verständlich</w>
gener ation</w>
finan cing</w>
introduc ed</w>
Entschließ ungsan
ly mp
per sp
di vi
defin ed</w>
Terror ismus</w>
re vol
but ed</w>
el se</w>
Vor teile</w>
Ter min
scre en</w>
Gipf el</w>
ge grün
Best and
ä den</w>
erlei </w>
J ust</w>
schn itt</w>
lar ger</w>
effectiv ely</w>
ou l
ing er</w>
nat ur
ha ft</w>
hoch wer
entsprech ende</w>
An erkennung</w>
get roffen</w>
lich ung</w>
E ach</w>
wh ite</w>
encour age</w>
speak ing</w>
sof ern</w>
s ays</w>
mo del
glau ben</w>
fur nis
Währ ungs
so -
er land</w>
under standing</w>
stän de</w>
ri e
In halte</w>
Gre ece</w>
o di
ens uring</w>
us h</w>
f rüh
drin gend</w>
H or
S ur
Lux em
ex ist</w>
acc es
Qual itäts
entwick lung</w>
Produk ten</w>
ar k</w>
erwäh nt</w>
cri me</w>
is ely</w>
- -
mehr eren</w>
Co de</w>
Techn ologien</w>
ris ks</w>
V il
verfüg bar</w>
ic a</w>
B S
i ch
Stabili tät</w>
1 50</w>
Mul ti
l o</w>
man aged</w>
gesch i
h tt
ger echt</w>
O T
V ari
Kri eg
stän den</w>
b ab
Haush alt</w>
posi tions</w>
erk annt</w>
bed au
bil ater
Hom epage</w>
tra ck</w>
stat tung</w>
kon stru
Binnen markt</w>
Bem erk
der zei
wh om</w>
H u
li sted</w>
Stra ße</w>
o vi
n ungen</w>
op ened</w>
r as
bu ch</w>
w in</w>
Swis s</w>
P L</w>
Besu ch</w>
Stand ard</w>
A sia</w>
st ab
W ar</w>
pp ing</w>
v oc
vic tims</w>
ig keit</w>
wonder ful</w>
gan gs
detail ed</w>
play ed</w>
Kl ein
Stell ung
f ei
ali gen</w>
ac ci
I denti
si eren</w>
tel eph
2 8
entr y</w>
wesent lich</w>
har d
g ain</w>
Zu dem</w>
yp e</w>
ut y</w>
imm ern</w>
Produ kt</w>
en di
particip ation</w>
Aussch uß</w>
Kon s
as ks</w>
Wh y</w>
an geb
län g
.. ..</w>
än den</w>
p assen</w>
t abled</w>
20 20</w>
s an
E-Ma il</w>
p oll
As soci
fizi erung</w>
berücksich tigen</w>
Gel d
Nation al
er fahren</w>
O lymp
agri culture</w>
a des</w>
ic o</w>
program s</w>
hoff en</w>
an nen</w>
re fu
N ahr
19 4
Schließ lich</w>
en ster</w>
Ü ber</w>
rec ord</w>
co s
wr ong</w>
u g
refer red</w>
anim als</w>
Au str
Somm er</w>
spiel e</w>
hin weisen</w>
part ment</w>
al og
nach dem</w>
en land</w>
disc uss</w>
Vol k</w>
cam era</w>
komm enden</w>
cont in
p aper</w>
akzep tieren</w>
n ehmer</w>
exac tly</w>
Frankfur t</w>
st ated</w>
mögli cherweise</w>
de dic
H ä
ch mal</w>
de bt</w>
ar ischen</w>
transpar ent</w>
bestimm t</w>
Ph ot
sy mbo
cross -
T y
m anner</w>
D e</w>
199 5</w>
land scap
ati sti
br itan
Zun ächst</w>
specific ally</w>
gew o
ens wür
Th en</w>
sit ting</w>
de -
li mit</w>
becom ing</w>
w on</w>
k am
In s
Durch führung</w>
reg ular</w>
adequ ate</w>
di ar
aim ed</w>
Mitt eilung</w>
partner ship</w>
ger ungen</w>
sel ected</w>
in come</w>
j eg
t em</w>
pur poses</w>
s ation</w>
eg et
ul tim
Schl af
be ds</w>
ak tiv</w>
Pl an</w>
ben utzen</w>
sp r
wei te</w>
Verbrau cher
met res</w>
lin ked</w>
Leist ungs
Febru ary</w>
t al</w>
n ü
erzi elt</w>
w ants</w>
lux uri
f el</w>
vot es</w>
re presents</w>
p assi
develop ments</w>
h a</w>
zei chen</w>
sicher zustellen</w>
r ural</w>
discuss ed</w>
wer ke</w>
F isch
Ch ance</w>
sc en
qu anti
besteh enden</w>
E mis
S ing
Ab sch
2 ,
gelö st</w>
Anwen dungen</w>
sch ar
besonder en</w>
P S
läu ft</w>
meas ure</w>
ter t</w>
Sp eci
E G
Au gen</w>
re chten</w>
assess ment</w>
su ite</w>
e ad</w>
ho sp
fo ot
emp ha
Medi en</w>
w ent</w>
Se a</w>
Ni cht</w>
Swi tz
disc ussions</w>
we ap
at o</w>
z entrum</w>
Unter kategorien</w>
is tische</w>
hö hen</w>
ho t</w>
Su che</w>
eu ch</w>
ow er</w>
mark eting</w>
ge ändert</w>
Ch anc
tra dition</w>
war ten</w>
sub- categories</w>
j ur
sch lä
is ine</w>
thous ands</w>
ri es
techn ische</w>
si ehe</w>
prec isely</w>
moder n
Ein richtungen</w>
An pass
gen cy</w>
consi st
be darf</w>
D A
dig it
re d
fel low</w>
ehr te</w>
unk ten</w>
Apart ments</w>
s le
poli ce</w>
re j
d own
N u
sp acious</w>
par ag
um p
ch ron
Li z
Europ e
in side</w>
af ter
mögli chen</w>
um gesetzt</w>
N utzen</w>
respon d</w>
avi g
5- 0
ru p
sp end</w>
b ung</w>
Wettbewerbs fähigkeit</w>
T im
en gli
Sek tor</w>
zul etzt</w>
geb enen</w>
Bre ak
medi cal</w>
en g</w>
e dern</w>
Groß britan
F lexi
Betrieb s
enter prises</w>
H altung</w>
D ig
o therwise</w>
füh l</w>
L ag
fac ilit
is tics</w>
en falls</w>
6 -
introduc tion</w>
si gn</w>
las h</w>
Stand ards</w>
sh of</w>
ten en</w>
Na cht
au p
Bel ar
dr am
st es</w>
ear lier</w>
notwen digen</w>
le bt</w>
gra du
kit chen</w>
play ing</w>
oper ations</w>
finanzi ellen</w>
Kontak t</w>
cli ent</w>
Kun st</w>
So cial</w>
bro ad
ge wal
follow ed</w>
de ep
pro por
Mi ddle</w>
b as
Agre ement</w>
Bar ro
du m</w>
un denen</w>
exclu sive</w>
bud getary</w>
M ol
Zei chen</w>
Einfl uss</w>
fac ing</w>
conn ected</w>
rü cken</w>
eleg ant</w>
conv inc
clo sely</w>
Gar anti
Tur k
ge ber</w>
er füllt</w>
Mon ate</w>
M A
Bo ard</w>
9 .
ad ju
Aus bildung</w>
k ö
em in
win ter</w>
ander es</w>
re present</w>
en det</w>
ut t
fres h</w>
at ter
est ed</w>
ein gerichtet</w>
pop ul
b ü
p sy
berei tet</w>
j ene</w>
haf ten</w>
l ten</w>
gen e
Geor gi
t y
n ütz
Lei t
L am
pa th</w>
NAT O</w>
consider able</w>
K ing
ro m
fest gelegt</w>
streng then</w>
je derzeit</w>
voll er</w>
buil dings</w>
ma ß
erg reifen</w>
B ran
C at
Geg ens
vermei den</w>
Mo st</w>
c e
kli cken</w>
I R
sel ect</w>
Switz erland</w>
B est</w>
ver lei
Christi an</w>
geleg ten</w>
happ en</w>
fl ation</w>
Klima wand
r itt
fo li
Gre en</w>
and ing</w>
ro man
hil fe</w>
b illi
S he</w>
wor ten</w>
sa ve</w>
p ap
s timme</w>
degre e</w>
Kin dern</w>
An spruch</w>
etz ung</w>
support ing</w>
ungs -</w>
dar unter</w>
own ed</w>
h aus</w>
Joh n</w>
L it
lat er
gui delines</w>
show er</w>
tig keiten</w>
ac es</w>
o s
rei sen</w>
geeign et</w>
Vor berei
f and</w>
l ass</w>
P fli
Fil m</w>
seas on</w>
end or
verfol gen</w>
in ci
man i
p ts
Viel falt</w>
ro ll
re port
en -</w>
comp ens
att le</w>
M eter</w>
M ech
so- called</w>
s li
discrimin ation</w>
ro h
Hum an</w>
un t
Fo und
su m</w>
M ut
Mo der
acc ur
o te</w>
jewei ls</w>
purch ase</w>
mal er
im migration</w>
Innov ation</w>
impro ving</w>
rem ember</w>
I mp
e en</w>
net works</w>
Men ge</w>
Sp it
teleph one</w>
Bes it
Hi gh</w>
au ßer</w>
der t</w>
st ausch</w>
compon ents</w>
ag no
gew ün
ati k</w>
ange zeigt</w>
ag s</w>
Rom a</w>
for d</w>
er höhen</w>
enn a</w>
de fic
ver ring
og raphi
si vely</w>
Vide o</w>
verb rei
sti ge</w>
spe ech</w>
sicher lich</w>
he ar</w>
über nachten</w>
Po licy</w>
Konz ept</w>
erzi elen</w>
H is</w>
Schwei z</w>
I B
j et
exper ts</w>
W ol
ück s
be zo
Web seite</w>
w and</w>
E ver
z ept
htt p</w>
wel cher</w>
bro ad</w>
Cz ech</w>
u tili
a verage</w>
fu n</w>
ent schieden</w>
Leist ungen</w>
teil weise</w>
ru fen</w>
Vertra gs</w>
At lan
cu isine</w>
el ement</w>
car ds</w>
Sk i
3 3</w>
sch lagen</w>
bu y</w>
sk i
&apos; ll</w>
ent weder</w>
ap par
ster ed</w>
funktion iert</w>
e. g.</w>
Z y
Sp a</w>
ori z
thin king</w>
pl ants</w>
ges und
Famili en</w>
D P</w>
u de</w>
gel angen</w>
P ic
typ ical</w>
besu chen</w>
Q </w>
mechan is
Sit z
spiel t</w>
m ischen</w>
Tran spor
St and</w>
Po st
sug gest</w>
tour ism</w>
m icro
k er
Install ation</w>
K rä
wär en</w>
politi scher</w>
verbesser t</w>
ga ve</w>
se em</w>
Econom ic</w>
tr ust</w>
staat lichen</w>
20 11</w>
proper ly</w>
at ti
el a</w>
Spra chen</w>
l as</w>
Spe zi
rec eption</w>
fäl lt</w>
N ame</w>
eu erung</w>
Soft war
en zi
em erg
zus timmen</w>
it ems</w>
E st
pl ätze</w>
ac </w>
enti rely</w>
Un fortunately</w>
Bec ause</w>
rel ate</w>
pres ence</w>
er ter</w>
Verwal tungs
Instru mente</w>
Febru ar</w>
J etzt</w>
uli eren</w>
sch lag</w>
Ab schließend</w>
Gr enz
Pro duc
p hr
ri chtet</w>
Sal z
Res earch</w>
an spru
We ge</w>
kl are</w>
ussel s</w>
über schrei
at ur</w>
O rig
pro vision</w>
War um</w>
S timme</w>
er leben</w>
I D</w>
m ist
competi tiveness</w>
ar en</w>
spiri t</w>
rei s</w>
c ore</w>
zep tion</w>
rich tigen</w>
o o</w>
sp lan</w>
Fre m
Veränder ungen</w>
Tä tigkeit</w>
dest ro
Lei der</w>
Kenn tnis</w>
I G
E AD
we ak
sto ck</w>
I ma
S ow
Gar ten</w>
ati cally</w>
ordin ary</w>
figur ation</w>
gener ally</w>
Lebens mittel
Verein ten</w>
draw n</w>
All gem
Ver bin
ern s
l te</w>
ak es</w>
Beri chte</w>
Arbei ten</w>
Pol and</w>
differ ence</w>
re fer</w>
d é
C lick</w>
hi m
an e</w>
M ari
Ab schluss</w>
sti t
presi dency</w>
d in
iz ed</w>
frei heit</w>
al d</w>
ti se</w>
st abili
Ni ch
ol a</w>
schaf tlichen</w>
Forder ung</w>
D eleg
en i
abili ties</w>
er stellt</w>
bo dies</w>
Un abhängi
Mo dell</w>
L -
sum mit</w>
disp lay</w>
Initi ativen</w>
zäh len</w>
mach ines</w>
la w
Ak tion
actu al</w>
M un
av es</w>
gan g
P C
Famili en
b a
hous es</w>
sa w</w>
Br ussels</w>
spezi ell</w>
For um</w>
spi eg
reason able</w>
kon ferenz</w>
aus drücklich</w>
th -
Mit te</w>
auth ority</w>
pri or</w>
leist ung</w>
ge halten</w>
gra de</w>
vor gesehen</w>
c ra
woll te</w>
lich em</w>
dom estic</w>
am ing</w>
Ver gleich</w>
t led</w>
Sch ön
s eiten</w>
advan ced</w>
coordin ation</w>
inform ed</w>
ell s</w>
wh at
ati sche</w>
Z eiten</w>
zi </w>
ö konom
cre te</w>
Mo un
Beschäf tigungs
el ing</w>
Bro w
Bei tritt
lu ß</w>
de aling</w>
da gegen</w>
s tic</w>
bet onen</w>
S ach
reco gnis
Viel en</w>
P T</w>
bel iev
inform ieren</w>
y al</w>
zwei fel
res ist
me etings</w>
distri ct</w>
l -
charac ter</w>
Stre et</w>
Regel ung</w>
Tei le</w>
Eng agement</w>
On ce</w>
x -
o de</w>
Abgeordn ete</w>
hab it
difficul ties</w>
O ut
win d
9 5</w>
bet rieb
Ira k</w>
En viron
vehic les</w>
ember ship</w>
di sh</w>
civi li
fi z
Pl en
sign ed</w>
parli amentary</w>
cle an
Aus gaben</w>
anim al</w>
f s</w>
Vor sitz
Besu cher</w>
0 s</w>
con dition</w>
ati n</w>
experi enced</w>
Gre at</w>
ul t</w>
coff ee</w>
S ci
riff e</w>
möglich st</w>
appe ars</w>
tig te</w>
N E
durch aus</w>
B ru
ju d
tä glich</w>
gew innen</w>
enor m
num bers</w>
peac eful</w>
Unternehm ens
Ch am
app lies</w>
v ul
ch ungen</w>
l eng
besch lossen</w>
Tran sport</w>
zentr ale</w>
f ach</w>
est ate</w>
Heraus forderung</w>
A sy
fish eries</w>
becom es</w>
il -
Dien ste</w>
w om
dan ger
mer k
ni cht
cont em
vorh anden</w>
lei tung</w>
form ed</w>
er b
consider ation</w>
H ier
perman ent</w>
an z
N um
Mitgliedsta at</w>
Jahr zeh
ing ton</w>
comp ati
Ri ch
An gaben</w>
Acc ording</w>
i al</w>
st atis
lok alen</w>
T au
poli tics</w>
gen ü
wen igen</w>
U l
ro s</w>
res ort</w>
auf t</w>
D S
Break fast</w>
grupp en</w>
li sten</w>
h ne</w>
ast s</w>
hr en</w>
flexi bility</w>
Köni grei
ge fordert</w>
enha gen</w>
F it
sp unkt</w>
orig in</w>
führ er</w>
ed s</w>
Har mon
Gol f</w>
An ges
ri es</w>
Kli cken</w>
9 9</w>
Zei traum</w>
N G
C ur
adv ant
kra ft
cour ses</w>
n ation</w>
simp li
Spe zial
auf merks
wa it</w>
zeu gen</w>
Kom fort</w>
Währ ung</w>
si li
benö tigt</w>
A ir</w>
ess or</w>
satis fac
d an</w>
ör de</w>
d ank</w>
8 .
a dem
Dim en
konkre te</w>
Rats vor
u fen</w>
mögli che</w>
komp lex
z y
bre ak</w>
Dru ck
spar tn
- -</w>
zu g
mon etary</w>
Großbritan nien</w>
Ein wander
ästin ens
C le
easi er</w>
Haus es</w>
fre ue</w>
in struc
establish ment</w>
Seh enswür
ar i</w>
Orig in
k no
w on
veröffent licht</w>
b ing</w>
ju di
3 6</w>
ni eder
jo y</w>
Ap part
angebo ten</w>
qu alit
pic ture</w>
econom ies</w>
car s</w>
be ob
li ter
ma ßen</w>
dor f</w>
Kat astro
Jahrhunder ts</w>
Go d</w>
F e
t old</w>
finanzi elle</w>
datab ase</w>
Mi o.</w>
k op
thre at</w>
S E
B rit
fix ed</w>
Th ir
Gebi eten</w>
star ke</w>
leist ungen</w>
führ enden</w>
comb at</w>
br auch</w>
sup pl
s anc
ti ver</w>
Her z
asp ect</w>
sus p
konzentri eren</w>
prü fung</w>
practic es</w>
e .</w>
ha fte</w>
lea der</w>
Wis sen</w>
T est
l es
gewähr leistet</w>
A B
aim s</w>
for get</w>
wei ght</w>
ain t</w>
kultur ellen</w>
Stat us</w>
Den noch</w>
sat elli
3 4</w>
Kra ft
prin t</w>
ehr t</w>
wa gen</w>
erfol gen</w>
attemp t</w>
Au to</w>
ul l</w>
Terr asse</w>
ec ke</w>
dar stellen</w>
s eg
model s</w>
tri p</w>
öff nen</w>
näch ste</w>
I ris
r ent</w>
continu ed</w>
Mad rid</w>
ent stehen</w>
am eter</w>
St ärk
or g</w>
er scheint</w>
str onom
appro xim
Bei tritt</w>
s outh</w>
get ei
fail ure</w>
P s</w>
F und
auth or
Her stellung</w>
sp ent</w>
ogra f
Programm s</w>
M S</w>
ester day</w>
pp er</w>
Nachfol gend</w>
my self</w>
combin ation</w>
King dom</w>
A G
em als</w>
au d</w>
tiv ity</w>
be auf
a el</w>
On line</w>
c e-
medi c
erklär en</w>
Wor te</w>
pro pose</w>
pen sion</w>
C er
spra ch
seri ously</w>
pre fer
f low</w>
b us
Komp et
gesch rieben</w>
ar ten</w>
n om
den noch</w>
viel fäl
2 4-
Ein igung</w>
ad ed</w>
Associ ation</w>
mi x
arch i
Re de</w>
zäh lt</w>
transl ation</w>
gem ü
er stellen</w>
unabhängi g</w>
vers al</w>
An trag</w>
Fern seh
et ers</w>
Parlam ent
in si
Zwei fel</w>
hi </w>
tain ment</w>
associ ated</w>
S un
O R</w>
det ail</w>
ima g
grei f
attrac tive</w>
Kir che</w>
4 8</w>
betra chtet</w>
Sant a</w>
ack now
W ür
pos t</w>
eh ol
I A</w>
tä tig</w>
Zw eck</w>
0 ,
n utz
qu alität</w>
promot ing</w>
at z
ill ing</w>
c lub</w>
schwieri g</w>
any one</w>
kun fts
hän gt</w>
anci ent</w>
him self</w>
get re
ah ead</w>
unterschied liche</w>
s tim
rel ax</w>
- K
Wi ch
Forder ungen</w>
gegen sei
cal cul
be antwor
lie ßen</w>
Komp on
SQ L</w>
2 7
her unter
Pak istan</w>
fü gt</w>
gegrün det</w>
Ar gum
wa iting</w>
differ ences</w>
stu dies</w>
beh avi
Op en</w>
reserv ation</w>
ein iger</w>
Fried ens
woh ner</w>
reduc ing</w>
ür en</w>
m as</w>
kl ass
avail ability</w>
Zi vil
ph ase</w>
em bly</w>
fin ance</w>
P r
Musi k
y e</w>
Belar us</w>
tiv ität</w>
S cript</w>
hand el</w>
br and</w>
ul a</w>
S ehr</w>
announ ced</w>
ein gehen</w>
phot ograph
G as
char ged</w>
Am bi
fre ut</w>
Analy se</w>
jour n
be aches</w>
um fasst</w>
chan ging</w>
sicher ung</w>
Universi tät</w>
im possible</w>
rä ume</w>
Reg el</w>
Österrei ch</w>
car efully</w>
F -
ali a</w>
wi eg
Ein haltung</w>
t end</w>
rele ased</w>
wir kt</w>
ut ed</w>
st ein</w>
pre -
Bet ra
on e-
Land wir
St or
vo ice</w>
beri cht</w>
absol ut</w>
er o</w>
humanit arian</w>
gest alten</w>
W ech
medi um-
Stellung nahme</w>
bal anced</w>
9 8</w>
Auf nahme</w>
0 er</w>
T our</w>
Sto ck
Ges ell
Ã </w>
fri eden</w>
le v
De fin
shar ed</w>
T un
f und</w>
disku tieren</w>
al ter
Fir stly</w>
consu mption</w>
des er
danger ous</w>
b a</w>
tion ally</w>
op position</w>
bek ann
boo king</w>
gesch ehen</w>
immedi ate</w>
Sehenswür digkeiten</w>
Griech enland</w>
nam es</w>
happ ened</w>
geleist et</w>
Iris h</w>
Priv ate</w>
produc ers</w>
lear ning</w>
fizi ert</w>
ech ten</w>
def ence</w>
agen cies</w>
hand s</w>
coll abor
erns thaf
ek te</w>
Tex te</w>
vern ünf
h ood</w>
architec ture</w>
m useum</w>
gelei tet</w>
or am
d uty</w>
lie be</w>
k aufen</w>
se eing</w>
EAD S</w>
con crete</w>
stat ements</w>
a gen</w>
implement ing</w>
F onds</w>
f are</w>
Funk tion
tra k
br ary</w>
saf egu
a ther</w>
tra ding</w>
gewi cht</w>
Disk us
exhi bition</w>
Gleich zeitig</w>
k n
he av
Ab end</w>
Tra de</w>
W ün
A chtung</w>
da cht</w>
Kon fer
Eng land</w>
end gül
St ellen</w>
pres sive</w>
t an
il lu
pas st</w>
or ders</w>
O li
D on
schn itt
W ander
der ed</w>
Kommunik ation</w>
He alth</w>
ri ver</w>
jähri gen</w>
arri val</w>
in form</w>
6 5</w>
u ter
adv ance</w>
fol gende</w>
fe der
lös ung</w>
w all</w>
tru ly</w>
pic tures</w>
20 13</w>
Bed ar
zeu g
Geri cht
u si
ausge wäh
eri a</w>
Anges ichts</w>
inst ance</w>
Viel zahl</w>
str ong
ins urance</w>
Gu est</w>
refu ge
Au gen
é e</w>
gro unds</w>
gew and
w oo
fig ure</w>
ra ise</w>
intro duce</w>
crimin al</w>
ar ticle</w>
M L</w>
D ue</w>
but ton</w>
Pri me</w>
Mech an
tä ts
Sor ge</w>
profi tieren</w>
evi dence</w>
descri bed</w>
region alen</w>
Her steller</w>
Entwick lungen</w>
E very</w>
er enden</w>
Fu ß</w>
recomm end</w>
verfol gt</w>
dou b
Downlo ad</w>
con dem
Pak et</w>
Hinter grund</w>
sk ills</w>
d t</w>
phr ase</w>
Aspek t</w>
S port</w>
C E
schi ed</w>
impro vement</w>
garanti ert</w>
über prüfen</w>
cl ari
6 00</w>
3 7</w>
f ers</w>
ens wert</w>
Prior itäten</w>
regi stered</w>
met ers</w>
Dokum ent</w>
su che</w>
Europe ans</w>
Lin ks</w>
relax ing</w>
A si
ok ed</w>
Ar ten</w>
recogni tion</w>
guarant ees</w>
E li
Cas ino</w>
ö k
Gener al
pass ed</w>
call ing</w>
Mi gr
IS O</w>
fest stellen</w>
Pol en</w>
ärk ten</w>
p unkte</w>
krä fte</w>
genu ine</w>
C ast
sp ending</w>
ti scher</w>
ph en
pos sibilities</w>
Poli zei
it a</w>
near by</w>
continu es</w>
ver lassen</w>
be t</w>
A no
Arbeits losigkeit</w>
Ver y</w>
G ran
ahr en</w>
Afri ka</w>
Rechn ung</w>
reli able</w>
fig ures</w>
ent y</w>
tel evision</w>
n eh
b ahn</w>
cor respon
install ed</w>
wis hes</w>
m embership</w>
st om
T ick
J a</w>
s letter</w>
S til</w>
weiter er</w>
un acceptable</w>
combin ed</w>
ass es</w>
I V</w>
än gt</w>
devi ces</w>
ck ed</w>
no on</w>
Partner schaft</w>
il ing</w>
Sp i
persön lich</w>
R um
el ection</w>
и </w>
pack ages</w>
M ann</w>
fir m</w>
an gt</w>
perf ec
par all
f ro
ach ed</w>
campa ign</w>
Stärk ung</w>
col or</w>
adop tion</w>
empfeh len</w>
hal tet</w>
R ad
Found ation</w>
religi ous</w>
mit einander</w>
li ghts</w>
199 4</w>
rän ken</w>
il l</w>
fi gh
S eine</w>
se ek</w>
brei te</w>
fis cal</w>
complet ed</w>
f elt</w>
Na cht</w>
übri gen</w>
ven ue</w>
kor re
en ables</w>
allow ing</w>
K ab
be zeichnet</w>
un less</w>
territ ory</w>
aussch uss</w>
strong ly</w>
st ers</w>
great est</w>
bl ack</w>
stär kt</w>
si des</w>
Indi en</w>
Afri can</w>
k ept</w>
bru ch</w>
Mom ent</w>
For t
m ir
gegenwär tig</w>
evol ution</w>
ech ischen</w>
di a</w>
F inn
or e
ex tra
Min dest
g utes</w>
V ie
S ar
sensi tive</w>
particip ate</w>
t asks</w>
anges prochen</w>
Ges etz</w>
Deut sche</w>
no ti
aus gewo
i .
di um</w>
I II</w>
th or
R oh
s ale</w>
Pf lan
Leist ung</w>
J our
- up</w>
e ß</w>
Betrieb </w>
n ar
Ver ständ
Sy ri
z erstör
surround ing</w>
Les ung</w>
Ar ab
ent sch
s ort</w>
Bedürf nisse</w>
ein geführt</w>
• </w>
ent ran
ob tain</w>
führ ungen</w>
Problem en</w>
Is lam
man age</w>
französ ischen</w>
Ide en</w>
govern mental</w>
Mon t
Man ager</w>
For men</w>
An n
res tor
gegenwär tigen</w>
cour t</w>
Besch reibung</w>
con tain</w>
hin gewiesen</w>
un fortunately</w>
h ing</w>
Jus tice</w>
er hält</w>
ar tic
ent ing</w>
Tra dition</w>
n ischen</w>
Tit el</w>
clos er</w>
bar s</w>
Nahr ungs
über all</w>
ein geb
el ected</w>
Gemein samen</w>
Ir land</w>
zu frieden</w>
Kom bin
gro ß</w>
D er
resp ective</w>
co l</w>
En d
kan ischen</w>
defin ition</w>
all -
grö ßer
t aus
ff t</w>
fe ar</w>
Wis sen
sur face</w>
posi tiv</w>
demokrati sche</w>
Dis krimin
Ano ther</w>
s ets</w>
ri chtlin
beginn t</w>
attrac tions</w>
M O
s un
mi ddle</w>
H ist
Barro so</w>
ni a</w>
mot or
ma g</w>
des ire</w>
absol ute</w>
k ilom
geschütz t</w>
S inn</w>
em b
ren ov
Play er</w>
al ty</w>
B M
Elem ente</w>
ein setzen</w>
L ast</w>
kompl ett</w>
co ast</w>
ap pointed</w>
S .
K lim
Richtlin ien</w>
K i
w esen</w>
K r
rou te</w>
dan ach</w>
dedic ated</w>
ac king</w>
Prior ität</w>
compar ed</w>
unterstütz e</w>
Su ch</w>
M ay
plat form</w>
Überwach ung</w>
su n</w>
win dow</w>
Ham burg</w>
groß es</w>
beau ty</w>
y right</w>
dis pos
mi um</w>
pi ece</w>
gui de</w>
posi te</w>
hin ter
8 00</w>
aufmerks am</w>
prei s</w>
kein erlei</w>
umfass ende</w>
Feder al</w>
B ab
3 8</w>
us ual</w>
T R
Ne ther
Vi enna</w>
J eder</w>
hau pts
Turk ish</w>
lan gs
Haush alt
ein ander
ausreich end</w>
A V
einfa che</w>
B anken</w>
M use
inter face</w>
i des</w>
be ar</w>
Regel ungen</w>
10 .
ver tei
C ub
erforder lichen</w>
Geschäfts ordnung</w>
ing u
w asser
ge zogen</w>
cor porate</w>
C af
mark ed</w>
Isra el
enorm ous</w>
claim s</w>
as yl
cont ex
besit zt</w>
Stad tz
größ eren</w>
M einer</w>
Fortsch ritt</w>
Bewer tung</w>
c m</w>
An teil</w>
go sla
ekt ur</w>
C an</w>
condi tioning</w>
f our
säm tliche</w>
spezi elle</w>
fail ed</w>
sex u
er in</w>
bestä tigt</w>
Verhäl tnis</w>
E u
big gest</w>
at a</w>
R ou
beteili gt</w>
Techni k</w>
ex port</w>
Ver b
S O
M ärkte</w>
on ed</w>
biet er</w>
vor liegenden</w>
Kri tik</w>
sign al</w>
ne -
sor gt</w>
st ood</w>
individu als</w>
A L</w>
E hr
8 -
Zu stän
Kan di
d .
exp endi
s quare</w>
zah lung</w>
persp ective</w>
Ges i
al a</w>
W ill
län ger</w>
acces sible</w>
gel assen</w>
enti tled</w>
T en
Grö ße</w>
3 9</w>
stor age</w>
s in
d den</w>
S tern
Er hol
0 9</w>
un ch</w>
lux ury</w>
mo ving</w>
iz ation</w>
E astern</w>
R am
5 5</w>
comm ent</w>
sci ence</w>
on to</w>
gen annte</w>
son st</w>
v eget
ur gent</w>
ext ended</w>
di sh
str on
Ent wurf</w>
aller y</w>
K ris
A P
holi days</w>
ff er</w>
brei ten</w>
lä ss
Gre ek</w>
f la
exerc ise</w>
Z ü
Rei se
H ome</w>
Mich ael</w>
J ac
inst all</w>
i ed</w>
tot ally</w>
ei m
Ch amp
de vice</w>
Prin zip</w>
ak t</w>
wach st
Reg ist
writ e</w>
mitt els</w>
c ent</w>
bi o
In n</w>
prei se</w>
pri vi
un to</w>
w ind</w>
n ennen</w>
vor hand
convinc ed</w>
Ne vertheless</w>
leist ungs
m illi
rail way</w>
ver häl
ic ken</w>
Brü ssel</w>
LA N</w>
ro l</w>
S and
vor aus
el imin
Democ rats</w>
lem ent</w>
Verpfli chtung</w>
D rei
Ver trieb
mö gen</w>
Stra ßen
institu tion</w>
aussch usses</w>
I V
w est</w>
internation aler</w>
mem ory</w>
i sten</w>
kosten los</w>
H al
Y et</w>
zu gän
ec kt</w>
adverti sing</w>
verb undenen</w>
fil l</w>
e cht
main ten
vie w
pro to
grund sätz
schie de</w>
her gestellt</w>
offen sichtlich</w>
Jour n
fli ght</w>
b ath</w>
boo ks</w>
C D
ho st</w>
garanti eren</w>
exp ensive</w>
Glob alisierung</w>
exp ect
Eis en
mitt l
ber eiten</w>
dis cover</w>
Agent ur</w>
li e</w>
contro ls</w>
Ma ße</w>
m o</w>
ch urch</w>
eng ine</w>
Mot or
Mitt eln</w>
beh aup
D ra
Con tro
zi gen</w>
tru m</w>
ad vice</w>
ab gel
organiz ation</w>
ec tions</w>
stark en</w>
Wor ten</w>
Tre ffen</w>
rä ger</w>
Men ü
bli oth
Bus h</w>
b ish
rie be</w>
fac tors</w>
v e-
g la
199 0</w>
fir e</w>
Nether lands</w>
p el
initi al</w>
Institu te</w>
pay ments</w>
f un
L ast
m äch
Fot os</w>
L ake</w>
D avi
0 8</w>
bek annten</w>
un able</w>
fas hi
st one</w>
D ut
Austri an</w>
en ken</w>
S hi
ef s</w>
dise ase</w>
organis ed</w>
statt finden</w>
cho sen</w>
ar ing</w>
Res i
gr anted</w>
an ese</w>
Unter kunft</w>
Alt stadt</w>
weap ons</w>
le d
e au</w>
e ar</w>
dien st</w>
bil d</w>
zusätz lich</w>
bein haltet</w>
Grün de</w>
sch ir
g an</w>
Stu dio</w>
L im
D ef
r ying</w>
D ep
ü hen</w>
eck -
1 st</w>
loo d</w>
establish ing</w>
Comp any</w>
Verk ehr</w>
pf en</w>
enn t</w>
fac es</w>
iel t</w>
Mon at</w>
Kon tin
out come</w>
h aus
can c
medi zin
nit ure</w>
as h</w>
u z
lim its</w>
geb il
über tragen</w>
contr ary</w>
low ing</w>
u .
man gel
Um fang</w>
Fes tival</w>
deut sche</w>
perfec tly</w>
E- Fraktion</w>
&apos; re</w>
on ia</w>
Z wis
g m
Z ur
re ck
att ack</w>
U .
B -
s ul
Res p
ap pl
g barkeit</w>
up date</w>
and ed</w>
conclu sions</w>
Res ort</w>
si chts
con ci
In f
i red</w>
Ni veau</w>
wesent lichen</w>
ar di
Erklär ungen</w>
hi elt</w>
Contro l</w>
tri ed</w>
ent ure</w>
G rü
moun tains</w>
mas sive</w>
s n
klu sive</w>
beg lück
bri tischen</w>
zu folge</w>
wen det</w>
low s</w>
Beteili gung</w>
Pal ace</w>
nei ther</w>
gel ief
swi t
betra chten</w>
al em</w>
Cro ati
righ tly</w>
Jav a
lo ad</w>
furnis hed</w>
Gener ation</w>
ambi tious</w>
ag ne</w>
Th us</w>
Schl uss
commit ments</w>
A lex
verl oren</w>
w ater
Got t</w>
Ar e</w>
A tom
zu vor</w>
wün sche</w>
f it</w>
stei gen</w>
sol cher</w>
vali d</w>
For eign</w>
um welt
Gegens atz</w>
fin de</w>
Er höh
vehic le</w>
R eligi
Risi ken</w>
ent sprechen</w>
back ground</w>
exist ence</w>
Pati enten</w>
success fully</w>
Rei se</w>
B a
St rei
Politik er</w>
rel ativ</w>
ag ency</w>
ä ft</w>
über ra
T al
eu </w>
an lagen</w>
Bo s
quali fizi
conveni ent</w>
mainten ance</w>
k as</w>
au c
M ak
Europä er</w>
ch em</w>
arti sts</w>
Schl üssel
No te</w>
An rei
Entschließungsan trag</w>
ha m</w>
en ni
. de</w>
Op tion</w>
regi ster</w>
asyl um</w>
w ettbewer
spezi ellen</w>
G az
p il
echni k</w>
Metho de</w>
Dat a</w>
bew eg
Flexi bilität</w>
v it
it age</w>
kra ft</w>
Kompromis s</w>
hon ourable</w>
cla im</w>
exp an
gnis sen</w>
approxim ately</w>
Palestini an</w>
es -
Mitgli edern</w>
Ein druck</w>
rem ind</w>
Ak tionen</w>
S S
candi date</w>
Erei gnisse</w>
par a</w>
Koh ä
er häl
aus län
wi der</w>
mitt elt</w>
geh oben</w>
ci </w>
as king</w>
g ä
do c
Aus sicht</w>
0 7</w>
as su
R äum
ge gangen</w>
Weiter e</w>
E ar
aus führ
achiev ing</w>
ü ben</w>
ran gi
ge öffnet</w>
K ro
Ge wi
Ab satz</w>
Bei m</w>
ur a</w>
const antly</w>
Re zeption</w>
PH P</w>
k -
ab geschlossen</w>
ver letz
L atin</w>
surround ed</w>
r é
recht lichen</w>
P eter</w>
z y</w>
etz en</w>
fähi g</w>
í a</w>
ob viously</w>
jüng sten</w>
deli ver</w>
Auf bau</w>
Nach dem</w>
tar gets</w>
un it</w>
man chmal</w>
m 2</w>
inter vention</w>
continu ing</w>
ur g
dar aus</w>
B is</w>
g uter</w>
er o
go als</w>
Wieder auf
monit or</w>
ex pression</w>
a w
inter ven
R ob
categ ory</w>
G ü
parag raph</w>
er es</w>
Wirk ung</w>
Loc ated</w>
Sch war
B ou
sorg fäl
f ach
Verständ nis</w>
Beg riff</w>
isch em</w>
fass ung</w>
In nen</w>
Empfeh lungen</w>
psy ch
g ert</w>
sen sus</w>
posi t</w>
inform iert</w>
indep endence</w>
al p
ä r</w>
а </w>
sequ ently</w>
erhöh t</w>
St ein
t ürk
n ommen</w>
el -
Er de</w>
nation aler</w>
colleag ue</w>
Ö l
out standing</w>
so ver
tou ch</w>
wirtschaf ts
f ein
K aff
migr ants</w>
Gebi ete</w>
Be ob
fi l</w>
sequ ent</w>
C ard</w>
st ä
po int
exper im
ti tle</w>
ta il
R et
2 9
cont ents</w>
Ver letz
Gol f
promo tion</w>
haupts ächlich</w>
on i</w>
air craft</w>
tion ary</w>
la id</w>
B ear
Bil dungs
regi stri
multi later
or ds</w>
Er war
lau t</w>
Ad ministr
Plat t
Constitu tion</w>
de ep</w>
O m
H äl
Re alität</w>
erforder t</w>
an i</w>
t inu
some one</w>
19 .</w>
physi cal</w>
sel l</w>
r en</w>
phot os</w>
et es</w>
der ship</w>
An lagen</w>
sur vi
ide ale</w>
St art</w>
präsen tiert</w>
Bot schaft</w>
oblig ations</w>
las se</w>
ques ts</w>
ke eping</w>
f illed</w>
Ph ase</w>
A v
1 1.
advant ages</w>
k um
Ob ama</w>
bar ri
ent eil</w>
p he</w>
unter schei
T emp
Medi a</w>
nor th</w>
Meer es
and o</w>
y esterday</w>
st ro
r ul
ti s</w>
ar m</w>
Hoff nung</w>
of -
n el</w>
Ver sch
Risi ko</w>
Nutz er</w>
be achten</w>
l ake</w>
Th ose</w>
Führ ung</w>
contain ed</w>
plann ed</w>
lan gt</w>
bal con
Reg ulation</w>
mü s
Binnen mark
füh len</w>
m ly</w>
inten sive</w>
bin ding</w>
di ger</w>
M iss
quali fied</w>
ob vious</w>
ath ed
dist inc
O M
berühm ten</w>
Eff izi
dam als</w>
C S
produk tion</w>
Spra ch
In seln</w>
st ö
recommend ations</w>
loo ks</w>
kün st
C ul
Ber lin
th eit</w>
H on
wichtig ste</w>
dec ades</w>
Far b
199 2</w>
mei st</w>
i le</w>
Grund satz</w>
m ass</w>
ak zept
P R
particip ants</w>
ne arly</w>
e quality</w>
allgem eine</w>
fic ations</w>
deu ten</w>
employ ed</w>
Mark et</w>
Agen cy</w>
ger ing
Frühst ücks
rei ber</w>
fac tor</w>
bring ing</w>
L ou
Tei len</w>
stell te</w>
or a</w>
str ö
so bald</w>
ordn ungs
E di
geschi eht</w>
cap able</w>
be zogen</w>
S ank
V om</w>
situ ations</w>
foo t</w>
du s</w>
g ir
govern ance</w>
Bo th</w>
expendi ture</w>
an e
Mus li
Arch i
reco very</w>
glob ale</w>
er as</w>
consi sts</w>
Ch em
B ay</w>
R ome</w>
M erk
art a</w>
comm unities</w>
p utting</w>
nah m</w>
acc ess
Pau l</w>
F T
om as</w>
j ungen</w>
einzi gen</w>
W inter
st ations</w>
seek ing</w>
landscap e</w>
form ation</w>
er er</w>
ant ing</w>
M ü
Arbei t
speci es</w>
mer ely</w>
Nich trau
J er
regel mäßig</w>
ex is
v ous</w>
dimen sion</w>
EC U</w>
Be ach</w>
manufactur ing</w>
außer ord
Hin weis</w>
dynam ic</w>
en dum</w>
re den</w>
gewün sch
Fir men</w>
ari o</w>
sm aller</w>
Gr unde</w>
pre vention</w>
m ün
le ads</w>
satelli te</w>
Bedar f</w>
tri fft</w>
ein verstanden</w>
es ische</w>
ch am
е </w>
nachhal tige</w>
kom bin
fest gestellt</w>
G ent
ra d</w>
ur s
Fra ktionen</w>
persön liche</w>
Haupt stadt</w>
Bei hilfen</w>
Voraus setzungen</w>
A S</w>
st ore</w>
substanti al</w>
Vor teil</w>
En ergy</w>
Zah lungs
Häl fte</w>
Geg enteil</w>
Eink aufs
ch -
O ther</w>
medium- sized</w>
mechan ism</w>
er ie</w>
Eben so</w>
S quare</w>
Sonn en
Dimen sion</w>
dispos al</w>
W and
gel y</w>
Kor ea</w>
wor fen</w>
regi stration</w>
dig ungs
W at
i. e.</w>
fl us
dic t
H -
P ro</w>
consist ent</w>
li t
den k
Mitglied s
To des
fi f
, 00</w>
gesell schaften</w>
res t
Pe ti
neigh bo
getei lt</w>
zu gleich</w>
A .</w>
äu fer</w>
vorgeschlag enen</w>
rap id</w>
be wegen</w>
Wel che</w>
B li
ränk ungen</w>
ent gegen
mo de</w>
bet roffen</w>
Städ te</w>
Bestand teil</w>
jähr lich</w>
ali ge</w>
6 4</w>
ra in</w>
contem porary</w>
Sum mit</w>
ühr en</w>
K ür
re ve
Kon troll
on ic</w>
Ver mitt
test ing</w>
regel n</w>
An y</w>
guarant eed</w>
der i
da d</w>
caus es</w>
brow ser</w>
nam ed</w>
Ak ti
stra ße</w>
an gel
Vertra gs
Infra struktur</w>
ext end</w>
Nieder lan
sub scri
an bieten</w>
Industri e
ö se</w>
sur pris
Veranstalt ungen</w>
mean ing</w>
gewäh lt</w>
R ein
Prü fung</w>
Glob al</w>
Hol z
dri ving</w>
ateg orie</w>
ser n</w>
schn eller</w>
ed ge</w>
zip ien</w>
br ings</w>
Land schaft</w>
smo king</w>
Ro yal</w>
prak tisch</w>
Klima anlage</w>
gl ass</w>
ver sions</w>
ier ungen</w>
tradition ellen</w>
Wor k
bi en</w>
gel aden</w>
d ah
comp liance</w>
ar ms</w>
wo durch</w>
vul ner
p ak
Intern ationalen</w>
exam ples</w>
u .</w>
li cherweise</w>
on ym
Ru he</w>
R ules</w>
Far ben</w>
in j
B ern
Aus land</w>
4 2</w>
C y
ö sen</w>
Pra k
resul ting</w>
freund liche</w>
Win ter</w>
g as
spre ad</w>
kom fort
Pub lik
Ak tu
bet roffenen</w>
a is</w>
ver w
p et
beschäf tigt</w>
Angebo te</w>
politi sch</w>
a chtung</w>
tre ated</w>
her zlich</w>
determin ed</w>
Th anks</w>
Swe den</w>
dau er
Zah len</w>
E th
w ann</w>
Eur o-
prim ary</w>
win den</w>
M ill
lä gen</w>
conclu de</w>
Is land</w>
at trak
ob ject</w>
gol f</w>
Det ails</w>
ra y</w>
sp a</w>
vorsch lagen</w>
S m
Bu ch</w>
rec ord
Ferien woh
Dien st</w>
an sch
Unabhängi gkeit</w>
zu verlässi
Environ ment</w>
c ast</w>
blo ck</w>
optim al</w>
an geht</w>
t ab
Z immern</w>
pleas ure</w>
s even</w>
po ur</w>
enn ung</w>
S D
G an
poten zi
organis ationen</w>
k a
bri dge</w>
ex plan
Gesetz gebung</w>
Erhöh ung</w>
fra gt</w>
Qu es
sy mp
frü her</w>
for est</w>
tex tu
pati ents</w>
att acks</w>
z te</w>
sp aces</w>
alis ieren</w>
expl ain</w>
addres sed</w>
Stru ktur</w>
Auf grund</w>
ch mals</w>
Mar tin</w>
Ge währ
fu el</w>
0 5</w>
L ang
Java Script</w>
voll kommen</w>
Tro tz</w>
ev a</w>
wel chen</w>
Bra zi
zurück zu
weiter es</w>
tra gs</w>
Har d
f abri
beg ann</w>
respon sibilities</w>
Materi al</w>
p un
n ations</w>
kür zlich</w>
ra dio</w>
Rum ä
ger ufen</w>
tra gs
j unge</w>
9 6</w>
industri es</w>
T ari
to m</w>
strength ening</w>
associ ation</w>
Ver öffent
Form at</w>
comp lic
ol der</w>
stoff en</w>
or al</w>
besser en</w>
ori um</w>
ag ue</w>
TH E</w>
extre me</w>
e z</w>
J </w>
3 .</w>
beru f
in ary</w>
Ta i
Über prüfung</w>
wer ten</w>
T ime</w>
Charak ter</w>
C lu
rei bt</w>
multi -
dest ru
ari um</w>
Königrei ch</w>
Al liance</w>
sk y</w>
ein erseits</w>
bed room</w>
ör per
ö der
Au th
pre p
disku tiert</w>
tal ks</w>
Ratspräsi dent</w>
em a</w>
t ests</w>
scho ols</w>
identi ty</w>
Unternehm ens</w>
4 9</w>
I P
B us</w>
un ge
t äu
Ser ie</w>
Stadtz entrum</w>
J es
konstru k
evalu ation</w>
Metho den</w>
G U
m ung</w>
Liber alisierung</w>
Inn en
re agieren</w>
ü st
end ung</w>
prim arily</w>
tur ed</w>
re move</w>
f ts</w>
Lauf e</w>
о </w>
än d
k ehr</w>
P ool</w>
Sch we
unter st
tem porary</w>
Män ner</w>
G DP</w>
an de</w>
ur ban</w>
schö n</w>
no tice</w>
celeb r
N ice</w>
E F
eri gen</w>
C oll
kin ds</w>
fer tigt</w>
s au
n on
eri or</w>
9 7</w>
Nichtrau cher
En joy</w>
2 50</w>
ste el</w>
fäl len</w>
ther eby</w>
pre viously</w>
grenz überschrei
Finan cial</w>
Beweg ung</w>
hol en</w>
be zieht</w>
Reg uli
IN G</w>
Dut ch</w>
Pro vin
Gä sten</w>
ti le</w>
ish ing</w>
multi ple</w>
requ ested</w>
invest ments</w>
con soli
sol e</w>
ol z</w>
lief ern</w>
event u
gan gs</w>
ell ec
qu ick</w>
leh nen</w>
gra ph
con sensus</w>
Li cht</w>
sprü che</w>
incor por
ges eh
einzel ne</w>
accoun ts</w>
M ehr</w>
Zwis chen
li ability</w>
Diskrimin ierung</w>
Teil nehmer</w>
Lie be</w>
kon textu
16 0</w>
discuss ing</w>
Rom ania</w>
gef örder
del ay</w>
abhängi g</w>
L ink</w>
stimm t</w>
K lar
or es</w>
um b
gesch lossen
spezif ischen</w>
eich ert</w>
är m
ta il</w>
stra i
ri gi
li eb
vill a</w>
ti erung</w>
bequ em</w>
th ers</w>
visi ble</w>
gh ted</w>
s es
c ot
Bed roh
A g
ein richtungen</w>
berei che</w>
ori a</w>
li eben</w>
Gr enze</w>
I ON</w>
strateg ie</w>
cop y</w>
am ents</w>
deliver ed</w>
m ale</w>
de h
Netz werk</w>
Klimawand el</w>
g one</w>
fi </w>
sk in</w>
ent lichen</w>
War en</w>
u d</w>
st euer
bu tions</w>
Fähi gkeit</w>
Ad ri
weg s</w>
ri cht
oc cur
Ord nung</w>
H ü
199 3</w>
sei tens</w>
lea dership</w>
ab len</w>
represent ative</w>
Des pite</w>
8 5</w>
stell ungs
K ilom
Fäl le</w>
bil det</w>
will ing</w>
ra il</w>
compet ence</w>
zi em
P il
techn ological</w>
can cell
Su ite</w>
tel ef
op posite</w>
Dokum ente</w>
W esten</w>
komp et
Koordin ierung</w>
w an</w>
wa chen</w>
akzep tiert</w>
F ut
def ault</w>
s .
ris ing</w>
M aria</w>
fe eling</w>
r ö
Ti ere</w>
Reak tion</w>
verk ehr
20 .</w>
Ar gent
hal ten
di schar
on al</w>
do s</w>
F la
V -
Min utes</w>
M ach
I l
posi tiven</w>
- how</w>
Br enn
sou thern</w>
g ut
manufactur ers</w>
controll ed</w>
wä ch
Par ti
ã o</w>
ren ovi
Fre unde</w>
prep are</w>
län e</w>
ei te</w>
P op
bet ont</w>
st amm
Anpass ung</w>
Ein sch
de alt</w>
Ver such</w>
Hand el
z ell
sch war
H öh
prec ed
Kombin ation</w>
spezif ische</w>
di versity</w>
P as
jähri ge</w>
e th</w>
So zi
Milit är
fahr ens</w>
Unter schiede</w>
sicher stellen</w>
di d
Ge fühl</w>
ta ste</w>
ob serv
rupp en</w>
angen eh
Wil len</w>
ung er</w>
aff ect</w>
Ameri ka</w>
ar ding</w>
Stra f
beh inder
P L
we alth</w>
ur ge</w>
län dlichen</w>
D ay</w>
ag iert</w>
Ma il
sanc tions</w>
speak ers</w>
r uns</w>
mo ved</w>
for um</w>
qu ote</w>
mag az
ge arbeitet</w>
W aff
Per spek
D adurch</w>
represent ed</w>
hab er</w>
conduc t</w>
Fi re
St unde</w>
K M
tur ing</w>
compati ble</w>
F lä
ver lieren</w>
proc eed
Ever y
C O</w>
über nommen</w>
kon tak
beein flus
í </w>
W egen</w>
Um ständen</w>
di verse</w>
T wo</w>
region ale</w>
Vorberei tung</w>
höch ste</w>
Kör per</w>
signific antly</w>
Über na
ro krati
ber n</w>
E gyp
Be fore</w>
Gesetz e</w>
ver anst
Telef on</w>
appro val</w>
ein s</w>
d ritten</w>
c are
F ind</w>
0 6</w>
echn et</w>
e ase</w>
Ge win
Sü den</w>
E G</w>
ander erseits</w>
R adi
G laub
l ament
ad or</w>
V ia</w>
tur ning</w>
no ise</w>
auth or</w>
Zu stand</w>
G B</w>
li t</w>
zeu gung</w>
streng th</w>
basi ert</w>
es i
no chmals</w>
b om
ü r</w>
v ent</w>
cons ul
ehem aligen</w>
A P</w>
ol l</w>
B ir
An liegen</w>
st äd
lin ed</w>
Diskus sionen</w>
er geben</w>
S ter
ver stärkt</w>
Beitritt s
and -
sha pe</w>
recomm ended</w>
dest ination</w>
klu si
Strateg ien</w>
Rau m
Hil fs
exper tise</w>
un anim
Pro gram
Fran c
Bahn hof</w>
mom ent
ann e</w>
eri al</w>
Vi elleicht</w>
ad ly</w>
Su ch
R ent
hän gen</w>
Eigen schaften</w>
es sive</w>
n den</w>
Teil nahme</w>
sm it
ni c</w>
gres sive</w>
V öl
to urs</w>
laun ched</w>
B ack
foli o</w>
gewis se</w>
eng ers</w>
min e</w>
h oriz
T op
Sc ot
W ur
Tem perat
Stand ard
spra chen</w>
nö tig</w>
Rom an</w>
Deleg ation</w>
st off</w>
wieder um</w>
Eink lang</w>
s we
Sup port</w>
An lage</w>
sei en</w>
errei ch
Ber ücksich
gesch äf
k ul
impro vements</w>
komp lizi
vor an
Aut ob
richtlin ie</w>
mechanis ms</w>
char ming</w>
U T
Projek t
Komm ent
li ation</w>
am ong
M ein</w>
high light</w>
ec es</w>
help ing</w>
Stu die</w>
Bed enken</w>
lieg ende</w>
kno ws</w>
in d
sp lan
rel atively</w>
web sites</w>
verk ehrs
br e</w>
so weit</w>
geb en
f ting</w>
et ter
leng th</w>
among st</w>
An dre
ko ordin
ges tern</w>
K now
sen de</w>
hel ps</w>
El ec
mut ual</w>
derzei tigen</w>
c ab
I C</w>
su mm
refuge es</w>
engine ering</w>
zunehm end</w>
viel mehr</w>
fru it</w>
expect ations</w>
V ölk
Fre ude</w>
grund lage</w>
Aus gang
or ca</w>
consult ation</w>
C E</w>
Bear bei
L eu
rep ly</w>
si eben</w>
defin i
Sch ule</w>
G ep
cri ption</w>
Wh ite</w>
f ak
erneu er
t emp
m ation</w>
W C</w>
mitt ag</w>
co vers</w>
ari en</w>
ab sich
bed rooms</w>
Kol lege</w>
Spiel e</w>
Sp ek
Po ker</w>
tre es</w>
Verfü gbarkeit</w>
Sat elli
ang s
ver langen</w>
mel dung</w>
experi ences</w>
Sch rif
es ch
T ru
Rot ary</w>
exc ept</w>
Er wachsen
deleg ation</w>
bet t</w>
re quests</w>
er ende</w>
em ed</w>
k einer</w>
K unde</w>
sol d</w>
present ation</w>
St e
R h
Op tim
umfass enden</w>
Voraus setzung</w>
Ex press</w>
2 1.</w>
amerikan ische</w>
ac ting</w>
Mun ich</w>
an cy</w>
Mi kro
E D
un sten</w>
th ro
ir y</w>
zi elt</w>
press ing</w>
3 ,
lin ie</w>
re place</w>
Sank tionen</w>
O ri
untern ommen</w>
p .m.</w>
rä f
ne ut
atti tude</w>
M ur
A N</w>
ver i
ser ves</w>
identi al</w>
flü ge</w>
Wi en</w>
un its</w>
V it
Ent sch
Ant worten</w>
T -
regel mäß
priv acy</w>
Wo chen
welt weiten</w>
pe op
en to</w>
wes tern</w>
beg rün
tax es</w>
genau so</w>
fin ding</w>
O b</w>
d opp
cl ing</w>
sol ve</w>
s w
m ur
histor ische</w>
an erkannt</w>
B ook</w>
wichtig es</w>
wer fen</w>
own s</w>
dis covered</w>
si bly</w>
fol gerungen</w>
\ </w>
-S ter
Pro di</w>
Sch au
Gei st</w>
tro tzdem</w>
s and
artic les</w>
bo at</w>
0 2</w>
Form ular</w>
dep endent</w>
T aus
M as
fur niture</w>
ell o</w>
be fassen</w>
Pla za</w>
L ev
trans fer
To d</w>
r t</w>
Ex ec
ak tive</w>
с т
ck et</w>
ü ssel</w>
tion ality</w>
it ely</w>
cons ci
Spei cher
Techn ology</w>
d einer</w>
0 3</w>
m ärkte</w>
stre ets</w>
hil ft</w>
her aus</w>
Allgem einen</w>
fac ed</w>
ell ed</w>
dish es</w>
beh örden</w>
Z oll
c af
g -
che ap</w>
ro te</w>
hö here</w>
d inner</w>
Effizi enz</w>
phi losoph
3 D</w>
prof it</w>
figh ting</w>
bur e
ser vers</w>
Grund rechte</w>
dru gs</w>
Apart ment</w>
ci pl
behand eln</w>
Zug riff</w>
st ät
T ake</w>
oblig ation</w>
au sh
ser s</w>
reg ret</w>
politi cians</w>
eh mer
lat ter</w>
appe al</w>
X -
tig ungen</w>
Untersu chung</w>
Archit ektur</w>
di ty</w>
lo g</w>
Ver halten</w>
Kar ten</w>
tex ts</w>
l st</w>
kl einer</w>
rej ected</w>
bei zu
Sit z</w>
ziem lich</w>
r auch</w>
beein druck
hoh er</w>
Defin ition</w>
po or
Kü ste</w>
temperat ure</w>
spo t</w>
bem üh
ruhi gen</w>
fant astic</w>
compens ation</w>
appreci ate</w>
Berücksich tigung</w>
ati </w>
Überein kommen</w>
Ri ver</w>
7 00</w>
eg el</w>
conc ep
t ob
heal thy</w>
fund ament
B ör
lu s</w>
sch lim
ger äum
Po wer
Er kenn
W he
w n</w>
ver sorgung</w>
resp ek
enter ed</w>
err or</w>
empha sis</w>
um n</w>
tra gung</w>
li sten
j emand</w>
reco gn
dien ste</w>
fa i
ens es</w>
const ant</w>
Tra di
ran k</w>
arran gements</w>
F ein
ici ous</w>
Wel come</w>
w alls</w>
konkre ten</w>
Sch äden</w>
gel ungen</w>
12 0</w>
emphas ise</w>
T atsächlich</w>
A qu
recogn ise</w>
et ri
brei tung</w>
ro b
oo k
lei tet</w>
Kapit al
ff er
exten sion</w>
will kommen</w>
G old</w>
n un
exist s</w>
decisi on-
Bei fall</w>
PD F</w>
betre ffen</w>
Li eb
Grund sätze</w>
produc ing</w>
ni emand</w>
Wis senschaf
wat ch</w>
1 000</w>
refl ect</w>
mensch lichen</w>
en ab
Regist ri
bu chen</w>
Pu tin</w>
erhäl tlich</w>
Auf trag</w>
ob st
e ties</w>
schn ell
0. 000</w>
hand ling</w>
außer gewöhn
U ser</w>
Pro fession
resol ve</w>
schätz en</w>
obj ects</w>
tru th</w>
getre ten</w>
Cham ber</w>
Brit ain</w>
v ie</w>
cy cle</w>
P aper</w>
suff ering</w>
vorsch lag</w>
au x</w>
Leb ens</w>
Mein ungs
H oll
help ed</w>
der ung</w>
Ver träge</w>
U se</w>
Pres s</w>
privi leg
P ack
oper ators</w>
Jo se
u ung</w>
ar ische</w>
komm erzi
gri ffen</w>
beträ gt</w>
L ob
inten tion</w>
op oli
ma ster</w>
vis u
re ds</w>
b our</w>
ä ck
au dio</w>
gesp ielt</w>
Ab end
ur ement</w>
spec tac
4 4</w>
ent decken</w>
sub stances</w>
t oler
Un gleich
pro of</w>
pro file</w>
comp ly</w>
ersch einen</w>
L ord</w>
Materi alien</w>
L etz
B au</w>
reser ve</w>
ma ß</w>
l ass
int ellec
bes or
parall el</w>
out put</w>
Sch u
win digkeit</w>
li ste</w>
Asy l
K y
ay ed</w>
Ak te
r us
künf tig</w>
f it
Kon sequ
inc en
i -
Leit linien</w>
s ur</w>
Sp ann
ück e</w>
what ever</w>
Gen ehm
M ang
st res
Maß nahme</w>
ver änder
schließ t</w>
Nor den</w>
Davi d</w>
sem in
th e-
aff airs</w>
N L</w>
mo bility</w>
at e
Ver brechen</w>
beg onnen</w>
draw ing</w>
A gri
happ ens</w>
er öffnet</w>
ad en
valu able</w>
ff s</w>
Sch ool</w>
dis aster</w>
cross- border</w>
Wer k</w>
az z
host els</w>
appear ed</w>
Ambi ente</w>
kultur elle</w>
ent lang</w>
dan ger</w>
Nach frage</w>
Bi blioth
lar gely</w>
cre ative</w>
confir med</w>
An fragen</w>
inf o</w>
in zwischen</w>
presi dent</w>
recognis ed</w>
Cu stom
enter tainment</w>
applic able</w>
centr es</w>
führ ende</w>
fri end</w>
Wirtschafts -</w>
O hne</w>
eigen es</w>
bezieh ung</w>
tu t</w>
natur ally</w>
Völ ker</w>
tick et</w>
W here</w>
alb um</w>
Ru le</w>
dise ases</w>
renew able</w>
Wahr heit</w>
Landwir te</w>
vi erung</w>
produk te</w>
K ind</w>
Daten bank</w>
wesent liche</w>
O ld</w>
kün fte</w>
pa ir</w>
d rücken</w>
Saf ety</w>
D ort</w>
sch wei
fr aud</w>
m ari
enth usi
ass ist</w>
CO 2</w>
spar tei
ey e</w>
Pu er
zusätz lichen</w>
op posed</w>
Ged anken</w>
F ei
E ssen</w>
is ol
di r</w>
Hin der
men ten</w>
graphi c</w>
e as</w>
ö st
pro p
italien ischen</w>
In stead</w>
Ab sicht</w>
exclu sively</w>
ra c
d ining</w>
li erung</w>
coun ter</w>
bes ei
kurz em</w>
at oren</w>
Erwar tungen</w>
Minist er
A 3
staat liche</w>
b ou
wissenschaf tlichen</w>
person ally</w>
mar g
ch ain</w>
E ri
Beru fs
institution ellen</w>
et -
sp ring</w>
d ans</w>
Fern er</w>
ö sterrei
out door</w>
interessi ert</w>
ei ght</w>
automati c</w>
4 3</w>
W ash
Sch aden</w>
Jap anese</w>
Flü chtlin
reach ing</w>
char ges</w>
ati es</w>
Strateg y</w>
wat ers</w>
gen des</w>
Prü f
n de</w>
milli ons</w>
ras ch</w>
Y u
è s</w>
angem essen</w>
gen i
g ü
ent -
beauf trag
Minist ers</w>
bur den</w>
schön sten</w>
Phi li
man ager</w>
ev en
L O
offici als</w>
ern st</w>
woh l
mis s
den den</w>
US D</w>
installi ert</w>
ek en</w>
Entschei dungs
whi lst</w>
o st
D A</w>
bür ger
lei sure</w>
ali ze</w>
vol ume</w>
im pressive</w>
asi de</w>
ung ser
fa il</w>
thre at
fi es</w>
zentr alen</w>
ver ändert</w>
tr e</w>
ap est</w>
ausgest att
S au
Mittel punkt</w>
the at
ab s
heav y</w>
entwick elten</w>
determin e</w>
Swe dish</w>
be absich
invol ving</w>
C ri
än ger</w>
grundleg enden</w>
eh nt</w>
construc tive</w>
K auf
qu is</w>
ac comp
U. S.</w>
Entwicklungs ländern</w>
k amp
Sch wi
hosp it
fül lung</w>
Fischer ei</w>
alt a</w>
S par
be ge
sur v
nach zu
excep tional</w>
199 1</w>
Er leb
Op en
ti z</w>
K ategorie</w>
Exper ten</w>
M ed
pl en
increas es</w>
Host el
pi eces</w>
natür lichen</w>
cast le</w>
assi gn
198 9</w>
ä ten</w>
schwieri gen</w>
y le</w>
Altern ative</w>
jour ney</w>
Ko sten
rou gh</w>
su </w>
sa una</w>
m l</w>
Kap az
G ood</w>
neu esten</w>
ah nen</w>
hervorra gende</w>
Ang riff</w>
critic ism</w>
an er</w>
Sh op</w>
Schwe den</w>
y m</w>
lei sch</w>
y es</w>
wech sel
l ets</w>
Berat ung</w>
nä her</w>
hol ding</w>
cou ple</w>
rü stung</w>
off ices</w>
zweifel los</w>
loc ations</w>
enth al
Sch engen</w>
Ein stellung</w>
4 1</w>
tur ns</w>
co her
geförder t</w>
a ß</w>
es day</w>
Char ter</w>
B R
ini en</w>
St off
w us
pro ve</w>
equ ally</w>
dis cipl
beträ cht
besit zen</w>
amoun ts</w>
Inter ess
ei len</w>
am er</w>
c au
Verbesser ungen</w>
kost et</w>
freund lich</w>
ini ons</w>
Bei spiele</w>
low -
ausgezeichn ete</w>
Tag ung</w>
per form</w>
leb ens
ni emals</w>
mel den</w>
h ebung</w>
gr enzen</w>
Fo to</w>
prot ecting</w>
decor ated</w>
vor geseh
sat lan
Verk auf</w>
de par
B ay
zu erst</w>
de ad
comm and</w>
c old</w>
F A
zw ungen</w>
le aving</w>
Geor ge</w>
lo vely</w>
Engli sch</w>
ma y
e ast</w>
Nor men</w>
ra d
erheb lich</w>
V I
Speci al</w>
vil le</w>
mand ate</w>
Bade zimmer</w>
pass engers</w>
Dub lin</w>
erweiter t</w>
L os</w>
5 .</w>
g nen</w>
O ver</w>
Ab stimm
wachst um</w>
t ter</w>
bil dungs
be deuten</w>
west lichen</w>
ven tionen</w>
do kum
prä z
off enen</w>
best and</w>
tick ets</w>
remo ved</w>
obst ac
der ing</w>
coun tr
H an
resi dence</w>
ob tained</w>
M em
z ir
at ures</w>
Klim a</w>
Un gar
Reg ime</w>
20 12</w>
ent deck
N O
unmittel bar</w>
peop les</w>
par lament
ver trau
direc tives</w>
li efer
fin ished</w>
ungs ver
es n</w>
do ors</w>
Wech sel
bri ef</w>
schn elle</w>
teil nehmen</w>
h it</w>
1 1.</w>
organiz ations</w>
invol vement</w>
Zus ätz
we ather</w>
kri eg</w>
Wirk lichkeit</w>
tre at</w>
F enster</w>
wes halb</w>
Nah en</w>
tre aty</w>
par ks</w>
el er
La dies</w>
strateg ies</w>
pass word</w>
comm un
Ti ef
D onn
-Ster ne-
g a</w>
Can ada</w>
happ ening</w>
ap point
medi um</w>
be zug</w>
höch sten</w>
ch ap
T ar
Bu cht</w>
Bes or
einfa chen</w>
ent standen</w>
ti que</w>
prei s
f tung</w>
Struktur en</w>
fa ther</w>
ef t</w>
u ters</w>
pro ved</w>
g al
comb ating</w>
Proc ed
Th eir</w>
Rech ts</w>
Agrar politik</w>
Unter schied</w>
St atisti
ol o</w>
ausgezeichn eten</w>
allgem ein</w>
ä user</w>
p es</w>
dep ends</w>
Mün chen</w>
star ten</w>
kur ze</w>
berech tigt</w>
Sch la
k an</w>
par ents</w>
blu e</w>
g or
dies el
Aus stattung</w>
D oc
main tained</w>
f ted</w>
fle et</w>
fe e</w>
ey es</w>
i on
Bo den</w>
Web sites</w>
Vertei digungs
ver langt</w>
ban ken</w>
V an</w>
mark t
Zer ti
St ei
alis tischen</w>
P ay
f ern</w>
M obil
or -
n d</w>
feh l
W affen</w>
H it
Aut o
ti an</w>
remain ing</w>
contri butions</w>
al ed</w>
ro t
blo g</w>
Ab </w>
sc lub</w>
et ed</w>
en for
eich ern</w>
grundleg ende</w>
bemüh t</w>
H alb
zi ele</w>
US B</w>
Mo s
Tour ismus</w>
laun ch</w>
cre ates</w>
chin esischen</w>
auf zunehmen</w>
ul ts</w>
b all
Wal d
R S
defin e</w>
Ratsvor sitz</w>
Führ ungs
zi ert</w>
post -
organis iert</w>
Du sche</w>
Croati a</w>
produzi ert</w>
ursprün glichen</w>
stri c
di ed</w>
connec tions</w>
col our</w>
renov ated</w>
occa sion</w>
n ungs
in sp
ab road</w>
t edly</w>
sch ule</w>
balcon y</w>
aktivi eren</w>
Well ness
AN D</w>
kl assi
communic ations</w>
Por t
Empfeh lung</w>
mus ste</w>
Dor f</w>
Ap pl
masch inen</w>
Masch inen</w>
bahn hof</w>
v es
o k</w>
cap it
F lash</w>
Ac tion</w>
ar tigen</w>
tr äch
entscheiden d</w>
ign or
Gesch m
dischar ge</w>
V ision</w>
Fil m
fal sch</w>
am tier
Kohä sions
Telef on
in er</w>
D em</w>
sex ual</w>
Hostel sclub</w>
me at</w>
h all</w>
Bet re
Stell ung</w>
prepar ation</w>
sp anischen</w>
par am
räsi dent</w>
kon trolle</w>
drin k</w>
ch ers</w>
An bieter</w>
weis ung</w>
mean ing
issu ed</w>
Bestell ung</w>
pre t
er tes</w>
organiz ed</w>
n avig
leg ungen</w>
bri ef
o v</w>
get r
zugän glich</w>
rapporte urs</w>
certain ty</w>
tw o-
adv oc
GN U</w>
Ausgang spunkt</w>
divi ded</w>
10 -
restric tions</w>
as ing</w>
W are</w>
Ro bert</w>
Je des</w>
ries igen</w>
reser ves</w>
ob jek
k ämpfen</w>
har m
R evolution</w>
Bef u
mon um
di agno
K ing</w>
kt op</w>
ass ure</w>
surround ings</w>
require ment</w>
min uten</w>
Am ts
4 .</w>
tro p
ti erten</w>
resol ved</w>
hab t</w>
ge prä
Gesch le
ic kt</w>
Pfli cht</w>
Haf en</w>
a stri
S I
Kam era</w>
sa cht</w>
d ritte</w>
Kri min
Konfer enz
an wes
Über zeugung</w>
repe at</w>
St euern</w>
ic king</w>
do esn</w>
um zusetzen</w>
Problem s</w>
sch we
R ef
sch afft</w>
kehr en</w>
hand els
au l
ph en</w>
moder nis
coll ective</w>
G et</w>
sat zes</w>
mess ages</w>
ä us
k ir
ro ads</w>
pro hi
abgel ehnt</w>
K ann</w>
aut onom
Ko operation</w>
own ers</w>
Region al
pos ing</w>
own er</w>
lei den</w>
Künst ler</w>
Air bus</w>
deb ates</w>
Anwen dungs
defin itely</w>
ot te</w>
f itt
an ger
isch -
grat ulieren</w>
c able</w>
omm enen</w>
fa vor
der artige</w>
ó </w>
ot ten</w>
Krank heiten</w>
st opp
ber ge</w>
E Z
r ein</w>
bi ke</w>
Sta at
Projek ten</w>
wettbewer bs
identi fy</w>
P unkten</w>
verur sacht</w>
lau tet</w>
US S</w>
M -
ung sh
contrac ts</w>
0 4</w>
über nimmt</w>
D es</w>
regul atory</w>
re turned</w>
hö her</w>
tim edi
reg ularly</w>
Luxem bourg</w>
Bulg aria</w>
äh r</w>
li ers</w>
am b
classi c</w>
Ang st</w>
betreff enden</w>
Verbin dungen</w>
In don
op inions</w>
kon tinu
befür wor
Fr ont</w>
wirtschaf tlicher</w>
ti zen</w>
forder e</w>
Mitglied schaft</w>
Emis sionen</w>
prec ise</w>
invest ors</w>
foc used</w>
extre m</w>
C .</w>
vor genommen</w>
character istics</w>
c ement</w>
4 6</w>
wi tn
k y</w>
Ab schnitt</w>
wirk sam</w>
sug gest
s ligh
Musi c</w>
K e
4 7</w>
schaf tliche</w>
s amm
erlau ben</w>
hard ware</w>
funktion ieren</w>
resol utions</w>
on ing</w>
P RO
def end</w>
Ger äte</w>
Ab kommens</w>
v ast</w>
an statt</w>
zu legen</w>
ek ten</w>
Kommunik ations
wirk lichen</w>
wor se</w>
liber alisation</w>
lay ed</w>
Harmon isierung</w>
pp e</w>
er fahr
dri ver</w>
viel er</w>
Un der</w>
Po st</w>
verschied ener</w>
Erhol ung</w>
system en</w>
Ar z
wirk ung</w>
gef ähr</w>
R ub
Mac </w>
masch ine</w>
Sch ei
Al ter</w>
seh e</w>
S timm
Li ef
int end</w>
stit utes</w>
p h</w>
f aster</w>
Immobili en
la m</w>
bek ämpfen</w>
Dienstleist ungs
dro p</w>
M ens
ti erte</w>
th es
künf tigen</w>
europ a</w>
durch zuführen</w>
con serv
R -
Exec utive</w>
voll ständige</w>
oh n
contin ent</w>
ME Ps</w>
Frem den
transpor tation</w>
c les</w>
Jav a</w>
proper ties</w>
lat z</w>
Veranst altung</w>
Bra sili
Al li
kein es
gla d</w>
Geb rauch</w>
hund reds</w>
gi </w>
IC H
ut tle</w>
Far be</w>
r on</w>
re e</w>
am az
So vi
Bl ack</w>
invol ve</w>
cover ing</w>
conflic ts</w>
ab and
Kon trol
tic k</w>
pro ud</w>
frei wil
Be weis</w>
ch st
El tern</w>
Mar ina</w>
hei m</w>
be wäl
b un
Beh inder
le ben
Sp azi
zi eren</w>
z auber
un eingesch
sti l
car bon</w>
awar eness</w>
Wil l</w>
Kon kur
ver stärk
f em
eth nic</w>
ement ary</w>
ult in
Rumä nien</w>
ver st
top ic</w>
su ites</w>
ob li
im pression</w>
V .</w>
Li fe</w>
in ts</w>
Vi et
Net z</w>
rah men</w>
pl ays</w>
Aus führungen</w>
conduc ted</w>
Po lish</w>
Fähi gkeiten</w>
um geben</w>
s .</w>
realis tic</w>
low ak
e zu</w>
Ma astri
w u
m t</w>
erg riffen</w>
P lug
än gen</w>
k el</w>
An sch
reich ung</w>
pl ug
facilit ate</w>
ar ab
Ver ring
Gest altung</w>
jo ined</w>
Ho li
he ating</w>
gen er</w>
Entwicklungs länder</w>
l ots</w>
komm e</w>
oper ational</w>
Partn ern</w>
R and
n ische</w>
Wir d</w>
Qu ali
p ed</w>
en ergi
sinn voll</w>
sicher ungs
sich ere</w>
aufge fordert</w>
under stood</w>
se at</w>
gro w</w>
¤ </w>
vol unt
Proced ure</w>
in ations</w>
up dated</w>
frequ ently</w>
disp layed</w>
Verhand lungs
Re form
N ic
Aus nahme</w>
sett ings</w>
de als</w>
confir m</w>
Bo x</w>
m ol
g ers</w>
kontinu ier
be zahlen</w>
Geg end</w>
servi ert</w>
gl ück
dep ending</w>
Struktur fonds</w>
Slo v
li ft</w>
kur zen</w>
Bu chung</w>
re min
nachhal tigen</w>
la stung</w>
famili ar</w>
e -</w>
am i</w>
Ratspräsi dentschaft</w>
kurz fris
exp lic
schlä gt</w>
perform ed</w>
ni ghts</w>
produc tive</w>
Konfli kt</w>
pre dic
L as</w>
5 2</w>
effectiv eness</w>
ed ing</w>
Änderungsan trägen</w>
minist ers</w>
prin ting</w>
. 000</w>
pro v
lic ense</w>
in habit
fir stly</w>
Aus stellung</w>
Elem ent</w>
. org</w>
Stra ß
mo stly</w>
Überein stimmung</w>
klar en</w>
ati ver</w>
Kro ati
Ad v
ehr gei
G a
im es</w>
S eg
star ts</w>
ma chte</w>
i o</w>
ver wand
phen om
gesp eichert</w>
ann ehmen</w>
O s</w>
Au stausch</w>
- to-
vis ual</w>
al co
Program men</w>
u. a.</w>
Institu tion</w>
A ward</w>
cust oms</w>
ak tiven</w>
N ein</w>
L t
av ec</w>
ant es</w>
Ä r
d ating</w>
Vorsch lägen</w>
t ari
steh ende</w>
besch ränkt</w>
T isch</w>
ot echn
Th omas</w>
Fit ness
mi d
dem anding</w>
aus geschlossen</w>
some what</w>
Nach richten</w>
er ör
K üh
ici p
co ast
T est</w>
St är
Sec ond</w>
Schwer punkt</w>
letz t
fav our
electri city</w>
num mer</w>
Vie w</w>
M esse</w>
compani ed</w>
Host els</w>
B la
eign et</w>
Sub si
Mon etary</w>
ut ing</w>
ru b
eb ene</w>
ver bringen</w>
un for
ro ck</w>
er mu
ans wers</w>
18 .</w>
9 -
österrei ch
fes tival</w>
Um gang</w>
vor her
min ority</w>
clu bs</w>
n etz
inter ior</w>
Wash ington</w>
ultim ately</w>
früh eren</w>
decision- making</w>
Geschäf te</w>
uni versal</w>
notwen dige</w>
cle ar
ak tionen</w>
not ed</w>
k rank
interess ante</w>
gh ter</w>
Sa una</w>
zü ge</w>
onym ous</w>
m utz
beglück wünschen</w>
durch führen</w>
Stra ßen</w>
spra ch</w>
z -
dat en
T om
Re al</w>
M ann
Ameri kan
Aus führung</w>
mo dule</w>
ma gnific
Schn itt
Sat ur
Gent oo</w>
E D</w>
h t
emer gency</w>
b lood</w>
li brary</w>
Dritt ens</w>
sch icken</w>
Ph one</w>
lie ß</w>
Stru c
Somm er
L as
Wissen schaft</w>
sub mit</w>
ge ographi
techni ques</w>
schie det</w>
Schlaf zimmer</w>
H all</w>
pal ästinens
Kilom eter</w>
D ek
ß te</w>
mor al</w>
B ol
me ant</w>
anspru chs
Brazi l</w>
imp lic
erreich bar</w>
he ber
ben utz
w asser</w>
id ly</w>
Mens ch</w>
verab schiedet</w>
person nel</w>
is er</w>
gelief ert</w>
Whe ther</w>
ra k
SM Es</w>
E t
C yp
so dass</w>
UN -
zu lassen</w>
t reiben</w>
dri vers</w>
ein gericht
Ma ß</w>
Fr amework</w>
lo h
an wen
th il
ru m
ex ter
bure auc
provi der</w>
Arbeitsplätz en</w>
Ur spr
D ynam
in flation</w>
C ook
zug unsten</w>
parli aments</w>
lo unge</w>
T yp
Über setzung</w>
hervor heben</w>
besch le
star s</w>
Dritt ländern</w>
Deut schen</w>
5 1</w>
pro mp
gi gen</w>
spartn er</w>
F err
wel fare</w>
met al</w>
A do
einzigar tige</w>
is lands</w>
bestä tigen</w>
zu ständigen</w>
P et
g age</w>
Mex ico</w>
C D-
Ab hängi
Sch ü
Rep res
host el</w>
angemess ene</w>
report ed</w>
ac companied</w>
verhin dert</w>
u a</w>
geh ende</w>
ie den</w>
aus gesprochen</w>
Investi tions
statis tics</w>
aus gesetzt</w>
pre fer</w>
chem ical</w>
care er</w>
nor thern</w>
Lu ft</w>
te ams</w>
s auber
grat eful</w>
geh and
M eg
ech tigkeit</w>
S emin
Prin zipien</w>
Gleich gewicht</w>
re di
promis es</w>
follow s</w>
S ha
Kompon enten</w>
Plan ung</w>
Cyp rus</w>
th i
w inner</w>
res tru
contr ast</w>
lo oked</w>
lag s</w>
fac ts</w>
vor her</w>
russ ischen</w>
vis ited</w>
Ra dio</w>
wei le</w>
of s</w>
blo ck
Besonder s</w>
Fak toren</w>
t ler</w>
maler weise</w>
ge prüft</w>
ul ated</w>
subsi dies</w>
E s
wor l
ung sch
bo und</w>
de cre
wind ows</w>
Y es</w>
Verring erung</w>
Wer bung</w>
val ley</w>
relax ation</w>
Al les</w>
k ern
R em
passi ert</w>
deli ghted</w>
aci ón</w>
An d
Indon es
Über setz
Bezieh ung</w>
far m</w>
T enn
R und
Portu gu
A ni
win es</w>
inv ite</w>
mass age</w>
stu dio</w>
läss lich</w>
be vorzu
Vereinbar ungen</w>
V iz
auf nehmen</w>
wom an</w>
ir s</w>
indic ated</w>
cor ner</w>
cont acts</w>
Bei träge</w>
e astern</w>
m ultin
fis her
er läu
Geri chte</w>
p m</w>
m essen</w>
i ko</w>
Transpor t
Ch urch</w>
un möglich</w>
sp ei
Außen politik</w>
ver gleich
perc ent</w>
ent wurf</w>
Op tionen</w>
Di alog
Wer t
K er
s ac
W ein</w>
A U
terror ist</w>
feh lt</w>
chann els</w>
Son ne</w>
defin iert</w>
Schl uss</w>
Plen um</w>
Gesell schaften</w>
rä umen</w>
arri ve</w>
fli ghts</w>
My SQL</w>
Be dien
verring ern</w>
l ec
em enti
shor t
new ly</w>
g old</w>
I .</w>
conci liation</w>
Hei mat
G lei
t ats
gef as
Hand eln</w>
7 2</w>
the ore
func tioning</w>
cor ruption</w>
S aint</w>
Cop enhagen</w>
tour ists</w>
te en</w>
recommend ation</w>
höh eren</w>
be an
V el
sign s</w>
ent steht</w>
Ein stellungen</w>
Chin as</w>
vis iting</w>
ra el
exc iting</w>
P in
Fr on
stor ed</w>
ig t</w>
bur ger</w>
R ek
Je de</w>
Fest legung</w>
zi ge</w>
vis a</w>
li sts</w>
judi cial</w>
activ ely</w>
Fir men
sch einen</w>
Zus atz
L E</w>
wid ely</w>
vac ation</w>
fe ed</w>
struktur en</w>
in ser
R oll
Bud apest</w>
mat ch</w>
durch schnitt
&apos; ve</w>
tar get
Platt form</w>
Con gress</w>
wel chem</w>
S z
li st
entran ce</w>
Gesprä che</w>
declar ed</w>
cos y</w>
sch ritt
fir ms</w>
Re port</w>
Dro gen
D ou
B and</w>
st au
m un
verlei hen</w>
kat astro
en ne</w>
dire kten</w>
des k</w>
car eful</w>
im posed</w>
d. h.</w>
bilater al</w>
Wün sche</w>
U -B
Mor gen</w>
poll ution</w>
Geh eim
show ing</w>
amm er</w>
Indi vidu
E dition</w>
schle cht</w>
cro ss</w>
T O
Ex pl
wün sch
Hei m
satis fied</w>
il er</w>
expl ore</w>
8 6</w>
f lug
er leich
co ok
Fri day</w>
C N
inhabit ants</w>
after noon</w>
Bemerk ungen</w>
gar dens</w>
au ern</w>
un gefähr</w>
t wi
sti g</w>
is tic
invol ves</w>
uni versi
m ar</w>
ver ändern</w>
f ot
Pra gue</w>
Neu e</w>
Garanti e</w>
A re
Ac t</w>
gest altet</w>
con figuration</w>
Aus gabe</w>
2. 0</w>
j ap
demonstr ated</w>
yst em</w>
speak er</w>
p -
loy ment</w>
lich sten</w>
exper t</w>
recht liche</w>
Nor di
Br and
y ers</w>
winn ing</w>
v ölk
restru c
geb oren</w>
Tre k</w>
E d
N och</w>
äum en</w>
tats äch
m assi
em en</w>
gehöri gen</w>
Ear th</w>
Ado be</w>
form al</w>
smit gli
nah me
k amen</w>
Regierungs konferenz</w>
mo tiv
Z ul
P O
Ak tion</w>
woll ten</w>
Ne ws</w>
ü ssen</w>
occ ur</w>
in en
erleich tern</w>
Per haps</w>
her itage</w>
ausge führt</w>
Son y</w>
L oun
di ch</w>
declar ation</w>
p ft</w>
main taining</w>
ass ets</w>
nah ezu</w>
expan sion</w>
Prot ection</w>
gebi ete</w>
sorgfäl tig</w>
new sp
Minder heiten</w>
intellec tual</w>
compet ent</w>
Per sön
K ön
Zentral bank</w>
Vertei digung</w>
Des wegen</w>
is rael
Haf tung</w>
l ying</w>
F unds</w>
tro ub
fashi on</w>
Zi ffer</w>
transi tion</w>
pl ate</w>
ear th</w>
collabor ation</w>
re ject</w>
begrü ßt</w>
d ol
A h
Gi ven</w>
on going</w>
ex klusi
acc o</w>
St ück</w>
pl enty</w>
ist a</w>
N on-
schl ag
mot or</w>
avo i
Sovi et</w>
Jus tiz</w>
Be am
sec on
ori ented</w>
pp en</w>
Kur z
D ri
es que</w>
Bal tic</w>
remo te</w>
Res ol
quar ter</w>
k raten</w>
hinzu fügen</w>
func tional</w>
demonstr ate</w>
um in
mitt ler
Wei ß
J e</w>
te a</w>
ran g</w>
benef ici
sett lement</w>
resist ance</w>
fizi eren</w>
dr au
ag ers</w>
eed ed</w>
Ver bot</w>
high- quality</w>
gew inn
geh ens
ell ers</w>
Veröffent lichung</w>
Grün dung</w>
x es</w>
sti ll
ent es</w>
W illi
Sor gen</w>
L ö
stri ct</w>
C l
un ent
them e</w>
präsen tieren</w>
ectiv ely</w>
12 .
sol ange</w>
Ar ab</w>
überzeu gen</w>
ling s
Tra g
si ght</w>
po t
è re</w>
P ort</w>
Fac ili
An merk
ck er
chann el</w>
bem ühen</w>
letz tlich</w>
bes timmen</w>
E M</w>
me e</w>
gr ü
fit ness</w>
spo ken</w>
rap idly</w>
A sh
traff icking</w>
facili ty</w>
besteh ende</w>
förder t</w>
am p</w>
Daten schutz
appear ance</w>
ap s</w>
Ver pack
docum entation</w>
Soll ten</w>
perf ekt</w>
eri en</w>
R om</w>
N am
я </w>
è </w>
sty lish</w>
heu tige</w>
Mark tes</w>
B is
B IP</w>
view ed</w>
on er</w>
committ ees</w>
Stu denten</w>
Ein beziehung</w>
st ück</w>
ge fügt</w>
ban k
Ar t
de partment</w>
Ques tion</w>
O r</w>
Chanc en</w>
kri ti
tu ally</w>
gener ated</w>
R est</w>
z e
wh ol
pass enger</w>
ge zwungen</w>
aussch uß</w>
th and
record ed</w>
ig keiten</w>
ur ies</w>
regar ded</w>
ra w</w>
Portugu ese</w>
Ch arta</w>
sätz en</w>
Zy per
Mo z
Mo bile</w>
Kontak t
educ ational</w>
dist ingu
15 .</w>
ru g</w>
fil ms</w>
ei ra</w>
arti st</w>
stra h
kü mm
den z</w>
conclu ded</w>
ver ehrte</w>
pos sibly</w>
oh n</w>
l ust</w>
ta gen</w>
s ach
ch air
Ad di
wach sen</w>
eb t</w>
Um feld</w>
Sk ype</w>
gel tenden</w>
Ins besondere</w>
t ack
sk o
Subsi diar
l li
justi fied</w>
shar ing</w>
Soll te</w>
KM U</w>
-F i</w>
wer tung</w>
Li cht
Des cription</w>
Ma j
Host el</w>
Mark eting</w>
m use
gr ant</w>
awar ded</w>
ex it</w>
Appl ause</w>
contain ing</w>
c utting</w>
argum ent</w>
la sting</w>
countr y
au er
bot tom</w>
st eigen
H en
tä ten</w>
Mo bilität</w>
E-Ma il-
boo t</w>
i ti</w>
J ames</w>
ver zi
v ar
hi ll
M all
re placed</w>
pic tur
erinn ert</w>
ap art</w>
on ien</w>
mi x</w>
ma kers</w>
t ö
ier enden</w>
i chten</w>
found ation</w>
unn y</w>
sch auen</w>
ha ir</w>
Aufenth al
Wi th
Tel ek
vor legen</w>
ex por
ak ter
5 4</w>
Balk on</w>
akzept abel</w>
Prei sen</w>
M es
zeich nis</w>
uli ert</w>
dep th</w>
bri tische</w>
fern er</w>
il ed</w>
ev al</w>
sk a</w>
verschied en
um ini
gh ly</w>
ges u
ber aten</w>
re plac
ni er</w>
emerg ing</w>
dür fte</w>
Web seiten</w>
individu elle</w>
fac tory</w>
Ziel en</w>
or ts</w>
ali for
d ation</w>
lok ale</w>
plan et</w>
des ired</w>
ti s
t owns</w>
g allery</w>
drück t</w>
D al
mo ther</w>
li z
Euro zone</w>
f a</w>
P lus</w>
Identi tät</w>
sta at</w>
installi eren</w>
con tradi
Autom obil
kar ten</w>
Untersu chungen</w>
Eng ine
B C</w>
fre m
Vor gehen</w>
F ru
Berei t
ähr t</w>
resp ected</w>
jeg liche</w>
over come</w>
cop yright</w>
assu me</w>
z ungen</w>
s aving</w>
Ver sionen</w>
Hung ary</w>
äuß ert</w>
zu gang</w>
v an
ameri ka</w>
E duc
st em</w>
se where</w>
T own</w>
Frei heiten</w>
min orities</w>
lief ert</w>
ab gestimmt</w>
Kommission s
tack le</w>
ro utes</w>
re form
credi bility</w>
verk aufen</w>
spectac ular</w>
i ere</w>
ver dient</w>
Selbst verständlich</w>
P ower</w>
Nor thern</w>
Mass en
Vorsch lags</w>
Puer to</w>
di t</w>
woh nen</w>
par tly</w>
certi fic
bl ing</w>
erfolgrei che</w>
profession als</w>
an f
Tra ining</w>
De fiz
o ten</w>
n y</w>
he at</w>
determin ation</w>
Up date</w>
cri mes</w>
M B</w>
Comp uter
satisfac tion</w>
organis ieren</w>
it al
vis ory</w>
übri gens</w>
stron ger</w>
fl at</w>
ein ig</w>
Men sch
p ed
Belgi um</w>
er setzt</w>
ac ted</w>
New sletter</w>
Im pl
spann ung</w>
W omen</w>
F ischer</w>
über sch
tor al</w>
pu ts</w>
proz esses</w>
entscheiden de</w>
bem erk
Sign al</w>
Krä fte</w>
Ex p
Wer ke</w>
I mm
G las
Bar s</w>
größ er</w>
dire kte</w>
bet rieben</w>
ul ating</w>
am t</w>
individu ellen</w>
an di
Stock hol
Kons ens</w>
Gericht shof</w>
trans actions</w>
occa sions</w>
verur teilt</w>
programm s</w>
verk auft</w>
Arbeits markt</w>
vorhand enen</w>
ser ving</w>
sch eme</w>
gel n</w>
Poli tiken</w>
vis ed</w>
o th</w>
mar quis</w>
gn ü
entwick elte</w>
Di ffer
A ID
Ger man
zus ehen</w>
Mitarbei tern</w>
zentr al</w>
tran satlan
N ob
Asi en</w>
im migrants</w>
di ver
Ver breitung</w>
en es</w>
bezieh ungen</w>
Studi en</w>
ier ende</w>
high ligh
einhei tlichen</w>
manufactur er</w>
dau er</w>
dan k
Net work</w>
reduzi eren</w>
li erte</w>
es cap
correc tly</w>
beru ht</w>
Re de
O der</w>
K lasse</w>
ess enti
ed -
as sum
gün s
gewähr t</w>
P act</w>
eth eless</w>
enst adt</w>
bo ten</w>
Wi thin</w>
6 .</w>
off ic
er schi
Amend ments</w>
glau b
enjo yed</w>
Kon stru
äuß ern</w>
re cip
erheb liche</w>
S how</w>
week end</w>
vor stellen</w>
pro du
cas h</w>
begren zt</w>
Zw ecke</w>
Vide o
ahr t</w>
An schluss</w>
bek annte</w>
arri ved</w>
W ell</w>
E X
E V
strateg ischen</w>
Besor gnis</w>
üh r</w>
br ut
Krank heit</w>
Des k</w>
quar ters</w>
grundsätz lich</w>
G -
n on</w>
ie ßen</w>
Nach richt</w>
y o</w>
geh enden</w>
ear n</w>
sel be</w>
Wi -Fi</w>
in klusive</w>
Sp ace</w>
IT -
le u
to s</w>
sligh tly</w>
bek ämpfung</w>
adju st
Israel i</w>
D enk
k g</w>
é es</w>
zu fried
val ent</w>
rück e</w>
mil es</w>
a gem
Z eu
F ood</w>
Can on</w>
ch est
correspon ding</w>
r ental</w>
auth en
ad ults</w>
f ans</w>
Städ ten</w>
Fr au
s ending</w>
ab gesch
Vor stellung</w>
speci ally</w>
Fol lowing</w>
D on</w>
y r
legitim ate</w>
drin ks</w>
bi </w>
Einwander ung</w>
E P
k on</w>
ent ary</w>
constitu tional</w>
A ssi
z ten</w>
P age</w>
sich eren</w>
acknow led
S ein</w>
Gol d
Gewi cht</w>
l ers</w>
- based</w>
ver an
ti ere</w>
Kapit el</w>
t ap
ch amp
C R
soli d</w>
gän ge</w>
con fer
subsi di
er ity</w>
compon ent</w>
Fre unden</w>
beschäf tigen</w>
inform ationen</w>
ruhi g</w>
einfach er</w>
Kon zep
Hoh en</w>
los ses</w>
genü gend</w>
f ur</w>
subsi diar
y outh</w>
az za</w>
е н
· </w>
shar es</w>
nun mehr</w>
distri buted</w>
be u
an ni
Ex tre
D res
Bedroh ung</w>
Re duzi
P lätz
mi et
fäl lig</w>
supp liers</w>
groß zügi
Tai wan</w>
mar ri
Th urs
ber ühr
provi ders</w>
subsidiar ity</w>
ban king</w>
b atter
oh len</w>
offizi ellen</w>
k lim
Schul en</w>
p unk
ehol ders</w>
ange gebenen</w>
Vide os</w>
O l
sen sible</w>
zi el</w>
pf lan
en kt</w>
H eili
destru ction</w>
cu ts</w>
Her b
is mus
en de
O F</w>
eg al</w>
J ed
ni veau</w>
magnific ent</w>
identi fied</w>
stan z</w>
T ext
Bemerk ung</w>
th ly</w>
lä ßt</w>
j enen</w>
di vision</w>
constitu tion</w>
Z one</w>
w rote</w>
hin aus
cir cul
D ach
vi </w>
E B
s q
T ER
fant as
effek tiv</w>
up dates</w>
ll er</w>
ci an</w>
K urs</w>
we ar</w>
ier ter</w>
be währ
S amm
PP E-
tax ation</w>
M alta</w>
air -
Erzeu gnisse</w>
Ha ar
Energi ever
am ed</w>
System en</w>
7 .</w>
zusammen arbeiten</w>
addres ses</w>
With out</w>
Atlan tic</w>
mari time</w>
en em
el sewhere</w>
aus sprechen</w>
Selb st</w>
interpre tation</w>
behavi our</w>
ô tel</w>
wer ken</w>
sch ed
ig es</w>
consider ing</w>
Proto k
Ju li
liber al</w>
glob alisation</w>
event ually</w>
gr ati
Au ge</w>
vor bereitet</w>
Woh nung</w>
L ar
m ein
außerord entlich</w>
W iss
N I</w>
Europ ol</w>
gef angen</w>
französ ische</w>
exc eption</w>
we ge</w>
der er</w>
Bel ast
B rei
ver stärken</w>
st ag
V AT</w>
ens ures</w>
Joh ann
Benutz er
sec ret</w>
ta st
Mar ke</w>
Zusätz lich</w>
Stand or
mil k</w>
herr scht</w>
gew onnen</w>
ges s
electri c</w>
du l</w>
erfolgrei chen</w>
F a
A D</w>
verbin den</w>
ul ations</w>
ex ports</w>
Hau p
C hil
bel ast
kilom et
7 1</w>
Th ail
zei ge</w>
int -
ap p</w>
ak ing</w>
Wachst ums
Sch lu
yo to</w>
b attle</w>
ge bieten</w>
dom ain</w>
Ern ähr
D ER</w>
Be au
leh nung</w>
l y-
K en
Gr an</w>
6 8</w>
strai ght</w>
Pre mi
net er</w>
Struc tural</w>
Kontrol len</w>
Hung arian</w>
F ig
tradition elle</w>
re b
prepar ing</w>
bek räf
gest attet</w>
S V</w>
extra ordinary</w>
encour aging</w>
Sun day</w>
N ig
Lu f
jen er</w>
Vier tel</w>
ex emp
e at</w>
Arz nei
unver züglich</w>
er hielt</w>
K auf</w>
Ein w
m ern</w>
Val ley</w>
Mis sion</w>
her zustellen</w>
Komm un
er lebt</w>
Per form
stre ben</w>
h ü
decisi ve</w>
Dol om
sch m
o tive</w>
la ys</w>
gra f
Blo g</w>
5 3</w>
propos es</w>
Thir dly</w>
F as
Ex ist
17 .</w>
einger eicht</w>
den kt</w>
p or</w>
cour ts</w>
Eisen bahn
wiederhol en</w>
n am</w>
a qu
verantwor tungs
person en
G au
5 6</w>
Wohl stand</w>
Nach hal
si st
Sek toren</w>
li ked</w>
M erc
ven tion
ungs verfahren</w>
lo ck</w>
ain ing</w>
Balk ans</w>
sc ene</w>
b sp
Is lam</w>
vulner able</w>
mp ft</w>
defic it</w>
coll ap
Char les</w>
wissenschaf tliche</w>
gener ate</w>
dis k</w>
an gewand
Salz burg</w>
Internet -
fu sion</w>
et ter</w>
Geb ur
sta un
en cing</w>
fün f
Bild schir
schn ei
hi p</w>
ci tizen</w>
ar my</w>
Y ear</w>
Bereit stellung</w>
Pot enzi
Ein kommen</w>
alco ho
Vor der
did n</w>
Distri bution</w>
6 6</w>
every day</w>
Er stellung</w>
un ning</w>
lab el</w>
Vor sitz</w>
Li ke</w>
viel es</w>
enh ance</w>
Dem on
nom in
ge fallen</w>
entscheiden der</w>
f ast
enth alt</w>
shor t-
bei getragen</w>
af for
wür digkeit</w>
top ics</w>
sur ely</w>
kri eg
iz za</w>
fil ter</w>
besch rieben</w>
Lief erung</w>
H imm
Beschl uss</w>
plen ary</w>
h am
s low</w>
complic ated</w>
sub stance</w>
pack aging</w>
im por
groß em</w>
zu tage</w>
schätz ung</w>
zügi gkeit</w>
utt gar
illu str
luxuri ous</w>
uni versity</w>
port al</w>
p ar</w>
Ent fern
t on
su gar</w>
enk ung</w>
en cia</w>
Tour isten</w>
Pak ete</w>
L ok
supp lies</w>
bon us</w>
U C
ru f</w>
fer tigen</w>
ähn lich</w>
spo ke</w>
finanzi ert</w>
Sp aß</w>
Ein heit</w>
less ons</w>
in dex</w>
accur ate</w>
C it
inv est</w>
W LAN</w>
vir tual</w>
Cli ent</w>
inclu sion</w>
a .
kl eines</w>
fa ßt</w>
auth ori
N os</w>
Minister p
§ </w>
exam ine</w>
Ungar n</w>
20 -
direc ted</w>
The ater</w>
Ex change</w>
Män nern</w>
r d</w>
bis lang</w>
Ass embly</w>
conn ect</w>
8 .</w>
pro ven</w>
wunder schönen</w>
Kom pl
St uttgar
Katastro phe</w>
Schluss folgerungen</w>
O s
B lan
d as
ar ise</w>
Er inn
ti l
Ma in</w>
stan de</w>
speci fied</w>
elektron ischen</w>
pat ent</w>
bestimm ter</w>
exc essive</w>
Thurs day</w>
Gar den</w>
CO N
therap y</w>
t liches</w>
s elling</w>
mit gli
ver hand
Mang el</w>
ut ation</w>
beteili gen</w>
Regier ungsch
vide os</w>
the ory</w>
en abled</w>
Er wä
Sta ates</w>
Qu ad
G lau
An sichten</w>
auf s</w>
appoint ment</w>
thil fe</w>
suff er</w>
integri ert</w>
F al
ver mitteln</w>
EN T
A ca
steh e</w>
im pose</w>
P rem
concep ts</w>
Li ve</w>
sel s</w>
at tri
16 .</w>
K yoto</w>
ren owned</w>
erzeu gt</w>
al itäten</w>
Ko oper
A mon
abs ence</w>
st olz</w>
fer nen</w>
de posit</w>
be fri
revol u
kon fron
ri de</w>
einzigar tigen</w>
ber at
for schung</w>
for ests</w>
s ung</w>
Genehm igung</w>
Brasili en</w>
men ade</w>
Ü bri
unver gess
shi pping</w>
ch ester</w>
adop ting</w>
Gl ück
descri ption</w>
Bi o
zi elen</w>
Sicher ung</w>
hund red</w>
Ein wohner</w>
Ci vi
Ä gyp
on e
great ly</w>
den de</w>
Medi en
Kon text</w>
B in
Dig ital</w>
gebo ten</w>
ge kenn
aus ger
sav ings</w>
geb rau
S imp
Polizei </w>
p ing</w>
mensch liche</w>
hous ing</w>
gi o</w>
direc tory</w>
Zwei </w>
V ater</w>
proc eed</w>
f lows</w>
am m</w>
Pat ri
zi vi
tiv ely</w>
st euer</w>
di n</w>
anc ing</w>
BM W</w>
verbin det</w>
sim ult
dru g</w>
ab use</w>
Rechts grundlage</w>
Kon to</w>
tradi tions</w>
her vor</w>
cent uries</w>
anwes end</w>
W äl
Mon it
L ad
C ir
inves tieren</w>
k illed</w>
hand le</w>
fin ish</w>
car rying</w>
res ear
n ör
cour age</w>
ange geben</w>
fr ame</w>
Bes ides</w>
depar ture</w>
appl ying</w>
ach ing</w>
spar en</w>
won der</w>
sugges tions</w>
sp er
sol ches</w>
s .com</w>
eb </w>
pf ung</w>
ein m
g ained</w>
Vol k
Kons ult
in k
La w</w>
volunt ary</w>
gef äl
for th
unic ations</w>
Mod elle</w>
Gra d</w>
ver än
unfor get
sol ely</w>
propos ing</w>
f es</w>
D N
ra ising</w>
p ac
vill ages</w>
si t</w>
hol ds</w>
country side</w>
ab sor
E p
B O
sub jects</w>
Konsequ enzen</w>
bed ing
Gu ests</w>
G ames</w>
po t</w>
Str as
S ie
Loun ge</w>
Ima ge</w>
Dat ei
pan oram
bel angt</w>
Ma il</w>
L y
ver halten</w>
dr ing
U M
CO M</w>
Provin z</w>
tri al</w>
pay ing</w>
du ties</w>
beh örde</w>
supp lier</w>
A C</w>
t es
stra fe</w>
ot ing</w>
C up</w>
Dar um</w>
not es</w>
einge halten</w>
col ours</w>
Ger ät</w>
ger ät</w>
arti stic</w>
vor rangi
ub </w>
M isch
D auer</w>
horiz ont
Num mer</w>
berei chen</w>
represent ation</w>
o zone</w>
er stre
Ham as</w>
5 9</w>
E W
wei len</w>
co w</w>
ge wissen</w>
z onen</w>
sch em</w>
n ers</w>
bedau er
W o</w>
C S</w>
in ess</w>
p us
or i</w>
eh </w>
R ap
F ax</w>
Elek tro
Bud get</w>
zu lässi
thous and</w>
d able</w>
behand lung</w>
beantwor ten</w>
philosoph y</w>
lau b</w>
S har
se -
B ang
v on
individu ell</w>
Posi tionen</w>
Al ter
о в
tr end</w>
gr ös
coun ts</w>
S et</w>
Proz esse</w>
Bo den
pursu e</w>
muse ums</w>
To ols</w>
t ables</w>
ech ische</w>
cons ent</w>
Beschl üsse</w>
ähn liche</w>
ne vertheless</w>
ex trac
R ö
Holi day</w>
weit gehend</w>
afri ka</w>
Comm un
Betra g</w>
man che</w>
gesch ichte</w>
compar ison</w>
bereit gestellt</w>
Lissab on-
promis ed</w>
c ei
Land es
ü bt</w>
tri ps</w>
Maastri cht</w>
Kroati en</w>
reserv ations</w>
inter nen</w>
10 0
recei ving</w>
em m
Wäh len</w>
Viz ep
beob achten</w>
L ay
T reib
komm un
ent rep
Schwi mm
gen ehm
bedeut ende</w>
Glaub würdigkeit</w>
ge führten</w>
in put</w>
in mitten</w>
S mo
R ati
inv ited</w>
Egyp t</w>
zi el
beg eist
k lin
S w
H aving</w>
wiederhol t</w>
she et</w>
mus sten</w>
ger äte</w>
d ella</w>
difficul ty</w>
ro ot</w>
or ama</w>
gestell te</w>
ani an</w>
zu ständig</w>
tob acco</w>
4 0
effizi ent</w>
T on
Dire k
be ut
ast ers</w>
Über legungen</w>
vor anzu
ski ing</w>
a ward</w>
P fer
port folio</w>
is ite</w>
be kommt</w>
Prem ier
Comm er
jur is
ber gen</w>
M ir
Park platz</w>
ma chten</w>
Kop f</w>
mittl eren</w>
ehr ten</w>
ausge zeichnet</w>
P eri
Kultur en</w>
sozi aler</w>
entsp annen</w>
athed ral</w>
Ver zö
Tro tzdem</w>
Islam ic</w>
G anz</w>
ss er</w>
lauf enden</w>
an belangt</w>
Kontak te</w>
pl atte</w>
ag ent
9 2</w>
erst mals</w>
über prüft</w>
Z ahl
Sch ne
Leg al</w>
Zivil gesellschaft</w>
Qu ality</w>
I W
z in</w>
suggest ed</w>
al ties</w>
Reduzi erung</w>
Gegen stand</w>
Bulg arien</w>
no tic
d ul
S t</w>
S A</w>
chter t</w>
Su iten</w>
E I
r or</w>
langfris tige</w>
G ast</w>
5 8</w>
it ten</w>
Situ ated</w>
Ch eck-
Cast le</w>
p ure</w>
ein bezogen</w>
alis ierten</w>
Kor ruption</w>
B ut
x el</w>
prosp erity</w>
problem e</w>
A th
ö r</w>
po ols</w>
bab we</w>
ar gu
Ver trau
x e</w>
ursprün glich</w>
ou b
Con su
mo dell</w>
Agri culture</w>
4- 0
por ation</w>
ten nis</w>
langs am</w>
gebil det</w>
Play a</w>
um p</w>
rel ative</w>
dis abled</w>
Menü </w>
isl am
Mr d.</w>
Mon day</w>
G ut
produc tivity</w>
Geh minuten</w>
tra ge
fu er</w>
fer tig</w>
au ff
argum ents</w>
ar ity</w>
perio ds</w>
optim ale</w>
Schl üssel</w>
Gl ück</w>
Prof essor</w>
Bo ot
An lass</w>
ä fen</w>
well- known</w>
wel coming</w>
hy dro
h en
Mr .</w>
Geschm ack</w>
ein zur
dep end</w>
del icious</w>
S ad
wel com
reduzi ert</w>
necess arily</w>
ge dacht</w>
attemp ts</w>
an dern</w>
F ast</w>
ur teilung</w>
K O
C F
Gef ahren</w>
pati ent</w>
gesund heit</w>
enh aus</w>
Konkur ren
B ased</w>
confir mation</w>
Bud gets</w>
arbei ts
Brow ser</w>
mi d-
Americ ans</w>
wirtschaf tlich</w>
demo kraten</w>
we ak</w>
gar ten</w>
Vor haben</w>
Energi en</w>
sp eichern</w>
fahr er</w>
clean ing</w>
anges ehen</w>
refer endum</w>
Slo ven
A M</w>
stre am</w>
rec y
Kolleg in</w>
Deb i
Stoff e</w>
le aves</w>
religi on</w>
im port</w>
hi ll</w>
dau ert</w>
E T</w>
Da für</w>
geh ol
Gewähr leistung</w>
oll s</w>
a ge
Stras bourg</w>
wirtschaf ten</w>
ver teilt</w>
Eigent um</w>
lay er</w>
d less</w>
wen ig
aus gerichtet</w>
Lebens mittel</w>
un ited</w>
sho t</w>
est a</w>
A R</w>
ge pf
ed y</w>
auf treten</w>
G ö
st sein</w>
enab ling</w>
über greif
over view</w>
letzt endlich</w>
im ports</w>
et ab
Ti p</w>
E A</w>
sover eign
hom es</w>
far ming</w>
et a</w>
bet reiben</w>
10 .</w>
o d</w>
ge plan
al g
Sch en
D O
App le</w>
zentr en</w>
weis ungen</w>
wä s
per mitted</w>
eg elt</w>
beein träch
Kör per
angebo t</w>
P ur
© </w>
f en
S our
wa ve</w>
vers ary</w>
in y</w>
air e</w>
lob by</w>
dre am</w>
entsch lossen</w>
w ahl
so unds</w>
re tt
behaup ten</w>
Lat e
ordn ungen</w>
best ell
Pl ace</w>
ausge geben</w>
al located</w>
ak tion</w>
är kt</w>
m ens</w>
estim ated</w>
Schiff e</w>
Mill enni
Ver lust</w>
Ter rit
verkehr s</w>
tä glichen</w>
poli tically</w>
constitu te</w>
Ger ade</w>
test ed</w>
Aut or
zukünf tigen</w>
soci eties</w>
H under
J ack
-Sterne- Hotel</w>
vi eren</w>
verfüg baren</w>
unforget table</w>
s inc
er setzen</w>
ck y</w>
Wirtschafts wachstum</w>
4 ,
Auf sichts
succ eed</w>
W eg
Ma ster</w>
wech sel</w>
campa ign
auf re
St rom
signific ance</w>
Moder nis
Feder ation</w>
8 8</w>
public ation</w>
or ation</w>
Facili ties</w>
projek te</w>
hei m
hier bei</w>
co operate</w>
welcom ed</w>
in os</w>
Th rough</w>
z enten</w>
u el</w>
dic tion</w>
cr yp
m ann
künf tige</w>
kontak tieren</w>
instruc tions</w>
g ungen</w>
X P</w>
F rü
continu ous</w>
Gaz a</w>
u pper</w>
Fahr zeuge</w>
schi eben</w>
recogni zed</w>
Met ro
Er füllung</w>
wir eless</w>
ul s
schl üssel
soli di
gel ingt</w>
Ent lastung</w>
t an</w>
Prak tiken</w>
Person al
einzu setzen</w>
be endet</w>
wieg end</w>
symbo l</w>
Stern e</w>
verein fa
ver sichern</w>
obli ged</w>
militär ischen</w>
ac tors</w>
D reh
n ut
Belgi en</w>
unterschei den</w>
rei ter
co ol
ak s</w>
Gef än
Pol y
ris es</w>
grün den</w>
kl ein</w>
Völk er
Geri cht</w>
Über gangs
größer es</w>
gesetz ten</w>
at ur
G ir
A sian</w>
four th</w>
Gen ießen</w>
ränk ung</w>
func tionality</w>
Thail and</w>
vertei digen</w>
s low
L es</w>
EC B</w>
i Phone</w>
än ge</w>
s man</w>
ange passt</w>
Er gän
konfron tiert</w>
be vor
speci alist</w>
s z
distri but
tow ard</w>
programm ing</w>
militär ische</w>
Wh o</w>
O ver
C lassi
r are</w>
Schi ff</w>
9 .</w>
00 1</w>
m es
й </w>
konzentri ert</w>
exc ur
erkenn t</w>
destro yed</w>
Proz esses</w>
sup posed</w>
off ene</w>
mis sing</w>
all zu</w>
Frei tag</w>
Finanzi erungs
Bu il
ref ers</w>
har dly</w>
dis cre
contri buted</w>
acc eler
spartei </w>
leg te</w>
12 .</w>
Tr au
Berlin er</w>
Aus flüge</w>
An stieg</w>
A z
oper ative</w>
Po int</w>
Is lands</w>
Krieg s
Ger echtigkeit</w>
remain ed</w>
pri me</w>
aktivi ert</w>
Fin land</w>
Donn er
A vi
р а
sp ät
j unk
Verletz ung</w>
UN ES
Gemein de</w>
interess ant</w>
bar es</w>
wel comes</w>
sec tions</w>
organ ic</w>
li ved</w>
Best ä
Al geri
cell s</w>
staat lichkeit</w>
führ ungs
am eni
N eben
Vor aussch
unabhängi gen</w>
pro xim
mun icip
eb o
Frühstücks buffet</w>
rei cher</w>
m i</w>
Perspek tive</w>
H O
Gu ide</w>
f ing</w>
charac ters</w>
negoti ating</w>
6 7</w>
mod ules</w>
stre t
son g</w>
or er</w>
environ ment
M ut</w>
Kris en
Austr alia</w>
5 7</w>
spre che</w>
größ t
Pro vi
F eld</w>
harmon isation</w>
Am t</w>
Überna chtung</w>
und oub
ful fil</w>
cht es</w>
Ver arbeitung</w>
13 .</w>
of t
hospit ality</w>
Lan gu
i en
Sa chen</w>
R unde</w>
l unch</w>
bra chte</w>
Stand ort</w>
super vision</w>
trau m
suff ered</w>
conc er
lat t</w>
bem er
Situ ationen</w>
z ed
prev enting</w>
g gle</w>
boo k
Nachbar n</w>
Fam ily</w>
N ext</w>
LA F</w>
Bet ten</w>
ung s</w>
ab e</w>
Schwei zer</w>
Flüchtlin ge</w>
re vision</w>
i ous</w>
vier tel</w>
gehens weise</w>
eur os</w>
du mp
Zei tung</w>
angeb ot
unter zeichnet</w>
l assung</w>
institution elle</w>
ameni ties</w>
tra vel
herunter laden</w>
fe es</w>
fähi gen</w>
expl ained</w>
mitt eilen</w>
Organ e</w>
unterst reichen</w>
n one</w>
gemein schaftlichen</w>
cl asses</w>
ar med</w>
des wegen</w>
ari ties</w>
Weiter en</w>
un zur
son gs</w>
illeg alen</w>
bish erigen</w>
beg riffen</w>
sicht bar</w>
ern t</w>
effizi enz</w>
K as
strateg ische</w>
best ellen</w>
Wil d
sto ßen</w>
forth coming</w>
blo cks</w>
P läne</w>
abili tät</w>
M ärkten</w>
Educ ation</w>
indic ate</w>
NG Os</w>
B ad
t ons</w>
kön nt</w>
vorzu legen</w>
ther mal</w>
musi cal</w>
leg ally</w>
Tä tigkeiten</w>
bet ten</w>
barri ers</w>
Will kommen</w>
Lat ein
Di kt
st ages</w>
betreff end</w>
voll ständigen</w>
pol y
freed oms</w>
C P
lie ber</w>
wirk same</w>
j i
end o</w>
S ind</w>
mi en</w>
ga ther
be völk
as en</w>
ab stimmen</w>
an schließend</w>
ph arm
oph istic
T rin
Sh ould</w>
K ub
Ex c
sp here</w>
ran ging</w>
bel ief</w>
Finanz krise</w>
introduc ing</w>
every body</w>
empf angen</w>
zukünf tige</w>
param eters</w>
klär ung</w>
H änd
Direc tor</w>
restric ted</w>
design s</w>
b ann
Sch on</w>
hochwer tige</w>
gr enze</w>
e ge</w>
Grü nen</w>
tr ends</w>
s qu
lo ck
conven tional</w>
an gebracht</w>
V ul
Donner stag</w>
ec tor</w>
b ach</w>
Wider spruch</w>
unter liegen</w>
origin ally</w>
natür liche</w>
HT ML</w>
sustain ability</w>
sav ed</w>
in ev
gro sse</w>
dienst leistungen</w>
ange kün
ver dienen</w>
besch reibung</w>
prak tische</w>
lab elling</w>
er gibt</w>
en ever</w>
dri ven</w>
Br un
well ness</w>
vorgeschlag ene</w>
v a
t elec
sto cks</w>
simult ane
mo vie</w>
g ap</w>
comp uters</w>
Regierungsch efs</w>
Pro ject</w>
t este</w>
har t</w>
Er wer
umfang reiche</w>
ong side</w>
Veränder ung</w>
Audi tors</w>
Abend essen</w>
splan s</w>
geprä gt</w>
foot ball</w>
A F
spir it
l us
L ic
stat e-
ph ones</w>
mo vements</w>
in er
ben ach
Red ner</w>
sel ten</w>
enh anced</w>
Waff en
Ven ice</w>
wi ld</w>
enter prise</w>
ap ers</w>
I ran
ä le</w>
ans wer
resour ce</w>
is iert</w>
fir mly</w>
er ei</w>
b les</w>
Ver einfach
Sch loss</w>
An kunft</w>
vorgeseh enen</w>
sever e</w>
g ungs
öff nung</w>
tim et
re mark
comb ine</w>
Satur day</w>
Get rän
Ander e</w>
ssi g</w>
tre e</w>
refl ected</w>
langfris tig</w>
trans mission</w>
show ed</w>
sch em
effizi ente</w>
Anti -
realis e</w>
err ors</w>
Gesch äft</w>
k el
fair ly</w>
unabhängi ge</w>
Zustän digkeit</w>
Institu t</w>
G or
hil frei
be ur
Zu g</w>
Aus maß</w>
anzu zeigen</w>
V ER
Bevölk erungs
Ä u
Sing le</w>
op hi
cher maßen</w>
S timmen</w>
en on</w>
em an
an en</w>
Intern ationale</w>
St ability</w>
re marks</w>
beh oben</w>
Mall orca</w>
fu hr</w>
bein gs</w>
an hand</w>
T ool</w>
Mut ter
G M
verwal tung</w>
su it</w>
j unc
Ab lehnung</w>
bew u
Bef eh
proceed ings</w>
an schließen</w>
Kan ada</w>
d reh
gemein schaft</w>
Cook ies</w>
w affen</w>
amm ens
refl ects</w>
Viet nam</w>
geb eten</w>
hin gegen</w>
Do es</w>
Pi azza</w>
Ma cht
AID S</w>
14 .</w>
är ten</w>
wach senden</w>
por tu
imag ine</w>
fas cin
j i</w>
f ährt</w>
consider ably</w>
vor bei</w>
spieg elt</w>
ab sur
Ser bia</w>
adap ted</w>
ver mut
ge geben
entru ms</w>
a iss
Soci alist</w>
O t
S L
di gn
App lik
direc tor</w>
Ri o</w>
ätz en</w>
pro j
hear ing</w>
Phot o
Feh ler
Bu dd
Al koh
hei t
canc er</w>
amaz ing</w>
a sion</w>
R ab
Qu ellen</w>
Cor porate</w>
- L
f anden</w>
V ista</w>
Ar mee</w>
sau ber</w>
obstac les</w>
ess ed</w>
M ah
H O</w>
Ent deck
e dition</w>
Vor lage</w>
mbo l</w>
lös ungen</w>
wher eas</w>
alis e</w>
Region al</w>
safegu ard</w>
di ox
Re z
nor malerweise</w>
Bür o</w>
universi ties</w>
e de</w>
st ör
á n</w>
par liament</w>
sch äd
gewähr en</w>
coll ected</w>
ali tion</w>
Lei tung</w>
CH F</w>
Aca de
wahr en</w>
so genannten</w>
endor se</w>
bud gets</w>
Resp ekt</w>
Rei sen</w>
P las
gesch m
coordin ated</w>
ar bit
Cap tain</w>
zu zu
am in</w>
adap t</w>
Stockhol m</w>
Kommission spräsi
Alb um</w>
gefas st</w>
fik ation</w>
bed ro
z eln</w>
tra cks</w>
Wei h
Ber g</w>
Be für
cro w
B I
hervorra genden</w>
fem ale</w>
fai th</w>
br es</w>
1 1
sup er</w>
ou d</w>
au stausch</w>
techni k</w>
p en</w>
B our
th an
regar dless</w>
mag ne
bur gh</w>
accept ance</w>
Zi vi
Staats an
ti ef</w>
roman tic</w>
eri um</w>
Christ mas</w>
Fre und
dar gestellt</w>
dank bar</w>
Eben en</w>
eri eren</w>
Ver halten
Gen eva</w>
Frei zügigkeit</w>
schn ellen</w>
qui red</w>
ch air</w>
ar do</w>
a .m.</w>
E as
bour hood</w>
S ig
rä u
norm alen</w>
investig ation</w>
contri but
Bör se</w>
si ghts</w>
s eb
gener ations</w>
freund lichen</w>
S ohn</w>
6 3</w>
s ophistic
is men</w>
dec ade</w>
consul ting</w>
W all
Mag az
A li
let ters</w>
wor thy</w>
k örper
gewünsch ten</w>
er nen</w>
Si ed
Ro ad</w>
Führ er</w>
enthal tenen</w>
S ob
Hei zung</w>
G T
hoh em</w>
g oo
Köni g</w>
ä mpft</w>
rä um
Cat al
Abhängi gkeit</w>
dar k</w>
M eines</w>
ves sels</w>
vereinbar t</w>
um zu
dr y</w>
Rück kehr</w>
C r
vor liegende</w>
ti t
feder al</w>
di stor
ar tet</w>
W ed
öffent lich</w>
po lic
besonder er</w>
ag a</w>
Indi an</w>
explo itation</w>
arbei tete</w>
Phi losoph
8 2</w>
undoub tedly</w>
deli ber
bsp </w>
bo ards</w>
Deut sch</w>
ver boten</w>
c lin
bür ger</w>
Aktion splan</w>
personen bezo
az z</w>
Absch affung</w>
Г </w>
ti ll</w>
flu g</w>
al le
acht eili
man aging</w>
hy th
Ur heber
Ta x
8 0
re action</w>
Wochen ende</w>
equi valent</w>
elek tr
ss on</w>
pret ty</w>
T ot
S W
sm us</w>
r h
hei ßen</w>
Mor oc
K it
Erinn erung</w>
s ought</w>
kontrol lieren</w>
ger aten</w>
dis asters</w>
Vol kes</w>
produzi eren</w>
Reser vierung</w>
zu gr
schutz es</w>
m -
flä chen</w>
comp act</w>
bir th</w>
anti cip
Wi k
St euerung</w>
s entation</w>
Ent spannung</w>
enst ein</w>
trav elling</w>
ernsthaf t</w>
Haushalt splan</w>
incre di
iel d</w>
ge plant</w>
Liz enz</w>
Kon g</w>
er freut</w>
H ong</w>
Di plom
wer ben</w>
stei gt</w>
or dered</w>
ill ar</w>
gri echischen</w>
Te ams</w>
G ang</w>
Vic e-
internation ally</w>
S ever
Er st</w>
gui ded</w>
Stuttgar t</w>
ün d
ut zutage</w>
er end</w>
chec ks</w>
Masch ine</w>
über ein
jet zigen</w>
N avig
H us
Gesch windigkeit</w>
Cul ture</w>
Konfli kte</w>
E qu
D än
Beteili gten</w>
met ro</w>
S ammlung</w>
Custom er</w>
jo ining</w>
ex zell
exter nen</w>
be zahlt</w>
D ritten</w>
Befu gnisse</w>
ti er</w>
r as</w>
prin ted</w>
p p</w>
Zah lungen</w>
Or te</w>
Jahrzeh nten</w>
z err
metho den</w>
fi x</w>
Tra in
K no
E P</w>
dec line</w>
W T
spi red</w>
restor ed</w>
zo g</w>
under ground</w>
antwor ten</w>
Mark en</w>
Kir k</w>
supp lied</w>
Georgi a</w>
Fahr t</w>
re al
unent gel
ge fragt</w>
Kor re
ro ots</w>
hervor gehoben</w>
veröffent li
end sten</w>
Qu elle</w>
Bei de</w>
proto col</w>
kompl ette</w>
id ents</w>
sched ul
ic y
Proz ess
Ch eck</w>
tiv als</w>
Sch wä
Binnenmark tes</w>
b utes</w>
Som e
Plan eten</w>
M A</w>
sen ken</w>
über aus</w>
Ti bet</w>
A tt
Gleich stellung</w>
pro min
k üh
bestimm ungen</w>
indi re
h l</w>
einhei tliche</w>
Administr ation</w>
künst ler
Beri chten</w>
st ür
nieder län
exclu sion</w>
ti m</w>
auf gebaut</w>
f illing</w>
any where</w>
believ es</w>
b enden</w>
reli ability</w>
tac kl
sorg ungs
n bsp</w>
mittler weile</w>
exclu ded</w>
6 2</w>
er fordern</w>
schwer en</w>
s and</w>
on sor
analy se</w>
Tour ism</w>
s -</w>
U p</w>
äum t</w>
lear ned</w>
zusammen zu
satis fy</w>
Eu ch</w>
ent gegen</w>
Hand els</w>
AK P-
pen alty</w>
ei gh
di alog</w>
b len</w>
Kredit karte</w>
leich ter</w>
kor rigi
geleg te</w>
erst klassi
Ma xim
Fri endly</w>
afri kanischen</w>
For mu
Blu e</w>
B üh
ß ten</w>
unterschied lich</w>
ling u
it ar
erwäh nen</w>
wal d</w>
Wor t
Groß teil</w>
klass ischen</w>
concentr ate</w>
Schön heit</w>
P ir
Me eting</w>
politi sches</w>
besch ränken</w>
Ver mö
S mi
G am
tu </w>
shi ft</w>
lei dung</w>
her stellung</w>
ti sches</w>
restruc turing</w>
ein gestellt</w>
ökonom ischen</w>
zugr unde</w>
in hal
Voraussch au</w>
Mut ter</w>
Debi an-
sub sequent</w>
r ant</w>
par tei
ent deckt</w>
Wi kit
vi rus</w>
Ge werk
Dar stellung</w>
scri pt</w>
flo ors</w>
Ther ap
über ein</w>
viol ations</w>
transfer red</w>
el em
Inform ation
vi es</w>
un ruhi
sch li
d y
Alli anz</w>
mis sions</w>
bed anken</w>
process ed</w>
kom fortable</w>
bil d
beauftrag ten</w>
Op position</w>
unter sucht</w>
letz ter</w>
cl ause</w>
symp ath
humanit äre</w>
exis tiert</w>
Ur sachen</w>
C ab
th u
nach drücklich</w>
ehm ern</w>
e o</w>
Di am
AC P</w>
tiv itäten</w>
st ories</w>
Wikit ra
7 7</w>
zurück zuführen</w>
ste am</w>
perf ekte</w>
oll ars</w>
cul tures</w>
Loc ation</w>
Co ur
ün s
um setzen</w>
T or</w>
sovereign ty</w>
Alex ander</w>
Lit er
hier für</w>
form ats</w>
dign ity</w>
tem por
Taus ende</w>
Haupt bahnhof</w>
stamm t</w>
non- smoking</w>
ic ks
Ver teilung</w>
T op</w>
Not es</w>
Bl ut
Aut onom
o es</w>
every where</w>
mi eten</w>
6 9</w>
eb ook</w>
ass embly</w>
Z ins
h et</w>
einge gangen</w>
chter ung</w>
N av
met er</w>
gesch ätz
ek tion
L A</w>
rest ore</w>
M ir</w>
str asse</w>
Cas a</w>
beri chten</w>
Fak tor</w>
8 9</w>
umfass end</w>
si ed
Dire kt
Bran che</w>
9 00</w>
per cent
magaz ine</w>
fest zulegen</w>
W är
s ah</w>
Krimin alität</w>
bud sman</w>
Invest oren</w>
Gemein same</w>
Agent uren</w>
gest altung</w>
de fiz
Nahrungs mittel
Eing ang</w>
Commission ers</w>
pl astic</w>
Geschäf t
CO 2-
7 3</w>
reser ved</w>
los er</w>
j ac
Spiel en</w>
Min im
einzu führen</w>
T ages</w>
sch e
over looking</w>
inv o
in tim
gro ssen</w>
ent täu
P hän
I l</w>
C ot
C el
Acade my</w>
produc es</w>
en er
an erk
Liz enz
Balk an</w>
target ed</w>
nied rig
me al</w>
enor me</w>
de ad</w>
beh err
Rech ten</w>
korre kt</w>
ati si
ass ess</w>
Muse en</w>
appro ve</w>
Pass wort</w>
ück en</w>
ö tz
ver n</w>
pan el</w>
bed ded</w>
hoff entlich</w>
Vertra ges</w>
So l</w>
S ier
N ero</w>
Gener ationen</w>
re gu
pl ates</w>
n ine</w>
j o</w>
h ast</w>
fu els</w>
S lowak
H at</w>
list ings</w>
ges ti
Z ut
Su dan</w>
Kon gres
Arbeitsp latz</w>
pictur esque</w>
i x</w>
St amm
ver tr
unzur eich
lä dt</w>
acci dent</w>
Hoch schul
sha dow</w>
strength ened</w>
mis s</w>
deep ly</w>
under taken</w>
treat ments</w>
fahr t
K n
qu iry</w>
co ol</w>
Wür de</w>
A ri
p ts</w>
kern el</w>
Sto ck</w>
K öl
EZ B</w>
won ach</w>
stu dent</w>
c ell</w>
St aff</w>
ma x</w>
wes enheit</w>
oper ates</w>
frü hen</w>
Par ameter</w>
Berei tschaft</w>
Aus einander
besor gt</w>
beg leitet</w>
Medi kam
Hau t</w>
Fran zös
Ab ent
erweiter n</w>
en ergie</w>
Oper a</w>
Mar k</w>
wor st</w>
ak te</w>
well en
Som it</w>
A 5-0
á s</w>
unn el</w>
si zes</w>
h -
geeign ete</w>
ger ing</w>
St unden
pro ch
offizi elle</w>
y ear
fest gelegten</w>
ar d-
Pap ier</w>
H- 0
D ör
w ör
B e</w>
sen z</w>
fin ed</w>
b o</w>
Fr ist</w>
Fern sehen</w>
us -
geb äu
et r
Inn enstadt</w>
H aben</w>
e on</w>
W ould</w>
Rechts staatlichkeit</w>
Lei p
ten der</w>
si ty</w>
norm ally</w>
intelli gent</w>
un fair</w>
fisher men</w>
P ack</w>
Ev ents</w>
S CH
9 3</w>
re construction</w>
g am
exec utive</w>
digit alen</w>
v ation</w>
is lat
f ly</w>
aus gaben</w>
S E</w>
IM F</w>
panoram ic</w>
li erten</w>
ange wendet</w>
Be wus
vor nehmen</w>
l or
Anwen der</w>
198 0</w>
Frei zeit
statt findet</w>
geh ei
Park plätze</w>
sch reck
r ut
hi king</w>
fre ely</w>
dis krimin
AN T
sp it
Spei sen</w>
Amon g</w>
ge äußert</w>
Yu gosla
Stär ke</w>
prov ince</w>
eri ge</w>
S C
Registri erung</w>
F öder
vorsch läge</w>
teil s</w>
se kre
ir ing</w>
democ rati
M äd
D s</w>
Öff nung</w>
stei gern</w>
rec re
fes ten</w>
anni versary</w>
Biblioth ek</w>
6 1</w>
portu gi
ent liche</w>
str o</w>
d ei</w>
Zei ch
Y o
As sozi
sto ß</w>
fas zin
ord net</w>
inf rin
bath rooms</w>
Reser ve</w>
will ing
verwen de</w>
us age</w>
tre ff
Off en
Mi et
Cha ir
C lin
Jose ph</w>
w ash
sup erior</w>
individu ally</w>
Volks gesundheit</w>
Ver lu
Str and
Kontin ent</w>
vor aus</w>
ir re
i Po
dr yer</w>
AR E</w>
gesch o
qualit ativ</w>
land s
ak er</w>
Ver lauf</w>
Mi ß
Indu stry</w>
n ail</w>
op en
mutz ung</w>
Stre cke</w>
Gra fi
türk ischen</w>
thre ats</w>
swit ch</w>
prosp ects</w>
empf ohlen</w>
U L
Amerikan er</w>
eng ines</w>
cas ino</w>
F OR
Den mark</w>
D R
prof its</w>
eng aged</w>
brief ly</w>
Niederlan den</w>
k einem</w>
Cont ent</w>
son sten</w>
manufac ture</w>
be enden</w>
D ritte</w>
ver weisen</w>
k lear
coll ect</w>
G ali
Bes ei
a ders</w>
CA P</w>
30 .</w>
revol ution</w>
high lights</w>
g no
Währungs union</w>
Ferienwoh nung</w>
proz esse</w>
nütz lich</w>
att ached</w>
R eb
u ph
lic ation</w>
Kompet enz</w>
tax i</w>
rep utation</w>
lab or</w>
h n
gan z
fund ed</w>
Gol den</w>
ra id</w>
mon op
P aci
Mot or</w>
Consu mer</w>
Über blick</w>
sol ar</w>
re ti
neighbo uring</w>
d ollar</w>
b ol
fähi ge</w>
Sy m
P on
Kü sten
D ass</w>
sel ber</w>
dr as
ad ds</w>
Minu te</w>
Her z</w>
ec ological</w>
acknow ledge</w>
Well ness</w>
Mehr wert
nec essi
Wand el</w>
bewäl tigen</w>
RO M</w>
Kap ital</w>
ad ding</w>
L ern
Er forder
st ran
on ers</w>
bel ong</w>
Gel der</w>
9 4</w>
them ati
teach ing</w>
herr lichen</w>
gest ärkt</w>
Ju gend</w>
5 ,
pra gm
pharm ac
gre en
Con sequently</w>
m ere</w>
Küh l
H els
st echn
co s</w>
Wirtschafts krise</w>
C ent
her auszu
gel esen</w>
ck en
sle ep</w>
gesetz lichen</w>
d ges</w>
The at
6 0
oc op
ich ert</w>
T el</w>
Hand lungs
über winden</w>
ul en</w>
ed a</w>
dire k
Kamp agne</w>
zerstör t</w>
vari ed</w>
stru ggle</w>
st unning</w>
re vi
re pub
oper ated</w>
genau e</w>
elli </w>
Umwelt schutz</w>
In ten
sicher gestellt</w>
lin ken</w>
end ar</w>
beg ins</w>
Ö l</w>
Herb st</w>
gegenwär tige</w>
fa x</w>
effici ently</w>
condi tioned</w>
au to
Resi dence</w>
Aus wei
wi des
Mon ten
Leg isl
BS E</w>
Abge ord
sch u
Ander erseits</w>
em pl
alt ungen</w>
Autob ahn</w>
ent ering</w>
ar ising</w>
stu ff</w>
refer ences</w>
b ag
Rich ard</w>
Qu art
thre e-
ge wer
di ert</w>
Strei t
st atisti
me ets</w>
ergän zt</w>
Zü rich</w>
CD s</w>
zi ger</w>
war ran
integri erten</w>
Wel thand
Bestimm ung</w>
unmittel barer</w>
em ark</w>
Zah lung</w>
Län ge</w>
B ord</w>
eigen er</w>
th ou
ver trag</w>
ä ter</w>
twi ce</w>
ter ri
fro h</w>
Vereinfach ung</w>
Telek omm
Schrif t
pro pri
arbit r
Proto col</w>
öff n
propor tion</w>
post p
a o</w>
se es</w>
present ing</w>
Instru ments</w>
Flor enz</w>
Auf trags
Pres se
K ategorien</w>
her z
beh ält</w>
Bearbei tung</w>
op es</w>
Potenzi al</w>
ri ding</w>
mitt lung</w>
graphi cs</w>
ec tion
cam p</w>
Deb atten</w>
C ru
zeichn ungen</w>
v re</w>
sur prise</w>
stärk ere</w>
eur ozone</w>
Mar t
combin es</w>
au ßen</w>
Fl uss</w>
con fron
N ok
s ar
7 8</w>
ende av
Spazi er
P sy
Dokum enten</w>
rec ording</w>
U sing</w>
7 6</w>
suffici ently</w>
mist ake</w>
glei chermaßen</w>
audi o
T ok
O K</w>
Hoh e</w>
B ed</w>
vi ert</w>
P y
Mon tag</w>
leg end
kontrol liert</w>
ben de</w>
Belgi an</w>
M .</w>
p illar</w>
Aut os</w>
jud g
Fre und</w>
D C</w>
zu kommen</w>
sex </w>
Resol ution</w>
tig keits
Geri chts
ent ative</w>
versch är
recht zeitig</w>
ir ischen</w>
he ading</w>
eg o</w>
ru pt</w>
Wes entlichen</w>
territ orial</w>
P eter
zer ti
poin ting</w>
Telekomm unik
ver wei
langfris tigen</w>
gra d</w>
Er haltung</w>
Berichterstat ters</w>
ay a</w>
ak ia</w>
urg ently</w>
kilomet res</w>
19 th</w>
wil li
sch -
rel ates</w>
co des</w>
Soci ety</w>
So und</w>
Con c
Besei tigung</w>
ges ichert</w>
angemess enen</w>
Zu sch
se ats</w>
phenom enon</w>
isi tion</w>
dig es</w>
war ning</w>
p ush</w>
is co</w>
Hels in
lab or
b right</w>
an gest
Ha ve</w>
E E
occur red</w>
War en
anzu bieten</w>
scienti sts</w>
g sten</w>
Pres se</w>
O x
ld n</w>
Zu verlässi
unter bro
t ories</w>
sch rift</w>
le tion</w>
heal th
el ev
ab end</w>
W en
K ern</w>
EU- Mitgliedstaaten</w>
verk nü
sh uttle</w>
up gra
mei ster</w>
es c
diplom atic</w>
anno unc
Su ites</w>
N ep
Imp ul
medic ine</w>
kur s</w>
grow n</w>
e ur</w>
candi dates</w>
Pan oram
reib ungen</w>
neg ativen</w>
n ative</w>
ger echt
M S
Int elli
2 nd</w>
sophistic ated</w>
conveni ence</w>
c lar
R enn
syn chron
ha ir
eng age</w>
bedeut enden</w>
Wir ks
Funk tions
gew ach
fo x</w>
fe ed
Sci ence</w>
Kandi daten</w>
E mail</w>
ten -
in spired</w>
bin den</w>
Techn ologi
Pro v
Ober fläche</w>
Det ail</w>
G ul
unentgel tlich</w>
ou ts
et tes</w>
derzei tige</w>
Schul den</w>
ro lle</w>
g in</w>
an zeigen</w>
Bl ack
typ ischen</w>
speci alists</w>
effek tive</w>
del ic
Parlam ente</w>
Mechan ismen</w>
Projek ts</w>
y ard</w>
ung laub
zw an
de fe
T ür</w>
Ge winn
Col lege</w>
st ammen</w>
herr sch
ac quired</w>
Straß burg</w>
he ads</w>
gar age</w>
fe et</w>
dam ages</w>
caus ing</w>
virtu ally</w>
tax pay
l ac
exec ution</w>
w as
w age</w>
ol dest</w>
ehr en</w>
UN O</w>
Jer us
An y
sor ge</w>
sec onds</w>
me als</w>
con vic
besu cht</w>
adi se</w>
Benutz ung</w>
än der</w>
zw ingen</w>
ous ness</w>
A ra
ur laub</w>
rec ords</w>
Sch icks
F our
appropri ations</w>
Om budsman</w>
í n</w>
len ken</w>
em bar
conc ert</w>
angen ehmen</w>
Pen sion</w>
Luxem burg</w>
sch mer
ou ts</w>
lich keits
fo ssi
uni form</w>
ges amm
Are a</w>
recogni ze</w>
pre mi
I M</w>
Chil dren</w>
pre ad</w>
Kon zentr
int ends</w>
construc ted</w>
aktu ell</w>
Ver sorgung</w>
recht lich</w>
D ingen</w>
Berei ts</w>
up grade</w>
lei sch
gül tig</w>
b lau
geographi cal</w>
cho ices</w>
Un der
Spit zen
integr ate</w>
highligh ted</w>
erzeu gen</w>
cul tiv
Appart ements</w>
hon our</w>
boo st</w>
Expl orer</w>
Ber ge</w>
wis sen
st ern</w>
Profession al</w>
Last ly</w>
verhand lungen</w>
oper ator</w>
lossen heit</w>
F euer
sub j
lish ed</w>
St art
P ho
Fur ther</w>
Bedürf nissen</w>
resul ted</w>
pic k</w>
k reis</w>
gen -
er staun
Kop enhagen</w>
G E</w>
succ eeded</w>
Bu ff
unn ö
st euern</w>
lic a</w>
7 4</w>
tra ined</w>
bew ahren</w>
T al</w>
. net</w>
unter suchen</w>
refer ring</w>
län dliche</w>
confi denti
angeneh m</w>
alis tische</w>
T onnen</w>
Pat ent
mar ine</w>
tag s</w>
essenti ally</w>
app en</w>
war tet</w>
entscheiden den</w>
Si em
Religi on</w>
stric tly</w>
produc er</w>
mit zu
in spir
hi dden</w>
cul p
consequ ence</w>
co ck
ah me</w>
9 1</w>
vi br
in her
gradu ally</w>
bi eren</w>
Innov ationen</w>
chec ked</w>
symbo li
lic ens
en erg
coher ent</w>
In hal
B and
sh el
ei ll
Kaff ee</w>
verw öh
SA P</w>
D üssel
ra ces</w>
kn app</w>
e e
p her
it ate</w>
hier zu</w>
er richtet</w>
Sob ald</w>
min ing</w>
li able</w>
ograph y</w>
konkre t</w>
vi era</w>
th umb
stor es</w>
re aler</w>
Sier ra</w>
3 50</w>
rit ter</w>
kümm ern</w>
Res ult
B om
oh l</w>
maß geb
bo ats</w>
wi e
man ual</w>
C L
wides pread</w>
er wor
er hol
5 00
reich hal
L or
I K
vor gestellt</w>
olog isch</w>
con figur
Ex cell
Beg rün
Augen blick</w>
sto ck
radi k
p ast
ch a
Sonn tag</w>
Ni kon</w>
A ma
Ägyp ten</w>
tim ent</w>
d al</w>
Sad dam</w>
report ing</w>
min er
est ens</w>
bein halten</w>
nar row</w>
gh äfen</w>
aff ects</w>
4- star</w>
so und
müs ste</w>
incorpor ated</w>
explan ation</w>
europä isches</w>
ber echnet</w>
auf fordern</w>
at om
Ber echn
pass ing</w>
Hin weise</w>
stand s
den jenigen</w>
at t</w>
alis ierte</w>
V IS</w>
- European</w>
prak tischen</w>
finanzi eren</w>
S li
Reguli erung</w>
Hä user</w>
r l
la st
Le on
L esen</w>
über lassen</w>
avi ation</w>
S enkung</w>
tro ops</w>
part -
S ä
Dialog s</w>
for ts
Dritt el</w>
8 1</w>
spezi alisiert</w>
sitz en</w>
Staats -</w>
Nok ia</w>
Feh l
Comm on</w>
v is</w>
st rei
fav ourable</w>
ex port
C ar</w>
tra gt</w>
grü nen</w>
col ors</w>
re venue</w>
for th</w>
eu x</w>
T ests</w>
St ör
wür dig</w>
uni or</w>
teach ers</w>
erklär te</w>
be fu
Sch reiben</w>
Hö chst
Flä che</w>
B all
h ef
Zusammen halt</w>
Besu chen</w>
zi a</w>
gro ss</w>
gi k</w>
g otten</w>
Sm all</w>
gekenn zeichnet</w>
An nehm
s now</w>
m outh</w>
War craft</w>
v ar</w>
so il</w>
ausgewäh lt</w>
ver li
in ely</w>
aff ir
Hinder nisse</w>
H all
i ed
co o
vic tory</w>
bi tions</w>
alcoho l</w>
be fasst</w>
air ports</w>
ag ents</w>
Por to</w>
Nachhal tigkeit</w>
An meldung</w>
Vertre tern</w>
UNES CO</w>
D re
ge führte</w>
ain ts</w>
Vermö gen
Verk ehr
Mechan ismus</w>
An sprüche</w>
tnis sen</w>
ha z
be er</w>
E din
gewi d
ex o
Mo dule</w>
K äufer</w>
Busin ess
A l</w>
Premier minister</w>
Gep äck
se u
renovi ert</w>
c ommission
W ör
Be achtung</w>
rech nen</w>
ex act</w>
Sicherheits politik</w>
¼ </w>
consi ders</w>
aus el</w>
Todes strafe</w>
samm eln</w>
ei ved</w>
Jugend lichen</w>
ni ght
particip ating</w>
komp ati
Pflan zen</w>
re pair</w>
ni k</w>
geleg enen</w>
Mand at</w>
wirk lichung</w>
ch rist
an ten
Ergeb nissen</w>
b ay</w>
Z erstör
Ur teil</w>
Paci fic</w>
De partment</w>
nit ten</w>
i um</w>
hy po
encour aged</w>
dar y</w>
ad ays</w>
G R
Dan ish</w>
s ement</w>
ing er
Co operation</w>
y ards</w>
o live</w>
ess el</w>
Verfass ungs
Über tragung</w>
surpris ed</w>
gir ls</w>
f at</w>
d res
welt weite</w>
wa cht</w>
m ouse</w>
Re al
Glau ben</w>
egr o</w>
Wider stand</w>
pro sec
gehand elt</w>
T ou
verletz ungen</w>
st ayed</w>
er re
d ance</w>
cap abilities</w>
äl teren</w>
sion al</w>
produk ten</w>
m acro
k rei
gen o
f loo
dies bezüglich</w>
willing ness</w>
wesent licher</w>
speci alized</w>
ke ys</w>
T S</w>
Er st
vers ammlung</w>
müs sten</w>
att end</w>
Sk y
eh lt</w>
un ab
i ds</w>
eventu ell</w>
beeinflus sen</w>
Uni ons
chin esische</w>
S n
uls ory</w>
ob served</w>
kon zip
Urlau bs
E ss
sp len
contex tual</w>
c at</w>
Tau ch
Sy mbol</w>
P A</w>
ur gency</w>
Wirks amkeit</w>
V ar
S äu
Invest ment</w>
to x
kl asse</w>
druck s
betrieb </w>
at orium</w>
Sou verän
N or</w>
Constitu tional</w>
sol di
hill s</w>
gen z</w>
achiev ement</w>
Veranstalt ungs
Helsin ki</w>
pl as
gün stige</w>
worl d-
Vice- President</w>
Entfern ung</w>
Air lines</w>
25 .</w>
ver ank
st an</w>
ro ll</w>
radi o
ang le</w>
Smo king</w>
Flug haf
pro fes
gefähr det</w>
bro ken</w>
Un ser
F ass
F an
ut most</w>
lei ter</w>
fu gen</w>
D eck
Auth ority</w>
A part</w>
ä s
lan ger</w>
gewäh lten</w>
Präsi dent
Journ alisten</w>
peti tion</w>
bring ung</w>
anti </w>
Chi le</w>
pris oners</w>
beantwor tet</w>
app e</w>
sich ert</w>
seek s</w>
h o</w>
fest zustellen</w>
boo ked</w>
Re par
Er satz
woh n
mäß ige</w>
clo ck</w>
bo und
Civi l</w>
Betre uung</w>
verl etzt</w>
Finn land</w>
ver su
program men</w>
geb lieben</w>
confer ences</w>
Mex iko</w>
Erleb nis</w>
A y
st ur
regul ated</w>
projek t</w>
ins ist</w>
Vers ammlung</w>
Lou is</w>
än e</w>
know -how</w>
Oli ven
fre u
á n
woo den</w>
the tic</w>
Dat um</w>
An hör
wech seln</w>
repe at
op ens</w>
di versi
Sch o
H z</w>
sup por
preser ve</w>
clari fy</w>
Hol z</w>
A .
ü mer</w>
Ver gnü
Sch alt
ro ut
ro of</w>
oft mals</w>
o ve</w>
nut ri
ha i</w>
cris es</w>
acci dents</w>
Wei l</w>
Sa ison</w>
develop ers</w>
com position</w>
bel ong
b at</w>
So und
Sim il
In flation</w>
wech s
sp häre</w>
fre e
associ ations</w>
Ter ms</w>
Pal ästinens
är er</w>
w ahr</w>
cr yst
Li thu
Aus bildungs
sp ite</w>
m ärkten</w>
ei ts
U R</w>
Prä senz</w>
B y
se arch
r ale</w>
neu n</w>
jed enfalls</w>
B illi
8 7</w>
sp ät</w>
setz te</w>
ga stronom
angewand t</w>
Off ic
ar men</w>
Pf ei
Kon junk
sh ore</w>
profession elle</w>
hol e</w>
ech ter</w>
log ical</w>
cre w</w>
ar te</w>
moment an</w>
illeg ale</w>
el and</w>
T E</w>
P ul
C P</w>
Dokum entation</w>
g ischen</w>
Fin de</w>
Ein en</w>
theat re</w>
läu fig</w>
al ongside</w>
Pass ag
Mäd chen</w>
tro ck
for ec
con vention</w>
Räum e</w>
Netz werk
ý </w>
war t</w>
percent age</w>
mani p
ger egelt</w>
en der
all ing</w>
Jerus alem</w>
in door</w>
Kon ver
zieh ung</w>
m än
Str ände</w>
vari able</w>
l s
An hän
umini um</w>
so eben</w>
per mission</w>
Por tal</w>
Par a
N on
B ö
läng st</w>
ein stimm
b y-
Kohäsions politik</w>
Bu g
Acc ess</w>
in folge</w>
haf tet</w>
ergän zen</w>
Gemein schaften</w>
20 15</w>
s now
quot as</w>
air lines</w>
Wohn zimmer</w>
Dres den</w>
Co ck
evi dent</w>
edi ted</w>
Tra vel</w>
schwieri ge</w>
ch i</w>
bi an</w>
Tab ak
H D</w>
Ak tions
pur ely</w>
navig ation</w>
cat ch</w>
quanti t
hop es</w>
gest ri
Q U
N er
ov a</w>
harm ful</w>
Di agno
ung al
conver gence</w>
wirk liche</w>
Ro ck</w>
m ant
Modernis ierung</w>
ow ski</w>
en burg</w>
an sehen</w>
sch were</w>
Rat schlag</w>
6 ,
&apos; m</w>
ö ch
in tu
fest legen</w>
palästinens ischen</w>
la im
char akter
Ver wirklichung</w>
t ut
hom o
Vor stellungen</w>
Sam stag</w>
I ON
Auf zug</w>
te ch</w>
ac adem
Mark et
F ish
tern s</w>
an zunehmen</w>
Spit ze</w>
Mit entschei
H D
stitu tion</w>
ses sions</w>
se emed</w>
pro gres
L ü
spiel er</w>
on ie</w>
gi a</w>
ar ts</w>
disp ute</w>
Spezial itäten</w>
Bas el</w>
it ly</w>
incen tives</w>
hin weg</w>
dis count</w>
Zu ge</w>
Jed och</w>
regi erung</w>
k ern</w>
char m</w>
Elek tron
comp ulsory</w>
cal m</w>
a gements</w>
Mitt ag
Flor ence</w>
B 5-0
t un
all eg
Energie effizienz</w>
lay out</w>
EN T</w>
j k</w>
classi cal</w>
ari ans</w>
Wirtschafts politik</w>
Doppel zimmer</w>
pris on</w>
implic ations</w>
communic ate</w>
aufzu bauen</w>
ster ben</w>
radi cal</w>
fra g
asi s</w>
an sprechen</w>
accoun ting</w>
U -
Musli m</w>
F on
humanit ären</w>
gesch ickt</w>
er ship</w>
bewer ten</w>
ath s</w>
asi </w>
Her stell
Bet riebe</w>
20 th</w>
Übri gen</w>
relation ships</w>
pl ötz
eri ert</w>
cli cking</w>
Oper ation</w>
str ing</w>
schedul ed</w>
govern ing</w>
al i</w>
Wachst um
L eh
Cub a</w>
Person en
Mark en
st ake</w>
pre mis
min or</w>
Ver zeichnis</w>
Dr ing
Bü rokrati
ti ll
net z</w>
Ver fol
Mo sk
Gipf el
Bur ma</w>
ultim ate</w>
ann ehm
super b</w>
kon figur
adv enture</w>
ICH T</w>
Er richtung</w>
timedi a</w>
hervorra gend</w>
exp and</w>
enti ert</w>
Weiter entwicklung</w>
Ver trag
s k</w>
organ ise</w>
geschlossen en</w>
dist ur
Ex tern
un t</w>
fir st-
Sti ftung</w>
Ri viera</w>
Chair man</w>
ö l</w>
ven ues</w>
hin zu</w>
H U</w>
col our
wäch st</w>
ra chten</w>
li qui
le ute</w>
exp ense</w>
vor ge
th ri
enti eren</w>
enjo ys</w>
ar ray</w>
ag o
T an
Schul den
Produc t</w>
Bil dern</w>
12 .00</w>
sch wä
pi lot</w>
be aring</w>
P ier
Mich el</w>
Jes us</w>
trans fers</w>
im men
form ing</w>
Tre aties</w>
wirk sam
verring ert</w>
T us
Akti en
poli s</w>
enn ess</w>
Unter künfte</w>
meaning fully</w>
k ette</w>
initi ally</w>
ag u
D E-Fraktion</w>
offen bar</w>
ehem alige</w>
Philosoph ie</w>
mi le</w>
Sec ret
eri </w>
Leip zig</w>
telec omm
multilater al</w>
medi eval</w>
kenn t</w>
ic als</w>
believ ed</w>
Nig eria</w>
Argum ente</w>
sek tors</w>
app elli
O EC
K lu
S earch</w>
Kop f
Außen -</w>
wi fe</w>
K rei
G ay</w>
zah lungen</w>
mor t
grenz ung</w>
B av
por te</w>
Wed n
м </w>
t less</w>
appro aches</w>
Tradi tionen</w>
I P-
Gali le
cast ing</w>
Volks wirtschaften</w>
Edin burgh</w>
st aying</w>
italien ische</w>
il ater
ativ ity</w>
Z war</w>
n ings</w>
ing redi
ver steht</w>
man chen</w>
ent fernen</w>
dig ungen</w>
Zyper n</w>
8 3</w>
aiss ance</w>
Flu ghäfen</w>
Bü cher</w>
And alu
str and</w>
kan ische</w>
Wer den</w>
Jo int</w>
Auf lösung</w>
may be</w>
g lo
List ings</w>
techni que</w>
berühm te</w>
bel n</w>
and in
W erten</w>
Siem ens</w>
Schü ler</w>
Wohn ungen</w>
к о
smo oth</w>
W W
Th ree</w>
Ac count</w>
rig or
digit ale</w>
enfor cement</w>
st ep
los es</w>
Engine ering</w>
Con ver
en vis
bus y</w>
br y
Wäh ler</w>
Umwelt fragen</w>
S ens
L ine</w>
studi ed</w>
remark able</w>
T ruppen</w>
Grund lagen</w>
rupp e</w>
Arbeitn ehmern</w>
н о
re tain</w>
descri be</w>
Syri a</w>
Je wish</w>
B ig</w>
Aus arbeitung</w>
shor tly</w>
CE O</w>
Akte ure</w>
p g</w>
V ill
MP 3</w>
ref res
der ly</w>
addres sing</w>
Objek te</w>
Annehm lichkeiten</w>
voll es</w>
kontextu ellen</w>
hal tungs
territ ori
nah </w>
concentr ation</w>
mehr fach</w>
entdeck st</w>
Wissenschaf tler</w>
Fund amental</w>
opp on
lo ading</w>
ass et</w>
Fire fox</w>
kap az
Saf e</w>
F abri
g on</w>
er stat
ad os</w>
Sam sung</w>
Ar men
qu et</w>
per mit</w>
ent stand</w>
elimin ate</w>
An bet
lei hen</w>
b ought</w>
audi ence</w>
Val encia</w>
Krieg es</w>
verwen deten</w>
tra in
tr at</w>
Re ad</w>
Chi c
ter ung</w>
ech es</w>
Wiederauf bau</w>
Nor d</w>
Camp ing
wer ks</w>
therap eu
Or ten</w>
Fahr er</w>
Dan ach</w>
s car
b and
repe ated</w>
mor al
Vermitt lungs
Perform ance</w>
Mal ay
Ma ur
qu i</w>
poor est</w>
l ation</w>
l ap
kosten lose</w>
in o
gramm atically</w>
ar om
200 7-
schem es</w>
s me
mach in
ingredi ents</w>
ein gebracht</w>
contex tually</w>
1. 5</w>
he avi
Fil me</w>
Ex port
198 8</w>
po ker</w>
hinzu fugen</w>
geni essen</w>
enor men</w>
Ar ena</w>
ös s
eu ert</w>
assign ed</w>
amend ed</w>
Masch inen
Haf t
kontextu ell</w>
All ah</w>
negoti ation</w>
gramm atisch</w>
gek ehrt</w>
ex posed</w>
er teilt</w>
enjo y
Sch wellen
sü d
Mil ch
Ein er</w>
18 0</w>
b uses</w>
Verbraucher schutz</w>
T ieren</w>
M ake</w>
Je an-
E tik
Deutsch lands</w>
- und</w>
of- the-
medic ines</w>
con stitutes</w>
b ited</w>
verhäl tnis</w>
ther e
st on</w>
s ein
por tra
los ing</w>
cir cu
b lan
un ilater
er le
au tor
Vic t
O ut</w>
Himm el</w>
chair man</w>
Leg itim
vor zunehmen</w>
Schlussel wort</w>
Schlussel phrase</w>
F ull</w>
ć </w>
sel t</w>
pr er
n utzt</w>
gesell schaftlichen</w>
em i
aufge zahlt</w>
f at
besei tigen</w>
Te am
Hard ware</w>
Internet zugang</w>
G B
regel ung</w>
qu ellen</w>
ch airs</w>
bed ürf
vor liegen</w>
stat ing</w>
neh me</w>
fic ial</w>
Softwar e-
Sie g</w>
Entwick ler</w>
Appart ement</w>
gä ste</w>
pos s
an wenden</w>
Aus bau</w>
maxim al</w>
aus üben</w>
ir able</w>
pri ze</w>
campaign s</w>
av a</w>
hunder t</w>
ext ending</w>
certi fied</w>
Dän emark</w>
C ou
des to</w>
N ehmen</w>
J ung
An reg
ver bindung</w>
komm ens
äl ter</w>
satisfac tory</w>
mo bil
funk tion</w>
ember au
auf bauen</w>
ak en</w>
Stra h
Aus sage</w>
w ed
chap ter</w>
aus ser
Pal ma</w>
Fre qu
vor gelegten</w>
l len</w>
transl ated</w>
li a</w>
intern e</w>
arran ged</w>
Zw ischen</w>
Sch atten
Gi bt</w>
re agiert</w>
legitim acy</w>
Ser bien</w>
Den ken</w>
sch alten</w>
man agers</w>
ehr lich</w>
Verk aufs
plan en</w>
ein sei
Gesi cht
G o</w>
über wachen</w>
ig a</w>
Fre e
ori th
finan ced</w>
Ro s
unter brei
new sletter</w>
dump ing</w>
h ase</w>
fik ationen</w>
St ur
bran che</w>
L ernen</w>
Int eg
bo asts</w>
To gether</w>
P un
K h
Auswei tung</w>
Sek tors</w>
K m</w>
profession ellen</w>
li v
W all</w>
Russ lands</w>
Über gang</w>
ti les</w>
ruhi ge</w>
m ische</w>
Ma x</w>
1 10</w>
go s</w>
C A</w>
inv esti
gemeins ames</w>
Wa sch
Sub ject</w>
D amp
а н
geb ühr
fe wer</w>
ek tion</w>
dig keits
Män gel</w>
Met ro</w>
Kre ativ
Kat alog</w>
Ab fall
sü dlichen</w>
res idential</w>
neighbo urs</w>
ein geleitet</w>
comp letion</w>
I X</w>
um gehen</w>
fol der</w>
Sow ohl</w>
di tions</w>
P AR
N ICHT</w>
f lat
beri chterstat
ber ger</w>
Vorder grund</w>
pa ths</w>
f lich</w>
3 1.</w>
own ership</w>
Universi täten</w>
tic a</w>
gesu cht</w>
du p
bevölk erung</w>
S ab
Kar ri
se as</w>
no -
gün stigen</w>
Herz eg
Bur g</w>
be arbeiten</w>
Vorsitz enden</w>
Trans fer</w>
t dem</w>
gewid met</w>
Tick et</w>
Si cht
Sat z</w>
frequ ency</w>
R eh
е р
sor ry</w>
ri d
prefer red</w>
g ate</w>
electri cal</w>
ag r
Mo dul</w>
it y-
gewöhn lich</w>
a e
H ein
woh nern</w>
sugges ts</w>
sp üren</w>
Ru f</w>
Mos cow</w>
IW F</w>
Erwachsen e</w>
B A</w>
lo go</w>
is ieren</w>
heraus ra
exam ination</w>
Slov akia</w>
li fe
be unruhi
Wedn esday</w>
Um struktur
üb ung</w>
hochwer tigen</w>
defin ieren</w>
S P</w>
H alt
Besit z</w>
ver stehe</w>
ri k</w>
hei ght</w>
einig t</w>
bre ath
Frau en
s tick</w>
per su
hinzu gefügt</w>
Besit z
zu gs
zeichn ete</w>
ten e</w>
ges etz</w>
Tim es</w>
ür zt</w>
in adequate</w>
enjo ying</w>
Bestä tigung</w>
sol ved</w>
mom ents</w>
innov ativen</w>
et ten
Emp ire</w>
Be zeichnung</w>
ti a</w>
si gni
rieb </w>
mix ed</w>
d ying</w>
deser ves</w>
Souverän ität</w>
H IV</w>
G A</w>
und ry</w>
emp ty</w>
collap se</w>
Kompl ett
C ann
24 .</w>
fascin ating</w>
fahr ens
b aus</w>
Gen au
Geg ner</w>
con stra
eleg ante</w>
be zü
an ke</w>
K lo
Ex peri
unic ation</w>
thumb nail</w>
th res
on gs</w>
Erfol ge</w>
olog ischer</w>
di ving</w>
Ver ab
mäß igen</w>
land wirtschaftlichen</w>
gegeben enfalls</w>
S eries</w>
rati fication</w>
ben achteili
tri g
dat eien</w>
Le ague</w>
näch ster</w>
keines wegs</w>
iPo d</w>
her stellen</w>
Spazier gang</w>
.. ..
wher eby</w>
um es</w>
erh oben</w>
dep endence</w>
ah e</w>
P har
gi ble</w>
ger echte</w>
beg un</w>
Kooper ations
Ein es</w>
under lying</w>
thir d-
schl uss
an ger</w>
H of</w>
Ein satz
i j
europ a
di al</w>
An onymous</w>
trav ellers</w>
sich tig</w>
escap e</w>
Vereinig te</w>
Rechn er</w>
Immobili en</w>
vi c</w>
s ab
gän gi
found ations</w>
erk unden</w>
Zwei ten</w>
Gen au</w>
Beob ach
f an</w>
aci o</w>
Kön nen</w>
D .</w>
v acc
su ited</w>
stan zen</w>
a ve</w>
é r
ve z</w>
ful l-
Lu d
Got tes</w>
p it
E sp
repeat edly</w>
besonder es</w>
Niederlan de</w>
üb lichen</w>
Log is
year -
fin dung</w>
at emberau
In c</w>
8 4</w>
secon dary</w>
e eing</w>
Ins gesamt</w>
occup ation</w>
journ alists</w>
comp ete</w>
Z e
hö her
dram atic</w>
aus gehen</w>
Bef örder
Argum ent</w>
uri ties</w>
Inter governmental</w>
Caf é</w>
ök ologischen</w>
up -to-
un necessary</w>
ron t</w>
gefähr lich</w>
erst es</w>
bu </w>
Fo ot
hot el
Ehr e</w>
sozi al
bu ch
Z im
Emp loyment</w>
verb lei
Werk zeug</w>
C ô
Bla ir</w>
k r
hilfrei ch</w>
er a
U K
Energi equ
vol lem</w>
Exist enz</w>
tn ess</w>
in spiri
parti al</w>
parlament arischen</w>
is en
R evision</w>
3 00
id ance</w>
gro ss
exp anded</w>
W ind</w>
C alifor
beri chtet</w>
T amp
Mon te</w>
gesch äft</w>
big ger</w>
Wirtschaf t
P M</w>
M E</w>
tik er</w>
cook ies</w>
consider ations</w>
Anbet racht</w>
1 30</w>
ver öffentlichen</w>
sp rin
so ever</w>
ht ml</w>
cancell ation</w>
an gehen</w>
krä ften</w>
junc tion</w>
Wer be
Nichtraucher zimmer</w>
um fassen</w>
si x
offizi ell</w>
econom ically</w>
Stunden -
P is
intensi v</w>
comm it</w>
beabsich tigt</w>
auslän dischen</w>
wel le</w>
ob serve</w>
zw öl
j an</w>
gleich heit</w>
effizi enter</w>
comp lex
ass en
W ord
Sever al</w>
A ch
stärk sten</w>
In genie
Aus blick</w>
splen did</w>
schi ff
Per f
Gem ü
getr ennt</w>
Ty p</w>
Proz eß</w>
Mini stry</w>
viol ation</w>
h ence</w>
-- --
größ ter</w>
geb ene</w>
compar able</w>
Stabili täts
Qu ell
Eff ekt</w>
198 6</w>
Komment are</w>
Fish eries</w>
höch st</w>
for war
emo st</w>
Mo dus</w>
F assung</w>
verbrei tet</w>
Web -
v ary</w>
reib ungs
instru mente</w>
ett a</w>
e ure</w>
O LAF</w>
princip al</w>
beteili gten</w>
abo li
N izza</w>
zu fügen</w>
kon sequent</w>
gegen über
ear ning</w>
an forderungen</w>
ac t
Vene zu
For ts
Intern al</w>
Grupp en
C anc
tig sten</w>
st ant</w>
lö schen</w>
Publik um</w>
Monten egro</w>
Entsch lossenheit</w>
Ab lauf</w>
schrei bt</w>
ir on</w>
d än
character istic</w>
S un</w>
Kon vent</w>
timet able</w>
schwe dischen</w>
krä f
inst antly</w>
er wiesen</w>
er leb
Anmerk ungen</w>
uz zi</w>
thor ough</w>
mittel alter
elektron ische</w>
Gesetz es
Düssel dorf</w>
coast al</w>
ar z
Prof .</w>
é n
shi p
en tion</w>
bab y</w>
Con troll
rieb enen</w>
G as</w>
represent ing</w>
mer ken</w>
aus wählen</w>
gemü tliche</w>
an o
Rei ch
Ph ysi
Demok raten</w>
li vely</w>
fal se</w>
integri erte</w>
genu inely</w>
geb ot
with draw</w>
Sek unden</w>
Fot ogra
exam ined</w>
ex press
N ation</w>
Migr ation</w>
E del
Cor poration</w>
proz eß</w>
lo aded</w>
listen ing</w>
j ing</w>
bu g</w>
ap i
Ver sicherungs
T V
Chi ef</w>
sch wi
miet ung</w>
gün stig</w>
gener ell</w>
exis tieren</w>
ev o</w>
deb ating</w>
c ts</w>
Kompet enzen</w>
Geb ühren</w>
E valu
un zäh
ot t
h ang
erh eben</w>
ch ens</w>
car te</w>
Fil ter</w>
att ack
Verbrau chern</w>
T E
ter -
sm art</w>
pres ti
ge fühl</w>
ac o</w>
Qu ark</w>
K DE</w>
Er reichung</w>
inform al</w>
gi ft</w>
Elec tron
purch ased</w>
op tional</w>
an genen</w>
L om
hi elten</w>
fortun ate</w>
Mar co</w>
Aspek ten</w>
gr aben</w>
P atten</w>
bedro ht</w>
H ör
stell ten</w>
over -
ar tik
Pra g</w>
Br ut
schrif tliche</w>
op enness</w>
grenzüberschrei tenden</w>
bec ken</w>
Mo dern</w>
Lev el</w>
Flü cht
sl opes</w>
kür z
her bei
bü rokrati
Aus rüstung</w>
wid men</w>
lo ans</w>
Wahr schein
Al ps</w>
р о
zi pl
vertr aut</w>
th otel</w>
comm odi
spe eches</w>
s ample</w>
feat uring</w>
del ete</w>
aut umn</w>
Um wel
Rati fizierung</w>
R ic
Ev ent</w>
Bek ann
n es</w>
bl ind</w>
Heim at</w>
posi tion
at ri
Stell en
Bestell ungen</w>
inten tions</w>
for emost</w>
C lau
tex tile</w>
Pal ette</w>
Lehr er</w>
se y</w>
möglich keit</w>
fall ing</w>
ch at</w>
agem ent
Sach ver
ti gem</w>
sou l</w>
rei ches</w>
klein ere</w>
Stor age</w>
St ri
fi re
appar ent</w>
ad ult</w>
St ahl
kap it
int ly</w>
spec trum</w>
r ating</w>
qu est</w>
fam il
ad res
W ett
aff ili
Bev or</w>
räsi denten</w>
is tisch</w>
hän d
haf ter</w>
gest atten</w>
cont am
bewu ßt</w>
Up dates</w>
J on
Gro w
Gesch en
sp annen</w>
est ri
hoh es</w>
frei er</w>
altern atives</w>
R ennen</w>
Nutz ungs
resta ur
c as</w>
bew egt</w>
inst re
frü h</w>
M ani
m äh
Clu bs</w>
19 45</w>
strö m</w>
kosten losen</w>
gen auer</w>
arab ischen</w>
ar res
access ories</w>
Aut or</w>
ähn lichen</w>
sub sequently</w>
hor se</w>
Sour ce</w>
Sch ad
Ru ß
r an</w>
pap ers</w>
Vene dig</w>
I deal</w>
zei gte</w>
stri ke</w>
simultane ously</w>
ep is
w ast
tra ktionen</w>
ide ally</w>
sac ri
eth ical</w>
dest inations</w>
Ash ton</w>
ü </w>
wei chen</w>
s ä
s unny</w>
n -
mor eover</w>
L ohn
Beh örde</w>
n esses</w>
intu i
i ent</w>
compl aints</w>
accur acy</w>
Sy mb
La den</w>
ter ed</w>
stät ten</w>
co decision</w>
Ab teilung</w>
k unden</w>
in spec
il d</w>
feh len</w>
design er</w>
des ktop</w>
bei behalten</w>
Moroc co</w>
L IN
Hist ory</w>
manufactur ed</w>
fri end
f ell</w>
er werben</w>
Sup er</w>
dah in
af ford</w>
überra scht</w>
ä digung</w>
förder ung</w>
eill ance</w>
destro y</w>
affor dable</w>
Vor rang</w>
Er schein
Ak tivi
finanzi erung</w>
bran ch</w>
Gre ens</w>
po sts</w>
sa al</w>
resp ects</w>
den d</w>
cal endar</w>
V al</w>
N G</w>
Kon vention</w>
Austr alien</w>
2 2.</w>
pen sions</w>
ak u
W eine</w>
Stei gerung</w>
Statisti ken</w>
Rechn ungs
B ER
sp ür
exp enses</w>
Slowak ei</w>
Gemein den</w>
vie wing</w>
ver mittelt</w>
Sol daten</w>
zu geben</w>
terri ble</w>
mechan ical</w>
de voted</w>
Durch setzung</w>
Ant oni
um gehend</w>
leg er</w>
kur se</w>
fal sche</w>
Un s</w>
Fest platte</w>
öffent licher</w>
r ent
meas urement</w>
geb nisse</w>
UR L</w>
Ratsvor sitz
unterschied licher</w>
arran gement</w>
a ñ
D S</w>
Col om
7 ,
ol f</w>
b its</w>
Pflan zen
Klar heit</w>
excur sions</w>
en cryp
u c
ri t</w>
log ic</w>
P ed
Wich tigkeit</w>
Fl ori
co very</w>
chem ische</w>
and al
Vermögen s
5- 00
vor ange
sp ak
r ung</w>
o is</w>
der art</w>
Hä fen</w>
Ar ts</w>
zah ler</w>
t onn
sol ch</w>
guarant eeing</w>
Aus richtung</w>
zer o</w>
co st-
ge gn
es o</w>
ch ur
accord ingly</w>
Ur sache</w>
Schicks al</w>
T ak
zwei ter</w>
zwei tens</w>
rec ru
kor ea</w>
WT O-
Kenn tnisse</w>
ti ps</w>
surv ey</w>
ex pres
behaup tet</w>
Vil lage</w>
Schul z</w>
K ein</w>
Ha iti</w>
7 9</w>
er teilen</w>
Min er
wachsen de</w>
is -
import antly</w>
Y outh</w>
verur teilen</w>
spo ts</w>
lan gem</w>
kol lek
clar ity</w>
ar ed</w>
Garanti en</w>
Dynam ik</w>
sen der</w>
all ed</w>
O therwise</w>
Grow th</w>
dies bezü
condem n</w>
Palestini ans</w>
Mar ok
198 7</w>
Äu ßer
com posed</w>
anzu wenden</w>
S ports</w>
For mul
198 5</w>
tri bute</w>
auth ors</w>
Werk zeuge</w>
Vor gehensweise</w>
S cre
An la
pharmac eu
la ying</w>
d den
cust om</w>
continu ously</w>
sp anische</w>
motor way</w>
lief erung</w>
jähr lichen</w>
ger ingen</w>
answer ed</w>
S ection</w>
Li brary</w>
L T</w>
Ex port</w>
kombin iert</w>
insp ection</w>
Au dio</w>
W ä
Volk spartei</w>
Plätz e</w>
L AN
K eine</w>
trage dy</w>
res idents</w>
rel ief</w>
preser ved</w>
jo intly</w>
ex pos
Nordi c</w>
k et</w>
for es
Se ele</w>
trans action</w>
it ations</w>
inclu sive</w>
for gotten</w>
Pro gram</w>
F I</w>
sch lu
p ace</w>
Mittelme er</w>
L au
K lassi
Her kunfts
ref used</w>
re vised</w>
Y O
hel l</w>
unden e</w>
trag ic</w>
niedri gen</w>
m ed
k es
aktu alisiert</w>
Kommissionspräsi dent</w>
olog ne</w>
gab en
cent ers</w>
H ände</w>
Fot o
viol ent</w>
medi terran
flexi bel</w>
e ve</w>
bewer tet</w>
Sol ana</w>
Latein amerika</w>
F leisch</w>
En ts
un be
consi sten
aus es</w>
verur sachen</w>
Im mer</w>
Ber gen</w>
tsp rin
fahr zeuge</w>
af raid</w>
Forts etzung</w>
Ferienwoh nungen</w>
Blo ck
publish </w>
p ain</w>
op pose</w>
komplex e</w>
con s</w>
Mensch heit</w>
J ord
Er krank
C ho
ver tritt</w>
fif th</w>
bu ying</w>
be weisen</w>
Fel der</w>
ent a</w>
Di esen</w>
üst et</w>
z o</w>
ver lag
termin al</w>
gehöri ge</w>
anzu passen</w>
Willi am</w>
St rom</w>
SD L</w>
Partner ship</w>
K au
Ira q
G O</w>
Entwicklungs hilfe</w>
umfang reichen</w>
part ments</w>
ma gn
bli cken</w>
Bet reiber</w>
stopp ed</w>
certi fication</w>
bro ader</w>
Zuverlässi gkeit</w>
Ver sprechen</w>
ä der</w>
wid th</w>
gr and</w>
beweg ung</w>
befür worten</w>
Welt krieg</w>
F C</w>
ori entation</w>
juris diction</w>
Sow jet
ul ar
inn eren</w>
gemü tlichen</w>
behavi or</w>
ь </w>
s é</w>
ex isti
ess ing</w>
bi om
ausgestatt ete</w>
F un
Erei gnis</w>
oblig ator
erheb lichen</w>
Wün schen</w>
In halten</w>
reg rett
gebäu de</w>
er arbeitet</w>
ck ets</w>
a por
Kür ze</w>
marg in
Si eg
Aus sagen</w>
Ar c
doub ts</w>
di eren</w>
cei ling</w>
F ür
wi t
voc ational</w>
Zimmer beschreibung</w>
W ater</w>
H alle</w>
Franc isco</w>
res cu
kre di
dead line</w>
t ü
m ati
ar gue</w>
G AP</w>
t é</w>
promot ed</w>
pl er</w>
ass urance</w>
Weiter hin</w>
W art
Rein igung</w>
Li by
Kl ing
E leg
re ci
presti gi
mo tivi
g ast
Tick ets</w>
Sch reib
Cop yright</w>
wick lung</w>
m its</w>
kön ne</w>
F ang
Extern al</w>
bege gnen</w>
He ads</w>
S K</w>
K ä
Doc um
relax ed</w>
komplex en</w>
id yl
S ark
Off enheit</w>
Einzel heiten</w>
Altern ativen</w>
tur en</w>
statt gefunden</w>
nä her
commer ce</w>
Minist err
wa i
tre as
ograf ie</w>
Te ch</w>
Kenn zeichnung</w>
J ean</w>
Haushal ts</w>
E-Mail- Adresse</w>
Con serv
п о
no body</w>
l are</w>
Boo t</w>
23 .</w>
typ isch</w>
fin ds</w>
ari at</w>
amm er
Sou thern</w>
S ul
Problem atik</w>
zentr aler</w>
g ingen</w>
enthusi as
br ands</w>
ier tes</w>
T ali
¶ </w>
zu stande</w>
ge ehrte</w>
cht ete</w>
Vers and
Misch ung</w>
präz ise</w>
geleg ene</w>
form ular</w>
woh nt</w>
n ur
c en
be fin
aff ecting</w>
B A
respek tieren</w>
Trag ö
S eri
Rech en
P hil
per pet
hon est</w>
angekün digt</w>
p rel
p ag
foc uses</w>
arbei teten</w>
K G</w>
Gesi cht</w>
ti e</w>
r ation
Sü do
Liefer anten</w>
Chanc en
plan e</w>
pel ine</w>
ni c
klär en</w>
Li b
L ot
vi able</w>
u xe</w>
trop ical</w>
s ake</w>
oo t</w>
forts etzen</w>
fer tigung</w>
deut liche</w>
Ver heu
y- to-
uneingesch ränkt</w>
short- term</w>
län gerung</w>
aus wirken</w>
Bet racht</w>
inn ere</w>
erlei chtert</w>
b icy
as er</w>
Nach druck</w>
NE W</w>
H ans</w>
spek tak
ru fe</w>
p as</w>
klär t</w>
d ing
con version</w>
repub lik</w>
foc using</w>
eleg anten</w>
da vor</w>
bel ongs</w>
alis ing</w>
L ager</w>
la di
elec toral</w>
einig es</w>
ass ured</w>
an hal
L en
Commer ce</w>
Ch oo
C lim
Besch ränkungen</w>
di en</w>
Sa int-
Rei cht
Netz e</w>
Lab our</w>
J an</w>
Bewus stsein</w>
wär tige</w>
person en</w>
Finn ish</w>
remo val</w>
modi fy</w>
l ü
hin e</w>
Califor nia</w>
k new</w>
Vor red
quanti ty</w>
m ieden</w>
do g</w>
dep lo
ä ck</w>
stand ardi
renew ed</w>
regi onen</w>
i let</w>
gem essen</w>
att ended</w>
Gericht sh
health care</w>
gest artet</w>
Zur ich</w>
Wiss ens
techn isch</w>
publish ing</w>
medizin ische</w>
jüng ste</w>
dr ängt</w>
ari b
ad -
S L</w>
Ori enti
Bau ern
whe el</w>
so genannte</w>
ac tor</w>
Sch ö
with draw
w unden</w>
ver trauen</w>
up-to- date</w>
uni vers
Zu cker
Gesetz geb
Sei ten
Kon zer
vor liegt</w>
vis its</w>
et tet</w>
der selben</w>
ar range</w>
Wik ic
Dokum ent
vermut lich</w>
st ein
russ ische</w>
region aler</w>
dimen sions</w>
wir ft</w>
tra -
alis ierungs
Zeit plan</w>
Treib haus
S zen
Par li
Geb ir
taus end</w>
ref use</w>
lin ing</w>
ing ent</w>
bu l</w>
K la
t e-
sign als</w>
s culp
koh är
gen öss
d äm
Verheu gen</w>
rec all</w>
k it</w>
bu cht</w>
s ed
mm ing
f on
du stri
at on</w>
Gu te</w>
D oh
‚ </w>
prosp ect</w>
integr ity</w>
er vice</w>
cho se</w>
Ziel setzungen</w>
österreich ischen</w>
th es</w>
kur zer</w>
install ations</w>
endgül tige</w>
ch eck-
S ah
K ey
F ans</w>
D av
öh ne</w>
st ops</w>
r and
pro gressive</w>
eh men
cam eras</w>
autom otive</w>
Ministerp räsident</w>
E .
zwei f
transi tional</w>
ec ks</w>
conver t</w>
Er öffnung</w>
AC H</w>
tra ins</w>
Wahr ung</w>
Empf ang</w>
organ ize</w>
ju dge</w>
er t
advis e</w>
Origin al</w>
EG -
wunder schöne</w>
tri eben</w>
Reg en
Know -how</w>
For d</w>
Cont act</w>
realis iert</w>
p ack</w>
of tware</w>
lei </w>
empf ängt</w>
R y
N et</w>
Über sicht</w>
what soever</w>
stres sed</w>
privileg ed</w>
mis sed</w>
express ly</w>
Minder heit</w>
M illion</w>
Con n
Bau m
An f
rl pool</w>
monum ents</w>
basi cally</w>
Rep rä
sti l</w>
dec lare</w>
angeneh me</w>
Süd afrika</w>
Schl ag
Protok olls</w>
K lin
In kraft
Der zeit</w>
Über nahme</w>
si en</w>
resear chers</w>
offici ally</w>
mi ß
deser ve</w>
adjust ment</w>
Pro ph
li schen</w>
get rieben</w>
Schn ell
ent ei
S av
z ar
tatsäch lichen</w>
fair en</w>
environment ally</w>
N ap
Aus nahmen</w>
ke wise</w>
Sk i</w>
Galile o</w>
politi ken</w>
er weisen</w>
em anden</w>
at -
F R
24- Stunden-
voll stän
verbin dungen</w>
bet riebe</w>
Zus ammens
Vo y
Lebensmittel sicherheit</w>
B ag
Г ј
å </w>
ver wiesen</w>
typ ically</w>
ti gh
leb enden</w>
en .
ab ul
Ti bet
G PS</w>
thor ou
oni al</w>
ma il
cat alogue</w>
Mittelme err
Mass age</w>
fair e</w>
Nach mittag</w>
Bet rifft</w>
Bau ern</w>
pres idential</w>
Kre uz
Georgi en</w>
197 0</w>
wür digen</w>
her um</w>
ci ón</w>
I stan
unterbro chen</w>
post ed</w>
pak et</w>
moder ner</w>
unk now
nicht -
erwäh nten</w>
bir d</w>
Repres entative</w>
o date</w>
ein sch
dri ves</w>
del ays</w>
certific ate</w>
Syri en</w>
S S</w>
so for
min i</w>
erforder liche</w>
authori zed</w>
and al</w>
Sh ang
Produk tivität</w>
M s</w>
plan ung</w>
occup ied</w>
exhi bitions</w>
credi ble</w>
Or der</w>
v ine
sche dule</w>
läu fi
eu s</w>
C ologne</w>
ver e</w>
erstre ckt</w>
con i</w>
an erkennen</w>
Zerti fik
Olymp ic</w>
Er arbeitung</w>
neigh bourhood</w>
Tari fa</w>
R ass
Mi lo
EI B</w>
ung er
pl ur
pain ting</w>
ger inger</w>
begrün det</w>
soldi ers</w>
dr ängen</w>
S po
un certainty</w>
genie ßt</w>
ens hip</w>
ann a</w>
ag gres
Ver fahrens
form uliert</w>
T aten</w>
T A</w>
H änden</w>
verzi chten</w>
ut en
promis ing</w>
observ ation</w>
GU E</w>
G ame</w>
pas sion</w>
w och</w>
Gro ßen</w>
General sekre
Chancen gleichheit</w>
popul ations</w>
ch ungs
ar rest</w>
Land wirtschafts
ori sten</w>
oo th</w>
kö mm
ein st</w>
dur ation</w>
wh enever</w>
newsp aper</w>
an passen</w>
Il lu
zu gestimmt</w>
mo vies</w>
komfort ablen</w>
interess anten</w>
tow er</w>
gu es</w>
be zeichnen</w>
absur d</w>
vor sieht</w>
ster ing</w>
mitt ing</w>
min es</w>
gro und
geeign eten</w>
pat tern</w>
Zerstör ung</w>
Dro gen</w>
fi ehlt</w>
H our</w>
Fisch ler</w>
verab schieden</w>
v .</w>
sover eign</w>
on y
di an</w>
L aut</w>
Fre ed
F is
ursprün gliche</w>
t one</w>
ro w
ign ore</w>
geb ühren</w>
frei ght</w>
zur zeit</w>
x en</w>
wh el
pro menade</w>
gi pf
g ste</w>
d un
benefici al</w>
achiev ements</w>
Mac ed
Her kunft</w>
ten sion</w>
ic on</w>
Re f</w>
Bur eau</w>
н а
religi ösen</w>
proxim ity</w>
kü ste</w>
emerg ed</w>
Mil an</w>
I A
pp s</w>
mechanis men</w>
c -
bes ich
be ef</w>
verein t</w>
frequ ent</w>
auslän dische</w>
ag nen</w>
Sp ani
Sel ect</w>
H OT
For ce</w>
30 -
neut ral</w>
glich keit</w>
el f</w>
b ag</w>
as onic</w>
S ex
Ju gosla
Inn er
sand y</w>
L eben
In clu
surv eillance</w>
Tun isi
Rück gang</w>
Kur z</w>
Bürokrati e</w>
über mitteln</w>
rele ases</w>
is oli
auf nahme</w>
F all
Ab bau</w>
troub le</w>
lei chte</w>
techn ischer</w>
h ec
eg a</w>
Every thing</w>
z immern</w>
it z</w>
er arbeiten</w>
Sol utions</w>
S et
Langu age</w>
un usual</w>
ret ten</w>
gel ernt</w>
ft -
explic itly</w>
IB M</w>
Go th
Auf hebung</w>
rän kte</w>
angebo te</w>
Pri ze</w>
I ron
Con s
Bri ef
schen ken</w>
W .</w>
St ef
Mobil telef
Gewin n</w>
Bar ri
B rücke</w>
ökonom ische</w>
ist e</w>
for est
et or
ch tigen</w>
I bi
Def ence</w>
pl ätzen</w>
liter ature</w>
er öffnen</w>
archi ve</w>
Privat sphäre</w>
F isch</w>
C o</w>
th row</w>
preci ous</w>
hi re</w>
gewünsch te</w>
geschm ack
feed back</w>
employ ers</w>
ab gesehen</w>
J ur
v als</w>
sa iling</w>
prec ision</w>
el det</w>
diesel ben</w>
Un til</w>
In dex</w>
Imm un
ver arbeitet</w>
pf e</w>
oc ol
machin ery</w>
det eri
bein ahe</w>
Zun ahme</w>
E cht
susp ended</w>
prestigi ous</w>
n ament</w>
ex qu
b le
wahr e</w>
par ameter</w>
institu te</w>
ge habt</w>
fitt ed</w>
U P
Nichtraucher zonen</w>
Mitt woch</w>
i ka</w>
h är
Ver fahrens</w>
k ä
fu hren</w>
distinc tion</w>
Mini bar</w>
Liber alen</w>
geh e</w>
er ischen</w>
cancell ed</w>
T P</w>
1 40</w>
ne o
mark ing</w>
gr anting</w>
ck -
log istics</w>
gel angt</w>
trieb </w>
stab il
prin zip</w>
gen te</w>
eist ungen</w>
Po ker
G P</w>
F ax
Bei jing</w>
äus ern</w>
sicher er</w>
re tail</w>
identi fication</w>
Wieder herstellung</w>
medizin ischen</w>
läu fe</w>
arbei tungs
an ni</w>
amp s</w>
Ver ordnungen</w>
Lt d</w>
4 00
zeichn eten</w>
fl ying</w>
ak tivitäten</w>
Terr oristen</w>
Tab elle</w>
S por
Ro th
Klimawand els</w>
Ameri kas</w>
versch affen</w>
entsp ann
concer ts</w>
angen ommenen</w>
G ut</w>
Alter s
zu gelassen</w>
Str asse</w>
St euer</w>
y ang</w>
um so</w>
to ilet</w>
taxpay ers</w>
pre mium</w>
post al</w>
cor por
zw eck
w öch
re fur
kl en</w>
diesel be</w>
Eff ek
Ch ri
änder ungen</w>
inter active</w>
eigent liche</w>
ci ally</w>
chem icals</w>
b aut</w>
an on</w>
Exper im
ssi er</w>
mei ster
dah in</w>
Rechn ung
ver mieden</w>
spieg eln</w>
mark tes</w>
[...]
