, 11485021
. 9041308
the 6482464
in 3624501
of 3394152
and 3087007
die 3063987
der 2983517
to 2912072
und 2860768
a 2040008
is 1567723
that 1167998
zu 1138077
for 1111200
den 1083947
von 1059216
ist 941031
on 904275
für 872335
an 795137
mit 769645
with 758926
( 755438
das 754969
The 752453
) 747885
be 732376
are 728231
auf 725701
des 714849
as 674393
I 657869
- 650190
eine 649833
this 615186
es 609095
Sie 586607
im 586349
: 582175
it 574361
nicht 563110
werden 545401
&quot; 541853
we 535837
ein 529533
by 523785
have 517125
dass 513017
dem 511283
sich 501863
not 501677
Die 500837
you 491231
wir 480324
will 466582
auch 439513
which 437695
or 431419
at 429073
from 425270
was 424205
sind 405407
wird 381267
has 375849
als 373660
um 349010
s 341645
In 336114
can 327188
ich 326855
oder 324591
all 323947
our 314248
-@@ 307642
also 306607
haben 304099
über 303889
European 295751
so 291358
einer 284993
/ 284236
er 283065
hat 283020
! 279642
? 277881
sie 277407
&apos; 274271
wie 272899
einen 261969
zur 259626
aus 252128
Das 251596
bei 249911
Union 242900
your 241586
&apos;s 236391
its 234977
Ich 232078
können 229903
– 225693
We 225468
am 224505
but 221437
one 212880
would 212414
more 211141
einem 209644
’ 208577
their 207696
been 201788
nach 201569
This 198707
zum 196470
It 195226
Wir 195001
diese 193946
uns 191916
nur 191004
durch 185563
should 184403
kann 184364
Mr 182073
Der 181270
un@@ 175653
; 173099
dieser 172713
de 172429
very 168871
Commission 168039
must 165814
do 165791
... 164950
Es 164291
us 163665
vor 162332
daß 160146
they 160045
Kommission 159989
er@@ 159931
there 159478
noch 159421
new 157338
“ 156713
wurde 156276
other 156153
time 154771
S@@ 154154
only 154153
like 153248
EU 153085
aber 151550
ver@@ 150546
about 150155
Hotel 148393
Herr 147500
B@@ 146711
wenn 146650
man 146467
sehr 143381
sein 143132
o 142839
müssen 142408
President 140281
s@@ 139445
an@@ 137135
k@@ 137128
t@@ 136969
these 135471
en@@ 135364
te 134039
T@@ 133693
P@@ 133170
t 131353
ten 131103
who 130475
en 130345
up 129938
war 129711
no 128611
diesem 127828
alle 125958
if 125691
A 124787
e 124459
K@@ 123991
H@@ 123677
in@@ 123280
out 122587
mehr 122189
% 122094
any 121693
Europäischen 118970
ab@@ 118629
Europe 118586
re@@ 118241
C@@ 117894
into 116993
were 116940
people 116757
G@@ 116654
D@@ 116438
ing 116326
2 115452
Parliament 115393
bis 115329
M@@ 114220
möchte 112239
L@@ 111773
F@@ 111700
p@@ 111536
such 110815
eines 110125
f@@ 109995
what 109448
d@@ 109220
1 108476
use 108194
States 108051
than 107401
b@@ 107148
countries 106275
report 106269
ed 105249
Member 105080
my 105031
vom 104365
need 103714
A@@ 103647
ihre 103435
when 103350
his 102285
most 102121
some 102087
Präsident 101917
well 100742
gibt 100706
now 99518
hotel 99119
first 99102
unter 99091
z@@ 99076
sowie 98778
work 98679
dieses 98406
g@@ 98256
R@@ 97801
make 97487
E@@ 97457
them 97427
Council 97415
many 97107
important 96645
able 96644
W@@ 95465
N@@ 95442
y 94972
c@@ 94871
between 94863
hier 93381
system 92742
way 92248
ge@@ 91958
n@@ 91756
e@@ 91626
take 91620
because 91412
m@@ 91379
zwischen 91158
muss 90154
3 90007
m 89510
Ver@@ 89375
Bericht 88270
keine 88079
„ 88006
unsere 87911
ein@@ 87657
An@@ 87615
al@@ 87171
he 87058
ch@@ 86912
da 86528
made 86476
information 86250
Ihnen 86187
Parlament 86016
o@@ 85788
V@@ 85457
ers 85085
years 84594
just 84219
If 84076
had 83885
support 83542
i@@ 83117
l@@ 83111
anderen 82383
st@@ 81821
two 81500
&#91; 81179
&#93; 80932
ation 80816
over 80736
el@@ 80622
world 80479
those 80319
Mitgliedstaaten 80027
where 79705
al 79436
Wenn 79257
Europa 79164
aus@@ 78891
ung 78417
” 77962
immer 77962
dies 77798
v@@ 77713
i 77551
h@@ 77339
policy 77311
dann 77237
end 77178
being 76480
y@@ 76274
Im 75861
el 75775
di@@ 75692
O@@ 75634
even 75266
ar@@ 75001
or@@ 74794
may 74772
diesen 74761
gegen 74628
Ab@@ 74259
damit 74010
me 73659
u@@ 73636
wurden 73597
sch@@ 73430
a@@ 72701
Diese 72517
good 72439
5 71749
d 71494
right 71435
see 71312
Frau 71298
year 71257
order 71181
4 71048
Zeit 71018
area 70872
ent@@ 69778
es@@ 69708
le 69583
Ihre 69450
j@@ 69328
unserer 69282
de@@ 69074
ter 69020
here 68379
habe 68333
r@@ 68055
part 68004
place 67932
You 67825
seine 67616
same 67575
market 67224
jedoch 67143
l 66901
through 66782
sondern 66619
after 66237
Sch@@ 66210
Europäische 65876
possible 65544
own 65451
neue 65445
As 65227
10 65113
auf@@ 64997
be@@ 64976
ate 64956
I@@ 64825
&amp; 64785
J@@ 64284
.@@ 64273
Menschen 64216
heute 64161
There 64097
political 63896
on@@ 63687
li@@ 63669
could 63667
ungen 63452
used 63296
vor@@ 63076
Jahr 62832
then 62677
economic 62593
For 62467
Z@@ 62412
development 62358
want 62337
k 62185
et 62144
gen 62032
within 61953
bereits 61539
zu@@ 61061
rights 60946
how 60723
both 60486
finden 60340
against 60304
europäischen 60304
find 60210
mich 60130
sollte 60040
much 59936
at@@ 59787
international 59765
therefore 59726
Jahren 59676
ihrer 59649
neuen 59618
ti@@ 59484
ro@@ 59424
ts 59318
ohne 59263
ungs@@ 59125
w@@ 58986
under 58649
si@@ 58528
andere 58385
does 58323
country 58016
point 57718
denen 57301
room 57242
public 57149
Rat 56865
Ein@@ 56780
zwei 56755
without 56629
sollten 56434
Entwicklung 56293
ge 56116
et@@ 56073
Frage 56004
service 55889
services 55632
um@@ 55618
last 55615
allen 55578
number 55424
great 55375
machen 55200
ganz 55162
bietet 54965
still 54920
free 54793
available 54719
ri@@ 54497
geht 54473
em@@ 54284
e-@@ 53786
Mit 53669
different 53612
liegt 53557
fact 53388
view 53159
Aus@@ 53123
sten 52882
social 52833
n 52726
viele 52645
say 52582
course 52569
am@@ 52455
Ein 52371
Welt 51547
already 51476
Unternehmen 51364
6 51157
th@@ 51104
before 51091
future 51045
believe 51044
dazu 51042
too 50959
get 50898
That 50821
la 50559
know 50519
ar 50395
weil 50363
today 50362
über@@ 50360
Er@@ 50284
jetzt 50181
wieder 50083
products 49923
enden 49913
St@@ 49896
In@@ 49808
3@@ 49556
U@@ 49439
ur@@ 49409
30 49342
set 49341
20 49303
But 49245
per 49216
denn 49178
seiner 49101
ens 48962
cannot 48952
ischen 48849
case 48772
think 48646
Informationen 48644
2009 48635
Lage 48635
darauf 48475
day 48464
Vor@@ 48425
process 48379
ab 48242
Bereich 48168
data 48146
her 48058
is@@ 48054
g 47952
dis@@ 47951
offers 47943
op@@ 47843
level 47784
einige 47720
se 47674
ad@@ 47572
Maßnahmen 47510
ische 47486
schon 47480
city 47348
dafür 47336
selbst 47075
ob 46433
human 46383
ated 46370
So 46342
rooms 46281
Commissioner 46167
quality 46084
ern 46066
sp@@ 46040
situation 45850
financial 45656
during 45530
Al@@ 45501
le@@ 45468
ihren 45447
Jahre 45421
ihr 45405
best 45318
geben 45178
national 45149
Herrn 45038
high 44909
it@@ 44868
bin 44816
Eine 44589
issue 44582
Dies 44565
example 44512
mir 44474
Arbeit 44474
viel 44464
debate 44455
said 44373
bar 44282
allem 44265
means 44246
every 44209
small 44060
7 43923
question 43889
würde 43864
ra@@ 43840
liche 43833
Our 43813
including 43762
meine 43744
gut 43742
ale 43627
proposal 43610
However 43491
since 43491
st 43444
help 43426
All 43359
wollen 43354
sagen 43255
business 43242
Land 43205
unseren 43196
go 43008
each 42980
Für 42664
ent 42663
form 42417
access 42323
offer 42278
long 42231
ende 42012
problem 41918
Und 41782
China 41760
em 41650
stehen 41615
lo@@ 41582
ch 41554
kommen 41474
Zimmer 41466
etwas 41416
clear 41394
während 41391
position 41349
wo 41240
8 41201
ag@@ 41137
tes 41125
S 41109
particular 41101
Länder 41084
os 41020
stellen 40968
nun 40906
lassen 40896
Wie 40877
waren 40684
möglich 40676
areas 40638
doch 40577
ins 40567
give 40509
next 40473
few 40428
measures 40204
15 40141
common 40131
provide 39949
agreement 39929
Committee 39849
4@@ 39822
co@@ 39812
put 39633
as@@ 39599
bi@@ 39574
seit 39531
energy 39506
taken 39429
2@@ 39416
based 39359
On 39358
citizens 39340
2010 39315
large 39267
insbesondere 39246
lichen 39235
p 39057
� 39028
ensure 38908
z 38811
lich 38686
again 38640
ant 38595
sehen 38555
systems 38531
erhalten 38281
ter@@ 38269
back 38235
three 38123
steht 38091
come 38088
Unterstützung 38084
us@@ 38057
ersten 38042
C 37995
&#124; 37969
Rahmen 37968
further 37958
Art 37938
problems 37932
security 37908
eren 37894
ol@@ 37762
company 37656
change 37617
Ländern 37597
Un@@ 37536
Y@@ 37535
far 37525
T 37312
Internet 37283
Zusammenarbeit 37255
ic 37214
du 37175
while 37169
2008 37149
Parlaments 37149
x 37132
Teil 37094
using 37076
necessary 37050
50 37026
ber@@ 37000
beim 36982
why 36975
ating 36936
given 36859
however 36778
shall 36758
ak@@ 36746
besteht 36644
located 36573
politischen 36569
sk@@ 36533
stay 36518
ni@@ 36492
To 36421
Fall 36350
vote 36282
soll 36273
Vorschlag 36218
With 36199
life 36183
f 36175
ie 36163
ste 36153
They 35955
less 35952
cooperation 35939
einfach 35881
ul@@ 35829
tun 35823
needs 35749
eg@@ 35711
Bei 35635
always 35621
group 35600
At 35439
Stadt 35431
Group 35389
down 35342
And 35337
seinen 35301
real 35264
law 35226
Fragen 35216
wichtig 35214
im@@ 35212
ja 35137
deren 35115
Problem 35075
drei 35042
ly 35038
einmal 35035
hope 35017
wäre 34992
USA 34967
United 34909
Ziel 34894
letzten 34884
Namen 34809
main 34762
gen@@ 34757
qu@@ 34745
action 34739
dabei 34738
au@@ 34693
km 34616
better 34585
c 34585
Bürger 34475
ations 34472
X@@ 34458
b 34444
12 34440
EU-@@ 34291
What 34262
around 34223
ap@@ 34129
men 34120
House 34079
ert 34069
Kollegen 34045
5@@ 34031
x@@ 34031
ac@@ 33928
zi@@ 33834
große 33825
con@@ 33823
Mar@@ 33725
working 33678
power 33656
großen 33652
unter@@ 33641
did 33596
worden 33591
ma@@ 33560
ke 33544
bringen 33517
protection 33506
Daten 33465
Was 33389
end@@ 33323
Recht 33293
Auf 33287
r 33282
Verfügung 33205
System 33204
D 33203
production 33156
weiter 33155
18@@ 33080
Er 33048
Ihr 33015
programme 32984
current 32905
welche 32834
special 32820
Seite 32800
Bedeutung 32778
These 32765
Community 32757
become 32750
ings 32723
est@@ 32629
om@@ 32624
Aber 32616
US 32605
legal 32594
Sicherheit 32590
u 32570
ä@@ 32562
Auch 32525
When 32493
centre 32479
terms 32413
present 32367
E 32349
der@@ 32345
open 32333
ine 32324
together 32317
Möglichkeit 32287
land 32269
whether 32268
trade 32264
che 32262
ere 32261
particularly 32258
wissen 32171
another 32135
di 32057
old 32020
chen 32020
eigenen 31988
full 31982
age 31934
gehen 31921
page 31912
9 31898
children 31867
é@@ 31845
bieten 31801
Nach 31783
management 31701
result 31689
Regierung 31644
basis 31637
que 31605
Als 31549
* 31513
100 31439
Sp@@ 31416
Mrs 31385
muß 31370
vi@@ 31345
conditions 31180
Ar@@ 31177
2007 31167
region 31112
Thema 31112
th 31107
issues 31093
davon 30962
könnte 30957
ene 30947
alles 30920
Re@@ 30884
mo@@ 30872
ates 30852
daher 30831
Probleme 30795
aller 30786
companies 30668
ed@@ 30649
kein 30631
sh@@ 30536
-S@@ 30516
ous 30508
state 30499
darüber 30497
experience 30473
sen 30466
site 30404
weitere 30398
Kunden 30323
Staaten 30321
ens@@ 30312
befindet 30289
certain 30287
führen 30264
Weise 30258
control 30247
ten@@ 30214
6@@ 30212
Kommissar 30196
se@@ 30192
ger@@ 30192
water 30179
sowohl 30174
B 30118
Politik 30104
line 30085
second 30068
den@@ 30046
women 30040
O 30003
Ihrer 30001
role 29976
various 29873
erreichen 29857
po@@ 29851
her@@ 29847
2000 29846
Di@@ 29837
especially 29808
industry 29779
whole 29738
German 29677
ted 29669
modern 29642
sector 29621
les 29587
besonders 29587
really 29582
ans 29564
Euro 29558
eb@@ 29542
Ende 29528
est 29505
hatte 29478
close 29403
government 29368
matter 29365
meiner 29343
done 29331
making 29323
Zukunft 29252
ec@@ 29245
health 29237
ei@@ 29197
7@@ 29183
look 29146
local 29144
private 29127
wirklich 29121
account 29094
ting 29059
Be@@ 29035
Service 29022
unterstützen 29013
unser 29002
25 28997
location 28996
Beispiel 28983
stellt 28963
+ 28950
19@@ 28931
ihnen 28905
natürlich 28868
budget 28855
create 28852
entfernt 28848
innerhalb 28795
verschiedenen 28786
name 28775
specific 28754
global 28743
inter@@ 28734
vielen 28648
staff 28643
Germany 28591
00 28556
respect 28523
gegenüber 28520
research 28362
days 28283
Rolle 28103
Richtlinie 28087
major 28083
going 28065
Auf@@ 28026
isch 28012
software 28001
P 27973
Weg 27954
internationalen 27891
million 27885
ut@@ 27881
ir@@ 27841
möchten 27824
Pro@@ 27759
Con@@ 27755
ser@@ 27744
2006 27739
a-@@ 27730
kommt 27729
_ 27720
away 27682
zwar 27591
something 27556
8@@ 27546
pro@@ 27539
Ihren 27537
project 27523
several 27478
itself 27419
off 27419
ger 27418
continue 27406
Frauen 27369
ot@@ 27363
ck@@ 27278
ze 27241
hand 27240
direkt 27236
enen 27212
europäische 27198
rapporteur 27165
dort 27156
resolution 27149
ex@@ 27101
crisis 27023
re 27000
politische 26974
Hotels 26955
Tag 26946
often 26899
ask 26887
000 26884
Seiten 26872
tions 26851
excellent 26832
la@@ 26773
range 26716
ur 26690
EUR 26678
ler 26676
erste 26651
regard 26640
hi@@ 26610
ne 26606
ob@@ 26603
start 26568
wish 26557
gentlemen 26513
Mo@@ 26420
gi@@ 26419
Alle 26377
Hier 26372
least 26365
New 26357
ve 26293
general 26289
Um 26289
ing@@ 26261
single 26257
elle 26248
transport 26241
He 26218
to@@ 26214
gel@@ 26175
11 26165
h 26093
following 26065
9@@ 26029
rules 26015
price 26010
welcome 25982
third 25979
fully 25955
growth 25949
food 25949
personal 25940
ors 25923
money 25899
directive 25851
Programm 25810
little 25770
once 25757
Artikel 25738
environment 25708
Meinung 25704
found 25666
Über@@ 25634
per@@ 25631
online 25631
let 25628
Ma@@ 25585
stand 25573
subject 25555
bo@@ 25553
Uhr 25545
all@@ 25501
list 25472
ally 25450
no@@ 25440
nehmen 25394
towards 25374
beiden 25308
until 25285
Lösung 25285
product 25265
so@@ 25250
institutions 25237
things 25235
customers 25218
Situation 25214
ü@@ 25203
unserem 25195
res@@ 25149
World 25121
fast 25105
arbeiten 25099
pro 25075
Madam 25036
Li@@ 25021
No 25011
tra@@ 24989
Region 24963
field 24962
Fraktion 24927
for@@ 24911
Dieses 24909
M 24887
Zusammenhang 24825
gesagt 24820
increase 24816
F 24785
ieren 24777
individual 24767
him 24760
au 24754
cht@@ 24674
Ro@@ 24665
thank 24643
version 24617
ci@@ 24616
family 24591
standards 24574
opportunity 24566
tr@@ 24506
Hilfe 24424
Produkte 24397
Co@@ 24394
® 24371
weniger 24367
Treaty 24361
los 24339
par@@ 24318
ons 24300
town 24293
pl@@ 24275
40 24248
Th@@ 24244
rather 24243
&apos;t 24238
iert 24234
positive 24223
quite 24209
Bo@@ 24177
activities 24168
building 24140
ati@@ 24127
home 24111
design 24108
Präsidentin 24090
wei@@ 24067
Mittel 24020
Arbeits@@ 24001
ber 23988
call 23978
approach 23976
jeder 23921
aid 23915
ce 23894
side 23878
interest 23877
2005 23875
un 23844
provided 23832
Leben 23828
bitte 23806
gilt 23788
resources 23783
Deshalb 23775
value 23774
bel@@ 23774
art 23773
ö@@ 23762
daran 23703
erte 23679
Haus 23674
L 23634
forward 23610
schen 23610
technology 23575
Unter@@ 23568
yet 23565
economy 23551
mi@@ 23509
ds 23504
schaffen 23500
sogar 23461
etwa 23457
bzw. 23427
period 23401
halten 23362
An 23357
key 23343
solution 23323
Grund 23321
ne@@ 23315
Members 23279
light 23277
agree 23271
ges 23251
play 23246
September 23238
might 23234
wi@@ 23203
include 23191
Um@@ 23182
gemacht 23139
Millionen 23133
R 23110
nen 23109
ic@@ 23100
hinaus 23099
dessen 23093
taking 23082
ru@@ 23075
X 23070
Europas 23039
members 23037
macht 23033
alen 23009
indem 23006
rate 22994
decision 22990
times 22981
International 22959
ding 22934
among 22925
having 22921
ladies 22901
minutes 22889
En@@ 22874
Schutz 22874
After 22870
ek@@ 22868
State 22858
costs 22841
ung@@ 22785
due 22761
proposals 22745
allow 22723
points 22722
nämlich 22673
Haupt@@ 22670
ep@@ 22662
One 22660
amendments 22640
Unsere 22602
Dieser 22590
content 22571
led 22570
Ch@@ 22561
Deutschland 22511
man@@ 22504
framework 22486
safety 22484
2004 22481
24 22479
ass@@ 22474
ets 22466
Kinder 22459
ebenfalls 22456
via 22442
ha@@ 22418
mon@@ 22403
Ex@@ 22402
18 22356
words 22328
car@@ 22314
reason 22302
14 22287
air 22285
ellen 22274
ator 22273
Kon@@ 22247
ihn 22236
makes 22232
einigen 22213
y-@@ 22199
enjoy 22172
progress 22171
tri@@ 22150
called 22148
0@@ 22142
website 22137
cht 22134
zen 22119
adopted 22117
text 22105
rei@@ 22079
seinem 22075
show 22074
eln 22029
ment 22026
chten 22005
Par@@ 22004
brauchen 21997
ou@@ 21970
and@@ 21962
gute 21960
ary 21940
Mon@@ 21933
&apos;@@ 21923
unterstützt 21913
provides 21905
left 21897
hin@@ 21881
effective 21877
difficult 21876
il@@ 21868
Zu@@ 21868
ihm 21868
TV 21862
sicher 21856
é 21816
others 21810
eh@@ 21799
darf 21763
Rates 21751
t-@@ 21732
Website 21731
easy 21725
projects 21724
ia 21719
Punkt 21714
legislation 21712
setzen 21710
Aussprache 21685
Personen 21680
views 21651
opinion 21636
ischer 21625
darin 21624
Form 21608
16 21597
results 21596
favour 21590
politik 21588
above 21564
application 21554
Qualität 21540
known 21525
contact 21521
ach@@ 21454
responsibility 21442
Finanz@@ 21420
öffentlichen 21417
ster 21400
attention 21385
policies 21384
Berlin 21382
groups 21375
sen@@ 21359
simply 21324
Software 21310
tion 21309
Restaurant 21287
addition 21283
á@@ 21279
beautiful 21279
non-@@ 21261
gh@@ 21228
concerned 21221
gerade 21220
dürfen 21216
questions 21184
ken 21179
short 21163
Da 21157
su@@ 21153
meisten 21151
glaube 21150
behalf 21147
del 21125
EN 21119
kon@@ 21118
nationalen 21095
je 21087
ideal 21040
2003 21010
ben 20969
war@@ 20945
Wirtschaft 20944
genau 20943
station 20931
jeden 20904
.com 20903
tige 20885
nichts 20880
Ri@@ 20876
Abstimmung 20876
importance 20848
licher 20828
ability 20817
ches 20815
keinen 20811
tischen 20810
G 20807
pre@@ 20799
av@@ 20787
alten 20781
sollen 20746
ihrem 20743
ina 20742
society 20731
complete 20701
ts@@ 20699
ell@@ 20676
strategy 20661
Gemeinschaft 20660
ant@@ 20641
she 20616
greater 20592
Rechte 20570
over@@ 20569
cultural 20560
handelt 20560
erten 20517
weiterhin 20494
ß@@ 20482
ad 20478
ance 20465
Grund@@ 20464
zurück@@ 20456
zusammen 20454
training 20450
ell 20431
environmental 20410
klar 20408
ete 20384
sea 20368
Ebene 20350
betrifft 20338
cher 20308
ra 20260
ago 20239
Ort 20219
along 20183
do@@ 20178
statt 20169
natural 20160
13 20138
Inter@@ 20124
required 20118
kind 20103
nach@@ 20091
sei 20067
La 20059
principle 20053
ier@@ 20052
heart 20042
bedeutet 20040
tigen 20020
findet 20017
step 20005
pages 20005
wichtige 19993
recent 19991
eten 19990
recht 19942
Gu@@ 19889
Bezug 19885
d-@@ 19878
€ 19861
1@@ 19854
würden 19839
breakfast 19831
weit 19831
bereich 19804
nutzen 19802
besten 19794
ses 19757
meeting 19747
solche 19745
besser 19739
gestellt 19733
deal 19719
house 19715
century 19710
führt 19707
deshalb 19701
schnell 19700
Gesellschaft 19687
wide 19671
Bi@@ 19656
under@@ 19644
durch@@ 19638
deutlich 19621
clearly 19620
address 19618
min@@ 19618
ah@@ 19615
authorities 19599
tive 19591
ana 19580
2001 19566
plan 19565
Qu@@ 19557
November 19555
fall 19551
Zugang 19550
sure 19531
aufgrund 19529
sc@@ 19517
technical 19515
user 19507
besch@@ 19502
ef@@ 19465
Dank 19459
Von 19452
gehört 19440
sprechen 19436
Kosten 19423
fen 19418
achieve 19396
solutions 19391
Russia 19332
Richtung 19331
gu@@ 19312
nächsten 19296
erst 19295
lot 19293
form@@ 19286
ev@@ 19284
enough 19269
directly 19268
K 19265
10@@ 19260
past 19255
employment 19239
needed 19227
facilities 19208
essential 19201
pool 19187
hin 19177
bekannt 19177
serious 19172
standard 19166
bu@@ 19158
IT 19151
-B@@ 19145
Markt 19133
months 19127
thing 19115
feel 19112
nature 19078
person 19076
bring 19059
mer@@ 19057
developed 19050
ative 19048
allerdings 19042
restaurant 19030
history 19004
mis@@ 18999
Her@@ 18998
Nähe 18996
Bar@@ 18991
related 18983
Ansicht 18980
guests 18974
60 18960
risk 18953
currently 18942
car 18937
Please 18929
events 18925
responsible 18924
Aus 18924
proposed 18900
w 18886
Umsetzung 18876
ph@@ 18874
ters 18873
eller 18872
longer 18871
markets 18858
Ent@@ 18819
Menschenrechte 18811
len 18810
April 18799
visit 18791
requirements 18782
central 18773
ren@@ 18761
te@@ 18760
com@@ 18744
live 18731
interests 18723
ka 18713
ure 18708
N 18692
ker 18670
Rück@@ 18665
comes 18655
night 18653
parties 18647
From 18627
near 18624
Windows 18619
internal 18614
comfortable 18587
Ziele 18577
ko@@ 18563
$ 18562
wer@@ 18553
fi@@ 18549
language 18546
beispielsweise 18522
voll 18500
up@@ 18498
Ad@@ 18497
Vertrag 18491
liches 18488
hoffe 18486
ded 18479
please 18449
themselves 18442
Verfahren 18441
Verantwortung 18434
Version 18430
ner 18423
kl@@ 18420
sub@@ 18418
2002 18394
lange 18385
Rechts@@ 18385
werde 18378
young 18373
Bedingungen 18370
involved 18365
efforts 18359
regions 18339
gegeben 18331
Am 18328
0 18320
extremely 18318
democracy 18307
‘ 18293
voted 18290
pi@@ 18282
top 18261
changes 18245
ess@@ 18241
competition 18235
Durch 18233
ang@@ 18232
total 18220
GmbH 18218
notwendig 18209
ran@@ 18203
verwendet 18195
regulation 18186
ca 18186
str@@ 18185
Anwendung 18183
strong 18182
never 18161
team 18140
implementation 18122
friendly 18108
vielleicht 18108
Interesse 18100
cases 18075
Demokratie 18074
keep 18066
gesch@@ 18051
gemeinsamen 18048
kleinen 18047
Ihrem 18045
Vorschläge 18043
Haushalts@@ 18021
V 18015
tu@@ 18015
eri@@ 18012
ziehen 18007
force 17993
Grundlage 17977
Po@@ 17975
Man 17967
network 17966
Reihe 17960
Geschichte 17953
Daher 17925
à 17919
freedom 17908
event 17886
peace 17882
Herren 17873
ever 17872
Gebiet 17869
upon 17855
four 17852
17@@ 17850
20@@ 17844
Möglichkeiten 17828
är@@ 17821
bleiben 17820
erreicht 17813
ves 17799
ff@@ 17779
Doch 17776
though 17775
wirtschaftlichen 17775
sti@@ 17762
situated 17762
chte 17761
ma 17755
lei@@ 17702
etc 17690
democratic 17684
France 17646
ationen 17641
works 17639
spielen 17628
sozialen 17624
prices 17619
af@@ 17611
act 17610
rates 17598
regional 17594
.. 17575
zeigt 17571
file 17563
aten 17547
either 17539
könnten 17537
oft 17535
ok@@ 17525
negotiations 17518
da@@ 17496
Lu@@ 17478
tische 17468
Sicherheits@@ 17451
ity 17441
space 17436
developing 17432
Debatte 17428
Institutionen 17425
created 17423
bed 17423
ging 17408
AG 17401
care 17394
consider 17388
unique 17374
tern 17372
true 17365
wenig 17360
education 17359
looking 17335
17 17309
big 17308
music 17295
sion 17290
Car@@ 17289
und@@ 17281
Or@@ 17271
bar@@ 17267
everything 17263
80 17260
share 17244
material 17243
Pi@@ 17234
almost 17230
500 17225
du@@ 17214
seen 17213
mal 17194
dar 17191
Tri@@ 17190
states 17189
held 17187
request 17181
thus 17161
beach 17154
erung 17140
verschiedene 17133
vier 17125
ig@@ 17118
1.@@ 17106
Strategie 17104
reform 17100
success 17094
improve 17091
early 17090
pay 17089
ck 17081
funds 17070
verfügt 17055
Bank 17043
designed 17029
additional 17018
leben 17009
parts 17003
liegen 17002
bei@@ 16997
meet 16987
en-@@ 16984
ty 16981
ER@@ 16974
fundamental 16968
climate 16966
road 16946
hei@@ 16929
ho@@ 16925
cost 16916
Bau@@ 16901
try 16889
son 16876
foreign 16872
date 16867
effect 16865
according 16862
Auswirkungen 16858
200 16843
famous 16841
ermöglicht 16833
Damen 16832
red 16831
type 16829
American 16828
ard 16821
ER 16817
soon 16806
Minuten 16804
Le@@ 16802
geb@@ 16762
links 16760
term 16750
unternehmen 16750
Dienstleistungen 16740
gemeinsame 16734
Wirtschafts@@ 16730
hard 16729
weltweit 16726
included 16725
actually 16718
Dis@@ 16694
Berichterstatter 16664
idea 16655
Abkommen 16648
hatten 16633
helfen 16623
receive 16621
later 16611
www.@@ 16611
bare 16609
French 16608
danken 16594
Park 16588
Israel 16579
lichkeit 16574
Presidency 16570
understand 16560
Ge@@ 16527
living 16506
lead 16486
Cor@@ 16466
Zu 16463
lan@@ 16456
tion@@ 16444
mit@@ 16424
turn 16423
accept 16418
erforderlich 16417
capital 16412
Paris 16412
v 16411
direct 16399
1999 16390
Verhandlungen 16383
Hinblick 16375
low 16371
Wasser@@ 16370
takes 16366
program 16364
wegen 16348
Mitglieder 16344
bus 16341
Neu@@ 16338
appropriate 16327
Programme 16327
test 16321
outside 16317
ling 16317
AN@@ 16310
workers 16304
Tatsache 16271
gesamten 16262
Regionen 16261
Geschäfts@@ 16259
users 16258
bereit 16258
tiger 16252
tax 16249
Man@@ 16247
investment 16238
San 16233
ence 16232
sa@@ 16230
Rei@@ 16226
» 16210
features 16193
ebenso 16187
ender 16175
ways 16107
entwickelt 16101
Zentrum 16096
Außerdem 16096
einzelnen 16091
Gruppe 16086
reach 16074
center 16074
How 16072
ents 16055
og@@ 16055
gr@@ 16053
ft 16051
amount 16050
IN@@ 16038
procedure 16011
run 16010
Liste 16002
o-@@ 15995
Schritt 15986
hours 15983
lin@@ 15975
weiteren 15971
enn@@ 15969
oc@@ 15968
go@@ 15958
denke 15958
cor@@ 15956
internationale 15954
week 15933
book 15931
majority 15917
Y 15910
ann@@ 15907
gebracht 15906
darum 15901
Kolleginnen 15893
doing 15883
took 15883
mu@@ 15875
í@@ 15872
card 15853
16@@ 15828
fer@@ 15823
fragen 15816
lu@@ 15813
communication 15806
Ergebnis 15801
Entscheidung 15795
throughout 15794
Mor@@ 15791
lässt 15763
By 15751
ties 15751
ms 15738
active 15729
hätte 15726
tic 15725
across 15704
jedem 15697
guarantee 15696
konnte 15686
Bereichen 15677
certainly 15675
significant 15673
ders 15641
ari@@ 15620
traditional 15619
Bel@@ 15607
ta@@ 15598
zeit 15593
connection 15588
ing-@@ 15585
br@@ 15583
final 15559
Änderungsanträge 15558
AR@@ 15556
legen 15554
aware 15549
Vereinigten 15546
existing 15542
Antwort 15538
Umwelt@@ 15514
Platz 15509
writing 15505
… 15505
befinden 15495
mar@@ 15485
perfect 15471
mentioned 15466
Bu@@ 15458
gleichen 15452
19 15451
tragen 15446
Krise 15446
Blick 15443
America 15442
ente 15440
Änderungsantrag 15433
Turkey 15431
Erfolg 15431
Beziehungen 15429
relations 15412
Gr@@ 15400
auszu@@ 15394
out@@ 15386
context 15384
media 15383
performance 15380
concerns 15368
gab 15367
des@@ 15364
leading 15343
fahren 15340
Bevölkerung 15325
gleichzeitig 15322
ges@@ 15318
geführt 15318
men@@ 15308
sche 15308
15@@ 15307
ast@@ 15304
AT@@ 15298
member 15290
original 15285
tig 15272
initiative 15258
wichtigen 15254
read 15252
gemeinsam 15251
customer 15250
z.B. 15213
Preis 15205
weiß 15202
ver 15193
ats 15191
ette 15190
eu@@ 15172
knowledge 15171
My 15156
military 15146
s-@@ 15146
jede 15141
zeigen 15137
impact 15133
Seit 15119
add 15118
body 15117
walk 15116
programmes 15108
Tra@@ 15095
five 15087
moment 15082
Bar 15076
built 15066
&gt; 15055
bekommen 15054
er-@@ 15046
kleine 15035
apply 15033
Ausdruck 15030
heißt 15024
Unser 15017
professional 15016
although 15015
Abgeordneten 15011
Geld 15010
bleibt 15003
send 14997
Aufgabe 14983
sel@@ 14971
IS@@ 14970
Japan 14960
21 14934
board 14933
wohl 14933
game 14932
2.@@ 14932
completely 14929
population 14924
Verbindung 14919
Türkei 14914
nothing 14896
established 14878
Minister 14866
reasons 14856
committee 14848
= 14846
includes 14837
community 14828
Si@@ 14825
allows 14815
ern@@ 14814
Zum 14814
verbunden 14810
Government 14801
fl@@ 14795
decisions 14791
equipped 14790
table 14765
Einsatz 14755
Mal 14746
remain 14739
concerning 14732
stage 14726
agreements 14722
ano 14720
Since 14717
For@@ 14714
basic 14712
Kontrolle 14695
meinen 14691
wor@@ 14682
code 14682
Q@@ 14681
fin@@ 14644
baren 14637
dern 14636
Förderung 14633
style 14627
unseres 14605
English 14602
culture 14585
70 14579
än@@ 14579
enthalten 14578
London 14573
Su@@ 14570
practice 14565
choice 14561
lose 14561
jobs 14560
gestimmt 14553
gern 14551
Projekt 14543
ang 14541
me@@ 14535
sense 14533
pp@@ 14518
Verordnung 14500
partners 14495
Court 14486
gt 14461
ones 14457
model 14454
Kar@@ 14448
Se@@ 14448
EN@@ 14445
bet@@ 14435
neu 14429
Forschung 14426
internet 14424
party 14397
tieren 14385
Jahres 14379
22 14366
holiday 14366
values 14365
Ru@@ 14342
demand 14337
received 14333
equipment 14333
Damit 14333
IC@@ 14332
web 14332
Lösungen 14332
ta 14328
simple 14323
Wei@@ 14312
gest@@ 14310
De@@ 14300
develop 14288
he@@ 14287
Information 14281
bre@@ 14277
files 14270
package 14254
ales 14254
applications 14250
bl@@ 14247
jedes 14245
cks 14230
ise 14224
integration 14217
Let 14211
W 14211
Partner 14204
dr@@ 14199
els 14194
ations@@ 14189
hand@@ 14181
amm@@ 14179
ben@@ 14175
Erweiterung 14175
potential 14168
objectives 14167
August 14167
richtig 14164
entire 14159
Behörden 14155
Com@@ 14152
Bitte 14152
II 14150
stop 14134
wichtigsten 14127
Entschließung 14124
regarding 14123
gra@@ 14120
move 14120
nice 14120
leg@@ 14113
gerne 14113
Sh@@ 14102
face 14101
IT@@ 14101
Nach@@ 14091
tre@@ 14089
park 14089
ES 14084
Iran 14080
tur@@ 14070
Beitrag 14062
pf@@ 14060
function 14057
Lisbon 14053
below 14049
quickly 14048
tiert 14041
benefit 14025
Nutzung 14016
ST@@ 14006
mehrere 13992
rund 13991
va 13989
bit 13980
ade 13970
gleich 13967
Here 13962
No@@ 13957
land@@ 13920
fight 13907
focus 13904
aim 13898
ti 13896
agricultural 13893
12@@ 13891
ys 13886
concern 13874
Ausschuss 13855
successful 13849
East 13849
Mi@@ 13844
image 13843
fest@@ 13842
90 13836
reports 13821
hinsichtlich 13815
versch@@ 13810
zurück 13810
eigene 13809
objective 13791
ganze 13786
enthält 13774
pres@@ 13773
Du@@ 13766
fest 13758
Russland 13756
Steuer@@ 13753
treatment 13752
check 13750
ganzen 13738
goods 13728
South 13728
seems 13726
euro 13726
ermöglichen 13696
tz@@ 13693
derzeit 13692
27 13686
contains 13684
AL@@ 13679
return 13670
Per@@ 13654
app@@ 13649
ierung 13645
May 13632
ori@@ 13616
Landes 13606
don 13605
neben 13604
Verbesserung 13589
recently 13585
wobei 13579
governments 13574
ness 13555
Land@@ 13547
achieved 13546
Vor 13545
Markt@@ 13516
Finally 13511
anzu@@ 13511
genommen 13509
eng@@ 13494
indeed 13474
press 13472
enter 13463
Ausschusses 13455
ist@@ 13452
met@@ 13441
levels 13432
vo@@ 13423
Text 13421
ausge@@ 13421
Fl@@ 13420
mind 13395
{ 13395
front 13378
hotels 13372
det 13370
« 13370
guest 13368
mean 13367
coming 13362
enk@@ 13362
Ergebnisse 13362
dar@@ 13357
June 13355
Verbraucher 13351
Welt@@ 13346
beginning 13340
prevent 13336
National 13335
AS@@ 13332
fair 13328
War@@ 13322
amp@@ 13312
enten 13312
rest 13308
huge 13307
Angebot 13304
series 13302
added 13297
Ni@@ 13293
Central 13292
job 13283
einzu@@ 13279
increased 13277
keyword 13259
al-@@ 13258
places 13256
computer 13256
rec@@ 13251
Gelegenheit 13248
Vi@@ 13246
clean 13243
Woche 13240
völlig 13237
Wort 13229
isches 13226
ange@@ 13219
asked 13218
everyone 13216
lack 13213
co 13209
note 13196
Design 13192
answer 13187
Schaffung 13185
verbessern 13178
ei 13166
presented 13161
23 13152
RE@@ 13151
alt@@ 13146
size 13144
Ber@@ 13143
ality 13142
Am@@ 13142
Darüber 13130
ying 13127
Verwendung 13119
dialogue 13116
anderer 13116
14@@ 13111
office 13106
Initiative 13104
wirtschaftliche 13103
Ko@@ 13098
Some 13088
reviews 13085
floor 13084
ation@@ 13083
consumers 13080
Regierungen 13074
Mitarbeiter 13073
fördern 13072
ies 13065
agreed 13064
guten 13061
entwickeln 13057
shows 13053
großer 13050
verwenden 13050
inc@@ 13048
relevant 13040
rich 13038
enz@@ 13034
il 13032
highly 13031
higher 13024
tor 13017
gs 13014
Affairs 13004
verfügen 13003
best@@ 13001
balance 12995
id 12994
suchen 12985
ES@@ 12972
PC 12970
mat@@ 12969
direction 12964
ks 12963
lage 12963
choose 12953
gehören 12953
sustainable 12951
comp@@ 12951
rel@@ 12944
Ukraine 12935
tung 12934
carried 12919
ändern 12918
E-@@ 12907
ski 12893
ech@@ 12892
por@@ 12886
complex 12875
hal@@ 12871
ak 12871
Mit@@ 12859
enable 12843
gar 12838
nimmt 12836
Interessen 12835
soziale 12834
nuclear 12823
Team 12821
fünf 12814
ore 12813
half 12801
bestehen 12800
später 12795
Bild 12794
ierte 12780
Familie 12774
whose 12767
Notwendigkeit 12763
amendment 12761
commitment 12756
ators 12754
dy 12753
lines 12747
Wert 12744
ven@@ 12740
considered 12740
zusammen@@ 12738
Now 12735
Therefore 12735
effects 12735
principles 12732
Zeitpunkt 12725
Gen@@ 12717
Themen 12716
shown 12713
Server 12711
tionen 12710
ster@@ 12709
mer 12700
sorgen 12699
Änderungen 12699
innovative 12695
har@@ 12693
gl@@ 12689
travel 12684
Spiel@@ 12684
Web@@ 12684
perhaps 12681
cur@@ 12679
weise 12679
300 12675
ow@@ 12669
Frankreich 12668
13@@ 12662
meinem 12661
zunächst 12658
City 12657
EL@@ 12653
server 12647
Hand@@ 12645
latest 12642
Lo@@ 12633
Management 12631
tatsächlich 12629
UN@@ 12626
Barcelona 12619
materials 12610
Tage 12610
EC@@ 12607
possibility 12606
Erfahrung 12604
H 12599
setting 12588
Of 12585
schaft 12583
cu@@ 12577
closed 12574
matters 12563
Organisation 12563
Während 12562
ship 12554
tim@@ 12554
nie 12550
Gesundheit 12549
Kultur 12545
Auswahl 12536
Kur@@ 12534
former 12533
thanks 12527
anti@@ 12526
Person 12522
verfahren 12518
forms 12511
} 12499
Herzen 12487
programm 12485
status 12469
angenommen 12468
ments 12464
Umgebung 12459
Dabei 12457
sites 12453
opportunities 12450
Sa@@ 12445
easily 12441
cken 12440
came 12435
behind 12431
Mai 12425
Anfang 12422
previous 12420
Fahr@@ 12420
First 12418
details 12417
video 12417
El@@ 12415
double 12413
popular 12404
Spain 12394
accommodation 12391
ou 12389
Sozial@@ 12387
weiter@@ 12376
ins@@ 12375
pe@@ 12375
treffen 12375
actions 12374
increasing 12372
pressure 12369
reduce 12366
schriftlich 12363
AC@@ 12362
0.@@ 12361
promote 12357
comm@@ 12350
speak 12349
aspects 12344
gleich@@ 12344
response 12341
stark 12340
charge 12339
verstehen 12338
lediglich 12323
atmosphere 12322
fe 12320
reached 12311
hohen 12311
search 12304
sch 12299
bisher 12295
partner 12290
ino 12286
prepared 12281
ry 12274
providing 12264
ali@@ 12264
remains 12258
— 12257
Mitglied 12256
äußerst 12247
ess 12241
Einführung 12240
capacity 12239
ör@@ 12239
Au@@ 12225
creation 12220
ay@@ 12220
Sk@@ 12220
Africa 12217
heit 12215
joint 12207
Kampf 12204
Fach@@ 12202
Juni 12199
gesamte 12197
Kl@@ 12188
Article 12185
ants 12183
ps 12177
ite 12172
Gra@@ 12164
ris@@ 12163
1. 12163
sur@@ 12162
eben 12159
Anzahl 12156
exchange 12155
az@@ 12152
Meer 12148
Aktivitäten 12130
oil 12124
billion 12124
lang 12123
external 12122
efficient 12120
somit 12088
produced 12085
British 12085
Umwelt 12085
Italy 12079
bringt 12071
submitted 12068
ort 12068
Also 12055
Museum 12048
commercial 12029
cher@@ 12028
bank 12027
bestimmte 12027
limited 12026
Wachstum 12017
Sprache 12016
Wahl 12016
summer 12013
gemäß 12011
gewährleisten 12011
industrial 12003
Gäste 12002
00@@ 11996
Lebens@@ 11996
supply 11991
Prozess 11986
gives 11985
uses 11982
falls 11963
Systems 11963
versuchen 11958
ums 11957
sm@@ 11950
fallen 11939
sound 11932
op 11927
Wasser 11922
protect 11920
ces 11911
mel@@ 11911
obwohl 11909
Integration 11908
mm 11905
link 11902
decided 11900
oren 11892
gesetzt 11887
Por@@ 11883
funding 11876
supported 11868
Produktion 11864
scheint 11862
priority 11858
ther@@ 11854
December 11851
fordern 11850
ub@@ 11839
U 11834
и@@ 11830
cause 11818
del@@ 11817
Hand 11815
vers@@ 11810
leave 11807
La@@ 11804
Amsterdam 11802
US-@@ 11800
ton 11795
Convention 11774
bur@@ 11772
follow 11769
bestimmten 11759
ban@@ 11757
ving 11755
property 11755
safe 11754
restaurants 11750
Ta@@ 11737
Raum 11735
island 11733
Zahl 11732
Dinge 11730
Preise 11727
Western 11723
enlargement 11718
Frei@@ 11718
ßen 11717
Op@@ 11715
P-@@ 11714
independent 11713
halte 11713
geh@@ 11711
ie@@ 11705
Kommissarin 11705
berg 11699
bad 11692
zahlreiche 11690
Fortschritte 11680
ierten 11670
produce 11668
Daten@@ 11665
civil 11660
elt 11658
Ger@@ 11653
Insel 11651
Bekämpfung 11648
largest 11644
ill@@ 11639
Bei@@ 11639
pri@@ 11632
zweite 11629
Natur 11627
35 11621
organisation 11618
similar 11616
Industrie 11616
kan@@ 11609
option 11603
Hoch@@ 11597
word 11594
Erachtens 11593
leicht 11582
hohe 11578
ee 11577
ss@@ 11575
S-@@ 11571
consumer 11570
ages 11564
assistance 11563
erster 11562
tik@@ 11561
kt 11560
ausgestattet 11554
meines 11553
systeme 11539
CO@@ 11536
gas 11536
Funktion 11536
instrument 11527
möglichkeiten 11525
York 11523
verb@@ 11522
mobile 11519
größten 11518
einschließlich 11516
innen 11507
Spiel 11506
tet 11505
source 11498
log@@ 11492
steps 11488
1998 11484
creating 11470
movement 11468
ism 11468
ek 11464
Services 11463
era 11449
platz 11448
apartment 11442
außerdem 11441
Entwicklungs@@ 11438
lung 11426
Bestimmungen 11414
Einzel@@ 11413
Erklärung 11410
Position 11406
pleased 11400
aufzu@@ 11398
Jahrhundert 11396
March 11394
January 11387
Dezember 11383
Web 11382
Stelle 11382
bri@@ 11381
solchen 11379
insgesamt 11373
rule 11372
brought 11372
variety 11372
UN 11372
weisen 11371
sagte 11369
dadurch 11368
regulations 11367
führung 11366
construction 11361
Gar@@ 11357
General 11352
airport 11345
credit 11335
frei 11331
einzige 11326
hr@@ 11321
weder 11321
maßnahmen 11319
Handel 11318
Br@@ 11313
vergangenen 11312
mein 11307
Do@@ 11303
St. 11302
tt@@ 11301
purpose 11296
conference 11296
October 11283
Dialog 11278
ourselves 11277
Chi@@ 11275
zweiten 11271
j 11270
written 11266
Today 11265
message 11258
chen@@ 11253
ay 11249
ler@@ 11248
Nur 11248
Gi@@ 11243
att@@ 11241
,000 11241
activity 11239
stability 11227
Booking.com 11217
Mehrheit 11216
aufgenommen 11210
structure 11207
discussion 11191
lies 11189
teile 11188
ese 11187
became 11185
instruments 11180
Sal@@ 11180
Reg@@ 11178
instead 11175
leider 11161
abzu@@ 11161
Gewalt 11160
distance 11159
Linux 11155
Anforderungen 11152
Entscheidungen 11139
hoch@@ 11136
paid 11130
van 11124
aler 11122
ili@@ 11120
Investitionen 11118
pa@@ 11112
Küche 11096
Stunden 11092
alt 11089
relation 11086
Strand 11085
started 11084
ären 11082
distribution 11077
study 11072
Punkte 11072
setzt 11068
interesting 11067
sei@@ 11067
sieht 11064
Mal@@ 11061
Vorschriften 11061
Kosovo 11059
23@@ 11057
genießen 11054
une 11047
rise 11041
ca. 11041
Aufmerksamkeit 11036
ines 11032
lau@@ 11030
section 11027
allowed 11026
geschlossen 11018
click 11015
März 11013
Gefahr 11004
document 10998
Gästebewertungen 10998
4.@@ 10997
Party 10996
stra@@ 10995
enti@@ 10984
agenda 10978
ement 10973
fishing 10969
oll@@ 10962
Pal@@ 10941
leisten 10941
ah 10937
Energie 10928
giving 10924
Projekte 10924
ble 10920
lagen 10905
ju@@ 10890
Grenzen 10878
film 10876
Handels@@ 10853
can@@ 10848
tool 10841
Republic 10841
bezüglich 10841
legislative 10837
Macht 10834
regards 10830
om 10827
Club 10821
statement 10818
quiet 10818
compromise 10814
re-@@ 10811
ai@@ 10808
Tro@@ 10808
bevor 10807
payment 10805
benefits 10802
Lei@@ 10802
schließlich 10798
pass 10795
Bereiche 10794
base 10784
concept 10779
effort 10771
ll@@ 10763
Center 10753
Development 10752
procedures 10750
During 10745
werk 10743
Villa 10737
konnten 10734
trans@@ 10733
Wi@@ 10728
North 10728
aktuellen 10722
Freiheit 10719
violence 10713
DE 10713
eingesetzt 10712
round 10710
damage 10708
neuer 10708
village 10704
Folgen 10704
weg 10695
ground 10694
tell 10693
contribution 10693
Many 10693
zehn 10693
imp@@ 10688
Italian 10684
wenige 10682
historical 10678
July 10675
operation 10668
Nor@@ 10665
eigentlich 10663
sent 10662
CD 10659
tig@@ 10656
extra 10655
self-@@ 10654
growing 10652
größte 10652
met 10650
lic@@ 10646
school 10643
item 10642
require 10641
getan 10633
Wettbewerb 10631
stri@@ 10627
kosten 10622
Regeln 10622
bau@@ 10621
tro@@ 10619
Ben@@ 10617
Ne@@ 10606
drive 10606
OS 10606
ro 10604
Hotel@@ 10603
Ac@@ 10602
operating 10596
mann 10595
Spanish 10585
mittel 10584
26 10582
Landwirtschaft 10578
entsprechend 10564
sta@@ 10560
documents 10560
Jo@@ 10560
Anfrage 10559
wichtiger 10554
digital 10549
sports 10548
king 10547
mal@@ 10546
Frühstück 10537
benötigen 10536
At@@ 10531
integrated 10528
provisions 10523
Beschäftigung 10519
ful 10509
Rights 10501
ath@@ 10499
durchgeführt 10499
emp@@ 10498
Meine 10494
europäischer 10492
download 10488
fer 10487
Bad 10486
Firma 10486
tools 10484
task 10477
Reform 10475
Oktober 10475
28 10473
types 10464
na 10459
criteria 10458
kannst 10452
Portugal 10450
class 10444
Linie 10442
Zur 10441
happy 10438
Standpunkt 10435
express 10434
ste@@ 10427
Präsidenten 10426
Bildung 10425
voll@@ 10424
Höhe 10419
changed 10413
Business 10411
So@@ 10409
forces 10406
Du 10406
45 10405
tics 10404
erwarten 10404
Diskussion 10404
zer@@ 10399
1,@@ 10398
wählen 10397
Kor@@ 10396
immediately 10395
Januar 10394
alternative 10392
box 10390
Site 10390
Nationen 10390
dung 10385
gefunden 10385
University 10381
got 10380
nor 10379
Although 10372
Groß@@ 10370
build 10369
genannten 10362
challenges 10349
allein 10349
kurz 10341
zwei@@ 10340
goes 10332
ulation 10325
six 10324
official 10320
Heute 10316
highest 10313
elements 10309
wer 10309
ür@@ 10307
eher 10304
apartments 10303
alte 10303
Musik 10302
draft 10301
phone 10293
equal 10291
alität 10284
train 10283
Your 10281
IS 10280
od@@ 10276
Gemeinschafts@@ 10271
ihres 10269
Centre 10268
employees 10266
ser 10264
West 10263
col@@ 10263
parking 10261
Berichts 10249
angesichts 10246
sofort 10245
transparency 10244
ably 10240
sor@@ 10238
ó@@ 10238
zer 10232
annual 10230
Tur@@ 10230
helpful 10230
zei@@ 10228
Furthermore 10226
avoid 10226
Gründen 10219
Fehler 10213
Go@@ 10211
lower 10203
star@@ 10200
tor@@ 10198
Transparenz 10197
reading 10192
ey 10185
friends 10184
Im@@ 10173
Sache 10168
Flug@@ 10160
ap 10158
gelten 10155
sed 10151
analysis 10148
Sinne 10144
öffentliche 10144
Personal 10136
erk@@ 10135
erneut 10128
daily 10119
Bemühungen 10112
Ak@@ 10107
processes 10105
applied 10103
Öffentlichkeit 10103
begrüße 10100
offering 10095
Ansatz 10095
numerous 10093
ll 10090
1997 10088
finally 10088
consequences 10086
iz@@ 10086
elections 10083
teilen 10080
ien 10079
gro@@ 10078
bathroom 10077
RO@@ 10076
reality 10073
endlich 10072
Schlusselwortern 10072
Präsidentschaft 10070
schi@@ 10067
Auffassung 10067
uni@@ 10054
Sport@@ 10050
nahe 10045
bau 10041
historic 10032
beh@@ 10031
West@@ 10031
geworden 10031
review 10030
poverty 10020
requires 10012
Bilder 10012
Flughafen 10007
He@@ 10005
talk 10002
ics 10001
speed 9995
5.@@ 9992
B. 9992
MP@@ 9989
conflict 9986
beitragen 9978
Kraft 9972
efficiency 9962
labour 9957
beyond 9949
entsprechenden 9940
ini 9938
sport 9938
fort@@ 9934
morgen 9933
offered 9932
Verkehrs@@ 9931
gung 9929
lernen 9927
AD@@ 9921
Urlaub 9920
tw@@ 9919
Tor@@ 9917
solidarity 9915
hält 9914
Kinder@@ 9913
Restaurants 9898
diejenigen 9898
modified 9893
ungsp@@ 9889
ismus 9888
colleagues 9887
li 9887
Ober@@ 9881
Fällen 9878
fo@@ 9875
late 9872
death 9871
lat@@ 9870
saying 9864
medi@@ 9862
genden 9857
Room 9854
Tr@@ 9851
persons 9849
verhindern 9838
expect 9837
tions@@ 9828
bes@@ 9826
@ 9826
Do 9821
Juli 9814
Dateien 9812
tisch 9810
wine 9804
poor 9803
ideas 9799
star 9799
Lin@@ 9796
ast 9795
Druck 9794
paar 9793
behandelt 9792
Natürlich 9791
Monaten 9790
scher 9789
fine 9788
wanted 9779
minimum 9778
implemented 9778
useful 9770
port 9767
pen@@ 9766
practical 9763
gew@@ 9759
published 9756
player 9756
с@@ 9753
draw 9748
hätten 9746
Even 9745
ots 9743
get@@ 9741
Kultur@@ 9737
clients 9734
freien 9733
zone 9728
Mediterranean 9727
mor@@ 9724
the@@ 9718
oben 9710
enst@@ 9708
Comp@@ 9703
shopping 9702
erfolgt 9699
See 9697
volle 9697
on-@@ 9693
stre@@ 9682
rä@@ 9681
terrorism 9676
gem@@ 9674
establish 9672
acc@@ 9667
ß 9666
congratulate 9665
illegal 9665
tungs@@ 9651
Tagen 9649
crucial 9646
Selbst@@ 9643
Natur@@ 9642
Atmosphäre 9642
Debian 9640
Bürgern 9639
news 9633
tomorrow 9633
carry 9631
WTO 9631
OR@@ 9631
learn 9629
onen 9628
secure 9623
si 9623
weeks 9622
berücksichtigt 9622
richtige 9619
sales 9617
Behandlung 9616
Dar@@ 9615
­ 9605
Tagesordnung 9604
comprehensive 9599
To@@ 9599
ut 9598
Pl@@ 9596
vergessen 9589
wieder@@ 9585
Austria 9583
Gesundheits@@ 9583
Tat 9576
transfer 9568
ett@@ 9563
tiges 9563
lesen 9559
fu@@ 9558
stimmen 9554
net 9553
While 9553
eter 9551
warum 9550
Nr. 9547
Den 9544
lives 9543
hinter 9543
anderem 9542
ical 9538
organisations 9536
besondere 9534
hoch 9532
minute 9526
hold 9525
reduction 9522
starting 9522
id@@ 9522
options 9520
fa@@ 9512
sometimes 9509
monitoring 9508
LE@@ 9507
versucht 9506
maximum 9505
machine 9504
Microsoft 9504
deutschen 9502
Stadt@@ 9499
int@@ 9498
modernen 9498
3.@@ 9486
frei@@ 9486
Bürgerinnen 9480
ear@@ 9475
stell@@ 9468
ley 9461
Unter 9456
vertreten 9449
leaders 9447
assi@@ 9447
reference 9446
zahlen 9442
morning 9440
ology 9435
sing 9433
cal 9429
A-@@ 9428
Änderung 9428
bor@@ 9427
technischen 9422
sal@@ 9420
folgen 9418
reg@@ 9416
probably 9415
Italien 9414
Gro@@ 9406
überhaupt 9406
worldwide 9405
ack@@ 9405
Sicht 9403
Staats@@ 9400
players 9398
sektor 9393
technologies 9391
anything 9388
Lissabon 9388
voting 9387
caused 9387
ely 9385
Lassen 9382
Har@@ 9381
Basis 9378
gar@@ 9377
Amendment 9377
alone 9375
schließen 9372
Le 9369
begin 9367
frage 9365
Republik 9362
challenge 9360
Is 9356
dec@@ 9355
Chinese 9355
gef@@ 9354
verantwortlich 9354
29 9352
month 9351
historischen 9350
Viele 9350
stands 9349
anders 9343
gabe 9342
Beginn 9340
barkeit 9337
ase 9336
treten 9336
plans 9334
beste 9333
Mag@@ 9332
enz 9332
email 9331
interested 9329
tigung 9328
gesehen 9328
Aufenthalt 9317
erklärt 9317
una 9314
tiv@@ 9310
Sti@@ 9310
Ressourcen 9308
mp@@ 9306
Dr. 9305
ven 9303
street 9300
Spanien 9300
häufig 9300
Fu@@ 9295
iger 9291
erfolgreich 9291
Tre@@ 9290
lösen 9285
RA@@ 9284
Vergangenheit 9283
neues 9280
Finanzierung 9279
200@@ 9277
games 9276
head 9274
ready 9271
ron@@ 9270
Kunst@@ 9268
alisierung 9267
Rechtsvorschriften 9261
long-term 9259
chance 9258
gewesen 9257
bin@@ 9256
vollständig 9250
Konferenz 9249
languages 9240
Gesamt@@ 9239
zahlreichen 9235
Luft@@ 9233
Technologie 9232
erwartet 9230
con 9229
Bundes@@ 9227
mountain 9226
win@@ 9224
Wochen 9220
Datei 9217
äre 9215
ir 9212
ada 9210
waste 9209
anischen 9208
jeweiligen 9204
welches 9203
child 9202
Berg@@ 9202
Wahl@@ 9199
ls 9195
erfüllen 9195
cities 9193
farmers 9193
Zweitens 9193
gn@@ 9192
thought 9191
IM@@ 9189
Airport 9186
Bal@@ 9185
gli@@ 9185
# 9185
super@@ 9183
cut 9182
Gruppen 9182
wahrscheinlich 9182
unten 9180
Forschungs@@ 9178
2-@@ 9177
wal@@ 9174
braucht 9172
Erfahrungen 9172
ously 9170
release 9167
asi@@ 9162
endes 9161
banks 9159
1996 9158
Thank 9156
ET@@ 9155
Moreover 9154
lost 9152
Fund 9149
worked 9148
´ 9144
Ur@@ 9138
Wel@@ 9136
I-@@ 9136
garden 9133
sts 9130
Schritte 9129
extent 9125
stelle 9124
EC 9123
geschaffen 9120
Mess@@ 9119
FR 9113
ures 9112
methods 9111
Ku@@ 9110
US@@ 9102
Vertrauen 9101
ord@@ 9097
legt 9096
zumindest 9096
Inhalt 9096
1-@@ 9094
Conference 9092
relating 9092
selection 9090
accession 9085
businesses 9084
Werte 9083
stets 9083
accordance 9079
advantage 9077
genutzt 9077
scientific 9075
images 9075
mention 9072
method 9072
schützen 9072
walking 9070
sectors 9062
verpflichtet 9062
genug 9061
comfort 9060
strategic 9056
loss 9056
green 9054
Ti@@ 9054
Aspekte 9046
Mittel@@ 9035
außerhalb 9035
Energi@@ 9031
Herausforderungen 9027
31 9020
inn@@ 9020
Ho@@ 9015
zeit@@ 9014
z. 9012
powers 9011
tors 9010
fields 9006
ständig 9003
despite 9001
kennen 9000
ame 8999
Directive 8991
Not 8990
processing 8988
kam 8988
folgt 8988
Einige 8986
influence 8984
Mat@@ 8983
Allerdings 8983
32 8978
harmon@@ 8977
5-@@ 8976
heutigen 8972
denken 8971
reichen 8968
schaften 8962
Russian 8952
Wein@@ 8951
yp@@ 8949
seines 8948
Angelegenheit 8943
Dazu 8942
privaten 8940
bs 8939
atic 8937
Bur@@ 8937
letzte 8932
plant 8931
Beg@@ 8931
fish 8930
motion 8929
ass 8928
raised 8927
visitors 8927
uss@@ 8927
menu 8927
alis@@ 8926
hören 8926
Fi@@ 8924
ig 8924
art@@ 8924
Benutzer 8924
innovation 8923
Kunden@@ 8919
San@@ 8917
amerikanischen 8917
Ireland 8913
persönlichen 8907
cli@@ 8905
Wohn@@ 8898
ue 8897
Security 8893
в@@ 8891
25@@ 8888
Only 8881
separate 8872
Gebäude 8863
erlaubt 8860
bessere 8858
Public 8852
trying 8847
beg@@ 8845
post@@ 8845
doubt 8842
Produkt@@ 8841
è@@ 8840
Parteien 8836
Schwierigkeiten 8834
ian 8833
trotz 8832
accepted 8828
Obwohl 8828
laufen 8826
Berichterstatterin 8826
implement 8823
absolutely 8818
Google 8818
join 8817
Besch@@ 8817
Ser@@ 8815
Falls 8813
sechs 8811
fil@@ 8808
Ö@@ 8805
ausschließlich 8802
regime 8801
75 8800
Star 8800
Staat 8795
automatisch 8795
gten 8793
Spieler 8793
Sonder@@ 8791
™ 8787
bilden 8787
demands 8784
justice 8783
Neben 8779
det@@ 8770
folgenden 8770
° 8765
Arbeitnehmer 8765
zed 8763
Hinsicht 8759
vollen 8755
affected 8752
Min@@ 8751
vis@@ 8750
Secondly 8738
ssen 8738
overall 8737
Dann 8730
UK 8724
Wer 8723
scope 8721
critical 8721
ße 8720
borders 8718
schwer 8718
² 8714
negative 8713
Milliarden 8712
placed 8709
е@@ 8707
Ihres 8706
moderne 8703
map 8702
burg 8693
ün@@ 8693
demokratischen 8693
verkehr 8692
Einrichtung 8690
Folge 8690
cover 8689
cre@@ 8688
einge@@ 8686
More 8684
far@@ 8681
ach 8680
Praxis 8680
Krieg 8669
swimming 8664
syn@@ 8662
oo@@ 8661
gekommen 8661
contract 8660
raum 8660
ns 8657
Vertreter 8656
yourself 8655
Prozent 8654
ella 8650
entscheiden 8645
übernehmen 8645
intended 8644
Free 8639
e-mail 8635
zudem 8632
aff@@ 8631
Its 8630
running 8629
usually 8629
getting 8628
SP@@ 8628
edi@@ 8625
wert 8622
EM@@ 8617
Denn 8616
bitten 8614
о@@ 8614
Wunsch 8612
30@@ 8607
Angelegenheiten 8605
vol@@ 8603
Arbeitsplätze 8603
rü@@ 8598
neu@@ 8597
beide 8596
flexible 8595
Grand 8592
erinnern 8592
Cas@@ 8590
Computer 8586
heard 8577
anti-@@ 8577
Opfer 8576
Instrument 8573
target 8571
calls 8570
love 8569
suitable 8569
Indeed 8566
Aufgaben 8561
bewusst 8557
Afghanistan 8555
а@@ 8555
hor@@ 8553
reforms 8552
tel@@ 8551
Nord@@ 8546
Red 8544
Station 8544
not@@ 8543
Privat@@ 8541
begrüßen 8536
Solidarität 8534
deine 8530
adopt 8529
kaum 8528
warm 8525
Preis@@ 8520
currency 8519
oni@@ 8518
arbeit 8518
sa 8511
gang 8511
relationship 8507
SA@@ 8506
char@@ 8500
erg@@ 8494
mainly 8493
evening 8491
allgemeinen 8488
Frieden 8486
usw. 8486
administration 8485
rich@@ 8484
laden 8473
initiatives 8471
committed 8471
Z 8469
erkennen 8469
namely 8467
offen 8467
son@@ 8466
Systeme 8466
increasingly 8464
Ju@@ 8459
Pre@@ 8455
Organisationen 8454
gelegen 8453
fac@@ 8447
gebiet 8446
our@@ 8445
cl@@ 8444
Hel@@ 8444
Armut 8441
opening 8438
President-in-Office 8436
representatives 8432
freuen 8428
installation 8426
terrace 8424
maintain 8423
Annahme 8422
expressed 8418
gender 8418
El 8417
traffic 8415
bil@@ 8415
vital 8413
3-@@ 8409
laws 8408
planning 8406
Leute 8404
opp@@ 8400
Bus@@ 8398
normal 8392
talking 8390
etc. 8388
Bet@@ 8382
border 8381
ft@@ 8381
länder 8381
Fest@@ 8378
proper 8375
union 8367
6.@@ 8362
stärker 8362
Nun 8361
uli@@ 8360
All@@ 8360
Erstens 8358
ion 8357
freie 8356
bald 8354
á 8353
structural 8349
darstellt 8349
ational 8347
zation 8346
Verfassung 8346
größere 8340
mission 8338
born 8335
stress 8335
improved 8334
benutzt 8334
Mu@@ 8332
Zusammen@@ 8329
students 8328
vorgeschlagen 8327
Bri@@ 8326
eindeutig 8326
ara 8323
families 8319
Karte 8319
approved 8318
nu@@ 8315
Agenda 8313
inf@@ 8308
Trans@@ 8308
tal@@ 8307
Sitzung 8307
ture 8302
goal 8301
Col@@ 8301
elles 8299
danke 8291
ide@@ 8289
correct 8288
automatically 8288
plus 8286
tigkeit 8279
gende 8277
Verpflichtungen 8273
Met@@ 8272
nationale 8268
comments 8267
Hause 8265
zusätzliche 8265
Win@@ 8258
CH@@ 8257
Wieder@@ 8257
competitive 8253
powerful 8249
serve 8246
zeiten 8245
rechte 8245
People 8244
Zeit@@ 8244
Anstrengungen 8243
Falle 8241
chtung 8238
industrie 8237
confidence 8235
Online-@@ 8235
tourist 8232
le-@@ 8229
stellung 8229
Funktionen 8227
DVD 8224
Costa 8218
Idee 8217
infrastructure 8211
reduced 8206
Iraq 8206
unbedingt 8202
globalen 8200
India 8199
fra@@ 8196
ov@@ 8196
decide 8194
-T@@ 8187
za 8181
fre@@ 8178
beginnen 8178
schreiben 8178
delivery 8171
feature 8170
tation 8169
Protokoll 8169
wider@@ 8168
entspricht 8164
rechts 8163
unemployment 8159
Produktions@@ 8156
überzeugt 8156
protected 8155
Enterprise 8153
Kriterien 8153
lag@@ 8148
photo 8146
collection 8143
Partei 8143
aktuelle 8139
administrative 8135
supports 8131
cohesion 8130
anten 8130
Zustimmung 8129
Wahlen 8122
alism 8121
400 8121
Em@@ 8121
dan@@ 8121
gesprochen 8115
4-@@ 8112
amen 8112
š@@ 8112
began 8110
hol@@ 8105
extensive 8104
format 8104
covered 8103
sources 8100
mindestens 8100
ve@@ 8096
Mark@@ 8090
emissions 8087
served 8086
Informations@@ 8082
senden 8080
circumstances 8075
conclusion 8075
gleiche 8072
Ist 8066
Wann 8065
ado 8061
Nations 8060
Cre@@ 8059
founded 8058
Vereinbarung 8057
ani@@ 8056
Ä@@ 8054
well-@@ 8051
Verwaltung 8051
mark 8048
contribute 8044
01 8042
stand@@ 8041
fol@@ 8039
worth 8035
Me@@ 8034
Osten 8034
tour 8032
Reformen 8032
bra@@ 8031
ehr@@ 8030
pleasant 8028
functions 8028
ash@@ 8028
gezeigt 8028
igen 8027
ends 8026
Office 8026
Tier@@ 8023
genannt 8021
Sub@@ 8018
ai 8018
priorities 8017
zug 8016
vorgelegt 8016
AM@@ 8014
electronic 8013
generation 8012
financing 8012
likely 8012
selbstverständlich 8012
unterschiedlichen 8012
ante 8011
ank@@ 8009
introduced 8009
UR@@ 8006
Ap@@ 8005
defined 7999
Terrorismus 7999
EL 7997
Außen@@ 7995
else 7994
Dem@@ 7991
Vorteile 7990
screen 7989
stable 7987
Rec@@ 7987
prozess 7987
sions 7986
Gipfel 7985
Not@@ 7984
schutz 7984
ban 7979
Just 7978
gend 7978
Sol@@ 7976
effectively 7971
larger 7971
ya 7968
entsprechende 7960
lin 7959
Anerkennung 7956
getroffen 7955
Each 7954
prüfen 7954
white 7952
encourage 7950
speaking 7948
says 7945
glauben 7944
rep@@ 7940
Bas@@ 7940
Prä@@ 7938
understanding 7935
dra@@ 7934
Greece 7931
Inhalte 7931
ensuring 7930
dringend 7929
Hor@@ 7928
Sur@@ 7927
Eur@@ 7926
Val@@ 7926
DI@@ 7926
exist 7924
off@@ 7924
Qualitäts@@ 7923
nisse 7922
Produkten 7922
crime 7918
erwähnt 7918
mehreren 7913
Code 7912
Technologien 7911
Schul@@ 7909
risks 7906
verfügbar 7904
150 7900
Stabilität 7900
wünschen 7895
managed 7893
gerecht 7891
Cal@@ 7887
itt@@ 7885
Haushalt 7885
positions 7882
Bor@@ 7882
Homepage 7880
track 7879
Binnenmarkt 7878
in-@@ 7877
min 7877
Kern@@ 7873
vel@@ 7872
Mc@@ 7870
nahme 7869
whom 7868
Hu@@ 7867
listed 7866
Straße 7866
opened 7864
tliche 7863
50@@ 7861
Swiss 7861
PL 7861
Besuch 7861
Asia 7860
Standard 7860
War 7858
ars 7855
victims 7854
dro@@ 7853
sol@@ 7852
ff 7851
wonderful 7850
detailed 7849
played 7846
etten 7839
entry 7838
mittel@@ 7837
wesentlich 7834
Zudem 7833
Produkt 7829
pe 7828
participation 7827
Wer@@ 7827
Ausschuß 7827
Why 7824
optim@@ 7823
.... 7820
tabled 7818
2020 7818
appear 7816
kre@@ 7814
E-Mail 7814
langen 7809
pat@@ 7805
aufge@@ 7805
ss 7804
wo@@ 7799
fahr@@ 7799
berücksichtigen 7798
eck@@ 7797
erfahren 7796
agriculture 7794
programs 7787
hoffen 7787
digen 7782
IL@@ 7779
tru@@ 7777
Schließlich 7777
record 7772
Über 7772
wrong 7770
referred 7770
animals 7770
Sommer 7767
gre@@ 7766
hinweisen 7765
nachdem 7762
discuss 7758
ice 7756
Volk 7753
camera 7750
kommenden 7749
mm@@ 7748
paper 7747
akzeptieren 7746
exactly 7744
Frankfurt 7743
sis 7741
stated 7740
möglicherweise 7740
debt 7737
transparent 7735
bestimmt 7735
manner 7729
1995 7729
De 7729
Zunächst 7724
specifically 7723
Then 7721
sitting 7720
air@@ 7717
limit 7716
becoming 7715
won 7713
tigt 7713
exp@@ 7712
Schw@@ 7712
Durchführung 7711
regular 7710
ire 7710
ish 7710
aimed 7709
Mitteilung 7707
partnership 7706
income 7704
expected 7704
selected 7704
ität 7698
purposes 7697
heraus@@ 7696
D-@@ 7692
beds 7687
Plan 7684
stat@@ 7684
aktiv 7684
rat 7682
benutzen 7681
ME@@ 7679
metres 7676
back@@ 7674
wa@@ 7674
linked 7673
February 7672
Gel@@ 7671
erzielt 7665
wants 7664
hen 7663
votes 7661
represents 7659
Bild@@ 7659
developments 7658
ha 7657
és 7655
discussed 7654
rural 7654
sicherzustellen 7654
work@@ 7650
Chance 7650
bestehenden 7648
gelegt 7646
Anwendungen 7642
door 7640
prä@@ 7639
Fin@@ 7638
besonderen 7636
measure 7634
markt 7634
chts@@ 7632
Augen 7630
zes 7629
assessment 7628
nt 7627
ex 7626
Autom@@ 7624
sec@@ 7620
Medien 7618
Sea 7616
went 7616
Fre@@ 7610
Nicht 7610
unver@@ 7609
richten 7609
discussions 7608
ato 7606
zentrum 7605
bal@@ 7604
lem@@ 7604
dienen 7604
Unterkategorien 7597
hot 7589
eth@@ 7589
pol@@ 7588
scale 7586
Suche 7586
euch 7585
marketing 7583
geändert 7583
tradition 7582
hab@@ 7581
warten 7579
sub-categories 7576
т@@ 7575
adi@@ 7574
thousands 7573
technische 7572
nis 7571
precisely 7569
siehe 7569
Einrichtungen 7568
trägt 7567
ID@@ 7564
spor@@ 7561
bedarf 7561
DA@@ 7557
fellow 7553
Apartments 7550
police 7548
Rooms 7545
ener 7544
spacious 7542
inside 7535
Sen@@ 7533
shop 7531
sufficient 7529
möglichen 7529
cs 7528
Nutzen 7526
umgesetzt 7526
plat@@ 7524
arbeitet 7521
spend 7519
Wettbewerbsfähigkeit 7518
Del@@ 7516
Sektor 7515
zuletzt 7514
medical 7510
person@@ 7508
vari@@ 7508
ark@@ 7506
enterprises 7505
Haltung 7503
otherwise 7502
Str@@ 7502
yn@@ 7498
je@@ 7497
Te@@ 7496
introduction 7493
sign 7492
Standards 7491
Ph@@ 7491
LA@@ 7489
earlier 7485
wenden 7485
notwendigen 7484
kur@@ 7481
kitchen 7478
operations 7477
playing 7477
finanziellen 7477
essen 7476
Kontakt 7476
client 7475
fahrt 7475
Kunst 7474
Social 7473
Char@@ 7472
uren 7472
followed 7470
Middle 7466
erungs@@ 7466
Agreement 7462
Kal@@ 7460
dient 7458
budgetary 7456
exclusive 7456
stoffe 7455
л@@ 7447
Zeichen 7447
achten 7445
Einfluss 7445
connected 7444
facing 7444
sion@@ 7443
pan@@ 7443
closely 7442
elegant 7442
erfüllt 7440
Monate 7440
Board 7438
acts 7433
Ausbildung 7431
ently 7430
winter 7429
anderes 7427
represent 7424
fresh 7421
eingerichtet 7415
losen 7415
eli@@ 7408
jene 7408
stu@@ 7406
lä@@ 7402
co-@@ 7400
tional 7394
path 7393
NATO 7393
considerable 7392
nis@@ 7392
festgelegt 7390
strengthen 7388
rit@@ 7387
jederzeit 7386
voller 7385
buildings 7384
Kat@@ 7382
ergreifen 7382
Most 7379
vermeiden 7379
klicken 7377
select 7376
Switzerland 7376
Best 7376
Des@@ 7374
hour 7373
Christian 7373
nor@@ 7372
happen 7368
24@@ 7367
д@@ 7367
Pol@@ 7365
beziehen 7358
alismus 7357
Green 7356
She 7350
Super@@ 7350
ists 7347
institutional 7346
save 7345
stimme 7342
degree 7339
Kindern 7338
Wor@@ 7336
Anspruch 7335
shops 7333
supporting 7331
fe@@ 7331
darunter 7329
ungs- 7329
teil 7327
John 7325
haus 7325
cy@@ 7322
tical 7320
guidelines 7318
ester 7317
shower 7317
hervor@@ 7317
ingly 7316
Cam@@ 7313
geeignet 7310
reisen 7310
Anti@@ 7309
liber@@ 7306
Film 7302
season 7298
Schutz@@ 7294
verfolgen 7294
Vielfalt 7289
rück@@ 7288
en- 7287
Meter 7287
discrimination 7286
so-called 7286
Tran@@ 7286
Human 7279
ige 7279
shi@@ 7278
C-@@ 7277
wahr@@ 7276
rin@@ 7274
chs 7274
jeweils 7270
tlich 7269
purchase 7268
immigration 7268
Innovation 7268
improving 7267
remember 7263
äu@@ 7262
Vol@@ 7260
networks 7258
Menge 7258
cat@@ 7257
ON@@ 7256
telephone 7255
High 7252
außer 7251
fying 7249
IP 7248
gan@@ 7247
7.@@ 7246
components 7244
Ü@@ 7244
bek@@ 7242
tures 7241
gte 7240
handeln 7237
angezeigt 7237
Roma 7236
mark@@ 7235
erhöhen 7234
Video 7229
speech 7225
sicherheit 7225
sicherlich 7224
hear 7223
daten 7223
Policy 7221
Konzept 7221
übernachten 7221
erzielen 7219
His 7217
Schweiz 7216
experts 7214
tungen 7214
Webseite 7210
Ha@@ 7207
http 7205
broad 7204
Czech 7204
welcher 7204
average 7199
fun 7196
Pri@@ 7196
entschieden 7195
Leistungen 7193
Mis@@ 7192
teilweise 7192
Vertrags 7190
cuisine 7189
element 7188
cards 7188
Medi@@ 7187
Ski@@ 7187
bro@@ 7186
,@@ 7183
buy 7182
cap@@ 7181
&apos;ll 7180
speci@@ 7179
ik 7178
entweder 7174
funktioniert 7172
e.g. 7171
Spa 7171
fied 7169
tic@@ 7169
thinking 7168
plants 7167
Familien 7166
gelangen 7164
typical 7163
Pa@@ 7162
besuchen 7161
Uni@@ 7160
hon@@ 7160
tik 7160
ory 7155
Res@@ 7153
spricht 7153
ically 7152
teil@@ 7152
spielt 7151
Stand 7150
Post@@ 7149
suggest 7148
ole 7148
abge@@ 7148
tourism 7146
Installation 7143
sting 7141
pu@@ 7138
wären 7137
politischer 7137
verbessert 7134
gave 7131
sted 7130
seem 7130
Economic 7130
trust 7129
inen 7129
2011 7128
properly 7127
ki 7127
Fischerei@@ 7127
Ei@@ 7124
web@@ 7124
Sprachen 7124
gener@@ 7123
las 7123
reception 7121
Name 7121
fällt 7121
heiten 7119
uns@@ 7113
Kan@@ 7113
items 7110
las@@ 7107
ac 7105
entirely 7104
Unfortunately 7104
Because 7104
relate 7103
presence 7103
Verwaltungs@@ 7101
Instrumente 7101
Februar 7101
lungen 7100
Jetzt 7099
Abschließend 7098
spar@@ 7091
asse 7090
ec 7090
Research 7088
Wege 7087
klare 7085
provision 7079
sagt 7079
Hei@@ 7077
Warum 7074
Stimme 7074
ams 7073
erleben 7073
ID 7072
competitiveness 7071
aren 7071
spirit 7070
Bro@@ 7070
Pan@@ 7069
core 7068
richtigen 7067
gel 7066
Veränderungen 7060
Tätigkeit 7060
Leider 7056
Kenntnis 7056
stock 7055
ements 7054
erungen 7054
Garten 7052
acht 7047
generally 7046
gri@@ 7044
-F@@ 7044
chtet 7044
Vereinten 7044
Internet@@ 7043
gebaut 7043
Gesch@@ 7040
Berichte 7034
Arbeiten 7031
Poland 7030
difference 7028
ON 7027
refer 7025
dé@@ 7025
Click 7024
tak@@ 7023
ane 7022
Abschluss 7019
ona 7018
alised 7015
schutz@@ 7013
presidency 7011
My@@ 7009
werte 7006
Forderung 7003
ain@@ 7001
lands 7000
trag@@ 7000
erstellt 6998
bodies 6996
Bra@@ 6994
Modell 6994
assen 6993
summit 6992
display 6989
Durch@@ 6989
IN 6986
Initiativen 6986
machines 6983
actual 6981
Plan@@ 6980
stärken 6977
sage 6976
Familien@@ 6976
houses 6973
Brussels 6972
mü@@ 6972
Best@@ 6972
Forum 6971
speziell 6971
reasonable 6970
ausdrücklich 6970
sive 6969
Mitte 6968
authority 6965
prior 6959
м@@ 6957
cra@@ 6955
vorgesehen 6955
domestic 6953
lichem 6953
wollte 6953
Vergleich 6953
ologie 6951
advanced 6949
coordination 6948
informed 6947
zen@@ 6946
Zeiten 6945
atische 6945
cal@@ 6944
wel@@ 6942
Ren@@ 6940
dealing 6937
dagegen 6936
betonen 6932
Bl@@ 6930
Vielen 6929
PT 6928
Adresse 6927
ften 6925
informieren 6925
ination 6923
port@@ 6921
wing 6920
meetings 6920
district 6920
character 6919
ery 6918
Street 6918
com 6917
Regelung 6917
Engagement 6916
Teile 6916
Once 6914
win 6914
fr@@ 6912
Abgeordnete 6912
difficulties 6911
95 6910
Klein@@ 6909
Irak 6908
vehicles 6906
signed 6901
parliamentary 6901
Ausgaben 6901
animal 6898
stor@@ 6897
Besucher 6896
condition 6895
cia 6894
experienced 6889
Great 6889
coffee 6888
multi@@ 6886
appears 6882
rap@@ 6882
möglichst 6882
ited 6879
ner@@ 6878
durchaus 6876
täglich 6872
gewinnen 6872
numbers 6870
peaceful 6869
Unternehmens@@ 6868
applies 6866
ordnung 6864
beschlossen 6863
Ob@@ 6860
Transport 6858
zentrale 6857
estate 6856
spiel@@ 6856
Herausforderung 6856
fisheries 6853
stadt 6853
becomes 6852
na@@ 6849
Dienste 6847
vorhanden 6838
consideration 6832
permanent 6831
tag@@ 6831
Mitgliedstaat 6828
schl@@ 6825
schw@@ 6820
pra@@ 6819
According 6818
Angaben 6818
lokalen 6812
politics 6809
Ziel@@ 6808
wenigen 6803
Mer@@ 6802
Bank@@ 6800
Vo@@ 6799
ending 6796
resort 6795
wood 6794
bes 6791
Pass@@ 6791
Breakfast 6789
gek@@ 6785
flexibility 6783
ick@@ 6782
gefordert 6779
analy@@ 6778
Werk@@ 6778
origin 6777
Ost@@ 6777
bedingungen 6777
Golf 6776
Star@@ 6774
99 6772
Zei@@ 6772
Klicken 6772
dig@@ 6771
Zeitraum 6771
courses 6769
ack 6764
ous@@ 6764
Komfort 6757
Währung 6754
Air 6749
benötigt 6749
feld 6743
dank 6742
val@@ 6740
konkrete 6739
break 6736
Druck@@ 6736
prot@@ 6735
-- 6734
monetary 6733
vision 6733
Pap@@ 6731
Großbritannien 6731
easier 6726
Hauses 6722
freue 6721
establishment 6720
Multi@@ 6720
jo@@ 6716
veröffentlicht 6713
sches 6712
36 6711
aj@@ 6710
ged 6709
angeboten 6709
economies 6708
picture 6708
cars 6706
urs 6705
God 6702
Jahrhunderts 6702
told 6700
finanzielle 6699
database 6697
Mio. 6696
Menschenrechts@@ 6694
threat 6692
Bre@@ 6692
high-@@ 6692
ved 6691
Net@@ 6689
fixed 6688
Gebieten 6687
starke 6686
äl@@ 6685
reicht 6685
führenden 6685
combat 6684
Sil@@ 6684
ini@@ 6681
aspect 6680
tere 6680
structures 6679
konzentrieren 6677
practices 6676
leader 6674
Test@@ 6674
Wissen 6674
les@@ 6673
AB@@ 6672
gewährleistet 6672
aims 6668
san@@ 6668
forget 6667
weight 6664
kulturellen 6663
Status 6661
Dennoch 6661
Nieder@@ 6658
34 6657
print 6655
dem@@ 6654
Bürger@@ 6654
führte 6653
attempt 6652
Auto 6652
erfolgen 6652
ering 6651
Terrasse 6651
darstellen 6650
models 6649
trip 6648
ships 6644
nächste 6642
rent 6641
continued 6639
Madrid 6639
entstehen 6638
Comm@@ 6635
erscheint 6635
Beitritt 6633
south 6632
istischen 6630
failure 6629
Herstellung 6625
spent 6624
Programms 6624
Nachfolgend 6621
myself 6619
combination 6619
Kingdom 6617
AG@@ 6616
ri 6615
fordert 6613
Online 6611
erklären 6606
Worte 6606
propose 6604
pul@@ 6604
seriously 6601
flow 6601
dri@@ 6599
ica 6599
dic@@ 6596
geschrieben 6596
arten 6595
Sel@@ 6594
dennoch 6594
ain 6589
Einigung 6588
Association 6587
Rede 6585
an-@@ 6584
translation 6584
zw@@ 6584
erstellen 6583
unabhängig 6582
Mel@@ 6581
Antrag 6581
ater 6579
Zweifel 6578
hi 6576
tiven 6576
associated 6575
schönen 6575
detail 6572
buffet 6572
ungsan@@ 6572
Voll@@ 6569
attractive 6567
Kirche 6567
48 6566
Santa 6564
Cap@@ 6564
betrachtet 6564
net@@ 6563
post 6561
Zweck 6559
tätig 6559
Energie@@ 6557
promoting 6555
club 6554
anyone 6553
schwierig 6553
ancient 6551
himself 6550
Pres@@ 6550
ahead 6545
sto@@ 6544
unterschiedliche 6544
relax 6543
dig 6543
-K@@ 6542
Geb@@ 6542
Ter@@ 6541
Forderungen 6540
satz 6534
Pakistan 6524
sou@@ 6519
gegründet 6519
differences 6518
studies 6517
inform@@ 6516
Open 6516
reservation 6513
einiger 6512
reducing 6511
aden 6510
availability 6509
phase 6508
finance 6507
Dom@@ 6507
Musik@@ 6505
ye 6504
Belarus 6504
brand 6498
IF@@ 6497
Sehr 6497
announced 6496
eingehen 6495
Gas@@ 6494
charged 6493
istische 6493
Analyse 6490
Geld@@ 6490
beaches 6489
sionen 6488
changing 6486
schul@@ 6486
umfasst 6486
Fran@@ 6485
Universität 6485
Mac@@ 6484
impossible 6483
fähigkeit 6481
Regel 6481
carefully 6480
ological 6480
Österreich 6480
Zi@@ 6478
Einhaltung 6476
released 6471
pre-@@ 6470
stein 6470
one-@@ 6469
gain 6468
Pra@@ 6468
voice 6465
absolut 6465
humanitarian 6462
gestalten 6462
Stellungnahme 6461
balanced 6459
98 6459
ware 6458
gs@@ 6457
Gegen@@ 6457
Aufnahme 6457
che@@ 6456
Tour 6456
Ã 6454
shared 6450
sha@@ 6450
2. 6450
fund 6449
diskutieren 6449
Firstly 6448
consumption 6446
haft 6446
session 6445
dangerous 6445
Gal@@ 6444
opposition 6444
booking 6443
geschehen 6442
pr@@ 6441
uner@@ 6441
Dollar 6441
immediate 6439
welt 6439
Sehenswürdigkeiten 6439
Griechenland 6439
names 6437
Irish 6435
happened 6435
geleistet 6435
Private 6434
producers 6433
learning 6432
rein@@ 6431
defence 6430
agencies 6430
cas@@ 6430
hands 6428
lungs@@ 6428
Texte 6427
architecture 6426
museum 6425
duty 6424
tn@@ 6424
kaufen 6423
liebe 6423
EADS 6421
concrete 6420
statements 6419
implementing 6418
Fonds 6416
of@@ 6412
cul@@ 6411
läuft 6410
kt@@ 6407
Leg@@ 6407
ised 6404
ular 6404
tem 6403
trading 6401
exhibition 6399
Gleichzeitig 6398
Abend 6397
Trade 6396
Achtung 6395
eigen@@ 6394
tage 6393
England 6393
Stellen 6392
glich 6388
ended 6387
orders 6382
Health 6378
Kommunikation 6378
river 6377
arrival 6375
inform 6370
advance 6369
gruppe 6369
folgende 6367
ke@@ 6366
Zwei@@ 6365
truly 6363
pictures 6363
wall 6363
Klima@@ 6359
Angesichts 6359
instance 6358
Vielzahl 6358
insurance 6357
respond 6357
Guest 6357
grounds 6355
ée 6355
raise 6350
aci@@ 6350
MA@@ 6349
Da@@ 6349
criminal 6348
introduce 6348
article 6348
Due 6347
chi@@ 6345
Prime 6345
button 6345
os@@ 6345
ama 6343
Sorge 6343
evidence 6342
stei@@ 6342
profitieren 6342
described 6341
Hersteller 6340
regionalen 6340
we@@ 6339
Entwicklungen 6339
Every 6338
Fuß 6337
esten 6336
recommend 6335
suite 6335
Download 6332
verfolgt 6332
Paket 6328
Hintergrund 6328
skills 6327
zung 6327
recht@@ 6327
nah@@ 6325
nung 6324
posi@@ 6319
Aspekt 6318
Sport 6317
improvement 6314
garantiert 6313
überprüfen 6312
600 6310
bas@@ 6310
don@@ 6310
37 6309
Prioritäten 6307
registered 6306
band 6306
meters 6305
Dokument 6305
einander 6304
Europeans 6299
fung 6299
Links 6297
relaxing 6295
Arten 6292
guarantees 6291
recognition 6291
Casino 6290
passed 6288
ISO 6287
calling 6287
feststellen 6286
zing 6285
Polen 6285
ett 6284
genuine 6282
spending 6279
standing 6279
Hi@@ 6279
tischer 6276
ländern 6276
possibilities 6275
atives 6274
Tu@@ 6274
п@@ 6274
continues 6272
nearby 6272
kom@@ 6272
de-@@ 6271
verlassen 6271
werke 6269
Arbeitslosigkeit 6267
loc@@ 6266
weg@@ 6266
ands 6264
cker 6262
Very 6261
erst@@ 6260
Afrika 6260
Rechnung 6259
plan@@ 6258
res 6257
у@@ 6257
figures 6256
reliable 6256
Pu@@ 6255
tsch@@ 6255
television 6254
installed 6252
wishes 6251
cont@@ 6251
membership 6251
Wal@@ 6250
Ja 6247
Stil 6246
weiterer 6245
Recht@@ 6244
National@@ 6243
unacceptable 6242
combined 6241
ände 6241
devices 6239
System@@ 6239
ander@@ 6238
Partnerschaft 6237
persönlich 6235
zimmer 6234
election 6232
Kri@@ 6232
packages 6231
Mann 6231
и 6231
firm 6230
fri@@ 6229
ances 6228
len@@ 6228
campaign 6224
Stärkung 6223
color 6220
bauen 6220
sichern 6218
adoption 6217
CA@@ 6217
empfehlen 6216
ot 6213
Rad@@ 6212
Foundation 6212
Sam@@ 6212
fonds 6212
Euro@@ 6210
religious 6210
miteinander 6210
1994 6209
Seine 6207
seek 6206
completed 6205
fiscal 6205
felt 6203
Nacht 6203
mil@@ 6202
übrigen 6202
33 6198
allowing 6196
enables 6196
Indi@@ 6194
bezeichnet 6193
unless 6192
minister 6192
territory 6191
ausschuss 6190
Kom@@ 6189
strongly 6188
greatest 6188
black 6188
zeichnet 6188
sides 6186
African 6186
Indien 6186
kept 6184
Moment 6183
chs@@ 6182
oh@@ 6181
kosten@@ 6181
gegenwärtig 6181
Mindest@@ 6177
Sar@@ 6175
gutes 6175
Agrar@@ 6175
sensitive 6173
tly 6173
participate 6172
tasks 6171
Plat@@ 6170
Deutsche 6169
Gesetz 6169
angesprochen 6169
IR@@ 6168
III 6164
flo@@ 6161
sale 6161
Leistung 6161
Betrieb 6160
mes 6159
surrounding 6155
Lesung 6155
sort 6153
erter 6152
Can@@ 6151
tour@@ 6151
Bedürfnisse 6151
Programm@@ 6149
Grenz@@ 6149
eingeführt 6148
pos@@ 6147
Fer@@ 6147
• 6147
zeichen 6147
tz 6146
obtain 6145
Problemen 6144
2,@@ 6143
manage 6142
französischen 6142
Pat@@ 6141
bul@@ 6140
Ideen 6140
Mont@@ 6139
Manager 6139
Formen 6139
court 6134
gegenwärtigen 6134
Beschreibung 6133
eck 6132
contain 6132
tier@@ 6131
hingewiesen 6130
unfortunately 6129
Justice 6129
Mass@@ 6128
erhält 6128
Tradition 6126
ena 6124
Titel 6124
inv@@ 6123
closer 6122
bars 6122
überall 6120
ki@@ 6118
elected 6117
Gemeinsamen 6115
Irland 6114
zufrieden 6111
groß 6110
fication 6105
Aussch@@ 6105
End@@ 6104
definition 6102
minim@@ 6099
Dor@@ 6099
fear 6098
ring 6098
surface 6095
positiv 6094
Another 6093
demokratische 6093
sets 6092
attractions 6089
beginnt 6089
zz@@ 6086
hom@@ 6086
middle 6086
dor@@ 6086
Barroso 6086
desire 6084
absolute 6084
mag 6084
9.@@ 6081
Sinn 6077
geschützt 6077
Player 6072
Elemente 6069
Last 6068
einsetzen 6068
coast 6067
0-@@ 6067
Ges@@ 6067
komplett 6067
fic@@ 6065
Ki@@ 6064
werk@@ 6064
Richtlinien 6064
Kr@@ 6062
OL@@ 6062
route 6061
danach 6060
dedicated 6059
Priorität 6057
compared 6056
lim@@ 6055
Such 6055
unterstütze 6055
platform 6053
sun 6052
Überwachung 6052
Hamburg 6051
window 6051
beauty 6050
großes 6050
piece 6044
guide 6041
Gre@@ 6041
chter@@ 6035
Is@@ 6033
800 6032
aufmerksam 6031
Menschen@@ 6029
keinerlei 6029
umfassende 6028
Federal 6027
alist 6027
38 6027
TR@@ 6026
Vienna 6025
Jeder 6024
Turkish 6023
mehr@@ 6022
verk@@ 6021
iel@@ 6020
ausreichend 6020
Gast@@ 6019
einfache 6019
Banken 6018
Syn@@ 6017
interface 6016
bear 6015
Regelungen 6014
anda 6013
forced 6012
führ@@ 6011
Geschäftsordnung 6011
erforderlichen 6011
corporate 6009
wasser@@ 6009
gezogen 6009
los@@ 6008
Tel@@ 6008
blo@@ 6007
marked 6006
alli@@ 6006
lt 6004
enormous 6003
claims 6002
sli@@ 6002
hel@@ 6001
besitzt 5999
Meiner 5998
Fortschritt 5998
größeren 5998
err@@ 5997
haften 5997
Bewertung 5995
cm 5994
Anteil 5994
Can 5993
Beh@@ 5991
fel@@ 5989
failed 5988
Liefer@@ 5988
sämtliche 5988
spezielle 5988
erin 5987
Verhältnis 5987
bestätigt 5987
gem 5986
biggest 5983
ata 5983
beteiligt 5981
Technik 5980
export 5979
Märkte 5979
isi@@ 5977
Kritik 5977
vorliegenden 5977
signal 5976
ik@@ 5975
individuals 5970
AL 5970
dete 5964
square 5963
Far@@ 5962
ol 5962
perspective 5961
funktion@@ 5961
accessible 5956
länger 5956
entitled 5955
Größe 5955
storage 5953
stru@@ 5950
Ir@@ 5950
fall@@ 5950
09 5949
luxury 5947
Eastern 5946
moving 5946
55 5945
comment 5944
seite 5944
ni 5943
anc@@ 5943
onto 5942
science 5942
sonst 5940
urgent 5938
extended 5937
Süd@@ 5935
Entwurf 5935
bt 5934
holidays 5932
Greek 5930
exercise 5928
Home 5928
Reise@@ 5928
Michael 5927
install 5926
totally 5925
device 5923
Prinzip 5922
pal@@ 5919
write 5918
onn@@ 5918
Inn 5918
mittels 5918
freiheit 5918
story 5917
unto 5915
deten 5915
wind 5914
nennen 5914
convinced 5912
Nevertheless 5912
ko 5912
lauf@@ 5911
leistungs@@ 5911
rufen 5910
exc@@ 5908
railway 5908
schöne 5906
Brüssel 5906
yl@@ 5904
wunder@@ 5904
Democrats 5900
Beschäftigungs@@ 5899
cr@@ 5897
Verpflichtung 5897
sum@@ 5895
Fr@@ 5895
institution 5890
internationaler 5887
este 5886
memory 5885
kostenlos 5883
Yet 5882
eder 5881
č@@ 5881
Eing@@ 5880
advertising 5879
verbundenen 5878
hergestellt 5872
offensichtlich 5869
flight 5868
bath 5868
sicht@@ 5866
books 5865
gelöst 5865
host 5864
garantieren 5862
expensive 5861
Globalisierung 5861
Schi@@ 5856
discover 5855
Agentur 5855
controls 5854
lie 5854
Maße 5854
church 5853
coll@@ 5852
engine 5851
Motor@@ 5849
mail 5848
Mitteln 5848
Dra@@ 5847
advice 5845
lo 5845
drawn 5840
organization 5840
starken 5838
Worten 5838
schlagen 5837
Treffen 5836
abkommen 5836
äch@@ 5835
Eigen@@ 5832
Bush 5831
factors 5829
d. 5829
1990 5827
fire 5825
Lan@@ 5825
gkeit 5825
Netherlands 5824
yer 5824
initial 5823
Institute 5823
payments 5822
fur@@ 5821
drei@@ 5821
ick 5820
lern 5820
Fotos 5819
ola 5818
Lake 5818
08 5817
bekannten 5816
unable 5815
stone 5814
Austrian 5813
ome 5812
Shi@@ 5811
micro@@ 5811
ect 5810
disease 5809
к@@ 5809
organised 5808
echte 5808
chosen 5807
stattfinden 5807
granted 5806
Log@@ 5805
elten 5805
Unterkunft 5804
nation 5803
Altstadt 5803
weapons 5802
dienst 5801
zusätzlich 5799
beinhaltet 5799
Gründe 5798
Studio 5794
ony 5793
chter 5791
alter 5790
ty@@ 5789
Sor@@ 5788
Betriebs@@ 5787
establishing 5785
Company 5785
Verkehr 5784
pfen 5783
Monat 5778
cer@@ 5776
outcome 5773
zählen 5773
Volks@@ 5771
Jahres@@ 5771
Design@@ 5769
mögliche 5769
limits 5766
übertragen 5765
contrary 5764
28@@ 5762
Festival 5762
Umfang 5762
deutsche 5761
perfectly 5760
&apos;re 5760
ong 5757
attack 5756
regi@@ 5755
Ca@@ 5755
wirken 5753
update 5747
conclusions 5746
Resort 5746
Niveau 5744
dat@@ 5743
Nicht@@ 5743
wesentlichen 5743
Erklärungen 5743
ca@@ 5741
Control 5739
tried 5738
hu@@ 5738
üsse 5738
massive 5736
mountains 5736
chan@@ 5735
Gri@@ 5735
britischen 5733
Dec@@ 5732
zufolge 5732
Poli@@ 5731
gruppen 5730
7-@@ 5729
rat@@ 5728
zt 5728
Beteiligung 5728
Rel@@ 5727
Industri@@ 5726
anst@@ 5726
Palace 5724
neither 5722
6-@@ 5721
betrachten 5721
Sei@@ 5720
rightly 5717
OT@@ 5715
furnished 5715
Generation 5715
Thus 5714
ambitious 5714
listen 5712
commitments 5712
verloren 5711
fes@@ 5710
water@@ 5709
Gott 5709
tin 5708
Are 5708
Atom@@ 5708
fit 5707
zuvor 5707
steigen 5706
solcher 5706
valid 5705
Foreign 5705
umwelt@@ 5704
Gegensatz 5704
finde 5703
fli@@ 5702
vehicle 5701
Risiken 5700
background 5699
entsprechen 5699
existence 5698
Patienten 5698
successfully 5695
indi@@ 5695
etz@@ 5695
Ba@@ 5695
Reise 5695
Politiker 5694
relativ 5693
agency 5691
chung 5690
Tal@@ 5689
eu 5688
anlagen 5688
convenient 5686
maintenance 5685
gestellten 5682
Europäer 5682
Note 5681
artists 5681
Schlüssel@@ 5681
saw 5680
ment@@ 5680
greifen 5680
Entschließungsantrag 5679
setzung 5678
read@@ 5675
ection 5675
ables 5673
.de 5673
Option 5672
fte 5671
register 5670
asylum 5669
speziellen 5668
glichen 5667
Data 5664
IG@@ 5664
Methode 5664
Flexibilität 5663
ag 5662
vit@@ 5660
spiel 5660
h. 5660
kraft 5658
ust 5657
Kompromiss 5657
claim 5655
honourable 5655
8.@@ 5654
anische 5654
Mand@@ 5652
approximately 5651
Palestinian 5651
ther 5650
es-@@ 5650
Eindruck 5650
Mitgliedern 5650
remind 5649
Aktionen 5649
candidate 5647
een 5647
Ereignisse 5646
ink 5645
para 5645
Off@@ 5644
wider 5643
asking 5641
ci 5641
gei@@ 5641
nation@@ 5640
tlichen 5639
gehalten 5639
ç@@ 5638
07 5636
Aussicht 5636
gegangen 5634
yst@@ 5633
TH@@ 5632
Weitere 5632
Rom@@ 5631
achieving 5631
mei@@ 5629
cru@@ 5628
run@@ 5628
geöffnet 5628
Absatz 5628
н@@ 5625
Beim 5625
constantly 5624
Ka@@ 5624
PHP 5623
k-@@ 5622
abgeschlossen 5622
Latin 5620
surrounded 5616
ré@@ 5616
rechtlichen 5615
Peter 5614
ständigen 5613
obviously 5611
ía 5611
deliver 5610
jüngsten 5610
rechten 5609
Aufbau 5609
dep@@ 5607
komm@@ 5607
Nachdem 5607
schafts@@ 5607
targets 5606
intervention 5604
continuing 5604
unit 5604
asp@@ 5604
m2 5604
manchmal 5604
utili@@ 5603
vers 5602
sam@@ 5602
Bis 5602
daraus 5602
fort 5600
guter 5600
goals 5599
monitor 5598
expression 5598
aw@@ 5598
Air@@ 5597
ari 5596
category 5595
ard@@ 5595
paragraph 5593
Located 5593
Wirkung 5593
mäßig 5591
fach@@ 5589
Verständnis 5589
Begriff 5589
zy@@ 5588
ischem 5588
Innen 5587
Empfehlungen 5587
Fol@@ 5586
independence 5583
informiert 5583
are@@ 5581
Haus@@ 5581
erhöht 5581
el-@@ 5580
Kraft@@ 5580
Erde 5580
colleague 5579
nationaler 5579
equ@@ 5578
outstanding 5578
Öl@@ 5578
kar@@ 5577
touch 5576
Gebiete 5573
ected 5567
Card 5567
Gl@@ 5564
stehenden 5564
title 5562
dliche 5562
contents 5561
promotion 5558
hauptsächlich 5558
alisation 5557
ising 5556
oni 5556
aircraft 5556
lichkeiten 5556
laid 5555
mobili@@ 5553
Bildungs@@ 5553
ched 5552
Constitution 5549
deep 5548
ow 5547
reich 5546
Realität 5545
erfordert 5544
dige 5543
ani 5543
gets 5542
someone 5540
operate 5539
19. 5539
physical 5537
sell 5536
ren 5536
photos 5536
qui@@ 5535
Anlagen 5535
Start 5534
ideale 5534
Botschaft 5533
obligations 5532
keeping 5528
origin@@ 5528
conc@@ 5528
Phase 5527
advantages 5526
0,@@ 5525
Obama 5525
race 5519
Media 5519
north 5518
Meeres@@ 5518
yesterday 5516
halt 5516
staatlichen 5516
tis 5515
Hoffnung 5514
mut@@ 5513
dly 5512
Risiko 5512
eng 5511
Nutzer 5511
Pen@@ 5510
tens 5509
Kenn@@ 5509
beachten 5508
Those 5507
SE@@ 5507
lake 5507
Führung 5506
contained 5505
bildung 5505
planned 5504
Regulation 5502
fühlen 5499
0er 5497
tives 5495
intensive 5494
atory 5494
ön@@ 5490
binding 5490
getragen 5489
counter@@ 5488
obvious 5487
qualified 5487
down@@ 5485
produk@@ 5485
reise 5485
berühmten 5484
legung 5483
damals 5483
Sprach@@ 5481
Inseln 5481
produktion 5481
looks 5480
ports 5480
recommendations 5480
waiting 5480
Q 5479
Hon@@ 5478
decades 5477
1992 5477
Farb@@ 5477
sicher@@ 5477
wichtigste 5477
Mus@@ 5476
Grundsatz 5476
mass 5475
PR@@ 5475
acht@@ 5472
equality 5471
nearly 5471
participants 5471
allgemeine 5471
O-@@ 5470
Market 5468
tically 5468
Agency 5468
cri@@ 5467
Fisch@@ 5467
factor 5466
bringing 5466
Teilen 5465
Mö@@ 5464
stellte 5464
ered 5462
sobald 5462
capable 5461
geschieht 5461
zo@@ 5460
Vom 5459
fälle 5459
situations 5458
foot 5458
kor@@ 5456
def@@ 5453
öh@@ 5453
governance 5453
punkt 5453
Both 5452
vier@@ 5452
expenditure 5451
recovery 5450
siert 5450
consists 5447
globale 5447
Rome 5444
tete 5442
communities 5441
unden 5440
putting 5439
Paul 5439
führer 5439
Winter@@ 5438
einzigen 5438
jungen 5438
pointed 5436
seeking 5435
landscape 5435
sat@@ 5435
stations 5435
merely 5431
species 5431
hängt 5430
65 5429
regelmäßig 5429
vous 5428
dimension 5427
ECU 5427
Beach 5427
manufacturing 5426
omm@@ 5425
ards 5425
Hinweis 5424
dynamic 5422
ual 5421
flu@@ 5421
wirtschaft 5421
reden 5420
anz 5420
Firmen 5419
smaller 5417
Grunde 5417
leads 5416
prevention 5416
satellite 5415
MS 5415
Bedarf 5415
ania 5414
trifft 5414
einverstanden 5414
disp@@ 5413
High@@ 5412
е 5412
nachhaltige 5412
ungst@@ 5411
festgestellt 5411
boo@@ 5408
Fraktionen 5407
Friedens@@ 5406
Hauptstadt 5405
persönliche 5405
Beihilfen 5405
AS 5404
Voraussetzungen 5404
Stu@@ 5403
store 5402
Energy 5401
substantial 5401
Vorteil 5401
Teil@@ 5400
Hälfte 5400
Zahlungs@@ 5400
Gegenteil 5400
Einkaufs@@ 5399
ch-@@ 5398
gene 5397
aum 5397
Other 5396
wür@@ 5395
medium-sized 5394
mechanism 5394
Ban@@ 5394
Ebenso 5393
Square 5392
Dimension 5391
disposal 5389
Korea 5386
servi@@ 5386
Vis@@ 5386
Kredit@@ 5386
sprache 5384
registration 5383
i.e. 5382
ba 5380
Pro 5380
consistent 5379
denk@@ 5378
ös@@ 5377
e.@@ 5376
,00 5376
zugleich 5369
turned 5367
Rot@@ 5365
vorgeschlagenen 5365
rapid 5364
dur@@ 5364
bewegen 5364
Welche 5364
Pf@@ 5362
Hol@@ 5361
entgegen@@ 5361
mode 5360
betroffen 5360
Men@@ 5359
Pic@@ 5359
Städte 5359
berei@@ 5358
Bestandteil 5358
64 5357
jährlich 5357
contemporary 5356
Fo@@ 5356
trag 5356
stabili@@ 5355
Summit 5354
Tages@@ 5353
Wettbewerbs@@ 5353
staaten 5353
ssi@@ 5352
fs 5350
Kontroll@@ 5350
seh@@ 5347
testing 5344
Netz@@ 5344
Any 5342
regeln 5342
guaranteed 5341
ingen 5340
dad 5339
acceptable 5338
kop@@ 5338
eiten 5338
causes 5337
browser 5337
named 5336
entwicklung 5336
ening 5334
straße 5334
cking 5333
Infrastruktur 5332
Vertrags@@ 5332
extend 5331
spezi@@ 5331
anbieten 5329
abo@@ 5328
gent@@ 5328
Out@@ 5328
enth@@ 5328
set@@ 5327
Veranstaltungen 5326
meaning 5325
gewählt 5325
physi@@ 5324
Prüfung 5324
fy 5323
Global 5323
ersch@@ 5323
Holz@@ 5322
driving 5321
edge 5320
schneller 5320
ries 5319
brings 5319
Landschaft 5318
Royal 5317
Spezi@@ 5317
ites 5316
praktisch 5316
Klimaanlage 5316
glass 5315
erenden 5315
versions 5314
traditionellen 5313
bahn 5311
aries 5310
arms 5309
compliance 5309
fron@@ 5309
ehen 5309
wodurch 5308
Internationalen 5306
examples 5305
räume 5304
grün@@ 5303
u. 5303
trä@@ 5302
Rules 5301
Farben 5301
Ruhe 5301
42 5299
Bern@@ 5299
Ausland 5299
resulting 5295
Winter 5295
spread 5293
compl@@ 5288
betroffenen 5288
wagen 5287
beschäftigt 5285
Angebote 5285
politisch 5284
ba@@ 5283
treated 5282
pass@@ 5282
herzlich 5282
determined 5281
cour@@ 5281
.00 5281
Sweden 5280
Thanks 5280
Gef@@ 5279
Zahlen 5279
ately 5277
ths 5277
primary 5276
stes 5276
conclude 5269
ching 5269
Island 5269
aming 5268
Flu@@ 5267
object 5266
golf 5266
Details 5266
spa 5264
vorschlagen 5263
Buch 5262
Doppel@@ 5262
ecken 5261
Dienst 5260
Stat@@ 5259
Unabhängigkeit 5256
ier 5255
Environment 5253
block 5251
optimal 5250
angeht 5250
tab@@ 5249
tende 5249
Zimmern 5249
adequate 5248
pleasure 5248
OS@@ 5248
wait 5247
seven 5247
pour 5247
öl@@ 5247
Gesetzgebung 5244
Erhöhung 5242
forest 5240
aufen 5240
früher 5240
As@@ 5239
attacks 5238
patients 5238
val 5238
unk@@ 5238
spaces 5237
explain 5236
addressed 5236
Aufgrund 5236
Struktur 5236
sum 5235
Martin 5235
05 5234
fuel 5234
oli@@ 5233
JavaScript 5232
migration 5231
Trotz 5231
vollkommen 5231
aging 5230
my@@ 5228
welchen 5228
zurückzu@@ 5225
weiteres 5225
begann 5224
responsibilities 5223
Material 5222
nations 5221
kürzlich 5221
ici@@ 5220
radio 5219
soft 5216
junge 5216
digung 5215
96 5212
bers 5212
industries 5211
strengthening 5210
association 5210
Format 5210
older 5208
lich@@ 5208
oral 5207
besseren 5207
stoffen 5207
woh@@ 5206
enh@@ 5205
THE 5204
extreme 5203
Kre@@ 5202
ez 5201
3. 5201
ita 5200
agen 5200
Überprüfung 5198
Time 5197
Charakter 5194
multi-@@ 5191
eur@@ 5191
Alliance 5191
Königreich 5191
sky 5189
bedroom 5189
einerseits 5189
zählt 5188
Na@@ 5187
diskutiert 5186
talks 5185
wir@@ 5185
ward 5184
hum@@ 5183
Ratspräsident 5183
schools 5181
identity 5181
by@@ 5181
tests 5181
49 5181
Unternehmens 5181
IP@@ 5180
Bus 5180
tenden 5179
Serie 5177
IA 5176
Stadtzentrum 5176
evaluation 5174
Methoden 5174
Innen@@ 5173
Liberalisierung 5173
fand 5172
reagieren 5172
primarily 5170
atischen 5169
remove 5167
kri@@ 5167
Laufe 5166
träge 5166
rati@@ 5165
ela 5162
Pool 5162
kes 5161
GDP 5160
temporary 5160
Männer 5160
kers 5158
realis@@ 5158
urban 5157
notice 5157
schön 5157
Nice 5156
Verbraucher@@ 5155
kinds 5154
sun@@ 5152
dlich 5152
97 5151
250 5149
Enjoy 5149
steel 5148
fällen 5148
previously 5145
thereby 5145
Financial 5144
Bewegung 5144
Dutch 5143
ING 5143
bezieht 5143
esen 5142
Gästen 5142
multiple 5139
gol@@ 5139
requested 5138
Red@@ 5138
investments 5138
liefern 5137
EU@@ 5136
wh@@ 5135
quick 5134
consensus 5134
dia 5134
Licht 5134
ball 5132
Hin@@ 5131
einzelne 5131
accounts 5129
ßt 5129
Mehr 5128
liability 5126
Diskriminierung 5126
Mad@@ 5125
Teilnehmer 5125
bing 5124
Liebe 5124
160 5123
discussing 5122
Romania 5122
delay 5121
abhängig 5121
hafte 5120
Link 5119
stimmt 5118
ierungs@@ 5115
sl@@ 5114
spezifischen 5114
sem@@ 5109
ail@@ 5108
insi@@ 5107
bedeut@@ 5106
ented 5103
ath 5103
tierung 5103
bequem 5101
visible 5098
bereiche 5096
26@@ 5094
Grenze 5094
copy 5091
Mil@@ 5091
strategie 5091
delivered 5089
ads 5088
bel 5088
Netzwerk 5088
Klimawandel 5088
gone 5087
fi 5087
gliche 5087
skin 5086
Waren 5086
Fähigkeit 5083
head@@ 5078
Ordnung 5078
tran@@ 5077
1993 5077
wil@@ 5077
leadership 5076
barer 5076
seitens 5076
tou@@ 5074
ê@@ 5074
Despite 5073
representative 5073
85 5072
intensi@@ 5070
Fälle 5070
bildet 5069
rail 5068
willing 5068
competence 5068
pension 5068
hilfe 5065
tern@@ 5062
ning 5061
karte 5061
technological 5060
Buch@@ 5060
Suite 5060
opposite 5059
Dokumente 5059
Lehr@@ 5058
Westen 5058
Wander@@ 5057
Koordinierung 5056
tar@@ 5055
Eis@@ 5054
akzeptiert 5052
default 5051
Maria 5050
avi@@ 5050
s.@@ 5050
feeling 5049
Tiere 5048
IB@@ 5047
Reaktion 5047
20. 5046
ax@@ 5045
tal 5043
dos 5043
Minutes 5042
gewal@@ 5042
positiven 5041
PC@@ 5040
Brenn@@ 5039
gesellschaft 5039
lag 5038
sters 5038
southern 5036
controlled 5035
manufacturers 5035
wen@@ 5033
Freunde 5032
prepare 5031
Pop@@ 5030
betont 5029
Nutz@@ 5028
Anpassung 5028
all-@@ 5027
dealt 5024
ws 5024
Handel@@ 5023
Versuch 5023
ign@@ 5021
Kombination 5020
diversity 5019
zus@@ 5019
spezifische 5019
Pas@@ 5018
SO@@ 5016
Boo@@ 5016
ktion 5016
Militär@@ 5016
Regierungs@@ 5015
Unterschiede 5014
Gefühl 5013
sicherstellen 5013
taste 5012
letter 5010
Willen 5010
affect 5009
Amerika 5008
kal@@ 5007
PL@@ 5005
itäts@@ 5005
wealth 5004
aria 5004
urge 5003
The@@ 5003
Rau@@ 5003
Day 5002
PH@@ 5002
wirkt 5002
ländlichen 5002
sanctions 5000
speakers 4999
Erd@@ 4999
forum 4998
moved 4998
runs 4998
quote 4997
kenn@@ 4996
Dadurch 4996
represented 4995
ambi@@ 4995
conduct 4994
ón 4993
Stunde 4993
compatible 4992
verlieren 4991
uri@@ 4990
ker@@ 4990
stoff@@ 4990
übernommen 4989
í 4987
Nu@@ 4987
Wegen 4987
Umständen 4987
diverse 4986
ple@@ 4985
lig@@ 4985
Two 4984
8-@@ 4984
ge-@@ 4983
isch@@ 4983
regionale 4983
Vorbereitung 4983
Körper 4981
höchste 4981
significantly 4980
testen 4979
Before 4977
Gesetze 4975
Telefon 4974
lar@@ 4973
Sc@@ 4971
approval 4970
eins 4969
dritten 4969
06 4968
Find 4968
EG 4966
Süden 4966
andererseits 4965
Via 4963
ater@@ 4963
author 4962
noise 4962
GB 4962
Zustand 4962
strength 4960
basiert 4960
esi@@ 4959
breite 4959
AT 4958
nochmals 4958
handel 4956
zeu@@ 4955
anz@@ 4954
ehemaligen 4953
ys@@ 4950
zustimmen 4950
Anliegen 4950
Aut@@ 4948
viel@@ 4948
Lam@@ 4947
Diskussionen 4947
ergeben 4946
tiv 4945
verstärkt 4945
recommended 4943
shape 4943
destination 4943
eit 4943
hof 4942
Raum@@ 4942
Strategien 4942
Ther@@ 4941
Hilfs@@ 4941
expertise 4940
genen 4940
Bahnhof 4938
ckt 4935
Vielleicht 4935
Such@@ 4934
tend 4933
Eigenschaften 4933
nden 4931
Teilnahme 4930
ine@@ 4928
ght 4927
launched 4926
tours 4926
Back@@ 4926
ativen 4924
gewisse 4924
aut 4922
stan@@ 4922
Standard@@ 4922
bericht 4922
Delegation 4920
ku@@ 4920
Roman 4920
nötig 4920
stoff 4919
sin@@ 4918
wiederum 4918
Einklang 4918
Support 4915
Anlage 4915
üh@@ 4914
seien 4914
improvements 4912
PS 4910
voran@@ 4910
mechanisms 4909
parti@@ 4909
UT@@ 4909
charming 4909
Projekt@@ 4908
bit@@ 4907
Mein 4907
highlight 4906
helping 4905
Studie 4905
Bedenken 4905
knows 4904
relatively 4903
websites 4902
Kol@@ 4901
soweit 4900
Bon@@ 4899
amongst 4898
length 4898
sicht 4897
gestern 4896
helps 4895
mutual 4894
derzeitigen 4894
IC 4891
digt 4891
haltung 4891
refugees 4888
engineering 4888
expectations 4887
fruit 4887
Freude 4887
vielmehr 4887
zunehmend 4887
consultation 4885
lab@@ 4881
ce-@@ 4881
AV@@ 4879
reply 4878
Schule 4877
sieben 4877
White 4876
WC 4874
covers 4871
sieren 4871
bedrooms 4870
Kollege 4870
Poker 4868
Spiele 4868
trees 4867
auer 4867
MO@@ 4867
Verfügbarkeit 4867
trägen 4867
experiences 4865
39 4865
verlangen 4865
esch@@ 4864
Rotary 4863
except 4862
sta 4861
delegation 4860
requests 4856
interpre@@ 4856
erende 4856
Tru@@ 4855
keiner 4854
Kunde 4854
presentation 4853
sold 4853
zur@@ 4852
Express 4852
umfassenden 4852
21. 4852
Voraussetzung 4852
acting 4851
Munich 4851
amerikanische 4851
ED@@ 4850
Schl@@ 4850
Mikro@@ 4850
identi@@ 4846
linie 4844
Sanktionen 4842
p.m. 4841
unternommen 4841
attitude 4840
Fern@@ 4840
Mur@@ 4840
serves 4839
Wien 4839
pur@@ 4838
units 4837
Antworten 4837
ide 4836
T-@@ 4836
eld 4835
privacy 4834
sierung 4834
hau@@ 4833
Lebensmittel@@ 4833
echten 4832
weltweiten 4831
Fe@@ 4830
western 4828
taxes 4826
egen 4826
Straßen@@ 4826
schei@@ 4826
finding 4825
ghts 4825
Ob 4825
genauso 4825
Gener@@ 4823
solve 4823
sw@@ 4823
system@@ 4823
historische 4823
anerkannt 4823
ake 4821
Book 4821
werfen 4820
wichtiges 4820
discovered 4819
\ 4818
Prodi 4816
respective 4815
Geist 4815
trotzdem 4814
articles 4813
boat 4812
pic@@ 4812
02 4811
ativ 4810
Formular 4810
tritt 4810
Mas@@ 4808
furniture 4807
ello 4807
Plaza 4807
befassen 4807
Tod 4803
fill 4802
qualität 4802
aktive 4801
F-@@ 4800
gegen@@ 4798
ausschusses 4798
Ci@@ 4797
Fort@@ 4795
Technology 4795
03 4794
deiner 4794
streets 4791
heraus 4791
hilft 4791
Allgemeinen 4789
faced 4788
elled 4788
dishes 4788
Zoll@@ 4788
behörden 4788
cheap 4785
heits@@ 4784
dinner 4783
Effizienz 4783
höhere 4783
tain 4782
ize 4782
3D 4782
profit 4781
fighting 4781
Wider@@ 4781
Mul@@ 4779
Grundrechte 4779
drugs 4778
Apartment 4777
weit@@ 4777
med 4776
Zugriff 4774
behandeln 4774
Bes@@ 4773
Take 4772
schen@@ 4772
obligation 4771
regret 4770
politicians 4770
Tit@@ 4770
latter 4768
appeal 4768
X-@@ 4768
Architektur 4767
Untersuchung 4767
log 4763
Verhalten 4763
Karten 4763
texts 4762
kleiner 4762
rejected 4761
Sitz 4761
ziemlich 4760
preis 4759
Definition 4758
hoher 4758
Küste 4757
temperature 4756
spot 4756
Leistungs@@ 4756
ruhigen 4755
sorgt 4755
appreciate 4754
compensation 4754
fantastic 4754
Berücksichtigung 4754
esses 4752
ati 4752
Fra@@ 4751
Übereinkommen 4751
700 4750
River 4750
healthy 4748
Power@@ 4744
entered 4742
emphasis 4741
error 4741
jemand 4740
tan@@ 4739
Camp@@ 4739
dienste 4738
constant 4737
arrangements 4736
Welcome 4735
walls 4734
konkreten 4734
Schäden 4733
120 4732
gelungen 4732
emphasise 4731
Wa@@ 4731
Mak@@ 4731
Tatsächlich 4731
recognise 4730
Aqu@@ 4730
duc@@ 4729
Kapital@@ 4729
extension 4728
seeing 4727
willkommen 4727
dungen 4726
Gold 4725
exists 4724
Beifall 4724
deb@@ 4722
10.@@ 4722
ст@@ 4721
Fri@@ 4720
tom@@ 4718
PDF 4718
q@@ 4717
betreffen 4717
Grundsätze 4716
producing 4715
niemand 4715
watch 4713
1000 4713
reflect 4712
menschlichen 4712
buchen 4709
Putin 4708
wesen 4708
ills 4707
Lag@@ 4707
Auftrag 4707
erhältlich 4707
ox@@ 4706
sions@@ 4706
figure 4705
0.000 4705
acy 4704
handling 4704
User 4704
resolve 4703
schätzen 4702
Sand@@ 4700
objects 4700
truth 4699
Chamber 4699
Britain 4699
eff@@ 4699
Paper 4698
cycle 4698
Eng@@ 4697
ey@@ 4696
suffering 4695
Lebens 4693
kin@@ 4692
helped 4691
mod@@ 4691
Use 4691
Verträge 4691
sse 4690
gemein@@ 4690
ours 4688
Fil@@ 4687
arbei@@ 4687
operators 4686
ura 4686
mitten 4686
dates 4685
beträgt 4683
nam@@ 4682
intention 4680
master 4679
audio 4675
gespielt 4674
nte 4673
44 4672
entdecken 4668
tra 4666
substances 4666
Mari@@ 4666
comply 4663
proof 4663
profile 4663
Lord 4662
erscheinen 4662
Rat@@ 4661
Letz@@ 4661
Materialien 4661
Bau 4660
reserve 4659
aly@@ 4659
parallel 4657
output 4657
liste 4656
sign@@ 4653
bon@@ 4650
künftig 4650
ala 4649
S. 4649
Leitlinien 4647
sur 4645
whatever 4643
formen 4642
OR 4641
spec@@ 4640
Maßnahme 4640
David 4638
schließt 4638
Norden 4638
soci@@ 4637
affairs 4636
NL 4636
th-@@ 4636
Fernseh@@ 4636
dischen 4636
mobility 4635
Verbrechen 4635
begonnen 4634
drawing 4633
happens 4632
Alp@@ 4632
eröffnet 4632
valuable 4631
School 4631
disaster 4630
cross-border 4630
Gei@@ 4630
Werk 4630
Liber@@ 4629
elte 4629
hostels 4628
Ambiente 4628
trac@@ 4626
cel@@ 4626
danger 4625
kulturelle 4625
Nachfrage 4625
entlang 4625
confirmed 4624
largely 4624
creative 4624
Anfragen 4624
alized 4622
info 4622
marks 4621
wis@@ 4621
rau@@ 4621
inzwischen 4621
president 4620
recognised 4619
applicable 4618
entertainment 4618
centres 4617
friend 4616
Wirtschafts- 4616
Ohne 4616
führende 4616
eigenes 4615
audi@@ 4614
lang@@ 4614
naturally 4613
Völker 4613
tut 4613
Where 4612
ticket 4612
Rule 4610
album 4610
diseases 4609
renewable 4608
Wahrheit 4608
Landwirte 4607
arch@@ 4606
Kind 4606
Mehr@@ 4606
produkte 4606
Datenbank 4606
wesentliche 4604
Old 4603
Safety 4601
Dort 4601
fraud 4600
On@@ 4600
mental 4598
inst@@ 4597
assist 4596
CO2 4596
erne 4594
alization 4594
eye 4593
opposed 4592
Essen 4592
zusätzlichen 4592
Gedanken 4592
dir 4591
aches 4590
cc@@ 4590
x-@@ 4589
RO 4589
brechen 4589
italienischen 4589
Instead 4587
Absicht 4587
exclusively 4586
ash 4586
dining 4585
ł@@ 4585
sten@@ 4584
hinter@@ 4584
Erwartungen 4583
kurzem 4583
atoren 4583
A3@@ 4582
sofern 4582
staatliche 4581
wards 4580
pose 4579
personally 4579
chain 4579
Berufs@@ 4579
fein@@ 4579
wissenschaftlichen 4579
separ@@ 4578
institutionellen 4578
spring 4575
dans 4575
Ra@@ 4574
Ferner 4572
43 4571
eight 4571
automatic 4571
outdoor 4571
interessiert 4571
Japanese 4568
Schaden 4568
charges 4567
Strategy 4567
Sach@@ 4567
teren 4567
waters 4566
Park@@ 4566
ligh@@ 4565
Rob@@ 4565
millions 4563
PS@@ 4563
let@@ 4562
rasch 4562
zahl@@ 4561
angemessen 4561
Ministers 4560
burden 4559
schönsten 4558
manager 4557
LO@@ 4557
officials 4556
ernst 4556
USD 4555
miss@@ 4555
installiert 4554
cent 4553
whilst 4553
Ant@@ 4553
DA 4553
leisure 4551
volume 4550
impressive 4550
Europ@@ 4550
fähig 4550
fail 4549
fies 4547
tre 4546
them@@ 4546
zentralen 4546
verändert 4546
Mittelpunkt 4545
arian 4543
heavy 4542
entwickelten 4541
determine 4540
Ram@@ 4540
Swedish 4539
dische 4538
dungs@@ 4537
involving 4536
constructive 4535
Kauf@@ 4535
grundlegenden 4535
U.S. 4534
27@@ 4534
Entwicklungsländern 4532
sy@@ 4529
iten 4527
Fischerei 4527
Spar@@ 4526
cy 4525
Versch@@ 4525
exceptional 4523
1991 4523
Weiter@@ 4523
ce@@ 4522
Open@@ 4521
Kategorie 4519
Experten 4519
rup@@ 4518
deck@@ 4518
increases 4516
pieces 4515
1989 4513
castle 4513
natürlichen 4513
fei@@ 4512
195@@ 4511
schwierigen 4510
Alternative 4509
journey 4508
Kosten@@ 4508
su 4506
sauna 4506
Good 4505
neuesten 4503
hervorragende 4501
Angriff 4500
criticism 4499
aner 4499
Shop 4499
Schweden 4499
yes 4497
lets 4497
Beratung 4497
wechsel@@ 4497
holding 4496
couple 4496
näher 4496
offices 4495
locations 4494
41 4494
Schengen 4494
Einstellung 4494
zweifellos 4494
zieht 4492
2013 4491
gefördert 4491
Charter 4490
BR@@ 4490
prove 4486
amounts 4485
equally 4485
west 4485
besitzen 4485
öffnen 4483
schlag 4483
Bil@@ 4482
Verbesserungen 4482
freundlich 4481
kostet 4481
l-@@ 4480
SM@@ 4480
Beispiele 4480
tag 4479
low-@@ 4478
ausgezeichnete 4478
Tagung 4478
perform 4477
rechts@@ 4477
domin@@ 4476
lebens@@ 4476
Nov@@ 4475
meist 4475
niemals 4475
top@@ 4474
Foto 4474
protecting 4473
decorated 4473
HT@@ 4473
haf@@ 4472
ero@@ 4470
ando 4469
Verkauf 4469
welt@@ 4469
asser@@ 4468
laut 4468
cold 4465
command 4465
zuerst 4465
leaving 4464
George 4464
lovely 4463
sens@@ 4463
Englisch 4463
east 4461
Normen 4461
Special 4460
erheblich 4460
mandate 4459
Bay 4459
q 4459
Lab@@ 4459
Badezimmer 4459
Dublin 4458
passengers 4458
Sonnen@@ 4458
Los 4457
5. 4457
erweitert 4457
Over 4456
row 4453
Vil@@ 4453
bedeuten 4453
westlichen 4452
bestand 4451
offenen 4451
removed 4450
mus@@ 4450
Han@@ 4450
tickets 4450
obtained 4449
residence 4449
Klima 4447
2012 4446
Regime 4446
peoples 4444
unmittelbar 4444
fassen 4444
directives 4442
gert 4442
Stand@@ 4441
finished 4441
Form@@ 4441
spek@@ 4440
doors 4439
brief 4438
schnelle 4437
hit 4436
ks@@ 4436
11. 4436
Komp@@ 4436
teilnehmen 4436
involvement 4435
mitt@@ 4435
uss 4435
organizations 4435
weather 4434
olog@@ 4434
Wirklichkeit 4433
Fenster 4432
bed@@ 4431
break@@ 4431
flü@@ 4431
weshalb 4430
Nahen 4430
treaty 4429
parks 4429
mitteln 4429
Ladies 4428
lle 4428
strategies 4427
password 4427
disc@@ 4425
Cli@@ 4424
anlage 4424
zentr@@ 4424
Canada 4423
ga 4423
happening 4422
medium 4420
bezug 4420
CS@@ 4419
höchsten 4419
Tar@@ 4418
Bucht 4418
einfachen 4417
ele 4416
Bru@@ 4416
entstanden 4416
ences 4415
preis@@ 4415
Strukturen 4414
father 4413
iss@@ 4412
proved 4411
combating 4411
Hau@@ 4410
Spe@@ 4409
Their 4409
Rechts 4409
Agrarpolitik 4409
Unterschied 4408
-up 4407
ausgezeichneten 4407
allgemein 4406
depends 4405
kol@@ 4405
München 4405
starten 4403
kurze 4403
berechtigt 4403
kan 4402
blue 4401
Ul@@ 4401
parents 4401
Ausstattung 4400
maintained 4398
ú@@ 4398
fee 4397
hy@@ 4397
Don@@ 4396
IV@@ 4396
eyes 4395
lic 4394
cle@@ 4394
Boden 4394
Websites 4393
Geh@@ 4392
Van 4391
verlangt 4391
markt@@ 4390
ought 4389
äm@@ 4388
kat@@ 4387
fern 4387
or-@@ 4386
Waffen 4386
ined 4385
Auto@@ 4384
11.@@ 4383
DS@@ 4383
contributions 4382
remaining 4382
rot@@ 4381
mot@@ 4380
blog 4380
Ab 4380
ader 4378
bemüht 4378
Halb@@ 4378
grundlegende 4378
ress 4377
ziele 4377
ective 4376
USB 4376
Tourismus 4375
creates 4374
ests 4374
launch 4374
chinesischen 4374
aufzunehmen 4374
sätze 4371
define 4370
Führungs@@ 4370
Ratsvorsitz 4370
lam@@ 4369
post-@@ 4368
sho@@ 4368
Croatia 4368
Dusche 4368
ziert 4368
behalten 4368
organisiert 4368
elling 4367
produziert 4367
iting 4366
died 4366
colour 4366
connections 4366
kten 4366
zäh@@ 4366
präsentiert 4366
ursprünglichen 4366
occasion 4365
abroad 4365
ül@@ 4365
renovated 4365
nungs@@ 4365
pping 4364
occup@@ 4364
balcony 4364
aktivieren 4364
AND 4363
communications 4362
Empfehlung 4362
reifen 4362
Sou@@ 4361
musste 4361
Dorf 4361
maschinen 4360
Maschinen 4360
Action 4358
ok 4358
är 4358
Flash 4358
B-@@ 4357
enheit 4356
ental 4355
kte 4355
entscheidend 4355
aro@@ 4354
discharge 4353
Vision 4353
Film@@ 4353
falsch 4352
Dem 4350
sexual 4349
Hostelsclub 4349
meat 4348
angel@@ 4348
hall 4348
fle@@ 4347
Stein@@ 4346
Stellung 4346
preparation 4345
Tex@@ 4345
fäl@@ 4344
spanischen 4344
drink 4343
Anbieter 4343
weisung 4342
issued 4341
Bestellung 4341
tä@@ 4340
ertes 4340
organized 4337
ov 4335
tigten 4335
rapporteurs 4334
zugänglich 4334
two-@@ 4333
GNU 4333
Ausgangspunkt 4333
dge 4332
rou@@ 4332
Kab@@ 4332
divided 4331
10-@@ 4331
restrictions 4330
Robert 4330
Ware 4330
jahr 4330
Jedes 4330
reserves 4329
Revolution 4329
wünsche 4329
riesigen 4329
kämpfen 4329
King 4328
assure 4327
sation 4327
aut@@ 4327
requirement 4326
surroundings 4326
für@@ 4326
4. 4325
leiten 4325
resolved 4324
tierten 4324
ade@@ 4323
Hafen 4322
Pflicht 4322
Förder@@ 4322
SI@@ 4321
zig 4321
Kamera 4319
organis@@ 4318
dritte 4317
famili@@ 4316
Überzeugung 4315
repeat 4314
Steuern 4314
fal@@ 4313
doesn 4312
Problems 4311
umzusetzen 4311
Ref@@ 4310
schafft 4309
load 4308
din@@ 4308
weist 4308
ace 4307
dorf 4307
collective 4306
Get 4306
ial 4305
messages 4304
Kin@@ 4303
roads 4302
Kann 4302
abgelehnt 4302
Kooperation 4301
owners 4300
Cat@@ 4300
owner 4299
Airbus 4299
leiden 4299
Künstler 4299
Jan@@ 4298
dd@@ 4298
atis@@ 4297
debates 4296
demo@@ 4294
ong@@ 4294
tät 4294
definitely 4293
cable 4291
isch-@@ 4291
gratulieren 4291
aged 4288
roll@@ 4287
Refer@@ 4287
derartige 4287
ó 4286
Krankheiten 4286
Av@@ 4285
Mol@@ 4284
klar@@ 4284
rein 4282
cou@@ 4282
Ham@@ 4282
bike 4282
dienst@@ 4282
Staat@@ 4282
Projekten 4282
identify 4281
psych@@ 4281
Punkten 4281
licherweise 4281
M-@@ 4279
USS 4279
lautet 4279
verursacht 4279
contracts 4277
04 4277
enzen 4276
übernimmt 4276
Des 4275
regulatory 4273
returned 4273
höher 4273
Ass@@ 4272
minist@@ 4271
Lauf@@ 4270
eckt 4270
cent@@ 4269
reich@@ 4269
regularly 4268
Luxembourg 4267
Bulgaria 4267
els@@ 4266
mä@@ 4266
classic 4265
Angst 4265
etes 4264
preise 4264
betreffenden 4264
ständige 4264
Verbindungen 4264
modern@@ 4263
opinions 4262
wand@@ 4262
Front 4261
Mitgliedschaft 4259
wirtschaftlicher 4259
fordere 4259
precise 4258
investors 4258
focused 4257
to-@@ 4257
C. 4257
Prof@@ 4257
extrem 4257
characteristics 4255
vorgenommen 4255
46 4253
empf@@ 4253
ky 4251
Abschnitt 4251
Gol@@ 4250
47 4249
Oper@@ 4249
Music 4249
wirksam 4249
erlauben 4248
hardware 4246
aussch@@ 4246
funktionieren 4245
bild 4245
resolutions 4244
oning 4244
PRO@@ 4244
Kop@@ 4244
defend 4243
Geräte 4243
Abkommens 4242
vast 4241
ñ@@ 4241
anstatt 4241
jahr@@ 4240
Kommunikations@@ 4239
worse 4237
betrieb@@ 4237
regul@@ 4236
add@@ 4235
liberalisation 4235
Harmonisierung 4234
enger 4232
driver 4231
ppe 4231
Bek@@ 4231
Under 4229
vieler 4229
Post 4228
verschiedener 4227
Erholung 4227
Sta@@ 4226
systemen 4226
Lang@@ 4225
Mac 4225
dynam@@ 4224
Alter 4224
maschine 4224
Stimm@@ 4223
sehe 4223
zogen 4223
intend 4222
ced 4222
usses 4222
faster 4221
Immobilien@@ 4221
AP@@ 4220
freundliche 4220
will@@ 4219
bekämpfen 4219
Ang@@ 4218
EF@@ 4218
cho@@ 4217
Executive 4217
R-@@ 4217
tierte 4217
durchzuführen 4217
künftigen 4217
MEPs 4216
continent 4216
ea 4216
vollständige 4216
transportation 4215
Java 4215
verstanden 4215
properties 4214
Veranstaltung 4214
glad 4213
Zentral@@ 4212
Gebrauch 4212
hundreds 4211
gi 4211
Farbe 4210
ron 4209
Struktur@@ 4209
alities 4207
Black 4207
a. 4207
involve 4206
conflicts 4206
Herz@@ 4206
proud 4203
Beweis 4203
egt 4202
transpor@@ 4201
nahm 4200
Eltern 4200
Marina 4198
ored 4197
Hil@@ 4197
Hal@@ 4196
Fel@@ 4195
ffen 4195
ierungen 4195
leben@@ 4193
awareness 4192
Will 4192
carbon 4192
OM@@ 4191
plätze 4191
ethnic 4190
ora 4190
ont 4189
Rumänien 4189
impression 4188
topic 4188
Life 4188
suites 4188
tory 4186
blu@@ 4186
Netz 4186
plays 4185
Ausführungen 4185
conducted 4184
stellungen 4184
Polish 4183
Fähigkeiten 4183
realistic 4182
s. 4182
S.@@ 4182
umgeben 4182
mt 4181
ergriffen 4181
facilitate 4178
Gestaltung 4177
weiten 4177
stände 4177
joined 4176
heating 4175
Sim@@ 4175
Entwicklungsländer 4174
wers 4173
lots 4173
komme 4173
operational 4172
Partnern 4172
jährigen 4171
Wird 4170
vern@@ 4168
aufgefordert 4168
sichere 4168
sinnvoll 4168
understood 4167
grow 4167
seat 4167
Procedure 4165
¤ 4165
Zimmer@@ 4164
frequently 4163
updated 4163
displayed 4162
Hy@@ 4162
trags 4162
Reform@@ 4161
Ausnahme 4161
Verhandlungs@@ 4161
confirm 4160
deals 4160
settings 4160
Box 4160
gers 4159
fla@@ 4158
Spezial@@ 4158
wirk@@ 4157
f-@@ 4156
bezahlen 4156
Gegend 4156
depending 4155
serviert 4155
fizierung 4154
Strukturfonds 4154
lift 4153
kurzen 4153
Buchung 4152
familiar 4150
imm@@ 4150
ami 4150
e- 4150
Ratspräsidentschaft 4150
nachhaltigen 4150
nights 4148
performed 4148
Hinter@@ 4148
schlägt 4148
gh 4147
Konflikt 4146
52 4145
Las 4145
effectiveness 4144
ministers 4143
olo@@ 4143
schn@@ 4143
cam@@ 4143
Änderungsanträgen 4143
printing 4142
.000 4142
firstly 4141
license 4141
cke 4141
Ausstellung 4141
appointed 4140
Cro@@ 4140
Element 4140
.org 4140
explo@@ 4139
SS@@ 4138
ans@@ 4138
ques 4138
mostly 4138
Übereinstimmung 4137
klaren 4137
Seg@@ 4134
ull 4134
starts 4133
io 4133
Wohl@@ 4133
machte 4133
gespeichert 4132
annehmen 4132
Austausch 4132
lik@@ 4131
reiche 4131
Programmen 4131
Institution 4130
Award 4130
Wir@@ 4130
u.a. 4130
ehrt 4130
customs 4129
Nein 4128
aktiven 4128
antes 4127
avec 4127
vorzu@@ 4127
Vorschlägen 4126
cro@@ 4125
stehende 4125
sole 4124
Tisch 4124
änden 4124
beschränkt 4124
Thomas 4123
demanding 4121
formed 4121
ausgeschlossen 4121
somewhat 4120
Nachrichten 4120
elli@@ 4119
ref@@ 4118
Test 4118
Wes@@ 4118
Second 4117
musi@@ 4117
Schwerpunkt 4117
electricity 4116
sup@@ 4115
View 4115
Messe 4115
Analy@@ 4114
isierung 4114
Hostels 4114
Monetary 4113
ops 4113
eignet 4113
uting 4112
Pr@@ 4112
а 4112
bridge 4111
answers 4111
rock 4111
Wind@@ 4111
Fü@@ 4111
18. 4111
verbringen 4111
9-@@ 4110
festival 4109
Umgang 4109
minority 4108
clubs 4108
ores 4107
Washington 4107
interior 4107
decision-making 4106
ees 4106
ultimately 4106
Geschäfte 4106
früheren 4106
universal 4104
ais 4104
Wil@@ 4104
notwendige 4104
noted 4103
Sauna 4103
interessante 4103
Lim@@ 4102
beglückwünschen 4102
Straßen 4101
durchführen 4101
sprach 4100
ord 4099
Tom@@ 4099
ked 4099
z-@@ 4099
Real 4099
Köni@@ 4097
Ausführung 4097
module 4095
ED 4094
Gentoo 4094
diger 4094
emergency 4093
esp@@ 4093
blood 4093
satz@@ 4093
aster 4092
library 4092
Mod@@ 4092
Drittens 4092
Zer@@ 4091
schicken 4091
Euro-@@ 4090
Sommer@@ 4090
ließ 4090
Wissenschaft 4089
submit 4088
vo 4088
ased 4087
ency 4087
techniques 4087
Schlafzimmer 4087
Hall 4086
Dek@@ 4085
Kilometer 4085
eingesch@@ 4085
moral 4084
meant 4082
Brazil 4081
erreichbar 4080
altung 4079
fran@@ 4078
wasser 4078
Mensch 4077
Whether 4076
personnel 4076
verabschiedet 4076
SMEs 4075
ult@@ 4075
Industrie@@ 4075
sodass 4074
rising 4073
UN-@@ 4073
drivers 4072
zulassen 4072
Framework 4071
Arab@@ 4071
Maß 4071
poli@@ 4070
provider 4068
theit 4068
Arbeitsplätzen 4068
inflation 4066
parliaments 4065
Tour@@ 4065
lounge 4065
zugunsten 4065
Übersetzung 4064
hervorheben 4064
geri@@ 4063
stars 4063
Drittländern 4063
ute 4062
51 4062
Deutschen 4062
nissen 4062
Dru@@ 4061
füllen 4061
Identi@@ 4058
spartner 4058
ining 4057
wär@@ 4057
welfare 4056
oms 4056
metal 4055
Führ@@ 4055
dam@@ 4054
fern@@ 4054
einzigartige 4053
materi@@ 4052
islands 4052
bestätigen 4052
mass@@ 4051
eil 4051
zuständigen 4051
Pet@@ 4050
bus@@ 4050
ka@@ 4050
Mexico 4049
custom@@ 4047
hostel 4047
angemessene 4047
accompanied 4046
reported 4046
gehende 4045
verhindert 4045
lö@@ 4044
ausgesprochen 4044
wert@@ 4044
statistics 4043
aller@@ 4043
ausgesetzt 4043
prefer 4042
career 4042
chemical 4042
ouse 4042
northern 4041
з@@ 4041
eres 4041
Luft 4041
teams 4040
grateful 4039
Dat@@ 4039
breiten 4037
Den@@ 4036
Prinzipien 4036
Gleichgewicht 4036
well@@ 4035
follows 4035
Sha@@ 4035
Komponenten 4035
Cyprus 4034
Planung 4034
contrast 4032
zunehmen 4032
facts 4031
looked 4031
russischen 4030
vorher 4030
tho@@ 4029
steuer@@ 4029
visited 4028
Ide@@ 4028
orial 4027
Radio 4027
Besonders 4026
Faktoren 4025
st-@@ 4024
Les@@ 4024
geprüft 4024
subsidies 4023
Es@@ 4023
bound 4022
lex@@ 4022
schwer@@ 4022
Yes 4020
windows 4020
Verringerung 4020
Prin@@ 4019
Werbung 4019
gearbeitet 4019
valley 4018
relaxation 4018
AK@@ 4018
Alles 4018
delighted 4016
ación 4016
passiert 4016
lay 4015
stance 4015
Beziehung 4013
farm 4012
Rund@@ 4012
invite 4011
wines 4011
massage 4010
wann 4010
studio 4009
Vereinbarungen 4009
aufnehmen 4007
indicated 4006
woman 4006
contacts 4005
corner 4005
Beiträge 4005
deckt 4005
eastern 4004
Gerichte 4003
mus 4002
pm 4002
messen 4002
bom@@ 4000
Transport@@ 4000
Church 3999
unmöglich 3998
Außenpolitik 3998
percent 3997
offen@@ 3996
Optionen 3996
entwurf 3996
AU@@ 3994
Wein 3994
channels 3993
terrorist 3993
cle 3993
Sonne 3993
fehlt 3993
komp@@ 3993
programm@@ 3992
Plenum 3992
Gesellschaften 3992
Schluss 3992
Gemein@@ 3992
definiert 3992
arrive 3990
Golf@@ 3990
flights 3989
MySQL 3989
einrichtungen 3989
lec@@ 3988
verringern 3988
sucht 3986
newly 3985
gold 3985
72 3983
Handeln 3983
functioning 3982
corruption 3982
stro@@ 3982
Copenhagen 3982
Saint 3982
î@@ 3982
recommendation 3981
tourists 3981
atik 3981
höheren 3981
nahmen 3981
Vel@@ 3980
signs 3979
Chinas 3979
Einstellungen 3979
entsteht 3979
exciting 3978
presents 3978
visiting 3978
Pin@@ 3978
stored 3977
burger 3977
Rek@@ 3977
Jede 3977
Festlegung 3977
actively 3976
judicial 3976
visa 3976
lists 3976
Firmen@@ 3976
LE 3974
scheinen 3974
Zusatz@@ 3974
widely 3973
feed 3973
vacation 3973
Budapest 3971
Roll@@ 3971
match 3970
&apos;ve 3970
Congress 3969
Plattform 3969
Verb@@ 3968
ät@@ 3968
welchem 3968
entrance 3966
Gespräche 3966
declared 3965
dent 3965
cosy 3965
Report 3964
firms 3964
Drogen@@ 3964
Band 3964
ulate 3963
desk 3961
careful 3961
ga@@ 3961
verleihen 3961
direkten 3961
üt@@ 3960
imposed 3960
bilateral 3960
Morgen 3960
Wünsche 3960
d.h. 3960
pollution 3959
showing 3957
ammer 3957
ordin@@ 3956
Individu@@ 3956
Drei@@ 3956
Edition 3956
einhei@@ 3956
cross 3955
TO@@ 3955
schlecht 3955
Sek@@ 3952
lte 3952
satisfied 3951
86 3951
explore 3951
Sy@@ 3951
bre 3951
iler 3951
Friday 3949
Sat@@ 3949
inhabitants 3947
afternoon 3947
ney 3947
Bemerkungen 3947
lauf 3946
decken 3946
Cur@@ 3945
gardens 3945
р@@ 3945
ungefähr 3944
involves 3943
Mün@@ 3943
otel 3943
onal 3940
Prague 3940
Neue 3940
Sitz@@ 3940
verändern 3940
Garantie 3940
Act 3939
ly@@ 3939
2.0 3937
configuration 3937
Gleich@@ 3937
gestaltet 3937
Ausgabe 3937
demonstrated 3936
speaker 3935
p-@@ 3935
expert 3935
Währungs@@ 3935
Brand@@ 3934
EG@@ 3934
vertre@@ 3934
rechtliche 3934
winning 3933
Ster@@ 3933
Ed@@ 3933
Trek 3933
geboren 3933
Noch 3932
Fac@@ 3930
dom@@ 3930
Earth 3928
Adobe 3928
formal 3927
kamen 3925
Regierungskonferenz 3925
PO@@ 3924
Aktion 3924
cast 3923
News 3923
echn@@ 3923
wollten 3923
occur 3921
Perhaps 3920
1st 3920
erleichtern 3920
heritage 3919
lige 3919
Sony 3919
ausgeführt 3919
Rou@@ 3918
dich 3918
declaration 3917
bert 3917
maintaining 3916
assets 3916
expansion 3915
Protection 3915
fläche 3915
nahezu 3915
gebiete 3914
Minderheiten 3913
sorgfältig 3913
competent 3912
intellectual 3912
sam 3912
druck 3911
Verteidigung 3911
Zentralbank 3911
Deswegen 3910
kun@@ 3909
Haftung 3909
Funds 3908
fashion 3907
soli@@ 3907
seri@@ 3906
Ziffer 3905
transition 3904
collaboration 3904
earth 3904
reject 3903
begrüßt 3903
Ah@@ 3902
dol@@ 3902
Given 3901
ann 3901
ongoing 3900
Stück 3900
plenty 3899
lebt 3899
motor 3898
Soviet 3898
Justiz 3898
lob@@ 3897
ond 3897
oriented 3896
neg@@ 3896
conditioning 3895
Kurz@@ 3895
ppen 3895
ym@@ 3894
Baltic 3893
remote 3892
functional 3891
quarter 3891
hinzufügen 3891
demonstrate 3889
Wol@@ 3889
sprachen 3889
Je 3888
tea 3887
ancy 3886
settlement 3886
unde 3886
resistance 3885
Kir@@ 3885
ile 3882
Blo@@ 3882
ros 3882
Verbot 3881
high-quality 3880
erh@@ 3879
fris@@ 3879
Gründung 3879
Veröffentlichung 3879
May@@ 3878
still@@ 3878
entes 3878
Sorgen 3878
hot@@ 3877
selbst@@ 3877
Lö@@ 3876
techn@@ 3876
strict 3875
Cl@@ 3874
Sicher@@ 3874
theme 3873
12.@@ 3873
3,@@ 3873
präsentieren 3873
Arab 3872
solange 3872
überzeugen 3871
sight 3869
pot@@ 3869
ч@@ 3869
ère 3868
Port 3868
struktur@@ 3868
billi@@ 3867
channel 3866
bemühen 3866
Schn@@ 3865
letztlich 3865
bestimmen 3865
mess@@ 3864
EM 3864
fitness 3863
rapidly 3862
categories 3862
spoken 3862
isation 3861
ador 3860
erer 3860
holen 3860
facility 3859
trafficking 3859
Sit@@ 3859
bestehende 3859
usual 3858
amp 3858
Datenschutz@@ 3858
fördert 3858
appearance 3857
ession 3856
We@@ 3856
documentation 3856
Tim@@ 3856
Sollten 3856
Rom 3855
erien 3855
perfekt 3855
poll@@ 3853
cket 3853
stylish 3853
è 3853
я 3853
BIP 3853
heutige 3853
Marktes 3853
committees 3852
ils 3852
Produk@@ 3852
Studenten 3852
Einbeziehung 3852
bank@@ 3850
Or 3849
department 3849
Question 3849
Chancen 3849
generated 3847
Rest 3847
gas@@ 3847
ze@@ 3846
passenger 3845
gezwungen 3845
organisationen 3845
ausschuß 3845
PP@@ 3844
recorded 3843
Parlament@@ 3843
Portuguese 3842
regarded 3842
raw 3842
Charta 3842
Mobile 3841
Kontakt@@ 3841
educational 3840
15. 3839
erneu@@ 3839
films 3838
artist 3838
concluded 3837
Sü@@ 3837
possibly 3836
verehrte 3836
alo@@ 3835
Umfeld 3834
wachsen 3834
Skype 3833
tau@@ 3832
Insbesondere 3832
geltenden 3832
Zwischen@@ 3831
justified 3830
gewis@@ 3829
sharing 3828
ario 3828
Sollte 3828
KMU 3828
owned 3827
spra@@ 3827
Licht@@ 3827
Description 3827
gesp@@ 3827
Hostel 3826
dlichen 3826
Marketing 3825
werten 3824
awarded 3823
grant 3823
with@@ 3823
früh@@ 3823
erial 3822
lig 3822
Applause 3821
exit 3821
Tab@@ 3821
containing 3820
argument 3820
cutting 3820
lasting 3819
bottom 3818
ange 3818
Bewer@@ 3817
resi@@ 3816
Mobilität 3815
abel 3814
boot 3814
ž@@ 3812
long-@@ 3811
g-@@ 3811
James 3811
egen@@ 3810
replaced 3809
apart 3808
erinnert 3808
mix 3807
gelassen 3807
foundation 3806
ierenden 3806
hair 3805
lösung 3805
schauen 3805
54 3803
о 3803
vorlegen 3803
dependent 3802
rt 3802
Balkon 3802
zieh@@ 3802
phrase 3801
Preisen 3801
britische 3800
ferner 3799
oul@@ 3798
geschäf@@ 3798
nten 3797
ska 3796
beraten 3795
teten 3795
enswert 3795
emerging 3794
dan 3794
üb@@ 3794
Webseiten 3794
dürfte 3794
factory 3793
individuelle 3793
Zielen 3793
Speicher@@ 3791
tigte 3790
lokale 3790
desired 3789
planet 3789
betra@@ 3789
Vit@@ 3789
anges@@ 3789
eria 3788
bereitet 3788
ups 3787
towns 3787
gallery 3787
verti@@ 3787
Objek@@ 3786
mother 3785
Eurozone 3784
Plus 3783
Identität 3783
staat 3782
IV 3781
ski@@ 3780
kli@@ 3780
installieren 3780
å@@ 3779
Untersuchungen 3779
karten 3779
motor@@ 3777
Mach@@ 3777
Vorgehen 3776
respected 3775
jegliche 3775
mem@@ 3774
overcome 3773
assume 3773
count 3773
copyright 3773
termin@@ 3772
saving 3771
Hungary 3771
Versionen 3771
CE@@ 3770
Fein@@ 3770
van@@ 3768
gg@@ 3768
alog@@ 3767
Town 3766
Freiheiten 3766
minorities 3765
liefert 3765
abgestimmt 3765
credibility 3764
routes 3764
reform@@ 3764
tackle 3764
Pe@@ 3763
spectacular 3763
TO 3763
verkaufen 3763
Northern 3762
Power 3762
eing 3762
Massen@@ 3762
verdient 3762
Selbstverständlich 3762
gens 3761
Puerto 3761
Vorschlags 3761
cally 3760
ret@@ 3759
partly 3759
wohnen 3759
verständ@@ 3758
erfolgreiche 3758
getreten 3758
Fru@@ 3757
professionals 3757
Training 3757
brau@@ 3757
tigungen 3757
determination 3756
heat 3756
Update 3756
and-@@ 3755
crimes 3755
Computer@@ 3755
MB 3755
satisfaction 3754
ump@@ 3754
organisieren 3754
setz@@ 3753
stronger 3752
flat 3752
einig 3752
übrigens 3752
Belgium 3751
temp@@ 3751
acted 3750
Newsletter 3750
lieb@@ 3750
ersetzt 3750
Women 3749
Fischer 3749
puts 3747
Signal 3747
bemerk@@ 3747
prozesses 3747
Kräfte 3747
entscheidende 3747
Glas@@ 3746
Werke 3746
Ag@@ 3745
Bars 3745
direkte 3744
größer 3744
betrieben 3744
amt 3743
individuellen 3742
radi@@ 3741
ico 3741
Konsens 3740
entr@@ 3739
Gerichtshof 3739
occasions 3737
transactions 3737
weite 3737
programms 3736
verurteilt 3736
verkauft 3735
Arbeitsmarkt 3735
ail 3734
vorhandenen 3734
scheme 3733
aux 3733
serving 3733
Politiken 3733
geln 3733
marquis 3732
Sozi@@ 3732
entwickelte 3732
Mitarbeitern 3730
zentral 3729
linien 3729
Asien 3729
immigrants 3728
respon@@ 3728
play@@ 3728
Verbreitung 3728
cot@@ 3727
enes 3727
Studien 3727
beziehungen 3727
ierende 3726
einheitlichen 3726
manufacturer 3725
Network 3724
correctly 3723
Oder 3723
reduzieren 3723
stellungs@@ 3723
beruht 3723
basi@@ 3722
pas@@ 3721
Klasse 3721
ed-@@ 3720
replace 3718
Pact 3718
gewährt 3718
ham 3717
Within 3716
6. 3715
Amendments 3714
glaub@@ 3713
enjoyed 3712
Eli@@ 3711
Show 3711
erhebliche 3711
äußern 3711
cash 3710
weekend 3710
Video@@ 3710
begrenzt 3710
vorstellen 3710
Zwecke 3710
Anschluss 3709
Well 3708
arrived 3708
EX@@ 3708
bekannte 3708
strategischen 3707
dence 3706
ager 3706
mö@@ 3706
Besorgnis 3706
conf@@ 3705
Desk 3705
Krankheit 3705
G-@@ 3704
grundsätzlich 3704
non 3703
Stre@@ 3703
CE 3703
Kli@@ 3703
Nachricht 3703
gehenden 3702
genannte 3701
Nah@@ 3699
Wi-Fi 3699
Space 3698
IT-@@ 3698
inklusive 3698
leu@@ 3697
slightly 3696
Israeli 3696
tos 3696
Denk@@ 3696
bekämpfung 3696
kg 3695
hil@@ 3694
ées 3694
Food 3693
lex 3693
miles 3693
Canon 3693
corresponding 3691
inger 3691
rental 3690
adults 3690
hren 3690
fans 3689
wes@@ 3689
Städten 3689
sending 3688
Vorstellung 3688
Following 3686
Don 3686
nieder@@ 3686
itäten 3686
legitimate 3685
bi 3685
drinks 3685
Einwanderung 3685
EP@@ 3684
constitutional 3683
dru@@ 3683
Alt@@ 3683
г@@ 3683
Rezeption 3683
Page 3682
Person@@ 3681
nit@@ 3681
stimm@@ 3681
sicheren 3681
Hot@@ 3680
Gold@@ 3680
Gewicht 3680
Sein 3680
esti@@ 3679
lers 3679
glob@@ 3679
-based 3679
Straf@@ 3679
Schiff@@ 3679
industri@@ 3677
â@@ 3677
Kapitel 3677
kür@@ 3676
solid 3675
adv@@ 3675
raten 3675
direc@@ 3674
component 3673
Freunden 3673
beschäftigen 3671
informationen 3670
sprach@@ 3670
ming 3669
ruhig 3669
Hohen 3669
einfacher 3669
losses 3668
genügend 3668
youth 3666
distributed 3665
Champ@@ 3665
shares 3665
Extre@@ 3665
· 3665
nunmehr 3665
Bedrohung 3665
Coll@@ 3663
echt 3663
Pla@@ 3662
Taiwan 3662
suppliers 3662
J 3661
arischen 3660
enter@@ 3658
providers 3658
subsidiarity 3657
banking 3657
bereit@@ 3657
verkehrs@@ 3657
Schulen 3656
offiziellen 3656
angegebenen 3655
annte 3655
versorgung 3655
Ol@@ 3654
Videos 3654
sensible 3653
mul@@ 3653
cuts 3651
destruction 3651
kn@@ 3651
OF 3649
egal 3648
ologischen 3648
igung 3647
magnificent 3646
identified 3646
niveau 3646
Text@@ 3645
Bemerkung 3645
rig@@ 3644
division 3644
dest@@ 3644
constitution 3644
Zone 3644
läßt 3644
drücken 3644
jenen 3644
wrote 3643
Hier@@ 3643
Dach@@ 3643
EB@@ 3641
vi 3641
194@@ 3640
fantas@@ 3639
effektiv 3639
cian 3638
Pack@@ 3638
updates 3638
Kurs 3638
wear 3637
ierter 3637
Asyl@@ 3636
ums@@ 3636
taxation 3635
Malta 3635
eds 3635
kultur@@ 3635
Erzeugnisse 3634
amed 3632
7. 3632
Systemen 3632
addresses 3631
Dan@@ 3631
Atlantic 3631
Without 3631
Reser@@ 3631
ahn@@ 3631
zusammenarbeiten 3631
maritime 3630
elsewhere 3629
Selbst 3629
aussprechen 3629
Def@@ 3628
behaviour 3627
interpretation 3627
cial 3626
ose 3626
werken 3626
hängen 3626
considering 3625
cab@@ 3625
et-@@ 3625
Juli@@ 3625
iges 3625
Zug@@ 3625
kompet@@ 3625
globalisation 3624
liberal 3624
eventually 3623
Sec@@ 3623
eau 3622
Auge 3622
New@@ 3621
Miss@@ 3621
Wohnung 3621
vorbereitet 3621
Europol 3620
ault 3620
NI 3620
außerordentlich 3620
peti@@ 3619
exception 3618
französische 3618
AN 3617
derer 3617
wege 3617
stag@@ 3616
Wür@@ 3616
anne 3616
leistung 3616
verstärken 3616
VAT 3615
Acc@@ 3615
ensures 3614
Benutzer@@ 3614
itä@@ 3614
secret 3613
acqu@@ 3612
gangs 3612
Marke 3612
Zusätzlich 3611
milk 3610
electric 3610
Cha@@ 3610
herrscht 3610
gewonnen 3610
AD 3609
erfolgreichen 3609
vorschriften 3609
exports 3608
Termin@@ 3608
Haup@@ 3608
verbinden 3608
bli@@ 3607
führten 3607
71 3606
oring 3606
spann@@ 3605
Schwei@@ 3605
Beitritts@@ 3605
ital 3604
Schlaf@@ 3603
Wachstums@@ 3603
battle 3600
hear@@ 3599
arti@@ 3599
domain 3599
gebieten 3599
sil@@ 3598
68 3597
Gran 3597
mäch@@ 3597
straight 3596
Structural 3595
Hungarian 3595
Kontrollen 3595
preparing 3594
ema 3594
traditionelle 3594
SV 3593
gestattet 3593
encouraging 3592
ug@@ 3592
extraordinary 3592
Sunday 3592
Nacht@@ 3592
eleg@@ 3591
Viertel 3591
jener 3591
antly 3590
pack@@ 3590
leb@@ 3590
eat 3589
unverzüglich 3588
Kauf 3588
erhielt 3588
App@@ 3587
Valley 3587
Mission 3587
denden 3587
hö@@ 3586
erlebt 3585
decisive 3584
bot@@ 3584
smo@@ 3584
53 3583
Blog 3583
schm@@ 3583
ungser@@ 3583
Thirdly 3582
proposes 3582
Fas@@ 3581
17. 3580
eingereicht 3579
courts 3578
por 3578
Wirk@@ 3578
Bef@@ 3578
Eisenbahn@@ 3578
wiederholen 3577
vin@@ 3576
56 3576
verantwortungs@@ 3576
Wohlstand 3575
Sektoren 3574
liked 3573
aqu@@ 3572
lock 3571
Balkans 3571
mag@@ 3571
ungsverfahren 3571
scene 3570
ons@@ 3570
Islam 3570
vulnerable 3569
deficit 3569
Charles 3569
generate 3568
pel@@ 3568
wissenschaftliche 3568
disk 3567
Salzburg 3567
Internet-@@ 3567
auen 3567
oper@@ 3564
ishing 3564
filled 3564
advis@@ 3563
army 3563
Year 3563
citizen 3563
bem@@ 3563
Bereitstellung 3563
mas@@ 3560
Einkommen 3560
66 3558
didn 3558
everyday 3557
Erstellung 3557
Like 3556
swi@@ 3556
label 3556
Vorsitz 3556
enhance 3554
vieles 3554
ont@@ 3553
gefallen 3553
entscheidender 3553
pay@@ 3552
wn 3551
low@@ 3551
wat@@ 3551
beigetragen 3551
surely 3550
topics 3550
filter 3550
beschrieben 3550
Lieferung 3550
Beschluss 3550
ye@@ 3549
Schwar@@ 3549
plenary 3548
ham@@ 3548
irgend@@ 3548
slow 3547
complicated 3547
substance 3546
packaging 3546
impor@@ 3546
ento 3546
großem 3546
illustr@@ 3544
egel 3543
luxurious 3543
tlicher 3543
anim@@ 3542
par 3542
university 3542
portal 3542
centr@@ 3541
sugar 3541
Lok@@ 3541
Touristen 3541
Pakete 3541
UC@@ 3540
supplies 3540
bonus 3540
Ehr@@ 3540
spoke 3538
Einheit 3538
Spaß 3538
ähnlich 3538
finanziert 3538
accurate 3537
lessons 3537
index 3537
gerichtet 3537
invest 3536
spe@@ 3536
spo@@ 3536
WLAN 3536
virtual 3535
Client 3535
inclusion 3534
a.@@ 3533
stän@@ 3533
Nos 3532
sh 3532
kleines 3532
examine 3531
20-@@ 3531
§ 3531
Ungarn 3531
gewi@@ 3531
directed 3530
Exchange 3530
Theater 3530
Männern 3529
Assembly 3527
bislang 3527
but@@ 3526
connect 3526
8. 3526
proven 3525
wunderschönen 3524
Katastrophe 3523
Os@@ 3522
Verk@@ 3522
Salz@@ 3522
Schlussfolgerungen 3522
Blan@@ 3521
arise 3520
Main 3519
Fuß@@ 3519
selben 3519
zeichnen 3519
specified 3518
elektronischen 3518
patent 3517
jährige 3517
bestimmter 3517
Thursday 3516
excessive 3516
CON@@ 3516
Garden 3516
selling 3515
therapy 3515
Vene@@ 3515
gesellschaften 3515
Mangel 3514
Son@@ 3513
Entscheidungs@@ 3513
voc@@ 3511
beteiligen 3511
theory 3510
enabled 3510
videos 3510
herr@@ 3509
Ansichten 3509
Staates 3509
aufs 3508
suffer 3507
Fal@@ 3507
ero 3507
integriert 3507
leistungen 3507
ling@@ 3506
ENT@@ 3506
vermitteln 3506
impose 3505
Cer@@ 3505
tem@@ 3505
concepts 3504
Live 3504
intern@@ 3503
16. 3502
Kyoto 3501
graph@@ 3500
renowned 3500
alitäten 3500
erzeugt 3500
absence 3499
Get@@ 3499
Mail@@ 3499
bung 3499
zahl 3499
deposit 3498
stolz 3498
zustellen 3498
rem@@ 3497
ride 3496
einzigartigen 3496
forests 3495
Roh@@ 3494
wohl@@ 3494
Brasilien 3494
Genehmigung 3494
adopting 3492
shipping 3492
description 3491
Bio@@ 3491
sozi@@ 3491
prim@@ 3490
stic 3489
bility 3489
diplom@@ 3489
Sicherung 3489
hundred 3488
chem@@ 3488
Einwohner 3488
greatly 3487
Bin@@ 3487
sinn@@ 3487
dende 3487
Medien@@ 3487
Kontext 3487
Digital 3486
Zw@@ 3486
pped 3485
geboten 3485
savings 3484
A. 3484
Mitt@@ 3484
Polizei 3484
housing 3483
directory 3483
gio 3483
Zwei 3483
Vater 3483
menschliche 3483
proceed 3482
flows 3482
amm 3482
tigungs@@ 3481
equi@@ 3480
BMW 3480
din 3480
drug 3479
abuse 3479
verbindet 3479
Konto 3479
Rechtsgrundlage 3479
centuries 3477
traditions 3477
Cir@@ 3477
hervor 3477
anwesend 3477
investieren 3476
carrying 3475
finish 3475
killed 3475
handle 3475
entation 3475
courage 3474
angegeben 3474
frame 3473
Besides 3473
Organ@@ 3473
applying 3472
departure 3472
ope 3471
ator@@ 3470
sparen 3470
suggestions 3469
wonder 3469
sper@@ 3469
solches 3469
vertrau@@ 3468
gained 3467
Law 3466
voluntary 3465
conver@@ 3464
Grad 3464
Modelle 3464
solely 3463
proposing 3463
foot@@ 3463
raising 3462
Arbeit@@ 3461
holds 3460
countryside 3460
sit 3460
absor@@ 3460
ever@@ 3460
villages 3460
BO@@ 3460
subjects 3459
punkte 3459
Konsequenzen 3459
law@@ 3458
Games 3458
Guests 3458
alisiert 3458
ordinary 3457
pot 3457
Image 3456
Lounge 3456
Datei@@ 3456
formation 3455
Mail 3454
COM 3453
UM@@ 3453
verhalten 3453
quar@@ 3452
lined 3452
Provinz 3452
paying 3451
duties 3451
trial 3451
behörde 3451
cked 3450
AC 3450
supplier 3450
sern 3450
tes@@ 3449
Cup 3449
sich@@ 3448
Darum 3448
resul@@ 3447
notes 3447
colours 3447
Gerät 3447
eingehalten 3447
artistic 3446
press@@ 3446
gerät 3446
ume 3445
Dauer 3445
politi@@ 3444
29@@ 3444
Nummer 3443
bereichen 3442
expl@@ 3441
representation 3441
59 3441
Hamas 3441
dokum@@ 3441
angen@@ 3440
lied 3438
unge@@ 3438
gewissen 3438
succ@@ 3437
ners 3437
illi@@ 3437
CS 3437
Wo 3437
gesetz@@ 3436
annt 3436
sn@@ 3435
Rap@@ 3434
ori 3434
Budget 3434
eh 3434
Fax 3434
Elektro@@ 3434
thousand 3433
beantworten 3433
appeared 3432
philosophy 3432
odi@@ 3432
freut 3432
se-@@ 3431
treat 3431
Wo@@ 3430
chern 3430
individuell 3430
Positionen 3430
trend 3429
Set 3429
Boden@@ 3429
Prozesse 3429
grös@@ 3429
pursue 3428
ading 3428
gal@@ 3428
camp@@ 3428
museums 3428
Tools 3428
ION 3428
gering@@ 3428
consent 3427
tables 3427
nar@@ 3427
Beschlüsse 3427
nevertheless 3426
Holiday 3426
ähnliche 3426
Rö@@ 3424
Betrag 3424
weitgehend 3424
comparison 3423
manche 3423
geschichte 3423
bereitgestellt 3423
nicht@@ 3423
promised 3422
ols 3422
Landes@@ 3422
kräfte 3422
Maastricht 3421
trips 3421
Kroatien 3421
reservations 3420
100@@ 3420
fun@@ 3420
internen 3420
receiving 3419
Wählen 3419
beobachten 3418
bedeutende 3415
Glaubwürdigkeit 3415
mas 3414
input 3413
inmitten 3413
invited 3412
Egypt 3412
Deb@@ 3412
Top@@ 3411
ziel@@ 3411
Having 3410
tel 3410
Politik@@ 3410
sheet 3409
unity 3409
oti@@ 3409
mussten 3409
geräte 3409
wiederholt 3409
della 3408
difficulty 3407
root 3406
mo 3406
gestellte 3406
40@@ 3405
tobacco 3405
zuständig 3405
Rahmen@@ 3405
Ton@@ 3404
effizient 3404
riffe 3403
Schwer@@ 3402
Überlegungen 3402
award 3401
skiing 3401
Empf@@ 3401
portfolio 3400
bekommt 3400
bergen 3399
Mir@@ 3397
Parkplatz 3396
uted 3395
Hom@@ 3395
Kopf 3395
ausgezeichnet 3394
Kulturen 3394
mittleren 3394
essi@@ 3393
entspannen 3393
sozialer 3393
Islamic 3392
Ganz 3392
Trotzdem 3392
Wur@@ 3391
sle@@ 3391
laufenden 3391
Kontakte 3391
anbelangt 3391
92 3390
clo@@ 3389
erstmals 3389
Legal 3388
überprüft 3388
Quality 3387
Zivilgesellschaft 3387
suggested 3386
Num@@ 3386
sus 3386
Gegenstand 3386
Bulgarien 3386
Reduzierung 3386
viol@@ 3384
St 3384
dul@@ 3384
SA 3384
wirtschafts@@ 3384
Suiten 3383
58 3382
Gast 3382
langfristige 3382
Castle 3381
itten 3381
Situated 3381
pure 3380
Sum@@ 3380
Korruption 3380
alisierten 3380
einbezogen 3380
prosperity 3379
tsp@@ 3379
Kap@@ 3379
scht 3379
probleme 3379
voraus@@ 3379
druck@@ 3378
pools 3377
erie 3377
mung 3377
alistischen 3377
ursprünglich 3376
Agriculture 3375
modell 3375
ville 3374
alisieren 3374
Lat@@ 3373
ost@@ 3372
tennis 3372
Playa 3372
langsam 3372
gebildet 3372
relative 3371
disabled 3371
ind 3371
Menü 3371
eingeb@@ 3371
Monday 3370
Gut@@ 3370
schle@@ 3370
heben 3370
Mrd. 3370
productivity 3369
dt 3369
Gehminuten 3369
arguments 3368
istic 3368
auff@@ 3368
fuer 3368
fertig 3368
periods 3367
Sin@@ 3367
Glück 3367
Schlüssel 3367
optimale 3367
Professor 3366
Boot@@ 3366
Anlass 3366
well-known 3365
uring 3365
hydro@@ 3365
welcoming 3365
Mr. 3365
Geschmack 3365
depend 3364
delicious 3364
hr 3364
necessarily 3363
attempts 3363
reduziert 3363
gedacht 3363
CF@@ 3362
Gefahren 3361
Based 3360
patient 3360
licht 3360
Budgets 3359
confirmation 3359
Alb@@ 3359
etzen 3359
Browser 3358
arbeits@@ 3358
mid-@@ 3357
Americans 3357
aben 3357
schwei@@ 3357
fix@@ 3356
Stra@@ 3356
esse 3356
brei@@ 3356
wirtschaftlich 3356
sers 3355
weak 3354
typ@@ 3354
mach@@ 3354
garten 3353
Inn@@ 3353
Energien 3353
Vorhaben 3353
cleaning 3352
zi 3352
ford 3352
fahrer 3352
speichern 3352
angesehen 3352
natur@@ 3351
referendum 3351
gerufen 3351
AM 3350
Imp@@ 3349
ases 3349
stream 3349
Wald@@ 3349
Kollegin 3349
mechan@@ 3348
Stoffe 3348
leaves 3347
hill 3346
religion 3346
import 3346
ent-@@ 3346
cop@@ 3345
ET 3345
Dafür 3345
dauert 3345
isti@@ 3344
Prüf@@ 3343
Gewährleistung 3343
Strasbourg 3342
passen 3342
ached 3341
Pil@@ 3341
gab@@ 3341
ück@@ 3341
Eigentum 3341
verteilt 3341
layer 3340
nei@@ 3340
mangel@@ 3338
ausgerichtet 3338
Lebensmittel 3338
shot 3337
united 3337
AR 3337
esta 3337
Est@@ 3336
Posi@@ 3336
auftreten 3335
ologische 3333
enabling 3332
imports 3331
EA 3331
overview 3331
Tip 3331
letztendlich 3331
län@@ 3331
verein@@ 3331
farming 3330
homes 3330
eta 3330
Zy@@ 3330
10. 3330
sicherung 3330
betreiben 3330
pil@@ 3329
ows 3329
summ@@ 3328
sla@@ 3328
DO@@ 3328
Apple 3328
Kam@@ 3327
zentren 3327
permitted 3326
Körper@@ 3326
angebot 3325
olo 3324
fen@@ 3323
© 3323
wave 3322
aire 3322
dict@@ 3321
dream 3321
lobby 3321
tex@@ 3321
omp@@ 3320
entschlossen 3320
Bay@@ 3319
sounds 3318
villa 3318
behaupten 3318
iner 3317
schnell@@ 3317
ahn 3316
Place 3316
buch 3316
hör@@ 3315
ausgegeben 3315
allocated 3313
oria 3313
aktion 3313
estimated 3312
Schiffe 3312
Dr@@ 3311
Verlust 3311
constitute 3310
politically 3310
altet 3310
täglichen 3310
verkehrs 3310
Gerade 3310
tested 3309
Bahn@@ 3309
societies 3308
zukünftigen 3308
unforgettable 3306
4,@@ 3306
ersetzen 3306
Wirtschaftswachstum 3306
verfügbaren 3306
cies 3305
pes 3305
Aufsichts@@ 3305
succeed 3304
non@@ 3304
Weg@@ 3304
Master 3304
wechsel 3303
Strom@@ 3303
significance 3302
88 3302
Federation 3302
V-@@ 3302
Play@@ 3302
publication 3301
Facilities 3301
gend@@ 3301
ras@@ 3300
heim@@ 3300
projekte 3300
cooperate 3299
ef 3299
hierbei 3299
welcomed 3298
Through 3298
inos 3298
arm@@ 3298
Bul@@ 3298
rus@@ 3297
instructions 3296
mann@@ 3296
ean 3296
XP 3296
kontaktieren 3296
künftige 3296
unds 3295
continuous 3295
Gaza 3295
objek@@ 3295
upper 3294
Musi@@ 3294
Fahrzeuge 3294
ement@@ 3293
recognized 3293
Metro@@ 3293
Erfüllung 3293
Emp@@ 3292
wireless 3292
gelingt 3291
Entlastung 3291
Personal@@ 3289
Praktiken 3289
beendet 3288
einzusetzen 3288
symbol 3287
absol@@ 3287
Sterne 3287
Wechsel@@ 3287
obliged 3286
actors 3286
Tag@@ 3286
militärischen 3286
versichern 3286
GN@@ 3285
enge 3285
spiele 3285
Dreh@@ 3285
visu@@ 3284
Belgien 3284
evol@@ 3283
swe@@ 3283
unterscheiden 3283
Dro@@ 3282
emb@@ 3282
Poly@@ 3282
kam@@ 3281
gründen 3281
mischen 3281
klein 3280
deut@@ 3280
Völker@@ 3280
hän@@ 3280
Gericht 3280
prev@@ 3279
ires 3279
Asian 3279
atur@@ 3279
Gir@@ 3279
größeres 3279
Übergangs@@ 3279
fourth 3278
bou@@ 3278
Genießen 3278
functionality 3277
Thailand 3277
resp@@ 3276
ECB 3276
Les 3276
б@@ 3276
verteidigen 3276
Brü@@ 3275
iPhone 3275
füll@@ 3275
individu@@ 3274
angepasst 3274
änge 3274
ligen 3273
konfrontiert 3273
specialist 3272
sz@@ 3272
programming 3271
Who 3271
toward 3271
bran@@ 3271
militärische 3271
ght@@ 3270
rare 3270
ès 3270
9. 3270
Schiff 3270
mes@@ 3269
destroyed 3268
й 3268
Prozesses 3268
konzentriert 3268
Hum@@ 3267
Rent@@ 3267
supposed 3265
Telefon@@ 3265
missing 3264
klein@@ 3264
offene 3264
allzu 3264
grund@@ 3263
Freitag 3262
Finanzierungs@@ 3262
anner 3261
initi@@ 3260
refers 3259
hardly 3259
leh@@ 3259
contributed 3258
roman@@ 3258
kontrolle 3258
legte 3257
12. 3257
Az@@ 3256
phot@@ 3256
Berliner 3256
Trau@@ 3256
Ausflüge 3256
Anstieg 3256
Pau@@ 3255
Islands 3254
Point 3254
Haf@@ 3253
Gerechtigkeit 3253
Finland 3252
prime 3252
remained 3252
aktiviert 3252
ра@@ 3251
Verletzung 3251
Gemeinde 3250
interessant 3248
bares 3248
sections 3247
lived 3247
covering 3247
welcomes 3247
organic 3247
cells 3246
fundament@@ 3246
ativ@@ 3246
inner 3245
ells 3244
ollen 3243
Neben@@ 3243
bet 3242
Fir@@ 3241
Frühstücksbuffet 3241
unabhängigen 3241
Guide 3240
Cu@@ 3240
Minist@@ 3240
ald 3240
HO@@ 3240
mi 3240
Perspektive 3240
archi@@ 3239
characters 3239
agt 3239
negotiating 3238
67 3238
ep 3238
Terror@@ 3238
modules 3237
einf@@ 3237
Vier@@ 3237
song 3236
Pay@@ 3236
Mut 3236
57 3235
Australia 3235
Krisen@@ 3235
Nachbar@@ 3235
nungen 3234
Feld 3234
spreche 3234
harmonisation 3233
Gem@@ 3233
Inform@@ 3233
Amt 3233
fulfil 3232
Übernachtung 3232
teilt 3232
chtes 3231
13. 3231
Verarbeitung 3231
hospitality 3230
automati@@ 3229
Sachen 3229
fü@@ 3229
Runde 3229
lunch 3228
brachte 3228
förder@@ 3228
Standort 3227
supervision 3226
heim 3226
suffered 3225
traum@@ 3225
eder@@ 3224
Situationen 3224
preventing 3222
red@@ 3222
Family 3222
Hü@@ 3222
Nachbarn 3222
Next 3221
Betten 3221
maß@@ 3221
uter 3219
ungs 3219
Schweizer 3219
Flüchtlinge 3219
wettbewerbs@@ 3219
revision 3218
ious 3218
euros 3217
Zeitung 3217
viertel 3217
struktur 3217
reaching 3216
altern@@ 3216
amenities 3215
Eink@@ 3215
unterzeichnet 3215
institutionelle 3215
ept 3214
fees 3214
herunterladen 3214
explained 3213
Tat@@ 3213
fähigen 3213
mitteilen 3212
Organe 3212
none 3211
classes 3211
armed 3211
gres@@ 3211
gemeinschaftlichen 3211
unterstreichen 3211
deswegen 3210
Weiteren 3210
lad@@ 3209
thin 3209
serv@@ 3209
fir@@ 3209
Forsch@@ 3209
adap@@ 3208
songs 3208
bisherigen 3208
illegalen 3208
FT@@ 3207
Kas@@ 3207
sichtbar 3207
Institu@@ 3206
strategische 3206
productive 3205
fig@@ 3205
adverti@@ 3205
Wild@@ 3205
stil@@ 3205
bestellen 3205
forthcoming 3204
blocks 3204
Pläne 3204
Education 3203
dert 3203
Märkten 3203
NGOs 3202
indicate 3202
Bad@@ 3202
fs@@ 3202
richtet 3202
Ansch@@ 3201
könnt 3201
legally 3200
lon@@ 3200
Blu@@ 3200
thermal 3200
musical 3200
echnik 3200
Tätigkeiten 3200
vorzulegen 3200
barriers 3199
Willkommen 3199
ô@@ 3198
stages 3198
betreffend 3198
poly@@ 3197
freedoms 3197
vollständigen 3197
lieber 3196
rad 3195
endo 3194
wirksame 3194
Sind 3193
abstimmen 3192
Bou@@ 3191
Med@@ 3191
anschließend 3191
Should 3190
turning 3190
schrei@@ 3190
belief 3189
sphere 3189
kehr@@ 3189
Finanzkrise 3189
introducing 3188
everybody 3188
gut@@ 3188
empfangen 3188
Director 3187
parameters 3187
zukünftige 3187
restricted 3186
seg@@ 3186
designs 3186
liegenden 3186
Schon 3186
PD@@ 3185
hochwertige 3185
Nic@@ 3184
Grünen 3184
trends 3182
conventional 3182
lock@@ 3182
angebracht 3182
Donnerstag 3182
ector 3181
bach 3180
Widerspruch 3180
originally 3179
HTML 3179
natürliche 3179
unterliegen 3179
sustainability 3178
saved 3178
Bab@@ 3178
grosse 3178
verdienen 3177
labelling 3176
driven 3176
brow@@ 3176
praktische 3176
ergibt 3176
gap 3175
stocks 3175
computers 3175
Project 3175
movie 3175
wellness 3175
entsp@@ 3175
zeug 3175
Regierungschefs 3175
vorgeschlagene 3175
hart 3174
Auditors 3173
onic 3173
Abendessen 3173
umfangreiche 3173
Veränderung 3173
football 3172
AF@@ 3172
Hö@@ 3172
geprägt 3172
oned 3171
Angel@@ 3171
Speci@@ 3171
coun@@ 3170
Koh@@ 3170
Jun@@ 3170
movements 3169
phones 3169
Redner 3169
enhanced 3168
Venice 3168
Waffen@@ 3168
selten 3168
enterprise 3167
wild 3167
äh@@ 3167
nutz@@ 3167
wa 3166
firmly 3165
resource 3165
bles 3165
erei 3165
Schloss 3165
Ankunft 3165
isiert 3165
male 3164
severe 3164
vorgesehenen 3164
gungs@@ 3164
combine 3163
Saturday 3163
Tief@@ 3163
Andere 3163
impl@@ 3162
atively 3161
bly 3161
reflected 3160
tree 3160
langfristig 3159
showed 3158
Anti-@@ 3158
transmission 3158
effiziente 3158
realise 3157
errors 3157
refer@@ 3157
Studi@@ 3157
Geschäft 3157
edly 3156
fairly 3156
kel@@ 3156
halb 3156
Gor@@ 3155
modi@@ 3155
Institut 3155
unabhängige 3155
Zuständigkeit 3155
drop 3154
ish@@ 3154
Zug 3154
Ausmaß 3154
VER@@ 3153
leitung 3153
anzuzeigen 3153
Single 3152
Vorsch@@ 3152
züge 3151
Stimmen 3151
anen 3150
Transpor@@ 3150
Internationale 3150
pris@@ 3149
Stability 3149
nde 3149
remarks 3148
Mallorca 3148
weis@@ 3148
behoben 3148
squ@@ 3147
beings 3147
Tool 3147
Mutter@@ 3147
fuhr 3147
anhand 3147
Rest@@ 3146
suit 3145
schule 3145
verwaltung 3145
Ablehnung 3145
itation 3144
atz 3144
proceedings 3143
tter 3143
Kanada 3143
anschließen 3143
ativer 3141
Cookies 3139
gemeinschaft 3139
Dep@@ 3138
waffen 3138
reflects 3137
Vietnam 3137
gebeten 3136
Does 3135
Bot@@ 3135
hingegen 3135
AIDS 3134
Macht@@ 3134
Piazza 3134
14. 3134
imagine 3133
wachsenden 3133
considerably 3132
dering 3132
amb@@ 3132
ji 3132
fährt 3132
och 3131
Serbia 3131
vorbei 3131
adapted 3130
ließen 3130
grenzen 3129
Socialist 3128
SL@@ 3127
Rio 3125
director 3125
hearing 3124
proj@@ 3124
tiz@@ 3124
verst@@ 3124
Fehler@@ 3124
cancer 3123
Corporate 3123
amazing 3123
-L@@ 3123
Tem@@ 3123
heit@@ 3123
Quellen 3123
phi@@ 3122
Vista 3122
Armee 3122
Zivil@@ 3122
fanden 3122
sauber 3121
obstacles 3120
anger@@ 3120
Mah@@ 3120
stieg 3120
edition 3119
gener 3119
Vorlage 3119
lösungen 3118
alise 3117
Regional 3117
whereas 3117
Cri@@ 3117
safeguard 3116
gemä@@ 3116
Büro 3115
vorschlag 3115
normalerweise 3115
universities 3114
ede 3114
unt@@ 3113
stör@@ 3113
parliament 3112
án 3112
Tei@@ 3111
passt 3111
ections 3110
collected 3110
CHF 3110
Leitung 3110
gewähren 3110
endorse 3109
budgets 3109
sogenannten 3109
wahren 3109
Konferenz@@ 3109
Respekt 3109
diagno@@ 3108
Plas@@ 3108
Komm@@ 3108
Reisen 3108
coordinated 3106
Captain 3106
ätze 3106
adapt 3105
Stockholm 3105
Album 3105
zahlung 3105
zuzu@@ 3105
fikation 3104
compar@@ 3103
tracks 3103
hier@@ 3103
Berg 3102
glich@@ 3102
BI@@ 3101
Dol@@ 3100
Jugend@@ 3100
faith 3099
female 3099
sing@@ 3099
hervorragenden 3099
super 3098
thy 3097
Bour@@ 3097
activ@@ 3097
pen 3097
aul@@ 3097
technik 3097
richtung 3097
fügen 3097
acceptance 3096
regardless 3096
kul@@ 3096
Staatsan@@ 3096
Christmas 3095
romantic 3095
tief 3095
ill 3094
pressed 3094
Port@@ 3094
L-@@ 3094
kanischen 3094
dargestellt 3093
dankbar 3093
Ebenen 3093
um-@@ 3092
Quali@@ 3092
Dienstleistungs@@ 3092
Geneva 3091
erzeu@@ 3091
Freizügigkeit 3091
chair 3090
a.m. 3090
schnellen 3090
Sig@@ 3089
investigation 3088
Börse 3088
Stad@@ 3088
normalen 3088
generations 3087
63 3087
sights 3087
alem 3087
freundlichen 3087
Sohn 3087
decade 3086
Basi@@ 3086
consulting 3086
mol@@ 3086
0s 3086
Ali@@ 3086
letters 3085
chungen 3085
VI@@ 3084
worthy 3084
Road 3084
Führer 3084
körper@@ 3084
gewünschten 3084
ext@@ 3083
GT@@ 3083
Heizung 3083
enthaltenen 3083
König 3082
hohem 3082
ease 3081
Abhängigkeit 3081
dark 3080
rom@@ 3080
Meines 3080
vessels 3079
dry 3079
Cr@@ 3079
Rückkehr 3079
umzu@@ 3079
vereinbart 3079
ecting 3078
federal 3078
vorliegende 3078
Indian 3077
dens 3077
Rem@@ 3077
besonderer 3077
öffentlich 3077
ect@@ 3076
82 3076
exploitation 3076
arbeitete 3076
undoubtedly 3075
boards 3075
servers 3075
Deutsch 3075
bili@@ 3074
verboten 3074
Aktionsplan 3074
Abschaffung 3073
Г 3072
Mem@@ 3071
till 3071
managing 3070
tionally 3070
80@@ 3070
Urheber@@ 3070
priv@@ 3069
reaction 3069
Wochenende 3069
equivalent 3068
Gesam@@ 3068
sson 3067
pretty 3067
ahr@@ 3067
SW@@ 3067
Kit@@ 3066
Erinnerung 3066
heißen 3066
disasters 3065
sought 3065
keit 3065
kontrollieren 3065
Volkes 3065
geraten 3065
inner@@ 3064
märkte 3064
produzieren 3064
Reservierung 3064
fassung 3064
birth 3063
compact 3063
m-@@ 3063
flächen 3063
Steuerung 3063
schutzes 3063
ned 3062
schriften 3062
Entspannung 3062
Prot@@ 3061
bereiten 3061
rieben 3061
travelling 3060
alty 3060
ernsthaft 3060
Haushaltsplan 3060
Last@@ 3059
Kong 3059
geplant 3059
Lizenz 3059
erkannt 3059
Hong 3058
erfreut 3058
fleet 3057
ordered 3057
Teams 3057
Gang 3057
steigt 3057
griechischen 3057
internationally 3055
proc@@ 3055
illa 3055
test@@ 3054
Erst 3054
annten 3054
guided 3053
Stuttgart 3053
Got@@ 3053
checks 3052
Maschine 3052
läu@@ 3052
Rein@@ 3051
Culture 3050
jetzigen 3050
Geschwindigkeit 3050
Equ@@ 3049
Je@@ 3049
Regel@@ 3049
Konflikte 3049
Beteiligten 3049
Customer 3048
metro 3048
Sammlung 3048
ush 3047
joining 3047
vic@@ 3047
Betra@@ 3046
bezahlt 3046
Dritten 3046
externen 3046
Befugnisse 3046
tier 3045
ras 3045
printed 3045
pp 3045
Orte 3045
Jahrzehnten 3045
konferenz 3045
Zahlungen 3045
utz@@ 3044
dings 3043
fix 3043
EP 3043
Kno@@ 3043
methoden 3043
decline 3042
gnis 3042
nom@@ 3041
restored 3041
underground 3040
zog 3040
Kirk 3040
antworten 3040
Marken 3040
supplied 3039
Georgia 3039
Kü@@ 3039
Fahrt 3039
onds 3038
Interess@@ 3038
gefragt 3037
roots 3036
hervorgehoben 3036
abilities 3035
Inf@@ 3035
räger 3035
Quelle 3035
Beide 3035
protocol 3034
komplette 3034
Check 3033
Prozess@@ 3033
Binnenmarktes 3032
MA 3031
Planeten 3031
asses 3030
senken 3030
Tibet 3029
Att@@ 3029
nummer 3029
überaus 3029
Gleichstellung 3028
pet@@ 3027
alter@@ 3027
küh@@ 3027
mögen 3027
bestimmungen 3027
Administration 3026
Investitions@@ 3026
einheitliche 3026
sia 3025
Berichten 3025
exclusion 3024
elec@@ 3024
NO@@ 3024
Gran@@ 3023
aufgebaut 3023
anywhere 3022
believes 3021
Pot@@ 3021
tigkeiten 3021
reliability 3020
ula 3020
gaben 3020
excluded 3019
62 3019
pressing 3019
nbsp 3019
mittlerweile 3019
Exper@@ 3018
erfordern 3018
Tourism 3017
analyse 3017
sand 3017
Ret@@ 3017
schweren 3017
Up 3016
s- 3016
commun@@ 3015
learned 3015
satisfy 3014
CD@@ 3014
Euch 3014
Geheim@@ 3014
profession@@ 3013
chtungen 3013
zeugen 3013
Partner@@ 3012
Handels 3012
entgegen 3012
penalty 3011
akes 3011
dialog 3011
Kreditkarte 3011
eg 3010
Friendly 3010
fang 3010
leichter 3010
dau@@ 3009
Blue 3009
afrikanischen 3009
unterschiedlich 3008
erwähnen 3008
ened 3007
Typ@@ 3007
wald 3007
Grün@@ 3007
Großteil 3007
concentrate 3006
Meeting 3006
Pir@@ 3006
klassischen 3006
Schönheit 3006
Gam@@ 3005
politisches 3005
beschränken 3005
shift 3004
cell@@ 3004
schung 3004
tu 3004
restructuring 3003
deep@@ 3003
modernis@@ 3003
predic@@ 3003
tisches 3003
eingestellt 3003
Mutter 3002
Debian-@@ 3002
zugrunde 3002
ökonomischen 3002
Vorausschau 3002
subsequent 3001
entdeckt 3001
virus 3000
Darstellung 3000
trav@@ 2999
script 2999
regel@@ 2999
floors 2999
überein 2998
violations 2997
transferred 2997
ign 2997
Information@@ 2997
perf@@ 2996
dy@@ 2996
Allianz 2996
schli@@ 2996
missions 2995
bedanken 2995
processed 2994
Opposition 2994
bild@@ 2994
komfortable 2994
clause 2993
ects 2993
letzter 2993
untersucht 2993
of-@@ 2992
Cab@@ 2992
Optim@@ 2992
Ursachen 2992
existiert 2992
humanitäre 2992
ACP 2991
Diam@@ 2991
eo 2991
nachdrücklich 2991
stories 2990
77 2990
cultures 2989
steam 2989
Location 2989
perfekte 2989
zurückzuführen 2989
Tor 2988
freund@@ 2988
umsetzen 2988
Alexander 2987
sovereignty 2987
bs@@ 2987
Micro@@ 2987
aside 2986
dignity 2985
Audi@@ 2985
formats 2985
hierfür 2985
grade 2984
Hauptbahnhof 2984
Tausende 2984
unden@@ 2983
Sun@@ 2983
non-smoking 2983
stammt 2983
remin@@ 2982
Top 2982
Notes 2982
Blut@@ 2982
Verteilung 2982
everywhere 2981
oes 2981
69 2980
problem@@ 2980
GU@@ 2980
Anwendungs@@ 2980
assembly 2979
Eth@@ 2979
nahme@@ 2979
eness 2978
het 2978
contrac@@ 2978
eingegangen 2978
eless 2977
int 2977
counter 2977
LA 2977
meter 2977
restore 2976
Pati@@ 2976
Mir 2976
Aktion@@ 2976
merk@@ 2976
bio@@ 2975
Casa 2975
riff@@ 2975
strasse 2975
89 2974
berichten 2974
Faktor 2974
900 2973
vice 2973
Branche 2973
Direkt@@ 2973
umfassend 2973
dating 2972
magazine 2972
festzulegen 2972
Eu@@ 2971
sah 2971
Kriminalität 2971
Investoren 2970
rol 2969
Agenturen 2969
Gemeinsame 2969
Commissioners 2968
Eingang 2968
groß@@ 2968
gestaltung 2968
Nahrungsmittel@@ 2968
73 2967
plastic 2967
Geschäft@@ 2967
melden 2967
jüng@@ 2967
reserved 2966
loser 2966
ät 2965
sprech@@ 2965
Spielen 2965
Tages 2964
einzuführen 2964
overlooking 2963
Il 2963
grossen 2963
Cel@@ 2962
Academy 2962
Balkan 2961
produces 2961
Lizenz@@ 2961
targeted 2960
dead 2960
meal 2960
enorme 2960
äumen 2960
Rechten 2960
assess 2959
SD@@ 2959
korrekt 2959
Museen 2959
Emissionen 2959
approve 2958
Passwort 2958
panel 2957
Ferien@@ 2957
geleitet 2957
Well@@ 2956
Sol 2956
Nero 2956
Generationen 2956
gehör@@ 2956
hoffentlich 2956
Vertrages 2956
cing 2955
nine 2955
jo 2955
mine 2955
hast 2955
Hat 2955
justi@@ 2954
listings 2954
Sudan 2953
Arbeitsplatz 2953
denti@@ 2952
ix 2952
picturesque 2952
Stamm@@ 2952
accident 2951
ulated 2951
Rep@@ 2951
lädt 2951
shadow 2950
ähr@@ 2950
deeply 2949
strengthened 2949
miss 2949
undertaken 2948
treatments 2948
regu@@ 2948
Kn@@ 2947
Früh@@ 2947
cool 2946
Ari@@ 2946
Würde 2946
Stock 2945
Det@@ 2945
kernel 2945
ritten 2945
EZB 2945
Staff 2944
student 2944
cell 2944
tert 2944
wonach 2944
lie@@ 2943
max 2943
ization 2943
operates 2942
tionary 2942
Parameter 2942
frühen 2942
ebene 2942
Bereitschaft 2942
Haut 2941
begleitet 2941
besorgt 2941
emen 2940
Opera 2940
erweitern 2940
Mark 2939
worst 2938
promise 2938
akte 2938
A5-0@@ 2937
Rh@@ 2937
Somit 2937
Tau@@ 2936
sizes 2936
h-@@ 2936
geeignete 2936
gering 2935
loy@@ 2935
eien 2934
offizielle 2934
norm@@ 2933
festgelegten 2933
H-0@@ 2932
Papier 2932
Schön@@ 2931
Be 2930
Nav@@ 2929
bo 2929
Frist 2929
Fernsehen 2929
sü@@ 2929
etr@@ 2928
us-@@ 2928
Haben 2928
Innenstadt 2928
Would 2927
erklär@@ 2927
Rechtsstaatlichkeit 2927
normally 2926
intelligent 2926
tender 2926
ungsver@@ 2926
unfair 2925
fishermen 2925
Events 2925
Pack 2925
Dur@@ 2925
eht 2925
aling 2924
93 2924
pt@@ 2924
SCH@@ 2924
executive 2923
reconstruction 2923
Fried@@ 2923
digitalen 2923
fly 2922
IMF 2922
verl@@ 2922
SE 2922
ausgaben 2922
panoramic 2921
angewendet 2921
lor@@ 2919
1980 2919
Vari@@ 2919
vornehmen 2919
Anwender 2919
fair@@ 2918
Freizeit@@ 2918
rift 2917
stattfindet 2917
gehei@@ 2915
Parkplätze 2915
nütz@@ 2915
freely 2914
hiking 2914
ANT@@ 2914
bern 2914
diskrimin@@ 2914
Among 2912
Speisen 2912
Stärke 2911
geäußert 2911
province 2910
SC@@ 2910
Registrierung 2910
kontrol@@ 2910
teils 2909
vorschläge 2909
anniversary 2908
steigern 2908
festen 2908
Öffnung 2908
61 2907
Bibliothek 2907
vorher@@ 2907
Dies@@ 2906
entliche 2906
dei 2905
zun@@ 2905
blei@@ 2905
enting 2904
stab@@ 2904
faszin@@ 2904
Reserve 2903
bathrooms 2903
usage 2902
Offen@@ 2902
Miet@@ 2902
verwende 2902
posed 2901
Joseph 2901
ständen 2901
individually 2900
pression 2900
Der@@ 2900
superior 2900
Cast@@ 2900
Strand@@ 2900
Kontinent 2900
Volksgesundheit 2900
Techn@@ 2899
irre@@ 2898
ARE 2898
geber 2898
voraus 2898
Industry 2896
aker 2896
Miß@@ 2896
Verlauf 2896
qualitativ 2896
gnissen 2896
sty@@ 2895
faces 2894
mid@@ 2894
fik@@ 2893
Strecke 2893
threats 2892
switch 2892
prospects 2892
UL@@ 2892
empfohlen 2892
Amerikaner 2892
türkischen 2892
prob@@ 2891
Denmark 2891
engines 2891
casino 2891
DR@@ 2891
kraft@@ 2891
esischen 2891
zieren 2891
briefly 2890
engaged 2890
profits 2890
wind@@ 2890
Niederlanden 2890
unn@@ 2889
pt 2889
Content 2889
keinem 2889
aush@@ 2889
manufacture 2888
Dritte 2888
beenden 2888
collect 2887
Vir@@ 2887
inn 2887
verweisen 2887
CAP 2886
30. 2886
verfol@@ 2886
highlights 2885
revolution 2885
pap@@ 2885
Ferienwohnung 2885
Währungsunion 2885
attached 2884
Reb@@ 2884
prozesse 2884
nützlich 2884
avo@@ 2883
Kompetenz 2883
funded 2882
reputation 2882
taxi 2882
Golden 2882
labor 2882
ganz@@ 2882
Consumer 2881
Motor 2881
dollar 2880
bol@@ 2880
neighbouring 2880
solar 2880
Überblick 2880
Pon@@ 2879
Dass 2879
flug@@ 2879
fähige 2879
Küsten@@ 2879
stration 2878
adds 2878
Minute 2878
selber 2878
Herz 2878
ecological 2877
acknowledge 2877
Wellness 2877
toler@@ 2876
gene@@ 2876
Wandel 2876
rech@@ 2875
gän@@ 2875
füh@@ 2875
Kapital 2875
bewältigen 2875
adding 2873
shor@@ 2873
Lern@@ 2873
94 2872
belong 2872
stran@@ 2872
Parti@@ 2872
Gelder 2872
worfen 2872
popul@@ 2871
teaching 2871
5,@@ 2871
Jugend 2871
Mini@@ 2871
Fot@@ 2871
herrlichen 2871
gestärkt 2871
Consequently 2870
Saf@@ 2870
mere 2869
poses 2868
cos 2868
Wirtschaftskrise 2868
gelesen 2867
60@@ 2866
sleep 2866
gesetzlichen 2866
eries 2865
Tel 2864
Handlungs@@ 2864
eda 2863
Kampagne 2863
überwinden 2863
elli 2862
varied 2862
operated 2862
struggle 2862
ices 2862
revi@@ 2862
stunning 2862
eben@@ 2862
genaue 2862
erfahr@@ 2862
Umweltschutz 2862
zerstört 2862
begins 2861
Dam@@ 2861
lit@@ 2861
linken 2861
sichergestellt 2861
tot@@ 2860
Herbst 2860
Öl 2860
efficiently 2859
auto@@ 2859
fax 2859
i-@@ 2859
Residence 2859
Krank@@ 2859
gegenwärtige 2859
BSE 2858
Christ@@ 2858
Verein@@ 2857
schu@@ 2857
Andererseits 2857
Autobahn 2856
ütz@@ 2856
entering 2855
arising 2855
references 2853
Il@@ 2853
stuff 2853
Richard 2853
three-@@ 2852
umin@@ 2852
diert 2852
gewer@@ 2852
eth 2851
meets 2851
prin@@ 2851
agne 2851
CDs 2851
Zürich 2851
ergänzt 2851
ziger 2850
Bestimmung 2850
integrierten 2850
bot 2849
Bord 2848
unmittelbarer 2848
Zahlung 2848
Länge 2848
ennen 2848
alists 2847
mar 2847
eigener 2847
itable 2846
täts@@ 2846
räumen 2846
ø@@ 2845
Nam@@ 2845
vertrag 2845
twice 2844
illu@@ 2844
froh 2844
Vereinfachung 2844
Protocol 2843
ua 2843
proportion 2842
reck@@ 2842
ao 2842
mb@@ 2842
rücken 2842
schlag@@ 2842
presenting 2841
Florenz 2841
sees 2841
Instruments 2841
Auftrags@@ 2841
ays 2840
Kategorien 2840
Presse@@ 2840
Bearbeitung 2839
behält 2839
pun@@ 2838
journ@@ 2838
zel@@ 2838
Potenzial 2838
obj@@ 2837
riding 2837
graphics 2837
camp 2837
Debatten 2837
Mart@@ 2836
surprise 2836
immer@@ 2836
eurozone 2836
zeichnungen 2836
stärkere 2836
combines 2835
außen 2835
Fluss 2835
rif@@ 2834
entsch@@ 2834
78 2833
sar@@ 2833
Up@@ 2832
Dokumenten 2832
recording 2831
dated 2831
76 2831
Using 2831
ř@@ 2831
steh@@ 2831
Softwar@@ 2831
sufficiently 2830
mistake 2830
sized 2830
OK 2830
Bed 2830
Hohe 2830
gleichermaßen 2830
viert 2829
Montag 2829
ament 2828
Belgian 2828
kel 2828
bende 2828
Glei@@ 2828
besu@@ 2828
kontrolliert 2828
CD-@@ 2827
M. 2827
pillar 2826
Autos 2826
DC 2825
Freund 2825
Resolution 2824
sex 2824
Ten@@ 2824
CN@@ 2824
wort 2824
zukommen 2824
richtlinie 2823
Gerichts@@ 2823
visual 2822
heading 2821
fru@@ 2821
ego 2821
rechtzeitig 2821
strah@@ 2821
irischen 2821
rupt 2820
Wesentlichen 2820
territorial 2819
part@@ 2819
tac@@ 2818
Š@@ 2818
Regi@@ 2817
grad 2816
Erhaltung 2816
Berichterstatters 2816
langfristigen 2816
aya 2815
frem@@ 2815
urgently 2814
rac@@ 2814
kilometres 2814
19th 2814
Sau@@ 2814
stück 2814
relates 2813
Conc@@ 2813
Society 2813
codes 2813
Sound 2813
kir@@ 2813
sch-@@ 2813
tö@@ 2813
Beseitigung 2813
selb@@ 2812
gesichert 2812
Absch@@ 2812
angemessenen 2812
phenomenon 2811
rely 2811
seats 2811
diges 2811
warning 2810
Radi@@ 2810
push 2810
Loc@@ 2810
zige 2810
wendet 2810
Have 2809
bright 2809
occurred 2808
Gest@@ 2808
BC 2808
Waren@@ 2808
anzubieten 2807
scientists 2806
Presse 2806
gsten 2806
yed 2804
Wen@@ 2804
Kern 2804
schrift 2804
abend 2804
ax 2803
EU-Mitgliedstaaten 2803
pub@@ 2802
shuttle 2802
meister 2801
diplomatic 2800
esc@@ 2800
Suites 2800
Bir@@ 2799
makers 2799
legitim@@ 2798
grown 2798
eur 2798
candidates 2798
medicine 2798
kurs 2798
proz@@ 2798
cross@@ 2797
native 2797
2nd 2797
Intelli@@ 2797
reibungen 2797
negativen 2797
convenience 2796
sophisticated 2796
Renn@@ 2796
Chem@@ 2796
engage 2795
synchron@@ 2795
bedeutenden 2795
Science 2794
Email 2794
Kandidaten 2794
ten-@@ 2793
euer@@ 2793
inspired 2792
enne 2792
lev@@ 2792
Detail 2792
binden 2792
Oberfläche 2792
--@@ 2791
Satelli@@ 2791
Polizei@@ 2791
ettes 2790
Ker@@ 2790
Schulden 2790
derzeitige 2790
unentgeltlich 2790
urg@@ 2789
Black@@ 2789
anzeigen 2789
rolle 2789
ished 2788
specialists 2788
Afri@@ 2788
Phili@@ 2788
typischen 2788
effektive 2788
Mechanismen 2788
Parlamente 2788
Projekts 2787
yard 2786
College 2785
FA@@ 2785
Geschle@@ 2785
Gewinn@@ 2785
Tür 2785
acquired 2784
Dritt@@ 2784
stammen 2784
Straßburg 2784
feet 2783
causing 2783
heads 2783
damages 2783
yo@@ 2783
garage 2783
maxim@@ 2782
Archi@@ 2782
lten 2782
zü@@ 2782
execution 2781
virtually 2781
wage 2780
oldest 2780
fas@@ 2780
Inv@@ 2780
ehren 2780
UNO 2779
losigkeit 2779
seconds 2778
meals 2778
sorge 2778
besucht 2778
Benutzung 2778
einfach@@ 2778
innov@@ 2777
änder 2777
zwingen 2777
records 2776
tile 2776
bour@@ 2776
urlaub 2776
appropriations 2775
Ombudsman 2775
Fur@@ 2775
Bed@@ 2774
ín 2774
Pension 2774
concert 2774
Luxemburg 2774
angenehmen 2774
lenken 2774
outs 2773
Om@@ 2773
uniform 2772
appar@@ 2772
Area 2772
IM 2771
Children 2771
premi@@ 2771
recognize 2771
habit@@ 2770
constructed 2769
intends 2769
aktuell 2769
Versorgung 2769
elev@@ 2768
cin@@ 2768
Bereits 2768
Dingen 2768
rechtlich 2768
upgrade 2767
gültig 2767
geographical 2766
diff@@ 2766
choices 2766
lan 2766
Spitzen@@ 2766
highlighted 2765
integrate 2765
Appartements 2765
erzeugen 2765
boost 2764
honour 2764
ı@@ 2764
Berge 2764
Explorer 2764
Koordin@@ 2764
Lastly 2763
stern 2763
Professional 2763
construc@@ 2762
operator 2762
Feuer@@ 2762
Further 2761
ão 2761
Start@@ 2761
Bedürfnissen 2761
resulted 2760
pick 2760
GE 2760
Kopenhagen 2760
erstaun@@ 2760
Eff@@ 2759
succeeded 2759
unc@@ 2759
kro@@ 2759
tin@@ 2758
74 2758
alien 2758
lica 2758
Will@@ 2758
steuern 2758
trained 2757
reser@@ 2757
ehm@@ 2757
Zeu@@ 2757
.net 2757
Tal 2757
bewahren 2757
referring 2756
Cy@@ 2756
EV@@ 2756
Lux@@ 2756
angenehm 2756
Patent@@ 2756
alistische 2756
untersuchen 2756
sichtlich 2756
Tonnen 2756
ländliche 2756
prec@@ 2755
marine 2755
ories 2755
sach@@ 2755
essentially 2754
General@@ 2754
tags 2754
appen 2754
fähi@@ 2754
rum@@ 2753
Religion 2753
wartet 2753
entscheidenden 2753
strictly 2752
hidden 2752
consequence 2752
91 2752
producer 2752
Islam@@ 2752
tenen 2752
geliefert 2752
gradually 2751
Innovationen 2751
checked 2750
coherent 2749
symboli@@ 2749
shel@@ 2748
fers 2748
Kaffee 2748
Leit@@ 2747
SAP 2747
knapp 2746
suche 2746
hierzu 2745
wertung 2745
errichtet 2745
Sobald 2745
liable 2744
ny 2744
graphic 2744
ography 2743
konkret 2743
350 2742
Sierra 2742
abili@@ 2742
stores 2742
realer 2742
Bom@@ 2741
west@@ 2741
chts 2741
kümmern 2741
endet 2741
ct 2740
boats 2740
oner 2739
manual 2738
CL@@ 2738
widespread 2737
sian 2737
500@@ 2737
Lor@@ 2736
verse 2736
IK@@ 2736
engli@@ 2736
gehörigen 2736
ily 2735
rah@@ 2735
ologisch 2735
lichsten 2735
vorgestellt 2735
Augenblick 2735
Ama@@ 2734
past@@ 2734
Sonntag 2734
Nikon 2734
radik@@ 2734
ples 2733
dal 2733
Saddam 2733
Ägypten 2733
nern 2733
reporting 2732
я@@ 2732
beinhalten 2732
affects 2731
narrow 2731
4-star 2731
treiben 2731
explanation 2730
sound@@ 2730
incorporated 2730
fts 2730
atom@@ 2730
europäisches 2730
berechnet 2730
müsste 2730
tivität 2730
auffordern 2730
passing 2729
Assi@@ 2729
Hinweise 2729
any@@ 2728
stands@@ 2728
alisierte 2728
gefähr@@ 2728
denjenigen 2728
Häuser 2727
praktischen 2727
Regulierung 2727
finanzieren 2727
last@@ 2726
ungsh@@ 2726
Flü@@ 2726
Lesen 2726
aps 2725
Differ@@ 2725
aviation 2725
überlassen 2725
Senkung 2725
troops 2724
wach@@ 2724
Dialogs 2724
81 2723
Drittel 2723
Common 2722
Nokia 2722
sitzen 2722
Fortsch@@ 2722
Fehl@@ 2722
Staats- 2722
spezialisiert 2722
favourable 2721
gue 2721
vis 2721
Car 2721
colors 2720
anwen@@ 2720
grünen 2720
revenue 2719
forth 2719
eux 2719
unch 2719
Tests 2719
ington 2718
teachers 2718
Ball@@ 2718
strei@@ 2718
würdig 2718
angeb@@ 2718
Fläche 2718
Höchst@@ 2718
Schreiben 2718
erklärte 2718
hef@@ 2717
ool 2717
Zusammenhalt 2717
Besuchen 2717
gross 2716
zia 2716
Small 2715
Stock@@ 2715
spir@@ 2714
gekennzeichnet 2714
ring@@ 2713
snow 2713
mouth 2713
Warcraft 2713
var 2712
soil 2712
ausgewählt 2712
champ@@ 2711
ond@@ 2711
Hall@@ 2711
Hindernisse 2711
ains 2710
Hard@@ 2710
alcohol 2709
victory 2709
EE@@ 2709
rad@@ 2709
schluss 2709
Govern@@ 2708
agents 2708
airports 2708
Porto 2708
Anmeldung 2708
sitz 2708
Nachhaltigkeit 2708
befasst 2708
agen@@ 2707
ood 2707
gement 2706
UNESCO 2706
Dre@@ 2706
Vertretern 2706
block@@ 2705
konstru@@ 2705
Verkehr@@ 2704
tiere 2704
vergleich@@ 2704
Ansprüche 2704
geführte 2704
Mechanismus 2704
beer 2703
plate 2703
ehmer 2703
tnissen 2703
Al 2702
Module 2702
Käufer 2702
constitu@@ 2701
Premierminister 2701
seu@@ 2700
renoviert 2700
Beachtung 2700
weak@@ 2699
exact 2699
rechnen 2699
Sicherheitspolitik 2699
considers 2698
¼ 2698
Todesstrafe 2698
sammeln 2697
Jugendlichen 2697
ises 2695
participating 2695
Pflanzen 2695
repair 2694
igkeit 2694
gelegenen 2694
Mandat 2694
anten@@ 2693
Ergebnissen 2693
Pacific 2692
Department 2692
CR@@ 2692
bay 2692
Urteil 2692
Danish 2691
encouraged 2691
hypo@@ 2691
manu@@ 2691
GR@@ 2691
ium 2691
tei@@ 2691
sement 2690
Cooperation 2690
Sonn@@ 2690
olive 2689
Verfassungs@@ 2689
surprised 2687
girls 2687
dres@@ 2687
Mes@@ 2687
Übertragung 2687
üssen 2687
vely 2685
Haar@@ 2685
ray 2685
mouse 2685
eni@@ 2685
weltweite 2685
Real@@ 2684
Glauben 2684
inder@@ 2683
gänge 2683
Widerstand 2683
lieren 2683
prosec@@ 2682
gehandelt 2682
taining 2681
capabilities 2681
stayed 2681
dance 2681
älteren 2680
produkten 2680
diesbezüglich 2680
doub@@ 2679
willingness 2679
stem 2679
expor@@ 2679
keys 2679
TS 2679
organiz@@ 2679
specialized 2679
Erst@@ 2679
krei@@ 2679
Todes@@ 2679
wesentlicher 2679
attend 2678
Sky@@ 2678
müssten 2678
versammlung 2678
AP 2677
ids 2676
eventuell 2676
beeinflussen 2676
Unions@@ 2676
chinesische 2675
observed 2674
Ess@@ 2674
Urlaubs@@ 2674
PA 2673
erb@@ 2673
contextual 2673
Symbol 2673
Tauch@@ 2673
urgency 2672
Investment 2672
Var@@ 2672
bru@@ 2672
fügt 2672
Wirksamkeit 2672
Nor 2671
Constitutional 2671
betrieb 2671
klasse 2671
Helsinki 2670
achievement 2670
hills 2670
Vic@@ 2669
Projek@@ 2669
günstige 2669
Vice-President 2668
world-@@ 2668
Airlines 2668
25. 2668
Entfernung 2668
roll 2667
stan 2667
angle 2667
egel@@ 2667
eted 2665
broken 2665
Fass@@ 2665
Fan@@ 2665
gefährdet 2665
utmost 2664
DER 2664
leiter 2664
Apart 2663
Authority 2663
Deck@@ 2663
vil@@ 2662
langer 2662
Journalisten 2662
gewählten 2662
Franc@@ 2661
Chile 2661
drin@@ 2661
bringung 2661
propor@@ 2660
prisoners 2660
yr@@ 2660
fiziert 2660
beantwortet 2660
grenz@@ 2660
seeks 2659
ho 2659
booked 2659
Intern@@ 2659
Sz@@ 2659
Ersatz@@ 2659
festzustellen 2659
clock 2658
Civil 2658
mäßige 2658
Betreuung 2658
wu@@ 2657
verletzt 2657
Finnland 2657
conferences 2656
Ay@@ 2656
geblieben 2656
Erlebnis 2656
dauer 2656
Mexiko 2656
programmen 2656
regulated 2655
insist 2655
Louis 2655
stur@@ 2655
Versammlung 2655
projekt 2655
know-how 2654
promises 2654
ober@@ 2654
Oliven@@ 2654
Direc@@ 2653
irs 2653
án@@ 2652
wooden 2652
Meg@@ 2652
Gewal@@ 2652
Datum 2652
opens 2651
Scho@@ 2651
Jer@@ 2651
wechseln 2651
fällig 2651
clarify 2650
preserve 2650
Fei@@ 2650
A.@@ 2650
ßer 2650
langs@@ 2650
Holz 2650
zungen 2650
wonder@@ 2649
buil@@ 2649
accidents 2648
crises 2648
sible 2648
roof 2648
terror@@ 2648
Weil 2648
oftmals 2648
Chr@@ 2647
Plug@@ 2647
Saison 2647
composition 2646
developers 2646
Inflation 2646
Sound@@ 2646
struc@@ 2645
associations 2645
free@@ 2645
Terms 2645
sively 2644
Mei@@ 2644
ärer 2644
wahr 2644
Ausbildungs@@ 2644
spite 2643
Fa@@ 2643
By@@ 2643
UR 2643
Präsenz 2643
märkten 2643
ee@@ 2642
87 2642
jedenfalls 2642
neun 2642
gastronom@@ 2641
sexu@@ 2641
spät 2641
setzte 2641
angewandt 2641
Billi@@ 2640
sand@@ 2640
Är@@ 2640
armen 2640
hole 2639
Ste@@ 2639
shore 2639
Ty@@ 2639
echter 2639
professionelle 2639
logical 2638
crew 2638
arte 2638
BS@@ 2638
eland 2637
TE 2637
ats@@ 2637
Pul@@ 2637
momentan 2637
illegale 2637
jour@@ 2636
Dokumentation 2636
efs 2635
ов@@ 2635
seln 2635
Einen 2635
Finde 2635
alongside 2634
theatre 2634
Mädchen 2634
convention 2633
bü@@ 2633
benutz@@ 2633
Räume 2633
Netzwerk@@ 2633
fted 2632
percentage 2632
correc@@ 2632
Jerusalem 2632
ý 2632
geregelt 2632
indoor 2631
lass@@ 2631
arm 2630
Strände 2630
begrün@@ 2630
variable 2629
क@@ 2629
permission 2628
Fig@@ 2628
Portal 2628
eist@@ 2628
soeben 2628
by-@@ 2627
Access 2627
chron@@ 2627
längst 2627
tief@@ 2627
Kohäsionspolitik 2627
rank 2626
neigh@@ 2626
2015 2626
infolge 2626
ergänzen 2626
Gemeinschaften 2626
snow@@ 2625
ult 2625
quotas 2625
airlines 2625
Cock@@ 2625
Dresden 2625
Wohnzimmer 2625
evident 2624
ential 2624
Travel 2624
studi@@ 2624
edited 2624
chi 2623
ologi@@ 2623
HD 2623
Tabak@@ 2623
alisten 2623
schwierige 2623
purely 2622
catch 2622
navigation 2622
kap@@ 2622
QU@@ 2621
hopes 2621
frequ@@ 2621
Ner@@ 2621
harmful 2620
zy 2620
ova 2620
convergence 2619
nehmer 2619
Rock 2618
ekt 2618
wirkliche 2618
Altern@@ 2617
Modernisierung 2617
enburg 2616
sequ@@ 2616
ansehen 2616
&apos;m 2615
6,@@ 2615
Rich@@ 2615
schwere 2615
Ratschlag 2615
wur@@ 2614
euer 2614
festlegen 2614
finanzi@@ 2613
charakter@@ 2613
palästinensischen 2613
Verwirklichung 2613
ION@@ 2612
tut@@ 2612
homo@@ 2612
Aufzug 2612
Samstag 2612
Vorstellungen 2612
verwal@@ 2611
anzunehmen 2610
diversi@@ 2609
HD@@ 2609
Spitze 2609
seemed 2608
sessions 2608
progres@@ 2608
Zus@@ 2608
ution 2607
arts 2607
gia 2607
onie 2607
andi@@ 2606
dispute 2606
Basel 2606
Spezialitäten 2606
incentives 2605
acks 2605
discount 2605
hinweg 2605
arium 2604
Zuge 2604
Jedoch 2604
charm 2603
kern 2603
regierung 2603
sel 2602
Vers@@ 2602
compulsory 2601
calm 2601
B5-0@@ 2601
Bud@@ 2601
Florence 2601
agements 2601
Ori@@ 2601
Rand@@ 2600
tun@@ 2600
Mich@@ 2600
DV@@ 2600
Stell@@ 2600
ě@@ 2600
sauber@@ 2600
fass@@ 2600
Energieeffizienz 2600
199@@ 2599
ENT 2599
layout 2599
übersch@@ 2599
arians 2598
jk 2598
classical 2598
mern 2598
Doppelzimmer 2598
Wirtschaftspolitik 2598
prison 2597
dest 2596
implications 2596
communicate 2596
mente 2596
Bestell@@ 2596
netz@@ 2596
aufzubauen 2596
radical 2595
accounting 2595
U-@@ 2595
frag@@ 2595
Muslim 2595
sterben 2595
ktionen 2595
ansprechen 2595
clim@@ 2594
suff@@ 2594
20th 2594
bewerten 2594
geschickt 2594
humanitären 2594
Betriebe 2594
relationships 2593
cla@@ 2593
Operation 2593
clicking 2593
eriert 2593
Übrigen 2593
governing 2592
scheduled 2592
string 2592
Cuba 2592
Lü@@ 2592
nat@@ 2592
Lit@@ 2592
ali 2592
schar@@ 2592
Wachstum@@ 2592
rats 2591
tain@@ 2591
theore@@ 2591
Marken@@ 2591
zeichn@@ 2591
Personen@@ 2591
minor 2590
stake 2590
BM@@ 2590
Verzeichnis 2590
ander 2589
Burma 2589
till@@ 2589
netz 2589
kehren 2589
ultimate 2588
visi@@ 2588
Ok@@ 2588
superb 2587
nomin@@ 2587
adventure 2587
Errichtung 2587
expand 2586
hervorragend 2586
Vertrag@@ 2586
Weiterentwicklung 2586
organise 2585
extra@@ 2585
distur@@ 2585
sk 2585
wäl@@ 2585
geschlossenen 2585
Chairman 2584
utt@@ 2584
unt 2584
tious 2584
organ@@ 2584
Riviera 2584
Stiftung 2584
ury 2583
öl 2583
HU 2583
hinzu 2583
krise 2582
expense 2581
wächst 2581
thri@@ 2580
12.00 2580
Product 2580
array 2580
enjoys 2580
ago@@ 2580
Tan@@ 2580
Schulden@@ 2580
Bildern 2580
entieren 2580
vorge@@ 2580
bearing 2579
pilot 2579
Michel 2579
Jesus 2579
Treaties 2578
addi@@ 2578
transfers 2578
forming 2578
var@@ 2578
wander@@ 2578
Ven@@ 2577
Bade@@ 2577
Aktien@@ 2577
verringert 2577
power@@ 2576
polis 2576
rö@@ 2576
Unterkünfte 2576
initially 2575
agu@@ 2575
meaningfully 2575
kette 2575
offenbar 2574
Philosophie 2574
ehemalige 2574
decre@@ 2573
mile 2573
Leipzig 2572
eri 2572
believed 2571
medieval 2571
multilateral 2571
recip@@ 2571
Nigeria 2571
aktu@@ 2571
Amts@@ 2571
kennt 2571
Argumente 2571
sektors 2570
Search 2569
Kopf@@ 2569
Außen- 2569
wife 2568
plug@@ 2568
Gay 2568
Apart@@ 2568
mort@@ 2567
Herr@@ 2567
Viel@@ 2567
Jahr@@ 2567
zahlungen 2567
Asi@@ 2566
füllt 2566
approaches 2565
IP-@@ 2565
м 2565
Traditionen 2565
clean@@ 2564
Edinburgh 2564
Volkswirtschaften 2564
staying 2563
Inst@@ 2563
krimin@@ 2563
italienische 2563
Zwar 2563
enthalt 2563
83 2561
entfernen 2561
versteht 2561
digungen 2561
manchen 2561
Zypern 2561
lish 2560
aking 2560
Andalu@@ 2560
Bücher 2560
nehm@@ 2560
Flughäfen 2560
ears 2559
saf@@ 2559
vent 2559
Joint 2559
Werden 2559
Auflösung 2559
maybe 2558
Lis@@ 2558
Listings 2558
ful@@ 2557
technique 2557
Siemens 2557
beln 2557
Werten 2557
Schüler 2557
berühmte 2557
Wohnungen 2556
ank 2555
Account 2555
Three 2555
smooth 2555
ко@@ 2555
Bol@@ 2554
digitale 2554
enforcement 2553
step@@ 2552
Jac@@ 2552
loses 2552
Milit@@ 2552
Gau@@ 2552
Engineering 2552
busy 2551
sever@@ 2551
Line 2551
Sens@@ 2551
Umweltfragen 2551
Wähler 2551
long@@ 2550
remarkable 2550
studied 2550
Grundlagen 2550
Truppen 2550
ruppe 2549
Arbeitnehmern 2549
describe 2548
retain 2548
Syria 2548
Jewish 2548
Big 2548
ester@@ 2548
но@@ 2548
Ausarbeitung 2548
shortly 2547
CEO 2547
ateg@@ 2547
liert 2547
Akteure 2547
Vill@@ 2546
MP3 2546
akt 2546
addressing 2545
Annehmlichkeiten 2545
schein@@ 2545
Objekte 2545
moder@@ 2544
volles 2544
kontextuellen 2544
concentration 2543
richt@@ 2543
nah 2543
standen 2543
Fundamental 2542
bis@@ 2542
mehrfach 2542
Wissenschaftler 2542
entdeckst 2542
employed 2541
loading 2541
asset 2541
Fron@@ 2541
SQL 2541
Firefox 2541
Safe 2540
Adri@@ 2540
gon 2539
Armen@@ 2539
ados 2539
Samsung 2539
strukturen 2539
verw@@ 2539
permit 2538
eliminate 2538
partic@@ 2538
Schei@@ 2538
bahn@@ 2538
entstand 2538
audience 2537
bought 2537
Valencia 2537
Krieges 2537
Read 2536
train@@ 2536
tagen 2536
überzeu@@ 2536
verwendeten 2536
trat 2536
faßt 2536
vir@@ 2535
Nord 2535
Peti@@ 2535
Fabri@@ 2535
terung 2535
Wiederaufbau 2535
werks 2534
Fahrer 2534
Danach 2534
Orten 2534
scar@@ 2533
band@@ 2533
haus@@ 2533
repeated 2532
Performance 2532
Maur@@ 2532
Vermittlungs@@ 2532
poorest 2531
arom@@ 2531
qui 2531
ino@@ 2531
fot@@ 2531
grammatically 2531
kostenlose 2531
schemes 2530
iled 2530
ingredients 2530
1.5 2530
Hit@@ 2530
contextually 2530
eingebracht 2530
1988 2529
Export@@ 2529
Filme 2529
Swi@@ 2528
poker 2528
Arena 2528
enormen 2528
geniessen 2528
hinzufugen 2528
amended 2527
assigned 2527
NE@@ 2527
Pak@@ 2527
instru@@ 2526
Maj@@ 2526
ul 2526
Maschinen@@ 2526
güns@@ 2526
design@@ 2525
Allah 2525
Work@@ 2525
kontextuell 2525
exposed 2524
negotiation 2524
collabor@@ 2524
garanti@@ 2524
erteilt 2524
Schwellen@@ 2524
grammatisch 2524
180 2523
ж@@ 2523
Milch@@ 2523
Einer 2523
süd@@ 2523
exec@@ 2522
buses 2522
Jean-@@ 2522
Make 2522
Deutschlands 2522
-und 2522
Verbraucherschutz 2522
Tieren 2522
constitutes 2521
prop@@ 2521
medicines 2521
losing 2520
blan@@ 2520
portra@@ 2520
verhältnis 2520
Himmel 2519
chairman 2518
Tsch@@ 2518
Full 2517
vorzunehmen 2517
Schlusselwort 2517
Schlusselphrase 2517
ly-@@ 2516
emi@@ 2516
ć 2516
gesellschaftlichen 2516
nutzt 2516
aufgezahlt 2516
fat@@ 2515
aden@@ 2515
Hardware 2515
Team@@ 2515
beseitigen 2515
einig@@ 2514
Internetzugang 2514
susp@@ 2513
chairs 2513
bedürf@@ 2513
quellen 2513
regelung 2513
tax@@ 2512
Wand@@ 2512
angen 2512
Appartement 2512
Software-@@ 2512
Sieg 2512
nehme 2512
Entwickler 2512
vorliegen 2512
biet@@ 2511
gäste 2511
daten@@ 2511
Verteidigungs@@ 2511
bud@@ 2510
sav@@ 2510
V. 2510
Ausbau 2510
anwenden 2510
Cle@@ 2509
maximal 2509
äd@@ 2509
tliches 2509
ausüben 2509
tail@@ 2508
prize 2507
campaigns 2507
ava 2507
gor@@ 2507
gnis@@ 2507
extending 2506
certified 2506
Cou@@ 2506
hundert 2506
Dänemark 2506
Jung@@ 2505
desto 2505
Nehmen 2505
alp@@ 2504
verbindung 2504
aken 2503
satisfactory 2503
exist@@ 2503
Aussage 2503
Strah@@ 2503
älter 2503
funktion 2503
aufbauen 2503
chapter 2502
Frequ@@ 2502
Palma 2502
ausser@@ 2502
hinaus@@ 2502
new@@ 2501
llen 2501
vorgelegten 2501
translated 2500
arranged 2500
lia 2500
caf@@ 2500
interne 2500
Zwischen 2500
Gibt 2500
reagiert 2499
legitimacy 2498
Serbien 2498
Denken 2498
ändert 2498
managers 2497
oph@@ 2497
ton@@ 2497
Ga@@ 2497
Kommun@@ 2497
ehrlich 2497
schalten 2497
Verkaufs@@ 2497
Go 2496
kamp@@ 2496
verständlich 2496
planen 2496
Free@@ 2495
fizieren 2495
überwachen 2495
financed 2494
Ros@@ 2494
dumping 2493
newsletter 2493
techni@@ 2492
Stur@@ 2491
Vertrieb@@ 2491
stige 2491
branche 2490
Lernen 2490
Together 2489
iness 2489
ses@@ 2489
Kh@@ 2489
boasts 2489
maßen 2489
Ausweitung 2489
azz@@ 2488
Km 2488
Sektors 2488
appointment 2487
communic@@ 2487
Wall 2487
Russlands 2487
professionellen 2487
110 2486
alit@@ 2486
Max 2486
ruhige 2486
mische 2486
Übergang 2486
CA 2485
Subject 2484
Wasch@@ 2484
gemeinsames 2484
fewer 2483
Metro 2483
ektion 2483
Katalog 2483
städ@@ 2483
gebühr@@ 2483
Mängel 2483
belieb@@ 2483
Abfall@@ 2483
neighbours 2482
completion 2482
IX 2482
residential 2482
geteilt 2482
südlichen 2482
eingeleitet 2482
inten@@ 2481
ral 2481
folder 2481
schem 2481
umgehen 2481
Sowohl 2481
PAR@@ 2480
NICHT 2480
flat@@ 2479
berger 2479
weilen 2479
Vordergrund 2479
paths 2478
31. 2478
ownership 2477
grat@@ 2477
Phot@@ 2477
Universitäten 2477
appro@@ 2476
prohi@@ 2476
Sab@@ 2476
tica 2476
olle 2476
gesucht 2476
bevölkerung 2476
no-@@ 2475
Burg 2475
günstigen 2475
woo@@ 2474
Transfer 2474
griffen 2474
bearbeiten 2474
Vorsitzenden 2474
Ticket 2473
grund 2473
Satz 2473
gewidmet 2473
frequency 2472
bling 2472
Reh@@ 2472
sorry 2471
preferred 2471
clear@@ 2471
electrical 2471
gate 2471
Feri@@ 2471
spä@@ 2471
Modul 2471
ity-@@ 2470
gewöhnlich 2470
suggests 2469
Moscow 2469
BA 2469
spüren 2469
Ruf 2469
IWF 2469
Erwachsene 2469
examination 2468
Slovakia 2468
logo 2468
isieren 2468
Wednesday 2467
zah@@ 2467
SP 2466
ction 2466
ized 2466
hochwertigen 2466
definieren 2466
Besitz 2466
aching 2465
height 2465
verstehe 2465
Frauen@@ 2465
stick 2464
Besitz@@ 2464
hinzugefügt 2464
veränder@@ 2464
iling 2463
Times 2463
gesetz 2463
jek@@ 2463
zugs@@ 2463
zeichnete 2463
tene 2463
inadequate 2462
tains 2462
enjoying 2462
Bestätigung 2462
solved 2461
moments 2461
mini@@ 2461
Empire 2461
etten@@ 2461
innovativen 2461
Bezeichnung 2461
thro@@ 2460
tia 2460
mixed 2460
signi@@ 2460
deserves 2459
HIV 2459
GA 2459
hinzu@@ 2459
Souveränität 2459
empty 2458
ping 2458
collapse 2458
24. 2458
Regional@@ 2458
fascinating 2457
baus 2457
Gegner 2457
vali@@ 2455
Fla@@ 2455
elegante 2455
künst@@ 2455
thumbnail 2454
Erfolge 2454
oll 2453
diving 2453
Fire@@ 2453
liz@@ 2453
ologischer 2453
rän@@ 2453
Series 2452
mäßigen 2452
gegebenenfalls 2452
landwirtschaftlichen 2452
ratification 2451
H-@@ 2450
League 2450
dateien 2450
lierung 2450
iPod 2449
nächster 2449
keineswegs 2449
Spaziergang 2449
herstellen 2449
whereby 2448
dependence 2447
erhoben 2447
dist@@ 2446
begun 2446
gerechte 2446
bekann@@ 2446
Eines 2446
Kooperations@@ 2446
underlying 2445
broad@@ 2445
whi@@ 2445
anger 2445
Hof 2445
Einsatz@@ 2445
schluss@@ 2445
staat@@ 2445
oods 2444
dial 2444
Anonymous 2444
tiver 2444
escape 2443
travellers 2443
Immobilien 2443
Rechner 2443
gkeiten 2443
Vereinigte 2443
foundations 2442
ub 2442
erkunden 2442
Genau 2442
Zweiten 2442
exemp@@ 2441
sely 2441
fan 2441
D. 2441
Können 2441
suited 2440
ave 2440
Oli@@ 2440
vacc@@ 2440
sichts@@ 2440
vez 2439
conciliation 2439
full-@@ 2439
ér@@ 2439
RS@@ 2439
Gottes 2439
lieben 2439
Arch@@ 2438
pit@@ 2438
repeatedly 2437
klin@@ 2437
zauber@@ 2437
besonderes 2437
Niederlande 2437
til 2436
üblichen 2436
84 2435
Inc 2435
secondary 2434
Insgesamt 2434
zusehen 2434
compete 2433
occupation 2433
journalists 2433
Woh@@ 2433
dramatic 2432
Esp@@ 2432
denkt 2432
ausgehen 2432
Argument 2432
Intergovernmental 2431
Café 2431
unnecessary 2430
Atlan@@ 2430
Foot@@ 2430
erstes 2430
gefährlich 2430
ökologischen 2430
hotel@@ 2429
Ehre 2429
zweifel@@ 2429
Employment 2428
buch@@ 2428
sozial@@ 2428
lem 2427
Strateg@@ 2427
Blair 2427
Werkzeug 2427
Besonder@@ 2427
verblei@@ 2427
kr@@ 2426
hilfreich 2426
herzustellen 2426
alize 2424
vollem 2423
Existenz 2423
tness 2422
ziel 2422
partial 2421
300@@ 2421
Revision 2421
Beru@@ 2421
parlamentarischen 2421
expanded 2420
gross@@ 2420
Wind 2420
sitz@@ 2420
forschung 2420
yers 2419
Monte 2419
berichtet 2419
satzes 2419
bigger 2418
ME 2418
PM 2418
ы@@ 2418
geschäft 2418
Wirtschaft@@ 2418
considerations 2417
130 2417
Patri@@ 2417
religi@@ 2417
cookies 2417
tiker 2417
Anbetracht 2417
cancellation 2416
html 2416
veröffentlichen 2416
angehen 2416
Nichtraucherzimmer 2415
Werbe@@ 2415
kün@@ 2415
kräften 2415
economically 2414
maj@@ 2414
offiziell 2414
umfassen 2414
Erzeu@@ 2414
commit 2413
intensiv 2413
ausländischen 2413
beabsichtigt 2413
observe 2412
public@@ 2412
welle 2412
gehend 2412
Several 2411
jan 2411
Ach@@ 2411
assen@@ 2411
effizienter 2411
stry 2410
Ingenie@@ 2410
Ausblick 2410
stärksten 2410
splendid 2409
effek@@ 2409
wick@@ 2408
Ministry 2408
Edi@@ 2408
Typ 2408
getrennt 2408
behand@@ 2408
Prozeß 2408
hence 2407
violation 2407
1986 2406
comparable 2406
Effekt 2406
Quell@@ 2406
größter 2406
gebene 2406
Fisheries 2405
Glück@@ 2405
Kommentare 2405
forwar@@ 2404
Modus 2404
höchst 2404
Fassung 2404
teen 2403
incorpor@@ 2403
Web-@@ 2403
fes 2403
bewer@@ 2403
verbreitet 2403
vary 2402
OLAF 2402
etta 2402
ahnen 2402
eure 2402
instrumente 2402
reibungs@@ 2402
principal 2401
ан@@ 2401
Nizza 2401
enfalls 2401
beteiligten 2401
act@@ 2400
gegenüber@@ 2400
konsequent 2400
anforderungen 2400
Internal 2399
Aktu@@ 2399
Gruppen@@ 2399
stant 2398
Shar@@ 2398
Montenegro 2398
Publikum 2398
tigsten 2398
Ablauf 2398
löschen 2398
Entschlossenheit 2398
iron 2397
characteristic 2397
rest@@ 2397
Sun 2397
klu@@ 2397
äf@@ 2397
schreibt 2397
Konvent 2397
timetable 2396
instantly 2396
schwedischen 2396
kräf@@ 2396
erleb@@ 2396
erwiesen 2396
Anmerkungen 2396
thorough 2395
Düsseldorf 2395
elektronische 2395
Gesetzes@@ 2395
sent@@ 2394
coastal 2394
eful 2394
Prof. 2394
ve-@@ 2393
ship@@ 2393
baby 2393
én@@ 2393
Gas 2392
representing 2391
onia 2391
betre@@ 2391
auswählen 2391
extrac@@ 2390
ano@@ 2390
Physi@@ 2390
gemütliche 2390
Demokraten 2390
false 2389
lively 2389
genuinely 2388
ues 2388
eft 2388
integrierte 2388
withdraw 2387
Sekunden 2387
examined 2386
peac@@ 2386
Migration 2386
Nation 2386
wand 2386
Corporation 2386
Zul@@ 2386
Edel@@ 2386
bug 2385
loaded 2385
listening 2385
Chief 2385
TV@@ 2385
Versicherungs@@ 2385
prozeß 2385
debating 2384
schwi@@ 2384
evo 2384
günstig 2384
Gebühren 2384
existieren 2384
generell 2384
Kompetenzen 2384
prefer@@ 2383
hang@@ 2383
carte 2383
chens 2383
Filter 2383
erheben 2383
TE@@ 2382
τ@@ 2382
Verbrauchern 2382
entri@@ 2381
ter-@@ 2381
smart 2381
gefühl 2381
Quark 2380
KDE 2380
Erreichung 2380
gift 2379
informal 2379
optional 2378
Lom@@ 2378
purchased 2378
Marco 2377
Aspekten 2377
Patten 2376
Origin@@ 2376
pfung 2376
sensi@@ 2375
Hör@@ 2375
zahlt 2375
trags@@ 2375
bedroht 2375
over-@@ 2374
Prag 2374
stellten 2374
umb@@ 2373
openness 2373
Level 2373
Modern 2373
Gaz@@ 2373
becken 2373
schriftliche 2373
grenzüberschreitenden 2373
hes 2372
slopes 2372
kürz@@ 2372
bürokrati@@ 2372
Ausrüstung 2372
loans 2371
Alps 2371
widmen 2371
azi@@ 2370
ро@@ 2370
vertraut 2370
speeches 2369
featuring 2369
autumn 2369
Ric@@ 2369
delete 2369
sample 2369
Event 2369
Umwel@@ 2369
Bekann@@ 2369
Ratifizierung 2369
nes 2368
blind 2368
bruch 2368
LAN 2368
Heimat 2368
partei@@ 2368
atri@@ 2367
hard@@ 2367
position@@ 2367
blick 2367
Bestellungen 2367
intentions 2366
foremost 2366
turns 2366
bon 2366
engen 2366
high@@ 2365
textile 2365
xis 2365
Palette 2365
Lehrer 2365
gewicht 2365
diver@@ 2364
falling 2364
chat 2364
sey 2364
schön@@ 2364
möglichkeit 2364
teilung 2364
erfol@@ 2364
Sachver@@ 2364
Stri@@ 2363
soul 2363
perform@@ 2363
Storage 2363
kleinere 2363
tigem 2363
adult 2362
fire@@ 2362
apparent 2362
eph@@ 2362
Cop@@ 2362
nec@@ 2362
Stahl@@ 2362
beispiel@@ 2362
Betrieb@@ 2362
kapit@@ 2361
rating 2360
quest 2360
civili@@ 2360
spectrum 2360
ample 2360
trau@@ 2360
Wett@@ 2360
ghter 2359
arily 2359
affili@@ 2359
Chin@@ 2359
Bevor 2359
Jon@@ 2358
fare 2358
dre@@ 2358
Updates 2358
istisch 2358
hafter 2358
bewußt 2358
gestatten 2358
eas@@ 2357
iere 2357
Konz@@ 2357
pft 2357
alternatives 2356
Rennen 2356
freier 2356
hohes 2356
num@@ 2355
cas 2355
restaur@@ 2355
bewegt 2355
Mani@@ 2354
Samm@@ 2354
früh 2354
alls 2353
1945 2353
Clubs 2353
g. 2353
interess@@ 2353
Lev@@ 2352
accessories 2352
genauer 2352
bewus@@ 2352
abgesch@@ 2352
kostenlosen 2352
Autor 2352
arabischen 2352
subsequently 2351
horse 2351
Source 2351
Schad@@ 2351
ähnlichen 2351
papers 2350
ran 2350
Ideal 2350
Venedig 2350
strike 2349
simultaneously 2349
zeigte 2349
wast@@ 2348
ideally 2348
amer 2348
ht 2348
etzt 2348
artige 2348
ethical 2347
destinations 2347
Merc@@ 2347
Ashton 2347
moreover 2346
n-@@ 2346
sunny 2346
Lohn@@ 2346
Behörde 2346
weichen 2346
fast@@ 2345
accuracy 2345
complaints 2345
Laden 2345
codecision 2344
tered 2344
läge 2344
isten 2344
Abteilung 2344
stätten 2344
earn 2343
History 2343
Morocco 2343
designer 2343
ild 2343
LIN@@ 2343
desktop 2343
kunden 2343
fehlen 2343
beibehalten 2343
viewed 2342
fell 2342
Super 2342
histor@@ 2342
manufactured 2342
erwerben 2342
afford 2341
perio@@ 2340
destroy 2340
affordable 2340
überrascht 2340
Aktivi@@ 2340
förderung 2340
Vorrang 2340
Greens 2339
branch 2339
Lie@@ 2339
finanzierung 2339
posts 2338
respects 2337
dend 2337
calendar 2337
Val 2337
saal 2337
22. 2337
Australien 2337
Konvention 2337
pensions 2336
counts 2336
Schu@@ 2336
BER@@ 2336
Rechnungs@@ 2336
Steigerung 2336
Weine 2336
Statistiken 2336
expenses 2335
vac@@ 2335
spür@@ 2335
Gemeinden 2335
Slowakei 2335
smoking 2334
viewing 2334
Press 2334
ehe 2334
vermittelt 2334
Soldaten 2334
terrible 2333
devoted 2333
mechanical 2333
Ky@@ 2333
EW@@ 2333
zugeben 2333
Durchsetzung 2333
sä@@ 2332
Uns 2332
kurse 2332
umgehend 2332
falsche 2332
Festplatte 2332
measurement 2331
situ@@ 2331
URL 2331
öffentlicher 2331
arrangement 2330
DS 2330
7,@@ 2330
Weiß@@ 2330
unterschiedlicher 2330
olf 2329
bits 2329
Klarheit 2329
Pflanzen@@ 2329
evi@@ 2328
añ@@ 2328
excursions 2328
Schau@@ 2327
logic 2326
oth@@ 2326
ih@@ 2325
Wichtigkeit 2325
Over@@ 2324
andal@@ 2323
fried@@ 2323
Vermögens@@ 2323
chemische 2323
ois 2322
age@@ 2322
Arts 2322
α@@ 2322
і@@ 2322
Rechn@@ 2322
spak@@ 2322
derart 2322
Häfen 2322
guaranteeing 2321
solch 2321
Ausrichtung 2321
zero 2320
cost-@@ 2320
ode 2320
accordingly 2319
Ursache 2319
Schicksal 2319
Tak@@ 2318
reli@@ 2317
WTO-@@ 2317
erkennt 2317
Kenntnisse 2317
zweiter 2317
zweitens 2317
survey 2316
Schulz 2316
79 2316
Haiti 2316
ion@@ 2316
ink@@ 2316
tips 2316
Village 2316
Kein 2316
verbrei@@ 2316
behauptet 2316
Caf@@ 2315
Maß@@ 2315
erteilen 2315
importantly 2314
ades 2314
is-@@ 2314
ofs 2314
Youth 2314
izi@@ 2314
ा@@ 2314
wachsende 2314
clarity 2313
spots 2313
lights 2313
xel 2313
ен@@ 2313
langem 2313
kollek@@ 2313
Dynamik 2313
Garantien 2313
verurteilen 2313
Otherwise 2312
ques@@ 2312
alled 2312
Growth 2312
sender 2312
Meinungs@@ 2312
ball@@ 2311
Palestinians 2311
condemn 2311
1987 2311
nü@@ 2311
composed 2310
acceler@@ 2310
tual 2310
1985 2310
Formul@@ 2310
Sports 2310
Kriegs@@ 2310
agieren 2310
anzuwenden 2310
authors 2309
tribute 2309
hochwer@@ 2309
frü@@ 2309
Werkzeuge 2309
Vorgehensweise 2309
laying 2308
continuously 2308
custom 2308
Lieb@@ 2308
answered 2307
Section 2307
alu@@ 2307
motorway 2307
Export 2307
Library 2307
Automobil@@ 2307
LT 2307
gebenen 2307
jährlichen 2307
geringen 2307
spanische 2307
inspection 2306
ames 2306
Audio 2306
kombiniert 2306
Volkspartei 2305
Brow@@ 2305
LAN@@ 2305
Keine 2305
Plätze 2305
jointly 2304
tragedy 2304
relief 2304
residents 2304
Nordic 2304
preserved 2304
Adv@@ 2304
fores@@ 2303
ket 2303
Seele 2303
Verbrau@@ 2303
forgotten 2302
transaction 2302
inclusive 2302
FI 2302
Program 2302
tively 2301
quali@@ 2301
pace 2301
Lau@@ 2301
Klassi@@ 2301
gesetzten 2301
Herkunfts@@ 2301
Mittelmeer 2301
deleg@@ 2300
refused 2300
ured 2300
arri@@ 2300
revised 2300
hell 2299
efully 2299
alb@@ 2299
elen 2299
kes@@ 2298
tragic 2298
med@@ 2298
aktualisiert 2298
niedrigen 2298
prak@@ 2298
Kommissionspräsident 2297
centers 2296
Foto@@ 2296
Hände 2296
drückt 2296
violent 2295
eve 2295
Solana 2295
Distribution 2295
Fleisch 2295
flexibel 2295
Lateinamerika 2295
bewertet 2295
mäß@@ 2295
unbe@@ 2294
Fes@@ 2294
Bergen 2293
verursachen 2293
Immer 2293
afraid 2292
Block@@ 2292
fak@@ 2292
fahrzeuge 2292
Ferienwohnungen 2292
Fortsetzung 2292
oppose 2291
publish 2291
pain 2291
Cho@@ 2291
bett 2291
Menschheit 2291
komplexe 2291
fifth 2290
astic 2290
noon 2290
buying 2290
Famili@@ 2290
Felder 2290
beweisen 2290
vertritt 2290
wirklichen 2290
potenti@@ 2289
enta 2289
Diesen 2289
Partnership 2288
Kau@@ 2288
zo 2288
terminal 2288
William 2288
GO 2288
SDL 2288
Strom 2288
mensch@@ 2288
gehörige 2288
verlag@@ 2288
anzupassen 2288
Entwicklungshilfe 2288
magn@@ 2287
blicken 2287
Betreiber 2287
umfangreichen 2287
broader 2286
stopped 2286
certification 2286
oration 2286
kö@@ 2286
Zuverlässigkeit 2286
Versprechen 2286
grand 2285
feder@@ 2285
width 2285
FC 2285
Luf@@ 2285
Weltkrieg 2285
äder 2285
bewegung 2285
befürworten 2285
instruc@@ 2284
jurisdiction 2284
orientation 2284
CO 2284
ular@@ 2283
behavior 2283
gemütlichen 2283
inneren 2283
essing 2282
biom@@ 2282
Fun@@ 2282
ь 2282
ausgestattete 2282
loh@@ 2282
Ereignis 2282
zin@@ 2281
ð@@ 2281
erheblichen 2281
obligator@@ 2281
Inhalten 2281
Wünschen 2281
ested 2280
ckets 2280
Kürze 2280
gebäude 2280
erarbeitet 2280
margin@@ 2279
Sieg@@ 2279
Aussagen 2279
greif@@ 2279
doubts 2278
ceiling 2278
ude 2278
Für@@ 2278
dieren 2278
main@@ 2277
vocational 2277
appl@@ 2277
mals 2277
Water 2277
wit@@ 2277
hang 2277
Francisco 2277
Halle 2277
Zimmerbeschreibung 2277
deadline 2276
kredi@@ 2276
argue 2275
GAP 2275
assurance 2274
promoted 2274
gradu@@ 2274
Kling@@ 2274
Reinigung 2274
bür@@ 2274
Weiterhin 2274
ote 2273
Copyright 2273
gast@@ 2273
besit@@ 2273
Tickets 2273
ер@@ 2273
Schreib@@ 2273
fro@@ 2272
External 2272
Fang@@ 2272
überra@@ 2272
ekt@@ 2272
könne 2272
Heads 2271
begegnen 2271
eting 2270
Docum@@ 2270
SK 2270
exten@@ 2269
relaxed 2269
komplexen 2269
Offenheit 2269
Alternativen 2269
Einzelheiten 2269
commerce 2268
Moder@@ 2268
gebung 2268
turen 2268
stattgefunden 2268
treas@@ 2267
Conserv@@ 2267
cky 2267
wai@@ 2267
Jean 2267
beri@@ 2267
Tech 2267
Kennzeichnung 2267
E-Mail-Adresse 2267
Haushalts 2267
nobody 2266
Boot 2266
по@@ 2266
23. 2266
entlichen 2266
depth 2265
finds 2265
Southern 2265
ariat 2265
Sul@@ 2265
typisch 2265
Problematik 2265
evalu@@ 2264
brands 2264
zentraler 2264
gingen 2264
öse 2263
aktionen 2263
iertes 2263
Spi@@ 2262
¶ 2262
Versand@@ 2262
chtete 2262
Mischung 2262
zustande 2262
geehrte 2262
oked 2261
dent@@ 2261
höh@@ 2261
gelegene 2261
formular 2261
Unterstütz@@ 2261
präzise 2261
affecting 2260
nur@@ 2260
cen@@ 2260
Seri@@ 2259
respektieren 2259
perpet@@ 2258
calcul@@ 2258
honest 2258
angekündigt 2258
specially 2257
focuses 2257
KG 2257
Gesicht 2257
arbeiteten 2257
ration@@ 2256
ules 2256
rak@@ 2256
tie 2256
Südo@@ 2256
Lieferanten 2256
plane 2255
Lot@@ 2255
klären 2255
viable 2254
sake 2254
spi@@ 2254
tropical 2254
deutliche 2254
fortsetzen 2254
bege@@ 2254
fertigung 2254
short-term 2253
Avi@@ 2253
Betracht 2253
uneingeschränkt 2253
auswirken 2253
Hans 2252
NEW 2252
erleichtert 2252
innere 2252
schnitt 2252
Nachdruck 2252
conversion 2251
pas 2251
rufe 2251
alising 2250
focusing 2250
aled 2250
belongs 2250
exhi@@ 2250
Lager 2250
davor 2250
motivi@@ 2250
eleganten 2250
etab@@ 2249
assured 2249
electoral 2249
Commerce 2249
Len@@ 2249
gepf@@ 2249
einiges 2249
Beschränkungen 2249
Labour 2248
Jan 2248
Saint-@@ 2248
Fak@@ 2248
dien 2248
Bewusstsein 2248
Netze 2248
Finnish 2247
tradition@@ 2247
Rub@@ 2247
modify 2246
removal 2246
lows 2246
California 2246
lü@@ 2246
Verwal@@ 2246
knew 2245
verpfli@@ 2245
preced@@ 2244
dog 2244
quantity 2244
eci@@ 2244
Ander@@ 2244
intelli@@ 2244
attended 2243
renewed 2243
lege 2243
standardi@@ 2243
gemessen 2243
regionen 2243
healthcare 2242
Coun@@ 2242
ped 2242
cir@@ 2242
Zurich 2242
Proz@@ 2242
Wissens@@ 2242
gestartet 2242
publishing 2241
ad-@@ 2241
Olymp@@ 2241
SL 2241
Bauern@@ 2241
letz@@ 2241
technisch 2241
medizinische 2241
jüngste 2241
wheel 2240
actor 2240
sogenannte 2240
folge 2240
krieg@@ 2240
up-to-date 2239
univers@@ 2239
Schö@@ 2239
Zucker@@ 2239
vertrauen 2239
Seiten@@ 2238
Konzer@@ 2238
taus@@ 2238
visits 2237
arrange 2237
Dokument@@ 2237
derselben 2237
vorliegt 2237
dimensions 2236
stein@@ 2236
stä@@ 2236
russische 2236
vermutlich 2236
regionaler 2236
Szen@@ 2235
Gebir@@ 2235
derung 2235
alisierungs@@ 2235
wirft 2235
genau@@ 2235
Zeitplan 2235
refuse 2234
lining 2234
Kla@@ 2234
Gö@@ 2234
ima@@ 2234
tausend 2234
less@@ 2233
Verheugen 2233
signals 2233
te-@@ 2233
sculp@@ 2233
däm@@ 2233
kohär@@ 2233
recall 2232
kit 2232
ausführ@@ 2232
Pur@@ 2231
kas 2231
aton 2231
fon@@ 2231
schir@@ 2231
Gute 2231
prospect 2230
integrity 2230
wise 2230
chose 2230
dou@@ 2230
itali@@ 2230
‚ 2230
Zielsetzungen 2230
installations 2229
Dav@@ 2229
Key@@ 2229
Fans 2229
kurzer 2229
österreichischen 2229
endgültige 2229
progressive 2228
stops 2228
cameras 2228
automotive 2228
haber 2228
Wellness@@ 2228
Ministerpräsident 2228
transitional 2227
convert 2227
ecks 2227
Eröffnung 2227
zweif@@ 2227
trains 2226
Glob@@ 2226
Hen@@ 2226
Empfang 2226
steller 2226
Wahrung 2226
advise 2225
judge 2225
organize 2225
EG-@@ 2225
Original 2225
fünf@@ 2225
Ford 2224
Contact 2224
Know-how 2224
Regen@@ 2224
wunderschöne 2224
Net 2223
Distri@@ 2223
pack 2223
Ry@@ 2223
Berlin@@ 2223
lei 2223
empfängt 2223
realisiert 2223
whatsoever 2222
missed 2222
stressed 2222
expressly 2222
privileged 2222
Conn@@ 2222
Minderheit 2222
Million 2222
Baum@@ 2222
Übersicht 2222
Wäh@@ 2222
basically 2221
winner 2221
monuments 2221
ansch@@ 2220
declare 2219
stil 2219
scre@@ 2219
tian 2219
Klin@@ 2219
Derzeit 2219
Schlag@@ 2219
angenehme 2219
Südafrika 2219
Protokolls 2219
deserve 2218
adjustment 2218
officially 2218
researchers 2218
Proph@@ 2218
sien 2218
Übernahme 2218
miß@@ 2218
Schnell@@ 2217
lischen 2217
getrieben 2217
institution@@ 2216
sim@@ 2216
Sav@@ 2216
gungen 2216
environmentally 2215
integr@@ 2215
asing 2215
Heimat@@ 2215
Vide@@ 2215
leistet 2215
Ausnahmen 2215
fairen 2215
tatsächlichen 2215
Galileo 2214
Ski 2214
FR@@ 2213
thes@@ 2213
at-@@ 2213
Kün@@ 2213
Russ@@ 2213
Bü@@ 2213
politiken 2213
erweisen 2213
whe@@ 2212
aks 2212
Bag@@ 2212
betriebe 2212
verbindungen 2212
vollstän@@ 2212
Lebensmittelsicherheit 2212
tigh@@ 2211
typically 2211
å 2211
GPS 2211
en.@@ 2211
ystem 2211
favor@@ 2211
glei@@ 2211
verwiesen 2211
lebenden 2211
catalogue 2210
mur@@ 2210
mail@@ 2210
Massage 2210
wä@@ 2210
Гј@@ 2210
ranging 2209
faire 2209
Funktion@@ 2209
Nachmittag 2209
Betrifft 2209
Bauern 2209
Brun@@ 2208
rub@@ 2208
1970 2208
presidential 2208
Kreuz@@ 2208
Georgien 2208
publish@@ 2207
emo@@ 2207
ción 2207
herum 2207
würdigen 2207
posted 2206
GM@@ 2206
paket 2206
unterbrochen 2206
moderner 2206
klim@@ 2206
bird 2205
Representative 2205
Č@@ 2205
grenze 2205
nicht-@@ 2205
erwähnten 2205
delays 2204
certificate 2204
SS 2204
drives 2204
dell 2204
fragt 2204
reib@@ 2204
einsch@@ 2204
Syrien 2204
mini 2203
Ms 2203
authorized 2203
erforderliche 2203
Produktivität 2203
credible 2202
occupied 2202
exhibitions 2202
Order 2202
planung 2202
schedule 2201
Cologne 2201
eus 2201
Olympic 2200
erstreckt 2200
anerkennen 2200
Erarbeitung 2200
EIB 2199
ultur@@ 2199
neighbourhood 2199
Tarifa 2199
plur@@ 2198
painting 2198
Sign@@ 2198
unger@@ 2198
Augen@@ 2198
geringer 2198
begründet 2198
soldiers 2197
key@@ 2197
Ly@@ 2197
drängen 2197
uncertainty 2196
aggres@@ 2196
ore@@ 2196
anna 2196
Verfahrens@@ 2196
genießt 2196
consum@@ 2195
ems 2195
TA 2195
Händen 2195
Taten 2195
formuliert 2195
observation 2194
promising 2194
asts 2194
GUE 2194
Game 2194
mein@@ 2194
verzichten 2194
dienstleistungen 2194
ption 2193
interven@@ 2193
passion 2193
Ann@@ 2192
Großen 2192
Chancengleichheit 2192
populations 2191
utes 2191
Stor@@ 2191
arrest 2191
brauch 2191
Landwirtschafts@@ 2191
duration 2190
short@@ 2190
einst 2190
präz@@ 2190
newspaper 2189
whenever 2189
Illu@@ 2189
anpassen 2189
dring@@ 2189
richtungen 2189
scri@@ 2188
movies 2188
Kredi@@ 2188
lossen 2188
interessanten 2188
zugestimmt 2188
komfortablen 2188
absurd 2187
Nat@@ 2187
tower 2187
Ke@@ 2187
bezeichnen 2187
mines 2186
stering 2186
ground@@ 2186
geeigneten 2186
Kommissions@@ 2186
vorsieht 2186
undes@@ 2185
pattern 2185
Zerstörung 2185
Drogen 2185
Fischler 2184
dian 2183
sovereign 2183
Fis@@ 2183
Engli@@ 2183
v. 2183
Laut 2183
verabschieden 2183
ignore 2182
hing 2182
tone 2182
freight 2182
row@@ 2182
zip 2182
gebühren 2182
ursprüngliche 2182
digkeit 2182
beneficial 2181
sus@@ 2181
achievements 2181
dun@@ 2181
entran@@ 2181
promenade 2181
xen 2181
gste 2181
ausger@@ 2181
zurzeit 2181
Herkunft 2181
tension 2180
Lar@@ 2180
virtu@@ 2180
nov@@ 2180
icon 2180
Ref 2180
Bureau 2179
Sof@@ 2179
emerged 2178
proximity 2178
Milan 2178
IA@@ 2178
на@@ 2178
küste 2178
ssig 2178
religiösen 2178
beef 2177
c-@@ 2177
mechanismen 2177
frequent 2176
Force 2176
bew@@ 2176
30-@@ 2176
Select 2176
Wich@@ 2176
ausländische 2176
vereint 2176
neutral 2175
bag 2175
elf 2175
Sex@@ 2175
glichkeit 2175
Inclu@@ 2174
europa 2174
sandy 2174
Leben@@ 2174
äußer@@ 2174
guar@@ 2173
surveillance 2173
ophi@@ 2173
handels@@ 2173
ebt 2173
gericht@@ 2173
Kurz 2173
Bürokratie 2173
Rückgang 2173
ebo@@ 2172
releases 2172
Tradi@@ 2172
Fall@@ 2172
isoli@@ 2172
ennung 2172
aufnahme 2172
übermitteln 2172
Abbau 2172
suppl@@ 2171
ingu@@ 2171
trouble 2171
Pub@@ 2171
ook 2171
ür 2171
leichte 2171
Everything 2170
ega 2170
technischer 2170
Schne@@ 2170
itz 2169
Solutions 2169
Set@@ 2169
Language 2169
zimmern 2169
erarbeiten 2169
explicitly 2168
valu@@ 2168
unusual 2168
Cham@@ 2168
IBM 2168
Host@@ 2168
gelernt 2168
retten 2168
Aufhebung 2168
schätz@@ 2168
Prize 2167
Brief@@ 2167
Iron@@ 2167
angebote 2167
mani@@ 2166
W. 2166
Barri@@ 2166
Brücke 2166
schenken 2166
Gewinn 2166
Mobiltelef@@ 2166
Peri@@ 2165
Bis@@ 2165
Defence 2165
iste 2165
chtigen 2165
habt 2165
ökonomische 2165
perc@@ 2164
literature 2164
archive 2164
Co 2164
Fisch 2164
eröffnen 2164
Privatsphäre 2164
plätzen 2164
employers 2163
throw 2163
feedback 2163
precious 2163
Jur@@ 2163
hire 2163
gewünschte 2163
abgesehen 2163
vals 2162
Until 2162
fications 2162
sailing 2162
precision 2162
Index 2162
Berei@@ 2162
Lay@@ 2162
ц@@ 2162
dieselben 2162
machinery 2161
facilit@@ 2161
crow@@ 2161
beinahe 2161
pfe 2161
verarbeitet 2161
Zunahme 2161
prestigious 2160
suspended 2160
ble@@ 2160
institute 2159
parameter 2159
fitted 2159
decor@@ 2159
UP@@ 2159
hü@@ 2159
Fremden@@ 2159
gehabt 2159
Mittwoch 2159
wahre 2159
fün@@ 2159
Nichtraucherzonen 2159
ika 2158
migr@@ 2158
här@@ 2158
Verfahrens 2158
distinction 2157
Kra@@ 2157
Minibar 2157
meldung 2157
Liberalen 2157
fuhren 2157
flexi@@ 2156
140 2156
cancelled 2156
erischen 2156
gehe 2156
granting 2155
lick 2155
marking 2155
cross-@@ 2155
ck-@@ 2155
neo@@ 2155
tan 2154
logistics 2154
gelangt 2154
Beijing 2153
GP 2153
Poker@@ 2153
trieb 2153
prinzip 2153
identification 2152
retail 2152
grei@@ 2152
äusern 2152
Wiederherstellung 2152
sicherer 2152
detail@@ 2151
400@@ 2151
Ltd 2151
hielt 2151
äus@@ 2151
medizinischen 2151
läufe 2151
arbeitungs@@ 2151
Verordnungen 2151
adly 2150
flying 2150
Roth@@ 2150
Ot@@ 2150
Spor@@ 2150
zeichneten 2150
aktivitäten 2150
Tabelle 2150
Amerikas 2150
Klimawandels 2150
Terroristen 2150
concerts 2149
Gut 2149
öffnet 2149
entspann@@ 2149
verschaffen 2149
Alters@@ 2149
angenommenen 2149
chester 2148
krieg 2148
Strasse 2148
Steuer 2148
zugelassen 2148
taxpayers 2147
postal 2147
jed@@ 2147
premium 2147
Cit@@ 2147
yang 2147
toilet 2147
umso 2147
stärk@@ 2147
zweck@@ 2146
klen 2146
lös@@ 2146
dieselbe 2146
chemicals 2145
Experim@@ 2145
interactive 2145
baut 2145
eigentliche 2145
änderungen 2145
dahin 2144
debated 2143
amente 2143
1,5 2143
äum@@ 2143
entlich 2143
marktes 2143
vermieden 2143
deficits 2142
Lad@@ 2142
Tampere 2141
preparations 2141
ratio 2141
EURO@@ 2141
nos 2141
Mar 2141
zuverlässi@@ 2141
orientierte 2141
blieb 2141
funktionen 2141
announce 2140
Sac@@ 2140
Anreize 2140
maps 2139
genes 2139
Argentina 2139
spektakul@@ 2139
Sri 2138
ruling 2138
certainty 2138
eva 2138
arbeiter 2138
Theorie 2138
gnisse 2138
Händler 2138
Erhalt 2138
Wettbewerbs 2138
territories 2137
eping 2137
inge 2137
But@@ 2137
aka 2137
relevanten 2137
prevented 2136
negotiated 2136
Hafen@@ 2136
eindeutige 2136
Fahrzeug 2136
Umstände 2136
gemeinsamer 2136
undertake 2135
Quad@@ 2135
Doha 2135
höchster 2135
recession 2134
verd@@ 2134
verarbeitung 2134
gendes 2134
dasselbe 2134
Formulierung 2134
Presidents 2133
reflection 2133
Third 2133
subscribe 2133
academic 2133
Bridge 2133
landschaft 2133
geringe 2133
integrieren 2133
nord@@ 2133
Finanzen 2133
tauchen 2133
automatische 2133
Vul@@ 2132
revealed 2132
event@@ 2132
qualit@@ 2132
Lun@@ 2132
feste 2132
besser@@ 2132
berührt 2132
industriellen 2132
alike 2131
yo 2131
Charme 2131
kritischen 2131
indicators 2130
favourite 2130
Fremd@@ 2130
Funktionalität 2130
zeichnung 2130
mechanismus 2130
Mun@@ 2129
Governance 2129
aufgeführt 2129
einstellen 2129
Begründung 2129
kleineren 2129
consistently 2128
accum@@ 2128
Experience 2128
vertra@@ 2128
Kapazität 2128
heated 2127
à@@ 2127
returns 2127
sensor 2127
publications 2127
realize 2127
9001 2127
befürwortet 2127
infl@@ 2126
threatened 2126
oga 2126
Bett 2126
bestände 2126
enc@@ 2125
chers 2125
yn 2125
Ep@@ 2125
Köln 2125
patri@@ 2124
lux@@ 2124
HP 2124
heutzutage 2124
beabsich@@ 2124
mistakes 2123
Non-Smoking 2123
Mobili@@ 2123
Fli@@ 2123
Kreu@@ 2123
prüf@@ 2123
secondly 2122
zones 2122
comprises 2122
Mode 2122
mün@@ 2122
Einnahmen 2122
admit 2121
Rural 2121
Dienst@@ 2121
Digital@@ 2121
Anrei@@ 2121
Angabe 2121
Richter 2120
human@@ 2120
ate@@ 2120
az 2120
26. 2120
agon@@ 2119
methode 2119
Schuld 2119
problemlos 2119
reiben 2119
verteilung 2119
mist@@ 2118
hesitate 2118
theater 2118
29. 2118
Original@@ 2118
berat@@ 2118
Konjunktur@@ 2118
gewachsen 2118
bedauerlich 2118
deaths 2117
Tower 2117
Scotland 2117
necessity 2117
etry 2117
Schaden@@ 2117
platten 2117
dation 2116
Wälder 2116
the-@@ 2115
purchasing 2115
bab@@ 2115
koordin@@ 2115
zwölf 2115
closing 2114
generous 2114
civilian 2114
lov@@ 2114
pper 2114
Mot@@ 2114
lovers 2113
Monop@@ 2113
vel 2113
Sho@@ 2113
VI 2112
atten 2112
gegenseitigen 2112
PPE-DE 2111
Country 2111
innovations 2111
imperi@@ 2111
3rd 2111
-Software 2111
fangen 2111
Verabschiedung 2111
glaubt 2111
insufficient 2110
eled 2110
Fast 2110
Bahn 2110
Trend 2110
zeich@@ 2110
olen 2109
ms@@ 2109
sport@@ 2109
Glas 2109
terin 2109
UNG 2109
displays 2108
Wat@@ 2108
K-@@ 2108
liter@@ 2107
Rab@@ 2107
gebau@@ 2107
austausch 2107
segment 2106
patterns 2106
zzo 2106
aufgestellt 2106
streben 2106
ami@@ 2105
rie@@ 2105
Problem@@ 2105
smus 2105
Ausgrenzung 2105
XML 2104
Zahn@@ 2104
gravier@@ 2104
aded 2103
ë@@ 2103
En 2103
replacement 2102
kä@@ 2102
Anbindung 2102
Versuche 2102
imported 2101
architectural 2101
hung 2101
toren 2101
menge 2101
abgeben 2101
Meinungen 2101
pa 2100
photographs 2100
ök@@ 2100
bahnen 2100
geräum@@ 2100
Leiter 2100
späteren 2100
thanking 2099
downloaded 2099
Krieg@@ 2099
hunder@@ 2099
Bedien@@ 2099
beschäf@@ 2099
verzerr@@ 2099
telecommunications 2098
divi@@ 2098
Rev@@ 2098
Stufe 2098
nachzu@@ 2098
Objekt 2098
Menschenrechtsverletzungen 2098
catering 2097
Präsentation 2097
beruflichen 2097
acquisition 2096
ota 2096
Besu@@ 2096
durchzusetzen 2096
enced 2095
split 2095
rix 2095
gü@@ 2095
Bevölkerungs@@ 2095
evaluate 2094
1979 2094
Cin@@ 2094
tika 2094
onien 2094
bisschen 2094
unknown 2093
isen 2093
negotiate 2093
Reich 2093
Techni@@ 2093
Restaur@@ 2093
Vertrieb 2093
Rechnungshof 2093
il-@@ 2092
thers 2092
lighting 2092
gang@@ 2092
Sant 2092
ärm@@ 2092
felder 2092
Dok@@ 2092
wärts 2092
Handlungen 2092
erlangen 2092
Karl 2091
sub-@@ 2091
ense 2091
profit@@ 2091
Designer 2091
zehn@@ 2091
wünscht 2091
Jugendliche 2091
Abgeordneter 2091
ratified 2090
Holland 2090
etz 2090
Cra@@ 2090
m. 2090
ml 2090
sek@@ 2090
passieren 2090
Logik 2090
distor@@ 2089
senior 2089
spare 2089
Gall@@ 2089
protest 2089
Bürgerbeauftragten 2089
moves 2088
raft 2088
emin@@ 2088
ji@@ 2088
Bat@@ 2088
editor 2088
Snow@@ 2088
Garten@@ 2088
Lissabon-Strategie 2088
ature 2087
airline 2087
deli@@ 2087
black@@ 2087
Daniel 2087
-in 2087
Schle@@ 2087
Verfolgung 2087
fails 2086
occurs 2086
Gallery 2086
luss 2086
veranst@@ 2086
spielte 2086
boxes 2085
stö@@ 2085
transit 2084
Wald 2084
Bühne 2084
schönes 2084
kehr 2084
basieren 2084
fahrts@@ 2083
DN@@ 2083
Kö@@ 2083
empfiehlt 2083
Spektrum 2083
signing 2082
Solar@@ 2082
nieren 2082
beruhen 2082
indicates 2081
greenhouse 2081
magic 2081
performing 2081
verschieden@@ 2081
siven 2081
bezogen 2081
Anzeige 2081
zunehmende 2081
2.5 2080
exceed@@ 2080
gratis 2080
dacht 2080
machten 2080
vierte 2080
Weltwirtschaft 2080
Int@@ 2079
Histor@@ 2079
sheets 2079
justify 2078
wars 2078
digit@@ 2078
Demokrati@@ 2078
favorite 2078
konz@@ 2078
vise 2077
harbour 2077
lowing 2077
argum@@ 2077
aces 2077
brut@@ 2077
Bell@@ 2077
Jag@@ 2077
arische 2077
28. 2077
need@@ 2076
dollars 2076
gran@@ 2076
W-@@ 2076
teuer 2076
beweg@@ 2076
Energiever@@ 2076
Summe 2076
wertvolle 2076
Satelliten@@ 2076
sag@@ 2075
autom@@ 2075
Fakten 2075
Anträge 2075
Raums 2075
gni@@ 2074
herunter@@ 2074
Konzern@@ 2074
bureaucracy 2073
kü@@ 2073
erlassen 2073
Schnittstelle 2073
zten 2073
Funktionieren 2073
Excellent 2072
Arti@@ 2072
Wetter 2072
Meister@@ 2072
schlechte 2072
real@@ 2071
enza 2071
Et@@ 2071
Aufenthalts@@ 2071
verfahrens 2071
placing 2070
notably 2070
hem@@ 2070
blin@@ 2070
maximale 2070
gelegte 2070
I. 2069
va@@ 2069
robust 2069
J. 2069
wies 2069
innen@@ 2069
gerechtfertigt 2069
Bewohner 2069
Ausbeutung 2069
chief 2068
urt 2068
issen 2068
creature 2068
boden 2068
polnischen 2068
demonstrates 2067
farms 2067
Ful@@ 2067
Ev@@ 2067
Metall@@ 2067
quelle 2067
doppelt 2067
tise 2066
Democratic 2066
mitgli@@ 2066
patents 2065
Innov@@ 2065
ku 2065
sofa 2065
Hoh@@ 2065
ämpf@@ 2065
sonstige 2065
authorised 2064
mandatory 2064
harm 2064
Route 2064
kostenfrei 2064
agentur 2064
Belastung 2064
Zusammensetzung 2064
endgültigen 2064
inary 2063
Bonn 2063
SY@@ 2062
notified 2062
top-@@ 2062
Hussein 2062
ple 2062
Türen 2062
enswerte 2062
angebotenen 2062
supplementary 2061
cooking 2061
Kapit@@ 2061
Fußball@@ 2061
gebunden 2061
mittlere 2061
DR 2060
initiated 2060
slowly 2060
worrying 2060
iner@@ 2060
dual 2060
Vie@@ 2060
gewinnt 2060
benden 2060
Kuba 2060
insp@@ 2059
borne 2059
Register 2059
deutsch@@ 2059
BS 2059
A4-0@@ 2059
Getränke 2059
EIN@@ 2059
Gewinne 2059
thir@@ 2058
heavily 2058
claimed 2058
tres 2058
Gil@@ 2058
dal@@ 2058
downtown 2058
einführen 2058
Außenminister 2058
Conditions 2057
oter 2057
gestalt@@ 2057
beschreibt 2057
Spannungen 2057
unterscheidet 2057
ressourcen 2057
Fremdenverkehr 2057
verage 2056
stag 2056
18th 2056
allocation 2055
Referendum 2055
Binnen@@ 2055
Anwen@@ 2055
englischen 2055
humanity 2054
stens 2054
Stei@@ 2054
fiel 2054
Erzeugung 2054
timely 2053
Peace 2053
Sup@@ 2053
fahrten 2053
question@@ 2052
liziert 2052
jeglicher 2052
liefer@@ 2052
Istanbul 2051
fin 2051
dness 2051
einzig 2051
extrem@@ 2050
para@@ 2050
ologien 2050
präsen@@ 2050
lish@@ 2049
Industrial 2049
Intel 2049
schaf@@ 2049
Wesen 2049
überwacht 2049
pays 2048
goo@@ 2048
measuring 2048
intelligence 2048
atisch 2048
gn 2047
reloc@@ 2047
clothing 2047
Install@@ 2047
schwieriger 2047
passende 2047
organisierten 2047
condi@@ 2046
Dou@@ 2046
aring 2046
acci@@ 2046
éri@@ 2046
brü@@ 2046
Beste 2046
ausreichende 2046
Installations@@ 2046
Adressen 2046
Ordner 2046
cio 2045
stamm@@ 2045
dauern 2045
ux 2044
unions 2044
Dun@@ 2044
dien@@ 2044
Alpen 2044
eingeladen 2044
citizenship 2043
entures 2043
Schwarz@@ 2043
Osteuropa 2043
Geschäften 2043
leitungen 2043
effizienten 2043
verliehen 2043
abgegeben 2043
normen 2043
agrees 2042
nationals 2042
voters 2042
ison 2042
Technologies 2042
beeinflusst 2042
führungs@@ 2042
specify 2041
Ank@@ 2041
punkten 2041
Versorgungs@@ 2041
Energiequellen 2041
apparently 2040
Olympus 2040
cz@@ 2040
Basis@@ 2040
Wichtig 2040
wherever 2039
ow-@@ 2039
ühr@@ 2039
pling 2039
converted 2039
Georgi@@ 2039
phys@@ 2039
lassung 2039
Beurteilung 2039
änen 2038
arity 2038
potentially 2038
Europar@@ 2038
Heil@@ 2038
geplanten 2038
Rezession 2038
sums 2037
reads 2037
dum 2037
edy 2037
etri@@ 2037
Fair@@ 2037
twin 2036
neutr@@ 2036
Intensi@@ 2036
workshops 2036
ahl 2036
9,@@ 2036
sagten 2036
stätigkeit 2036
subsi@@ 2035
caught 2035
kampf 2035
Kontak@@ 2035
zwanzig 2035
iel 2034
coal 2034
Handy 2033
vielsei@@ 2033
ablehnen 2033
differenti@@ 2032
geni@@ 2032
kit@@ 2032
sau@@ 2032
tum 2032
Fischereipolitik 2032
stret@@ 2031
aer@@ 2031
book@@ 2031
od 2031
geladen 2031
linge 2031
gebe 2031
SC 2030
dominant 2030
regimes 2030
solven@@ 2030
Direk@@ 2030
Verlängerung 2030
einstimmig 2030
Art. 2029
360 2029
directions 2029
geachtet 2029
Haushalte 2029
expanding 2028
Jacques 2028
Insel@@ 2028
kombin@@ 2028
Fitness@@ 2028
Beratungen 2028
bedienen 2028
eignen 2028
mand@@ 2027
premises 2027
ffer 2027
pak@@ 2027
Kaffe@@ 2027
Ausgangs@@ 2027
lassungen 2027
Part 2026
IR 2026
Nar@@ 2026
Deposit 2026
künfte 2026
gelingen 2026
staatlicher 2026
dargelegt 2026
batt@@ 2025
Left 2025
cancel 2025
OECD 2025
automation 2025
euch@@ 2025
aturen 2025
israelischen 2025
intervene 2024
lizi@@ 2024
organisierte 2024
Marokko 2024
abstra@@ 2023
inhal@@ 2023
fam@@ 2023
orts 2023
Beamten 2023
view@@ 2022
District 2022
vereinbarten 2022
sech@@ 2022
Ergänzung 2022
investiert 2022
withdrawal 2021
contractual 2021
tranqu@@ 2021
enzi@@ 2021
Erfol@@ 2021
defining 2020
Goo@@ 2020
govern@@ 2020
Parall@@ 2020
Invest@@ 2020
adel@@ 2020
Visa 2020
Still@@ 2020
Gärten 2020
beschleunigen 2020
Menschenrechten 2020
accommodate 2019
Rahmenbedingungen 2019
Künstler@@ 2019
eigenem 2019
£ 2018
jen@@ 2018
ο@@ 2018
geld 2018
Studios 2018
externe 2018
elemente 2018
ärmsten 2018
horizontal 2017
react 2017
Human@@ 2017
ę@@ 2017
vieren 2017
contributing 2016
coordinate 2016
conservation 2016
Hung@@ 2016
emission 2016
Galerie 2016
aussehen 2016
ösen 2016
zugute 2016
kle@@ 2015
Choose 2015
datei 2015
aud 2014
conventions 2014
Israelis 2014
sm 2014
ESS 2014
einnehmen 2014
tonnes 2013
lement 2013
Neg@@ 2013
shar@@ 2013
po 2013
applicant 2012
ate-@@ 2012
gur@@ 2012
after@@ 2012
BL@@ 2012
Bli@@ 2012
terrasse 2012
verständnis 2012
unanimously 2011
experiencing 2011
qualifications 2011
Dest@@ 2011
feh@@ 2011
Ungleich@@ 2011
kunden@@ 2011
Einschränkungen 2011
Gebäuden 2011
station@@ 2010
comb@@ 2010
der-@@ 2010
intense 2010
übt 2010
attrac@@ 2009
mature 2009
Cathedral 2009
verstärkte 2009
anning 2008
accomp@@ 2008
Traum 2008
hur@@ 2007
kas@@ 2007
d.@@ 2007
namen 2007
Prak@@ 2007
С@@ 2007
rahmen 2007
berufen 2007
Erwägung 2007
degrees 2006
Which 2006
DP 2006
powered 2006
unterwegs 2006
gefasst 2006
systematic 2005
imposing 2005
stim@@ 2005
pru@@ 2005
Produktion@@ 2005
Beschwerden 2005
demokratisch 2005
starkes 2005
tened 2004
platforms 2004
appreciated 2004
thesis 2004
Iranian 2004
License 2004
anter 2003
geschafft 2003
Fün@@ 2003
Föderation 2003
Monti 2002
hed 2002
schein 2002
Mengen 2002
erstens 2002
structured 2001
revolution@@ 2001
Her 2001
ege 2001
exposure 2000
gements 2000
coverage 2000
atten@@ 2000
Similarly 2000
bec@@ 2000
IL 1999
mir@@ 1999
Rit@@ 1999
denten 1999
hört 1999
drucken 1999
bewahrt 1999
Schutzes 1999
Schmer@@ 1999
Änderungs@@ 1999
phe 1998
churches 1998
Sw@@ 1998
streng 1998
ags 1997
ame@@ 1997
ions 1997
schaff@@ 1997
ypen 1997
embra@@ 1996
terrorists 1996
Terr@@ 1996
equity 1996
connec@@ 1996
heb@@ 1996
Unternehmer 1996
Jav@@ 1995
drinking 1995
decent 1995
copies 1995
authentic 1995
fan@@ 1995
alizing 1995
ausgedeh@@ 1995
Steuerzahler 1995
tough 1994
Phänomen 1994
Konferenzen 1994
digte 1994
gebraucht 1994
procurement 1993
Lithuania 1993
Organis@@ 1993
biological 1993
BE@@ 1993
Intervention 1993
geograph@@ 1993
ausstattung 1993
27. 1993
benannt 1993
istischer 1993
ailing 1992
breaking 1992
keeps 1992
workshop 1992
Technical 1992
versehen 1992
state-of-the-art 1991
Malaysia 1991
stattdessen 1991
handels 1991
breach 1990
ris 1990
handled 1990
creativity 1990
Brit@@ 1990
Master@@ 1990
stücke 1990
controlling 1989
turing 1989
José 1989
Wireless 1989
wahl 1989
pho@@ 1988
hosts 1988
Class 1988
eigentlichen 1988
Verletzungen 1988
Geben 1988
Aufnahmen 1988
Produzenten 1988
gebnis 1988
kra@@ 1987
Leuten 1987
flug 1987
stützen 1987
lierten 1987
Secretary 1986
assign@@ 1986
respectively 1986
uen 1986
Termin 1986
probieren 1986
empfin@@ 1986
standes 1986
vielfältigen 1986
Einschätzung 1986
cus 1985
entries 1985
Batter@@ 1985
CH 1985
Medikamente 1985
Feststellung 1985
Pflichten 1985
anian 1984
Look 1984
Diplom@@ 1984
silver 1984
tätigen 1984
nachhaltig 1984
inakzeptabel 1984
Anwesenheit 1984
silence 1983
headquarters 1983
versi@@ 1983
Tür@@ 1983
ingt 1983
Terminal 1983
ängen 1983
Kongres@@ 1983
vielfäl@@ 1983
inischen 1983
teilzunehmen 1983
vorrangi@@ 1983
operative 1982
approx 1982
Gebühr 1982
Unterhaltung 1982
tioned 1981
emerge 1981
watching 1981
ück 1981
Fed 1981
Arbeitsgruppe 1981
tiken 1981
anch@@ 1980
transformation 1980
`@@ 1980
Einwanderer 1980
vorgehen 1980
passes 1979
owing 1979
blame 1979
aves 1979
self 1979
CM@@ 1979
Alber@@ 1979
sq@@ 1979
üren 1979
produzi@@ 1979
Autor@@ 1979
beliebigen 1979
zulässig 1979
Verfasser 1979
minimal 1978
pain@@ 1978
arbitrary 1978
Andr@@ 1978
mien 1978
spätestens 1978
jahres@@ 1978
eingeräumt 1978
Madeira 1977
ulations 1977
oud 1977
Kle@@ 1977
Tö@@ 1977
Santer 1976
visitor 1976
außen@@ 1976
vergeben 1976
auseinander@@ 1976
Plenar@@ 1976
worry 1975
disputes 1975
unstable 1975
Santiago 1975
enha@@ 1975
sierte 1975
[...]
