. 1
▁the 1
, 1
▁to 1
▁and 1
▁of 1
▁a 1
s 1
▁in 1
▁I 1
▁that 1
' 1
▁for 1
▁is 1
▁was 1
- 1
▁on 1
’ 1
▁it 1
▁with 1
▁The 1
▁as 1
▁at 1
▁be 1
t 1
▁he 1
▁have 1
▁from 1
▁by 1
▁are 1
▁" 1
▁you 1
▁his 1
▁“ 1
▁this 1
▁said 1
▁not 1
▁has 1
▁an 1
▁( 1
▁but 1
▁had 1
▁we 1
▁her 1
▁they 1
▁will 1
▁my 1
▁or 1
▁were 1
▁their 1
) 1
: 1
▁up 1
▁about 1
▁out 1
▁who 1
▁one 1
▁all 1
▁been 1
▁she 1
▁can 1
▁more 1
▁would 1
▁It 1
▁which 1
▁so 1
▁me 1
▁He 1
▁when 1
▁time 1
▁also 1
▁just 1
▁like 1
▁there 1
m 1
▁what 1
▁him 1
▁after 1
▁into 1
▁In 1
▁our 1
▁first 1
▁over 1
▁them 1
▁people 1
▁do 1
" 1
▁other 1
▁some 1
? 1
▁two 1
▁A 1
▁if 1
▁its 1
▁than 1
▁get 1
▁your 1
▁could 1
▁year 1
▁back 1
▁no 1
▁new 1
▁ 1
.” 1
re 1
d 1
,” 1
▁only 1
▁But 1
” 1
▁last 1
▁now 1
▁years 1
▁We 1
▁because 1
I 1
▁how 1
▁then 1
▁- 1
▁know 1
." 1
▁before 1
▁This 1
! 1
▁where 1
ing 1
▁And 1
▁She 1
▁way 1
▁being 1
▁down 1
▁make 1
; 1
▁going 1
▁even 1
▁— 1
▁day 1
▁made 1
▁any 1
▁through 1
▁see 1
▁most 1
S 1
▁much 1
▁don 1
▁did 1
▁off 1
▁go 1
▁well 1
▁very 1
▁think 1
▁while 1
ve 1
▁us 1
▁work 1
▁good 1
▁still 1
▁around 1
▁three 1
▁many 1
▁those 1
," 1
/ 1
▁really 1
▁home 1
▁take 1
▁They 1
▁against 1
▁right 1
▁these 1
▁want 1
▁got 1
▁during 1
ed 1
▁U 1
▁say 1
▁told 1
▁didn 1
ll 1
▁– 1
▁should 1
a 1
▁may 1
▁such 1
▁little 1
▁since 1
▁life 1
▁Trump 1
▁here 1
▁long 1
▁So 1
▁too 1
▁need 1
▁next 1
▁week 1
▁between 1
▁part 1
▁game 1
▁says 1
▁team 1
▁same 1
th 1
▁company 1
▁things 1
▁That 1
▁both 1
▁world 1
▁another 1
▁never 1
▁come 1
▁You 1
▁There 1
▁' 1
▁few 1
▁As 1
▁New 1
▁second 1
▁own 1
▁something 1
▁If 1
▁went 1
▁found 1
▁family 1
▁use 1
▁help 1
▁government 1
▁under 1
The 1
▁end 1
▁state 1
▁used 1
▁left 1
▁million 1
▁am 1
▁season 1
▁took 1
y 1
▁place 1
▁man 1
▁again 1
▁came 1
▁high 1
▁lot 1
e 1
▁every 1
▁put 1
▁night 1
er 1
▁including 1
▁each 1
▁away 1
▁best 1
▁school 1
▁four 1
▁look 1
). 1
year 1
... 1
▁set 1
▁When 1
▁called 1
ly 1
▁For 1
), 1
▁days 1
▁2 1
▁always 1
▁until 1
▁find 1
▁great 1
▁better 1
▁love 1
▁show 1
▁later 1
in 1
▁percent 1
We 1
▁10 1
▁police 1
▁without 1
▁thing 1
▁On 1
▁country 1
▁might 1
▁3 1
▁play 1
▁per 1
▁top 1
▁won 1
▁started 1
▁1 1
▁thought 1
▁different 1
▁big 1
▁feel 1
▁number 1
▁public 1
▁head 1
▁group 1
▁market 1
▁children 1
▁though 1
▁five 1
▁‘ 1
▁able 1
▁After 1
▁today 1
▁point 1
▁already 1
▁... 1
▁having 1
▁report 1
▁does 1
▁My 1
▁start 1
▁enough 1
▁city 1
▁past 1
▁asked 1
▁house 1
▁give 1
▁business 1
▁far 1
▁United 1
▁support 1
▁sure 1
▁keep 1
▁women 1
▁President 1
▁case 1
▁run 1
▁old 1
▁getting 1
▁No 1
▁early 1
▁side 1
▁wanted 1
old 1
▁At 1
▁making 1
▁doing 1
▁months 1
▁why 1
▁ever 1
▁former 1
▁working 1
▁One 1
▁least 1
▁What 1
▁money 1
▁hard 1
▁4 1
It 1
▁several 1
▁done 1
▁water 1
A 1
▁Friday 1
▁according 1
▁times 1
▁seen 1
▁across 1
▁story 1
▁change 1
▁small 1
▁together 1
▁room 1
▁full 1
▁information 1
▁car 1
▁American 1
▁month 1
▁area 1
▁doesn 1
▁5 1
▁Mr 1
▁system 1
▁All 1
▁wasn 1
▁looking 1
▁half 1
n 1
▁face 1
▁let 1
▁along 1
▁name 1
▁must 1
▁local 1
▁open 1
] 1
▁call 1
▁morning 1
▁once 1
▁State 1
▁trying 1
▁ago 1
▁person 1
▁news 1
▁free 1
▁third 1
▁Monday 1
▁US 1
▁power 1
▁less 1
▁-- 1
i 1
▁bit 1
▁course 1
▁His 1
▁line 1
▁saw 1
▁Tuesday 1
▁& 1
▁become 1
▁points 1
▁Thursday 1
▁To 1
▁six 1
▁kind 1
▁added 1
▁win 1
▁actually 1
▁yet 1
▁move 1
o 1
▁Wednesday 1
— 1
▁hand 1
▁book 1
▁anything 1
▁men 1
com 1
▁[ 1
▁behind 1
to 1
C 1
▁North 1
▁deal 1
▁known 1
▁fact 1
▁tell 1
▁important 1
▁games 1
▁May 1
▁However 1
▁someone 1
▁using 1
▁real 1
the 1
▁law 1
▁S 1
▁coming 1
▁president 1
▁House 1
▁given 1
▁often 1
▁woman 1
▁close 1
▁hit 1
▁members 1
▁taken 1
▁almost 1
▁taking 1
▁job 1
▁felt 1
▁care 1
▁believe 1
▁York 1
▁front 1
▁Sunday 1
▁20 1
▁community 1
▁media 1
▁post 1
▁young 1
▁South 1
▁Saturday 1
▁quarter 1
▁party 1
▁looked 1
▁hours 1
▁friends 1
▁held 1
▁live 1
▁data 1
▁order 1
▁saying 1
▁City 1
▁knew 1
▁began 1
▁court 1
▁With 1
▁try 1
▁food 1
▁others 1
r 1
▁While 1
▁following 1
▁future 1
▁large 1
▁within 1
▁reported 1
▁health 1
▁office 1
▁body 1
▁series 1
▁read 1
▁University 1
▁John 1
▁everything 1
▁service 1
▁minutes 1
▁due 1
▁gave 1
▁late 1
▁States 1
▁whether 1
▁mother 1
▁National 1
▁lead 1
▁weeks 1
▁share 1
▁comes 1
▁6 1
▁12 1
▁March 1
▁near 1
▁lost 1
▁kids 1
▁major 1
▁outside 1
▁plan 1
▁couple 1
▁death 1
▁became 1
▁players 1
▁expected 1
▁among 1
▁final 1
▁played 1
▁God 1
▁likely 1
▁County 1
es 1
▁political 1
▁process 1
▁pretty 1
▁forward 1
▁students 1
▁nothing 1
▁pay 1
▁experience 1
▁recent 1
and 1
▁de 1
▁needed 1
▁possible 1
▁social 1
▁myself 1
▁price 1
▁billion 1
▁short 1
▁p 1
▁video 1
▁decided 1
▁Now 1
▁2018 1
▁World 1
▁child 1
on 1
▁turned 1
▁B 1
▁everyone 1
▁shares 1
▁stop 1
▁stock 1
▁June 1
man 1
▁released 1
▁idea 1
▁film 1
▁building 1
▁bad 1
▁decision 1
▁event 1
▁continue 1
▁15 1
▁campaign 1
▁statement 1
▁probably 1
▁companies 1
▁makes 1
▁8 1
▁himself 1
▁China 1
▁whole 1
". 1
▁single 1
▁re 1
▁available 1
▁leave 1
▁Then 1
▁meeting 1
▁friend 1
▁based 1
▁research 1
▁program 1
▁means 1
▁running 1
▁current 1
▁further 1
▁control 1
▁history 1
▁isn 1
▁level 1
▁son 1
▁couldn 1
▁11 1
▁7 1
▁father 1
▁April 1
or 1
▁officials 1
▁soon 1
▁return 1
▁talk 1
▁low 1
▁led 1
▁national 1
▁2017 1
▁security 1
▁mind 1
▁announced 1
▁black 1
▁O 1
▁services 1
▁July 1
▁clear 1
D 1
▁growth 1
▁quite 1
▁problem 1
▁fire 1
▁hope 1
▁worked 1
▁D 1
▁record 1
▁eyes 1
▁turn 1
▁St 1
▁playing 1
▁period 1
▁inside 1
▁mean 1
▁parents 1
▁either 1
▁age 1
▁Police 1
▁project 1
▁door 1
▁issue 1
▁30 1
▁January 1
▁special 1
▁matter 1
▁shot 1
▁include 1
▁earlier 1
▁strong 1
▁tried 1
▁recently 1
▁heard 1
▁C 1
▁else 1
▁question 1
▁received 1
▁town 1
▁America 1
▁light 1
▁music 1
▁position 1
▁phone 1
▁happened 1
▁white 1
▁moment 1
▁heart 1
▁however 1
▁rest 1
▁wrote 1
up 1
▁living 1
ers 1
▁industry 1
▁provide 1
▁Some 1
▁role 1
an 1
▁Washington 1
?" 1
▁bring 1
▁died 1
▁non 1
▁rather 1
▁9 1
▁list 1
▁total 1
▁News 1
▁reason 1
▁An 1
▁stay 1
▁human 1
▁issues 1
▁air 1
▁road 1
▁Department 1
▁election 1
▁Facebook 1
▁West 1
▁especially 1
▁career 1
▁cost 1
▁average 1
▁E 1
▁remember 1
▁needs 1
▁T 1
▁moved 1
▁anyone 1
▁tax 1
▁development 1
▁spent 1
▁happy 1
▁According 1
▁federal 1
▁These 1
▁goal 1
▁November 1
", 1
▁December 1
▁nearly 1
▁military 1
▁seems 1
▁seven 1
▁longer 1
▁rights 1
▁war 1
▁girl 1
▁wife 1
▁brought 1
▁White 1
▁fun 1
al 1
▁sent 1
▁cut 1
▁finally 1
▁space 1
▁killed 1
▁attack 1
▁hold 1
▁policy 1
▁words 1
▁example 1
2 1
▁ready 1
▁Not 1
▁October 1
▁field 1
▁player 1
▁visit 1
▁study 1
▁16 1
▁member 1
▁plans 1
▁online 1
▁general 1
▁countries 1
▁action 1
▁chance 1
▁September 1
▁trade 1
▁result 1
▁release 1
▁above 1
▁hands 1
▁San 1
▁India 1
▁instead 1
▁site 1
▁higher 1
▁weekend 1
▁summer 1
▁quickly 1
▁lives 1
▁understand 1
▁husband 1
▁increase 1
▁director 1
▁How 1
▁baby 1
▁Her 1
▁2016 1
▁key 1
▁cent 1
▁August 1
▁meet 1
▁access 1
▁financial 1
en 1
▁School 1
▁daughter 1
▁R 1
▁main 1
▁shows 1
▁14 1
▁official 1
▁13 1
▁involved 1
▁coach 1
▁Court 1
You 1
▁eight 1
▁P 1
▁race 1
▁ask 1
▁interest 1
1 1
▁staff 1
▁By 1
▁Canada 1
▁form 1
▁co 1
▁rate 1
▁M 1
▁met 1
AP 1
▁ahead 1
▁gone 1
▁hear 1
▁ground 1
▁class 1
B 1
▁board 1
▁latest 1
▁reports 1
▁buy 1
k 1
▁similar 1
▁international 1
▁Dr 1
▁currently 1
▁California 1
▁published 1
▁Minister 1
▁N 1
▁easy 1
▁February 1
▁fight 1
▁themselves 1
▁18 1
T 1
▁club 1
▁TV 1
▁worth 1
▁potential 1
▁feeling 1
▁results 1
▁continued 1
▁wrong 1
▁watch 1
▁true 1
▁David 1
▁hospital 1
▁global 1
▁sense 1
▁kept 1
▁situation 1
▁investigation 1
▁technology 1
▁vote 1
▁G 1
▁wouldn 1
P 1
▁energy 1
▁talking 1
▁League 1
▁break 1
▁fall 1
▁thinking 1
g 1
4 1
▁training 1
▁performance 1
▁included 1
c 1
▁create 1
▁walk 1
▁nice 1
▁Street 1
▁K 1
▁offer 1
▁private 1
time 1
▁fans 1
▁happen 1
▁British 1
▁wants 1
▁showed 1
▁areas 1
▁store 1
▁Donald 1
▁maybe 1
▁goes 1
▁personal 1
▁oil 1
▁seemed 1
▁Even 1
▁opened 1
3 1
▁questions 1
▁leader 1
▁J 1
▁Russia 1
▁entire 1
▁self 1
▁difficult 1
▁risk 1
▁loss 1
▁James 1
▁below 1
▁17 1
▁land 1
▁Twitter 1
This 1
▁bed 1
▁Christmas 1
▁relationship 1
▁value 1
▁economic 1
▁starting 1
▁named 1
▁previous 1
▁products 1
▁allowed 1
▁London 1
▁built 1
▁huge 1
▁drive 1
▁match 1
▁website 1
▁25 1
based 1
▁Park 1
▁step 1
▁allow 1
▁red 1
▁administration 1
▁whose 1
▁Well 1
▁helped 1
▁pick 1
▁certain 1
▁guy 1
▁round 1
▁ended 1
▁Center 1
▁states 1
▁simply 1
▁F 1
▁production 1
▁sales 1
▁50 1
▁changes 1
▁European 1
▁itself 1
▁Michael 1
▁legal 1
▁region 1
▁100 1
M 1
▁attention 1
▁opportunity 1
▁sign 1
▁leading 1
▁giving 1
▁looks 1
▁takes 1
▁feet 1
▁events 1
▁lower 1
▁created 1
▁Day 1
▁followed 1
▁teams 1
He 1
▁view 1
E 1
▁various 1
▁hour 1
K 1
▁evidence 1
▁bill 1
▁moving 1
▁groups 1
▁alone 1
▁finished 1
▁sometimes 1
▁un 1
▁hair 1
▁chief 1
▁cannot 1
▁Just 1
▁problems 1
▁fourth 1
▁passed 1
▁movie 1
▁build 1
▁focus 1
▁! 1
▁writing 1
▁amount 1
▁immediately 1
▁stuff 1
▁rating 1
▁check 1
▁towards 1
▁medical 1
▁present 1
▁seem 1
▁test 1
▁First 1
▁ball 1
▁fell 1
▁paid 1
▁Of 1
▁cause 1
▁Inc 1
▁boy 1
▁dead 1
▁floor 1
▁star 1
▁follow 1
▁growing 1
▁ran 1
l 1
▁word 1
▁reached 1
▁stand 1
▁impact 1
▁date 1
▁officer 1
▁East 1
▁UK 1
▁brother 1
▁email 1
R 1
▁trip 1
▁works 1
▁leaders 1
▁Republican 1
▁additional 1
▁appeared 1
▁despite 1
▁response 1
▁original 1
▁force 1
▁Our 1
▁War 1
▁middle 1
?” 1
▁During 1
▁expect 1
▁Do 1
▁Russian 1
▁church 1
▁Cup 1
▁wait 1
▁football 1
▁changed 1
▁learn 1
▁terms 1
▁although 1
▁i 1
G 1
▁usually 1
▁ways 1
▁officers 1
▁reading 1
▁sold 1
▁biggest 1
▁table 1
▁voice 1
▁version 1
▁picture 1
▁Paul 1
▁raised 1
▁stage 1
▁pass 1
▁scene 1
▁college 1
▁Obama 1
▁range 1
▁stories 1
N 1
▁comment 1
▁title 1
▁walked 1
▁addition 1
▁families 1
▁Since 1
▁property 1
▁Here 1
▁center 1
▁common 1
▁workers 1
h 1
!" 1
▁cases 1
▁photo 1
▁written 1
▁safety 1
▁leaving 1
▁completely 1
▁senior 1
▁stopped 1
▁pain 1
▁straight 1
▁throughout 1
▁track 1
▁England 1
▁dog 1
▁Europe 1
▁complete 1
▁girls 1
▁Group 1
▁Congress 1
▁anti 1
▁remain 1
am 1
▁type 1
▁closed 1
▁Senate 1
▁International 1
▁born 1
▁books 1
▁character 1
▁gets 1
▁interview 1
▁loved 1
▁scored 1
▁figure 1
▁Australia 1
▁popular 1
▁write 1
▁afternoon 1
▁customers 1
▁Chinese 1
▁student 1
▁Texas 1
▁More 1
▁blood 1
▁station 1
▁pressure 1
▁economy 1
▁High 1
▁address 1
▁account 1
▁considered 1
▁education 1
▁returned 1
▁Or 1
▁firm 1
▁significant 1
▁shooting 1
▁content 1
▁reach 1
▁effort 1
▁sleep 1
▁target 1
▁beginning 1
▁nine 1
▁incident 1
▁deep 1
▁opening 1
▁served 1
▁toward 1
▁driving 1
▁40 1
▁From 1
▁Last 1
▁remains 1
▁beautiful 1
▁fine 1
▁provided 1
▁blog 1
▁capital 1
▁success 1
▁24 1
▁upon 1
▁conference 1
▁increased 1
▁daily 1
▁population 1
▁haven 1
▁includes 1
▁answer 1
▁sort 1
▁waiting 1
▁described 1
▁charge 1
▁sound 1
▁gas 1
▁foreign 1
▁league 1
p 1
▁spend 1
▁seeing 1
▁source 1
▁L 1
▁via 1
▁design 1
▁serious 1
▁French 1
▁mom 1
▁manager 1
▁sister 1
co 1
▁song 1
▁guys 1
▁fast 1
▁term 1
▁evening 1
▁? 1
▁practice 1
▁sexual 1
▁perfect 1
▁Press 1
z 1
▁ability 1
x 1
▁signed 1
& 1
▁largest 1
▁compared 1
▁details 1
▁bank 1
▁receive 1
▁pulled 1
▁vehicle 1
▁article 1
▁add 1
▁miles 1
▁arrested 1
▁Council 1
▁nation 1
▁exactly 1
▁executive 1
▁charges 1
▁safe 1
day 1
▁model 1
▁Two 1
▁arrived 1
▁pre 1
▁efforts 1
▁General 1
▁size 1
▁message 1
▁victory 1
▁Korea 1
able 1
▁product 1
▁press 1
▁runs 1
no 1
▁positive 1
▁drug 1
▁sitting 1
▁Los 1
▁simple 1
▁costs 1
▁dark 1
▁cover 1
▁watching 1
▁paper 1
▁2015 1
▁George 1
▁hot 1
▁travel 1
▁goals 1
▁e 1
▁Google 1
▁Florida 1
▁learned 1
▁sat 1
▁investment 1
▁posted 1
▁related 1
▁eventually 1
▁19 1
▁shared 1
5 1
▁particularly 1
▁band 1
▁H 1
▁letter 1
b 1
▁regular 1
▁base 1
▁failed 1
▁spot 1
▁wall 1
▁Co 1
▁treatment 1
▁effect 1
▁piece 1
▁particular 1
▁caught 1
▁quality 1
▁extra 1
▁rules 1
▁agency 1
▁De 1
▁Smith 1
▁street 1
▁schools 1
▁cold 1
ness 1
▁21 1
▁residents 1
it 1
▁bought 1
▁previously 1
▁begin 1
▁eat 1
▁features 1
▁act 1
▁Most 1
▁border 1
▁revenue 1
F 1
▁forced 1
▁English 1
▁required 1
▁users 1
▁Bank 1
▁onto 1
▁joined 1
▁contact 1
▁accused 1
▁beyond 1
There 1
▁calls 1
▁certainly 1
▁sit 1
▁Don 1
▁herself 1
of 1
9 1
▁jobs 1
▁multiple 1
▁married 1
▁eye 1
▁parts 1
▁issued 1
▁prices 1
▁holding 1
▁material 1
▁speak 1
▁contract 1
▁enjoy 1
▁winning 1
▁annual 1
▁demand 1
▁offered 1
▁favorite 1
▁management 1
▁charged 1
▁agreed 1
▁Red 1
▁Indian 1
▁conditions 1
▁authorities 1
▁overall 1
▁driver 1
▁King 1
▁district 1
▁meant 1
▁numbers 1
▁note 1
▁forces 1
▁spending 1
▁guess 1
▁aren 1
▁sex 1
▁Party 1
▁network 1
▁Democratic 1
▁Union 1
▁gun 1
8 1
▁yesterday 1
▁natural 1
▁box 1
▁lack 1
▁Although 1
▁hearing 1
▁beat 1
▁People 1
▁interesting 1
▁search 1
▁weather 1
▁older 1
▁La 1
▁art 1
If 1
▁page 1
▁album 1
▁claims 1
▁Al 1
▁cash 1
▁save 1
▁minister 1
▁approach 1
▁Angeles 1
▁Many 1
▁choice 1
▁lived 1
▁# 1
us 1
▁revealed 1
▁agreement 1
▁Why 1
▁levels 1
▁Road 1
▁spoke 1
▁Mark 1
▁calling 1
▁Today 1
▁budget 1
▁wide 1
▁challenge 1
le 1
▁Also 1
▁comments 1
is 1
▁violence 1
▁caused 1
7 1
▁individual 1
▁double 1
▁located 1
▁review 1
▁majority 1
▁fear 1
▁Like 1
6 1
▁dinner 1
as 1
▁walking 1
▁defense 1
In 1
▁France 1
▁investors 1
▁missing 1
▁trial 1
▁asking 1
▁Another 1
▁Black 1
▁sell 1
▁grow 1
J 1
▁movement 1
▁department 1
▁adding 1
▁Democrats 1
▁German 1
▁ensure 1
▁consider 1
▁projects 1
▁W 1
▁telling 1
▁card 1
▁blue 1
▁Mike 1
▁claimed 1
▁District 1
▁confirmed 1
▁Apple 1
▁quick 1
f 1
▁window 1
▁organization 1
▁injury 1
▁employees 1
▁Because 1
▁Times 1
▁pair 1
▁poor 1
▁income 1
▁Clinton 1
▁managed 1
▁mostly 1
▁noted 1
▁mid 1
▁boys 1
▁yourself 1
▁thousands 1
▁normal 1
▁Bill 1
▁dropped 1
▁competition 1
▁excited 1
▁patients 1
▁places 1
▁judge 1
▁College 1
▁knows 1
▁stood 1
▁reality 1
▁park 1
▁designed 1
▁basis 1
▁amazing 1
ie 1
▁seat 1
▁weight 1
L 1
▁perhaps 1
▁language 1
▁protect 1
▁cancer 1
▁construction 1
▁2019 1
They 1
▁clean 1
▁credit 1
▁computer 1
▁successful 1
term 1
▁minute 1
▁Yes 1
▁Chicago 1
▁Office 1
▁send 1
▁Americans 1
▁finish 1
▁Both 1
▁attempt 1
▁battle 1
▁putting 1
▁whatever 1
▁prison 1
▁damage 1
O 1
▁Africa 1
▁picked 1
▁placed 1
▁yards 1
▁Canadian 1
▁2014 1
▁hurt 1
▁cars 1
▁V 1
▁directly 1
▁north 1
▁businesses 1
▁rise 1
▁Once 1
▁Johnson 1
▁concerns 1
What 1
▁definitely 1
▁app 1
▁Chris 1
▁fully 1
▁Health 1
▁Japan 1
▁wish 1
▁bar 1
▁speed 1
▁female 1
▁avoid 1
▁Germany 1
▁host 1
▁green 1
▁Man 1
▁systems 1
▁planned 1
▁standing 1
▁join 1
▁Robert 1
▁crime 1
▁1, 1
▁sports 1
▁rates 1
▁believed 1
▁central 1
▁traffic 1
▁Association 1
▁Act 1
▁century 1
u 1
▁planning 1
▁improve 1
▁funding 1
▁heavy 1
▁Israel 1
▁lose 1
▁committee 1
▁developed 1
▁culture 1
▁subject 1
▁net 1
▁appear 1
▁@ 1
▁limited 1
▁Photo 1
▁Bay 1
ton 1
▁difference 1
▁funds 1
▁Chief 1
▁train 1
▁22 1
▁Justice 1
▁Let 1
son 1
▁Tom 1
▁claim 1
▁activities 1
▁gold 1
▁provides 1
▁ten 1
▁cool 1
▁Jones 1
▁physical 1
▁pictures 1
▁fit 1
▁EU 1
▁River 1
▁serve 1
▁professional 1
▁doctor 1
▁highest 1
▁image 1
▁learning 1
▁ride 1
▁reasons 1
nd 1
▁Mexico 1
▁television 1
▁specific 1
▁supposed 1
▁Committee 1
▁ice 1
▁bus 1
0 1
na 1
▁operations 1
▁offers 1
▁push 1
▁Brown 1
▁Other 1
▁drop 1
▁brand 1
▁sale 1
▁missed 1
▁truth 1
▁block 1
▁$1 1
▁gives 1
▁X 1
▁feature 1
▁analysts 1
▁continues 1
▁wearing 1
▁society 1
▁helping 1
▁bottom 1
▁easily 1
▁appears 1
ism 1
de 1
▁launched 1
▁murder 1
▁nature 1
▁environment 1
▁necessary 1
▁sector 1
▁watched 1
▁Thomas 1
▁Prime 1
▁camera 1
▁decades 1
▁please 1
▁Britain 1
▁mentioned 1
▁arms 1
ist 1
▁brain 1
▁speech 1
▁Hall 1
▁showing 1
That 1
W 1
▁grew 1
▁Maybe 1
▁explained 1
▁African 1
▁debt 1
▁ones 1
out 1
one 1
▁victims 1
▁south 1
▁becoming 1
▁criminal 1
▁Scott 1
▁broke 1
▁parties 1
▁23 1
▁style 1
▁Government 1
▁Central 1
▁Commission 1
ar 1
▁60 1
▁Air 1
– 1
▁fighting 1
▁tree 1
▁dad 1
▁worse 1
▁attacks 1
▁platform 1
▁conversation 1
▁Q 1
▁Western 1
▁traditional 1
▁threat 1
▁powerful 1
▁modern 1
▁happens 1
▁activity 1
▁CEO 1
▁Oh 1
▁peace 1
▁talked 1
▁Republicans 1
▁Big 1
▁programs 1
ley 1
▁owner 1
▁Those 1
ic 1
▁Church 1
▁items 1
▁option 1
▁produced 1
▁raise 1
▁Green 1
▁NFL 1
▁(@ 1
▁victim 1
▁finding 1
▁Me 1
▁digital 1
▁sites 1
▁twice 1
▁device 1
▁partner 1
▁candidate 1
▁trust 1
▁score 1
▁crisis 1
by 1
▁carry 1
▁interested 1
▁lines 1
▁hotel 1
▁Amazon 1
▁earnings 1
▁nuclear 1
▁wonderful 1
▁crowd 1
▁Post 1
▁al 1
▁keeping 1
▁Jan 1
▁condition 1
▁whom 1
less 1
▁rule 1
▁losing 1
▁direction 1
▁Christian 1
el 1
▁climate 1
▁Iran 1
▁Martin 1
▁highly 1
▁alleged 1
▁covered 1
▁cross 1
▁Despite 1
▁cities 1
▁truly 1
▁benefit 1
▁shown 1
▁options 1
▁Their 1
▁corner 1
▁clearly 1
▁voters 1
▁rain 1
▁filed 1
▁launch 1
▁leadership 1
▁council 1
▁closer 1
▁tough 1
▁miss 1
▁Your 1
▁active 1
▁actions 1
at 1
▁markets 1
_ 1
▁location 1
▁presidential 1
▁benefits 1
▁discovered 1
▁dream 1
▁choose 1
▁path 1
▁slow 1
▁photos 1
▁Australian 1
▁snow 1
▁talks 1
But 1
▁arm 1
▁screen 1
▁commercial 1
▁larger 1
▁responsible 1
▁2018. 1
▁realized 1
▁headed 1
▁kill 1
▁Peter 1
▁Ben 1
▁dollars 1
▁completed 1
▁cast 1
ia 1
▁injured 1
▁scheduled 1
▁spring 1
pm 1
▁remained 1
▁skin 1
▁starts 1
▁tour 1
▁communities 1
▁standard 1
▁Star 1
▁Sam 1
▁Kim 1
▁Can 1
▁Super 1
▁sources 1
▁characters 1
▁Over 1
▁Hill 1
▁request 1
▁mouth 1
▁proposed 1
▁Williams 1
▁Joe 1
▁birth 1
▁camp 1
▁names 1
▁Ryan 1
▁carried 1
▁author 1
▁primary 1
▁setting 1
▁laws 1
▁color 1
▁suggested 1
▁hadn 1
▁2017. 1
▁ex 1
off 1
ling 1
▁science 1
▁plant 1
▁hoping 1
▁Company 1
▁opposition 1
▁vehicles 1
▁fan 1
▁wind 1
▁Go 1
▁worst 1
No 1
rs 1
▁fair 1
▁committed 1
▁attorney 1
▁Lake 1
▁tomorrow 1
▁hasn 1
▁section 1
▁opportunities 1
▁concerned 1
▁spokesman 1
▁code 1
▁analysis 1
▁advantage 1
▁Jack 1
land 1
▁disease 1
V 1
▁pull 1
▁direct 1
▁stated 1
▁abuse 1
▁established 1
▁status 1
▁touch 1
▁guilty 1
▁sea 1
▁pro 1
▁flight 1
▁feels 1
▁agree 1
▁knowledge 1
we 1
▁unique 1
▁village 1
▁winter 1
▁slightly 1
▁independent 1
▁Instead 1
▁busy 1
▁insurance 1
▁resources 1
▁individuals 1
▁teacher 1
▁records 1
▁mine 1
▁progress 1
▁etc 1
▁Research 1
▁super 1
▁Service 1
la 1
▁shop 1
▁2013 1
▁easier 1
▁Carolina 1
▁healthy 1
▁homes 1
▁unit 1
▁focused 1
▁Lee 1
ta 1
H 1
▁* 1
▁2017, 1
▁Re 1
▁emergency 1
▁radio 1
▁surprise 1
▁spread 1
▁injuries 1
▁kid 1
▁seeking 1
▁26 1
▁filled 1
▁supply 1
▁respect 1
▁sun 1
▁broken 1
▁Daily 1
▁prior 1
▁marriage 1
▁critical 1
▁foot 1
▁27 1
▁separate 1
▁mobile 1
▁elections 1
▁28 1
▁operating 1
▁Before 1
▁weren 1
▁catch 1
▁politics 1
▁aware 1
▁0 1
▁warm 1
▁mission 1
▁fund 1
Y 1
▁steps 1
▁coffee 1
▁policies 1
▁2012 1
for 1
▁prevent 1
▁massive 1
▁truck 1
▁identified 1
▁birthday 1
▁episode 1
▁kitchen 1
▁happening 1
▁Syria 1
▁noticed 1
▁Associated 1
▁intelligence 1
▁plays 1
▁assault 1
▁restaurant 1
▁tournament 1
▁software 1
▁rose 1
▁presence 1
▁/ 1
▁centre 1
▁ordered 1
▁El 1
▁reduce 1
▁entered 1
▁equipment 1
▁2016, 1
▁audience 1
un 1
▁suspect 1
▁Great 1
▁Army 1
▁killing 1
▁weapons 1
▁Secretary 1
▁trouble 1
▁bag 1
▁creating 1
▁fellow 1
▁ideas 1
▁doubt 1
▁devices 1
▁Jesus 1
▁housing 1
▁thanks 1
▁Supreme 1
▁tells 1
▁greater 1
▁fresh 1
▁male 1
▁Club 1
▁mental 1
▁session 1
▁decide 1
▁hundreds 1
▁hate 1
like 1
▁Who 1
▁offering 1
ra 1
▁smaller 1
▁Pakistan 1
▁Virginia 1
▁strategy 1
▁extremely 1
▁Will 1
▁Island 1
▁lunch 1
▁allows 1
▁Lord 1
▁strength 1
▁recorded 1
▁develop 1
▁animals 1
▁Mary 1
▁William 1
▁facing 1
U 1
▁rock 1
▁providing 1
▁concern 1
▁Ms 1
▁introduced 1
▁notice 1
▁owned 1
rd 1
▁allegations 1
▁drugs 1
▁removed 1
▁Valley 1
▁seconds 1
X 1
ma 1
▁decade 1
▁complex 1
▁Paris 1
▁crazy 1
▁ship 1
▁suffered 1
( 1
▁ban 1
ity 1
▁winner 1
▁ratio 1
▁display 1
▁meaning 1
▁clothes 1
▁text 1
▁wear 1
▁Board 1
▁degree 1
▁eating 1
▁Be 1
▁wonder 1
▁Ohio 1
▁guard 1
▁civil 1
▁internet 1
▁fifth 1
▁prepared 1
▁Steve 1
▁proud 1
▁Institute 1
▁Security 1
▁produce 1
▁yes 1
▁elected 1
▁tonight 1
▁draw 1
▁exchange 1
▁smile 1
▁machine 1
▁enjoyed 1
▁Pro 1
▁fired 1
ry 1
▁worry 1
▁allowing 1
And 1
do 1
▁explain 1
▁willing 1
▁journey 1
▁debate 1
▁Boston 1
▁Meanwhile 1
▁appearance 1
▁remaining 1
▁effects 1
▁heat 1
▁die 1
▁Asia 1
▁influence 1
▁Year 1
▁Public 1
▁measures 1
▁la 1
▁purchase 1
▁plenty 1
▁skills 1
▁dogs 1
▁Director 1
▁except 1
▁drink 1
▁dangerous 1
▁Toronto 1
:// 1
▁speaking 1
▁younger 1
▁domestic 1
▁memory 1
▁trading 1
▁Jackson 1
▁bringing 1
▁Matt 1
▁documents 1
!” 1
ne 1
te 1
▁bigger 1
▁apartment 1
▁earned 1
▁user 1
▁realize 1
▁Richard 1
▁citizens 1
▁dollar 1
▁require 1
▁religious 1
da 1
▁file 1
▁negative 1
▁coverage 1
My 1
▁struck 1
▁crash 1
▁application 1
▁pushed 1
▁legislation 1
▁sweet 1
line 1
▁initial 1
”. 1
▁generally 1
▁justice 1
▁measure 1
▁Fox 1
▁draft 1
▁2018, 1
▁sick 1
▁actual 1
▁illegal 1
▁lots 1
▁increasing 1
▁understanding 1
▁Federal 1
▁sides 1
▁debut 1
▁hopes 1
▁thank 1
▁surprised 1
So 1
▁approved 1
▁imagine 1
▁effective 1
be 1
▁surgery 1
▁owners 1
v 1
▁Still 1
▁operation 1
▁leg 1
▁affected 1
▁accept 1
▁county 1
▁lawyer 1
▁opinion 1
▁holiday 1
▁species 1
▁nearby 1
▁selling 1
▁chair 1
When 1
▁solution 1
▁mass 1
▁broadcast 1
▁2011 1
▁responded 1
▁existing 1
▁glass 1
▁Every 1
▁collection 1
▁signs 1
▁pieces 1
▁stayed 1
▁occurred 1
▁enforcement 1
▁balance 1
▁trees 1
▁buying 1
▁respond 1
▁Thank 1
▁edge 1
▁Korean 1
▁connection 1
▁approximately 1
▁storm 1
▁29 1
led 1
▁slowly 1
▁secret 1
▁shut 1
▁writer 1
▁gain 1
▁paying 1
▁absolutely 1
▁2010 1
▁Le 1
▁university 1
▁drove 1
▁changing 1
▁studies 1
▁Finally 1
▁purpose 1
▁facility 1
▁500 1
▁FBI 1
▁figures 1
▁discuss 1
▁possibly 1
▁believes 1
▁Good 1
▁throw 1
▁en 1
▁anyway 1
▁wedding 1
he 1
▁stores 1
▁stars 1
▁attended 1
▁Saudi 1
▁denied 1
▁originally 1
▁Get 1
▁turning 1
▁candidates 1
▁thoughts 1
▁gift 1
▁refused 1
▁Andrew 1
▁Foundation 1
▁faith 1
▁decisions 1
▁capacity 1
▁Under 1
▁estimated 1
▁fish 1
▁award 1
▁70 1
▁challenges 1
▁confidence 1
▁arrest 1
▁mark 1
▁familiar 1
▁faces 1
▁island 1
▁Home 1
▁Japanese 1
▁customer 1
▁shopping 1
▁forget 1
▁Michigan 1
▁knowing 1
▁animal 1
ch 1
▁declined 1
▁nor 1
▁Sen 1
▁cell 1
▁Life 1
▁presented 1
▁shots 1
▁songs 1
▁totally 1
▁moments 1
▁count 1
▁pointed 1
▁leaves 1
▁sounds 1
back 1
▁basic 1
▁determined 1
▁apparently 1
▁handle 1
▁Sports 1
▁enter 1
▁legs 1
ation 1
▁distance 1
▁supported 1
▁turns 1
▁Ireland 1
▁2016. 1
▁immigration 1
▁funny 1
▁advice 1
▁reportedly 1
men 1
▁II 1
▁expressed 1
▁famous 1
▁link 1
w 1
▁associated 1
▁sad 1
▁banks 1
▁crew 1
▁experienced 1
▁Fire 1
▁none 1
▁reporters 1
▁cards 1
▁90 1
▁Jim 1
▁serving 1
▁Earth 1
▁Please 1
▁fuel 1
▁infrastructure 1
▁plane 1
▁unable 1
▁regional 1
▁gotten 1
▁worried 1
▁structure 1
▁quiet 1
▁route 1
▁Grand 1
▁behavior 1
ian 1
▁Alex 1
ville 1
▁admitted 1
▁Open 1
▁Game 1
▁largely 1
▁rising 1
▁generation 1
▁liked 1
▁parking 1
▁agencies 1
▁listen 1
ion 1
▁suddenly 1
all 1
▁researchers 1
▁east 1
▁passing 1
▁usual 1
▁defensive 1
▁views 1
▁Z 1
▁variety 1
▁giant 1
▁Kevin 1
▁faced 1
▁dance 1
▁wake 1
▁ruling 1
▁comfortable 1
▁uses 1
▁allegedly 1
▁Instagram 1
▁ongoing 1
▁pool 1
▁smart 1
▁obviously 1
▁tired 1
▁cookies 1
▁200 1
▁streets 1
▁Three 1
▁west 1
▁accounts 1
▁strike 1
▁mention 1
▁surface 1
▁Yet 1
▁aircraft 1
She 1
▁regarding 1
▁Royal 1
ner 1
▁seek 1
▁plus 1
▁treated 1
▁governor 1
▁reserved 1
▁counter 1
▁freedom 1
▁solid 1
▁delivered 1
▁31 1
▁Sun 1
▁offensive 1
▁standards 1
▁agent 1
▁youth 1
▁Dan 1
▁units 1
▁notes 1
▁dress 1
▁anymore 1
▁considering 1
▁actor 1
▁deliver 1
▁expensive 1
ies 1
▁Centre 1
▁teachers 1
▁Love 1
▁basketball 1
▁flat 1
▁protection 1
▁responsibility 1
▁newspaper 1
▁Charles 1
▁Only 1
▁schedule 1
▁falling 1
▁experts 1
▁images 1
▁proposal 1
▁Blue 1
j 1
Z 1
▁Francisco 1
▁80 1
▁scoring 1
▁artist 1
▁warned 1
▁Dec 1
▁Management 1
▁core 1
▁professor 1
▁multi 1
▁Wall 1
▁Services 1
▁performed 1
go 1
▁patient 1
▁Prince 1
▁Each 1
▁failure 1
▁unless 1
▁becomes 1
▁attend 1
▁drivers 1
▁shape 1
▁grown 1
▁seasons 1
▁Arizona 1
▁thus 1
▁seriously 1
▁cat 1
▁types 1
ka 1
▁rare 1
▁2015, 1
▁chairman 1
▁Hospital 1
▁= 1
▁shoulder 1
▁Force 1
so 1
▁developing 1
▁receiving 1
▁champion 1
▁apart 1
▁jail 1
▁river 1
▁helps 1
ish 1
▁pace 1
▁scale 1
▁Long 1
▁testing 1
▁warning 1
▁estate 1
▁prime 1
▁Though 1
▁otherwise 1
▁Jr 1
▁accident 1
▁Harry 1
▁farm 1
field 1
▁positions 1
▁wild 1
▁About 1
▁tight 1
▁airport 1
▁zone 1
Q 1
▁taxes 1
▁tiny 1
▁combined 1
▁welcome 1
▁secure 1
not 1
▁Women 1
▁perform 1
▁initially 1
Photo 1
▁35 1
▁buildings 1
▁entirely 1
▁supporters 1
ri 1
▁web 1
▁organizations 1
▁doctors 1
▁fill 1
▁factors 1
▁Ford 1
▁remove 1
▁Middle 1
▁AP 1
▁background 1
▁alive 1
▁tied 1
▁Sea 1
▁listed 1
▁2, 1
▁corporate 1
▁Houston 1
▁Division 1
▁assets 1
▁numerous 1
▁Mom 1
▁task 1
▁announcement 1
▁stuck 1
As 1
▁Beach 1
▁division 1
▁alongside 1
▁votes 1
▁replaced 1
▁featured 1
▁split 1
▁visited 1
▁boat 1
point 1
20 1
▁sorry 1
▁Nov 1
▁exercise 1
▁sharing 1
ro 1
▁Coast 1
▁fashion 1
▁Time 1
▁classes 1
▁carrying 1
▁Bob 1
▁Mrs 1
▁army 1
▁conducted 1
▁voted 1
age 1
▁Reuters 1
▁aid 1
▁dry 1
▁conflict 1
▁afraid 1
▁acting 1
▁facilities 1
▁Islamic 1
▁intended 1
▁breaking 1
▁ring 1
▁Market 1
▁shift 1
▁engine 1
▁Davis 1
▁vision 1
▁determine 1
me 1
▁declared 1
▁adult 1
▁novel 1
▁discussion 1
▁ultimately 1
ment 1
▁somewhere 1
▁province 1
▁seats 1
▁lawsuit 1
▁relatively 1
▁update 1
▁prove 1
▁suit 1
▁tools 1
▁Santa 1
▁Southern 1
▁directed 1
▁extended 1
▁glad 1
▁transfer 1
▁possibility 1
ty 1
▁formed 1
▁limit 1
▁appeal 1
▁Italy 1
▁bodies 1
▁southern 1
▁plants 1
▁Adam 1
▁Kelly 1
▁Taylor 1
▁hits 1
▁reduced 1
▁bike 1
▁Copyright 1
▁Sometimes 1
▁flow 1
▁panel 1
▁sought 1
▁Jeff 1
▁Northern 1
▁threw 1
▁soldiers 1
▁bid 1
▁beach 1
▁conservative 1
▁therefore 1
▁Bush 1
▁ourselves 1
▁accepted 1
▁stands 1
▁Italian 1
ting 1
▁survey 1
▁45 1
▁protest 1
▁lay 1
▁Tim 1
▁heading 1
▁THE 1
▁matches 1
▁campus 1
▁fly 1
▁strange 1
▁replace 1
▁okay 1
▁obvious 1
▁Premier 1
▁Daniel 1
end 1
▁promise 1
▁NBA 1
▁Best 1
▁2008 1
▁consumers 1
▁upcoming 1
▁struggle 1
▁millions 1
▁row 1
▁vice 1
▁sub 1
▁neighborhood 1
▁Posted 1
▁suggest 1
▁emotional 1
▁jump 1
▁connected 1
▁Muslim 1
Reuters 1
▁square 1
▁maintain 1
▁empty 1
▁neck 1
▁defeat 1
▁ending 1
▁pounds 1
▁Little 1
▁Spanish 1
▁chain 1
▁marijuana 1
▁Attorney 1
▁horse 1
way 1
▁Feb 1
▁movies 1
▁environmental 1
▁owns 1
▁Brexit 1
▁joint 1
▁expansion 1
▁y 1
▁talent 1
▁union 1
▁authority 1
▁secretary 1
▁bridge 1
▁taught 1
▁forecast 1
▁metal 1
▁Bowl 1
▁increasingly 1
▁plastic 1
▁Nick 1
▁pop 1
▁function 1
▁tech 1
▁Law 1
▁chose 1
▁sport 1
▁identify 1
▁returning 1
▁films 1
over 1
▁cap 1
born 1
▁requires 1
▁adults 1
▁traded 1
▁shouldn 1
▁faster 1
▁improved 1
▁gender 1
▁assistant 1
▁concept 1
▁quarterback 1
▁Capital 1
▁Brian 1
▁interests 1
▁relief 1
▁Back 1
▁Energy 1
▁Un 1
▁baseball 1
▁promised 1
▁championship 1
▁treat 1
▁potentially 1
ni 1
▁identity 1
▁statements 1
▁instance 1
▁manage 1
▁Georgia 1
▁Pacific 1
per 1
▁expectations 1
▁Are 1
▁appointed 1
▁impossible 1
▁consumer 1
os 1
game 1
▁northern 1
▁causing 1
▁parent 1
▁supporting 1
▁suffering 1
▁apply 1
▁Iraq 1
▁lady 1
!) 1
▁marketing 1
▁applications 1
run 1
▁Miami 1
▁Read 1
▁Manchester 1
▁achieve 1
▁brings 1
▁stepped 1
▁models 1
▁Colorado 1
▁conduct 1
▁ceremony 1
▁Jordan 1
▁profit 1
▁mix 1
▁stake 1
▁tears 1
▁hell 1
▁magazine 1
▁sentence 1
▁Internet 1
▁Team 1
long 1
▁USA 1
▁values 1
▁everybody 1
▁tests 1
▁typically 1
▁troops 1
▁retired 1
▁commitment 1
▁partners 1
est 1
▁Bar 1
▁Young 1
▁pushing 1
▁exciting 1
▁retail 1
▁anywhere 1
▁laid 1
▁beer 1
▁wine 1
▁Louis 1
▁2009 1
▁Avenue 1
▁greatest 1
▁singer 1
▁Conference 1
▁stress 1
▁desire 1
▁pic 1
▁minor 1
▁entry 1
▁valued 1
▁Media 1
▁boost 1
▁lights 1
▁Old 1
▁Thanks 1
▁breath 1
▁Global 1
▁purchased 1
▁doors 1
▁cuts 1
▁chest 1
▁Jewish 1
▁Following 1
▁stick 1
which 1
▁Jason 1
+ 1
▁Oct 1
▁Israeli 1
▁Mo 1
▁teaching 1
▁soft 1
▁experiences 1
▁Turkey 1
▁t 1
▁Rs 1
▁holds 1
▁boss 1
▁kick 1
▁grand 1
▁shoes 1
▁angry 1
▁attempted 1
▁$2 1
▁poll 1
▁surrounding 1
▁Catholic 1
ter 1
▁Y 1
▁reporting 1
▁Van 1
▁houses 1
▁bright 1
▁approval 1
▁2014, 1
▁era 1
▁contributed 1
▁upset 1
▁percentage 1
▁Wilson 1
▁lawmakers 1
▁visitors 1
▁pregnant 1
il 1
▁hole 1
▁advanced 1
▁labor 1
▁Up 1
▁Award 1
▁internal 1
▁loan 1
▁studio 1
▁coast 1
▁Joseph 1
▁armed 1
▁Judge 1
▁tend 1
▁feed 1
▁invited 1
▁flying 1
well 1
yard 1
▁industrial 1
▁Irish 1
▁Show 1
▁Zealand 1
▁waste 1
▁Society 1
▁hitting 1
▁escape 1
ized 1
▁false 1
▁drama 1
side 1
▁forever 1
▁roll 1
▁alternative 1
▁leads 1
▁rich 1
▁Queen 1
▁Right 1
▁materials 1
▁immediate 1
▁drinking 1
▁Kansas 1
▁visiting 1
▁honor 1
▁discussed 1
▁Miller 1
▁Frank 1
Oh 1
▁begins 1
▁Jersey 1
▁specifically 1
▁argued 1
▁awesome 1
▁Rep 1
▁sixth 1
▁videos 1
ca 1
house 1
▁barely 1
▁artists 1
▁affect 1
▁volume 1
▁laugh 1
▁lucky 1
▁Minnesota 1
▁struggling 1
▁advance 1
▁native 1
▁earth 1
▁appropriate 1
▁squad 1
▁electric 1
▁Vegas 1
▁Championship 1
▁feelings 1
▁stocks 1
▁relations 1
▁founded 1
▁Academy 1
month 1
▁brief 1
▁Several 1
▁officially 1
▁penalty 1
ey 1
▁Henry 1
▁publicly 1
▁basically 1
▁shortly 1
▁clients 1
se 1
▁Rose 1
but 1
▁delivery 1
▁roads 1
▁Stadium 1
▁celebrate 1
▁Eric 1
▁Rock 1
▁posts 1
▁Scotland 1
▁Business 1
▁fix 1
▁driven 1
▁reaction 1
▁closing 1
▁suggests 1
▁dealing 1
▁dedicated 1
▁technical 1
ization 1
▁BBC 1
▁creative 1
▁alcohol 1
▁ends 1
▁beauty 1
▁length 1
▁Hollywood 1
▁minimum 1
▁Art 1
▁involving 1
▁Community 1
▁harder 1
▁messages 1
▁downtown 1
* 1
▁library 1
▁Seattle 1
▁theory 1
den 1
▁bathroom 1
▁matters 1
▁breakfast 1
▁gained 1
▁attempts 1
▁correct 1
▁spirit 1
ier 1
▁returns 1
▁sending 1
▁offense 1
▁rally 1
▁closely 1
ya 1
▁meetings 1
▁opposite 1
▁trend 1
▁hundred 1
ally 1
Posted 1
▁widely 1
li 1
▁competitive 1
▁Spain 1
▁Education 1
For 1
▁somehow 1
▁reform 1
▁factor 1
▁argument 1
▁linked 1
▁garden 1
▁Asian 1
▁jumped 1
▁iPhone 1
▁voting 1
▁Ministry 1
▁continuing 1
▁cultural 1
▁2015. 1
▁Alabama 1
▁Among 1
▁package 1
▁Christ 1
▁wins 1
▁Syrian 1
▁Development 1
▁d 1
▁gay 1
▁locations 1
▁grabbed 1
▁loves 1
▁index 1
▁Republic 1
▁informed 1
▁Mar 1
▁Journal 1
▁grade 1
▁storage 1
▁agents 1
▁dividend 1
▁Nigeria 1
▁Music 1
▁Gold 1
▁pitch 1
▁Town 1
▁mixed 1
▁recovery 1
▁cells 1
▁joy 1
▁bond 1
▁sky 1
▁scientists 1
▁Free 1
▁festival 1
▁Detroit 1
▁fairly 1
▁importance 1
▁Philadelphia 1
▁walls 1
▁www 1
wood 1
▁(" 1
▁Sarah 1
ine 1
▁heavily 1
di 1
▁employee 1
▁dozen 1
▁margin 1
foot 1
▁honest 1
▁Second 1
▁Sept 1
▁aside 1
▁indeed 1
▁analyst 1
▁sight 1
▁somewhat 1
▁confident 1
▁inspired 1
▁selected 1
▁appointment 1
▁solutions 1
▁raising 1
▁defence 1
▁neither 1
▁Stephen 1
▁Games 1
▁handed 1
ko 1
▁LLC 1
▁represent 1
▁Dad 1
▁Four 1
▁memories 1
▁roughly 1
▁decline 1
▁contest 1
▁tweeted 1
▁Perhaps 1
▁UN 1
▁perspective 1
▁moves 1
▁veteran 1
▁threatened 1
▁granted 1
▁tool 1
▁impressive 1
▁acquired 1
▁m 1
▁sanctions 1
▁elements 1
▁GOP 1
▁Where 1
▁3- 1
▁duty 1
▁steel 1
▁registered 1
▁exist 1
▁significantly 1
▁van 1
▁Mayor 1
▁expand 1
ke 1
▁excellent 1
▁ruled 1
▁forms 1
▁heads 1
▁milk 1
ah 1
▁institutions 1
▁possession 1
▁Next 1
▁crimes 1
▁saved 1
▁cutting 1
▁Las 1
▁Golden 1
▁Image 1
▁deaths 1
▁opposed 1
▁Tony 1
▁awarded 1
▁semi 1
▁map 1
▁combination 1
▁Power 1
▁Mac 1
▁tie 1
▁tickets 1
▁circumstances 1
▁Sheriff 1
▁attacked 1
▁pages 1
▁Justin 1
▁wave 1
▁scheme 1
▁ticket 1
▁capable 1
▁Nations 1
▁vs 1
lin 1
▁deals 1
▁bear 1
▁risks 1
▁losses 1
▁staying 1
▁privacy 1
▁incredible 1
▁See 1
▁document 1
▁referred 1
▁criticism 1
um 1
▁severe 1
▁CBS 1
▁Financial 1
Our 1
▁32 1
▁stronger 1
▁Real 1
▁updates 1
▁chosen 1
▁Corp 1
▁stone 1
▁assistance 1
▁channel 1
▁equal 1
▁farmers 1
▁method 1
▁innings 1
▁franchise 1
Well 1
▁Microsoft 1
▁degrees 1
▁transaction 1
▁motion 1
▁reaching 1
▁represents 1
free 1
▁sleeping 1
▁brown 1
▁literally 1
▁commission 1
▁amid 1
▁proper 1
▁Which 1
▁transition 1
▁Parliament 1
twitter 1
▁smoke 1
▁encourage 1
▁orders 1
▁captain 1
▁1990 1
▁teach 1
▁mile 1
▁settled 1
▁Olympic 1
▁Dallas 1
▁historic 1
▁listening 1
▁Agency 1
▁10- 1
ir 1
▁replied 1
if 1
▁rural 1
▁silver 1
▁mainly 1
▁meal 1
▁rescue 1
▁payment 1
▁signing 1
▁Did 1
▁consensus 1
▁meat 1
▁Click 1
▁Medical 1
▁shoot 1
▁Corporation 1
▁yellow 1
▁joining 1
▁relationships 1
▁tea 1
▁Democrat 1
▁Anthony 1
▁bunch 1
▁resolution 1
▁upper 1
▁figured 1
▁Moore 1
▁Cleveland 1
▁repeatedly 1
ur 1
▁knee 1
▁captured 1
▁CNN 1
▁que 1
▁Atlanta 1
▁manner 1
▁favor 1
▁cloud 1
▁Later 1
▁shirt 1
▁humans 1
▁weird 1
▁hall 1
▁$3 1
▁fixed 1
▁musical 1
▁Series 1
▁blame 1
▁shall 1
▁Festival 1
▁destroyed 1
▁1980 1
▁trail 1
▁mistake 1
▁engaged 1
▁hoped 1
▁fiscal 1
▁client 1
▁2000 1
▁detail 1
▁fought 1
▁master 1
▁violent 1
▁Museum 1
▁deputy 1
▁planet 1
▁brothers 1
ary 1
▁battery 1
▁folks 1
▁estimates 1
▁loud 1
▁mayor 1
▁newly 1
▁properties 1
▁Android 1
▁bench 1
▁stretch 1
▁producer 1
▁practices 1
▁Top 1
▁Patrick 1
▁Ed 1
▁taste 1
▁weapon 1
▁lie 1
▁regulations 1
▁constantly 1
em 1
▁yard 1
▁historical 1
related 1
▁prepare 1
▁soul 1
▁Miss 1
▁represented 1
▁Have 1
▁ties 1
down 1
▁admit 1
▁participate 1
▁passengers 1
▁compete 1
▁di 1
▁waited 1
▁technologies 1
▁Sydney 1
▁classic 1
▁passes 1
▁smiled 1
▁threats 1
▁protests 1
▁drawn 1
▁politicians 1
NYSE 1
▁Khan 1
▁urged 1
▁readers 1
▁creation 1
▁Morgan 1
▁cry 1
▁fingers 1
▁Unfortunately 1
▁harm 1
▁deeply 1
▁partnership 1
▁promote 1
▁2007 1
▁wore 1
▁recognize 1
▁pack 1
▁phase 1
▁understood 1
▁Aug 1
▁flag 1
▁stolen 1
▁Foreign 1
▁follows 1
▁aimed 1
▁Eastern 1
▁bottle 1
▁regularly 1
") 1
▁Ontario 1
▁terrible 1
▁chances 1
▁shock 1
▁Labour 1
@ 1
org 1
▁ill 1
▁unknown 1
▁adopted 1
▁resident 1
▁cup 1
▁rejected 1
▁complaint 1
▁gathered 1
▁latter 1
▁Ali 1
10 1
▁Night 1
▁primarily 1
▁actress 1
▁Diego 1
▁summit 1
▁suicide 1
▁Josh 1
▁Earlier 1
▁) 1
▁theme 1
▁useful 1
▁stations 1
▁segment 1
▁lying 1
▁frame 1
▁(19 1
▁tall 1
▁custody 1
▁fallen 1
▁hanging 1
▁el 1
▁wood 1
▁cycle 1
▁targeted 1
▁mountain 1
▁friendly 1
▁concert 1
▁temperature 1
▁Family 1
▁woke 1
▁western 1
▁junior 1
▁fees 1
▁chicken 1
▁Gov 1
▁$5 1
▁frequently 1
▁territory 1
▁Ltd 1
don 1
▁manufacturing 1
▁dressed 1
called 1
▁struggled 1
▁targets 1
▁danger 1
▁roof 1
▁grateful 1
▁crying 1
▁investigating 1
▁calm 1
▁payments 1
▁OK 1
▁worldwide 1
▁twenty 1
▁click 1
▁2013, 1
▁afford 1
▁convicted 1
▁Former 1
▁Take 1
ha 1
▁cute 1
▁solar 1
▁Watch 1
▁everywhere 1
▁suspended 1
▁recognized 1
▁firms 1
▁sets 1
▁finance 1
▁distribution 1
▁Science 1
▁lovely 1
▁portion 1
▁Pennsylvania 1
▁letters 1
▁sugar 1
▁Social 1
▁drew 1
law 1
▁Putin 1
▁wanting 1
American 1
▁proved 1
ge 1
▁comfort 1
▁Images 1
▁v 1
▁bedroom 1
▁ministry 1
▁guide 1
▁programme 1
▁letting 1
▁lies 1
▁participants 1
▁hired 1
▁currency 1
et 1
▁communication 1
▁entering 1
▁anniversary 1
▁corruption 1
▁beating 1
▁riding 1
▁founder 1
▁copy 1
▁appreciate 1
▁pattern 1
▁Human 1
▁Anderson 1
▁o 1
▁applied 1
▁editor 1
▁guns 1
▁unlikely 1
ler 1
▁Tennessee 1
▁fake 1
▁scared 1
▁permanent 1
▁perfectly 1
uk 1
▁Illinois 1
▁bills 1
▁Project 1
▁necessarily 1
▁Speaking 1
▁Lewis 1
▁gap 1
▁Hillary 1
▁colleagues 1
▁covering 1
▁Executive 1
▁Moscow 1
▁https 1
▁tackle 1
▁$10 1
▁Sanders 1
▁3, 1
▁Navy 1
▁Assembly 1
▁babies 1
round 1
▁acts 1
▁retirement 1
▁vast 1
▁PM 1
▁jury 1
▁answers 1
▁command 1
▁Elizabeth 1
▁expert 1
▁thinks 1
▁consecutive 1
▁noise 1
▁selection 1
id 1
▁transport 1
▁earn 1
▁button 1
▁cream 1
▁plate 1
right 1
▁Governor 1
▁dating 1
▁resulted 1
▁collected 1
▁Football 1
▁Water 1
▁Allen 1
▁Officer 1
▁personnel 1
▁reference 1
▁marked 1
▁license 1
▁windows 1
To 1
▁equity 1
▁stomach 1
▁causes 1
▁investigators 1
▁essential 1
▁rolled 1
▁paint 1
▁nations 1
▁requirements 1
▁Having 1
▁weak 1
▁defeated 1
▁negotiations 1
▁constant 1
▁describe 1
ful 1
▁x 1
▁extreme 1
▁luck 1
▁carbon 1
▁counts 1
▁properly 1
▁con 1
▁recording 1
▁bags 1
▁Disney 1
▁suspected 1
▁Rights 1
▁powers 1
▁Iowa 1
▁evil 1
▁Yeah 1
▁lifted 1
▁effectively 1
▁300 1
▁nose 1
▁blow 1
▁tweet 1
▁approached 1
▁anger 1
▁emerged 1
▁regime 1
▁estimate 1
▁Afghanistan 1
▁religion 1
▁increases 1
▁zero 1
▁Lady 1
▁checked 1
▁1970 1
▁remembered 1
▁magic 1
▁guest 1
▁Everyone 1
▁somebody 1
▁respectively 1
▁Special 1
▁pilot 1
▁category 1
▁Dave 1
▁desk 1
▁fraud 1
▁immigrants 1
▁Brazil 1
▁Week 1
▁Vice 1
ja 1
con 1
▁entertainment 1
▁fat 1
io 1
▁fewer 1
▁guests 1
▁newsletter 1
▁locked 1
▁laughed 1
▁topic 1
▁Car 1
▁Out 1
▁port 1
▁organized 1
▁portfolio 1
▁mess 1
▁MP 1
▁coal 1
▁Columbia 1
more 1
▁Plus 1
▁+ 1
▁survive 1
my 1
▁exact 1
▁Trust 1
▁c 1
▁settlement 1
▁Mueller 1
▁obtained 1
▁Men 1
▁Singapore 1
▁hang 1
▁arrive 1
ul 1
▁combat 1
▁enjoying 1
▁tracks 1
▁Network 1
mer 1
▁passenger 1
▁NBC 1
▁wondering 1
▁36 1
▁permission 1
▁prosecutors 1
▁unusual 1
▁pulling 1
▁sentenced 1
▁Ten 1
▁pleased 1
▁operate 1
▁behalf 1
▁inches 1
▁clothing 1
▁Bell 1
▁ABC 1
▁findings 1
); 1
▁drawing 1
▁2019. 1
izing 1
that 1
▁witness 1
▁tradition 1
▁incredibly 1
ina 1
▁normally 1
▁Port 1
▁Chelsea 1
▁maximum 1
▁rear 1
▁backed 1
▁400 1
▁object 1
▁electricity 1
▁supplies 1
▁prominent 1
▁forest 1
▁2014. 1
▁nobody 1
▁Max 1
▁expecting 1
▁keeps 1
▁Ken 1
▁detailed 1
▁Delhi 1
▁awareness 1
▁2012, 1
▁exposed 1
▁answered 1
▁dreams 1
▁Kingdom 1
▁Fund 1
▁YouTube 1
▁assists 1
▁finger 1
▁context 1
▁Beijing 1
▁Arabia 1
▁failing 1
▁gonna 1
▁fee 1
▁stable 1
▁coalition 1
▁outcome 1
▁Austin 1
▁rival 1
car 1
▁claiming 1
▁relevant 1
▁consistent 1
▁33 1
▁childhood 1
▁Per 1
▁reflect 1
▁Simon 1
Star 1
▁adds 1
▁thrown 1
ate 1
▁Victoria 1
▁switch 1
▁expression 1
sen 1
▁silence 1
▁challenging 1
▁assist 1
era 1
lo 1
▁tries 1
▁typical 1
▁consequences 1
▁Live 1
▁lawyers 1
▁governments 1
hour 1
▁throwing 1
sa 1
▁agenda 1
▁singing 1
▁encouraged 1
▁Di 1
▁covers 1
▁choices 1
▁Harris 1
▁employment 1
▁plot 1
▁exit 1
▁shower 1
▁trained 1
▁races 1
▁asks 1
▁2006 1
▁concluded 1
▁Sir 1
▁Children 1
 1
▁| 1
ous 1
▁tested 1
▁allies 1
▁argue 1
▁reveal 1
▁mode 1
▁hosted 1
▁contrast 1
▁rough 1
▁reputation 1
▁priority 1
▁seventh 1
▁protected 1
▁defend 1
▁cake 1
▁Local 1
▁Jose 1
▁Anyway 1
head 1
▁65 1
▁controversial 1
▁pink 1
▁teeth 1
All 1
▁Bo 1
▁playoff 1
▁Ross 1
▁rooms 1
▁regions 1
level 1
▁MORE 1
▁Kong 1
▁boyfriend 1
▁featuring 1
ted 1
▁Jay 1
▁differences 1
▁Ray 1
▁Oklahoma 1
▁tip 1
▁initiative 1
▁eastern 1
▁urban 1
▁dozens 1
▁rape 1
▁foundation 1
▁extent 1
▁Hong 1
▁streak 1
▁personally 1
▁footage 1
▁stream 1
▁sharp 1
▁Mexican 1
▁Fort 1
▁weekly 1
▁apps 1
▁contains 1
▁Radio 1
kin 1
▁nurse 1
▁hat 1
▁temporary 1
▁roster 1
▁disaster 1
▁Liverpool 1
mo 1
▁scientific 1
▁odd 1
▁rebounds 1
▁ranked 1
you 1
▁critics 1
▁valuable 1
▁print 1
▁broad 1
▁49 1
▁Was 1
▁48 1
▁Oregon 1
▁hardly 1
▁f 1
▁Ma 1
ana 1
▁lift 1
▁improvement 1
▁Wisconsin 1
▁34 1
▁ancient 1
▁b 1
▁PC 1
▁clubs 1
class 1
▁investigate 1
▁cleaning 1
▁auto 1
How 1
▁temperatures 1
ise 1
ive 1
▁chocolate 1
q 1
▁academic 1
ol 1
▁carefully 1
▁4, 1
▁nervous 1
▁kinds 1
▁controlled 1
▁ear 1
▁Again 1
▁NHL 1
▁hide 1
ek 1
▁performing 1
▁blocks 1
wa 1
▁Highway 1
▁Any 1
▁profile 1
▁intense 1
▁chemical 1
▁cameras 1
▁opponents 1
▁stupid 1
▁fruit 1
ists 1
▁crucial 1
▁Hi 1
▁1960 1
▁filing 1
▁unclear 1
▁Roman 1
▁Such 1
▁mood 1
▁roles 1
ad 1
▁charity 1
▁routine 1
▁girlfriend 1
▁Netflix 1
▁arrival 1
TV 1
▁Walker 1
▁therapy 1
▁strongly 1
▁Li 1
▁relative 1
▁asleep 1
▁explains 1
▁strategic 1
▁worker 1
▁Singh 1
▁sees 1
▁Sky 1
▁Tour 1
▁insisted 1
▁Olympics 1
▁Food 1
▁vulnerable 1
▁picking 1
ce 1
▁Bridge 1
▁successfully 1
▁thick 1
▁terrorist 1
▁grab 1
▁Rob 1
▁hopefully 1
▁Senator 1
▁inflation 1
▁illness 1
▁birds 1
▁cited 1
▁scenes 1
▁aggressive 1
▁painting 1
▁Investment 1
▁aim 1
▁crossed 1
▁enemy 1
▁prize 1
▁essentially 1
▁fields 1
▁Care 1
▁preparing 1
40 1
▁loans 1
▁racing 1
▁moon 1
▁shit 1
▁finishing 1
▁inning 1
▁studied 1
▁transportation 1
▁survived 1
▁monthly 1
▁emails 1
▁soccer 1
▁hidden 1
▁resulting 1
her 1
star 1
▁Rick 1
▁goods 1
▁opponent 1
▁2011, 1
▁error 1
▁Matthew 1
▁achieved 1
▁phones 1
ised 1
▁Kentucky 1
▁fantastic 1
▁indicated 1
ant 1
▁Clark 1
▁Station 1
[ 1
▁edition 1
▁pray 1
ford 1
▁rarely 1
▁Ho 1
▁Indiana 1
▁advertising 1
▁monitor 1
▁appearances 1
▁Chairman 1
▁landed 1
au 1
▁reporter 1
▁till 1
▁aged 1
▁chapter 1
▁s 1
▁begun 1
▁methods 1
▁lake 1
▁medicine 1
▁explore 1
with 1
▁quit 1
ron 1
▁guidance 1
▁golf 1
▁packed 1
▁household 1
▁fail 1
▁headquarters 1
▁collect 1
va 1
▁cheap 1
▁recall 1
▁engineering 1
▁links 1
▁recommend 1
▁Administration 1
minute 1
▁Pat 1
▁: 1
▁select 1
-1 1
▁Utah 1
ba 1
▁museum 1
Do 1
▁activists 1
▁contain 1
▁spotted 1
▁capture 1
▁demands 1
▁convinced 1
▁connect 1
▁sudden 1
▁Awards 1
▁communications 1
ov 1
▁occur 1
▁Five 1
▁journalists 1
▁remarks 1
▁Defense 1
▁situations 1
▁se 1
▁flowers 1
bo 1
▁Alexander 1
▁awards 1
▁6, 1
▁wealth 1
▁entrance 1
▁Missouri 1
▁parliament 1
▁spoken 1
▁king 1
▁Civil 1
▁pregnancy 1
▁Major 1
▁spokeswoman 1
▁Head 1
▁Con 1
im 1
▁democracy 1
▁ease 1
▁Airport 1
high 1
▁kicked 1
▁Without 1
▁serves 1
▁assigned 1
▁coaches 1
▁pleaded 1
▁replacement 1
▁recommended 1
▁existence 1
▁representative 1
▁download 1
▁athletes 1
▁!! 1
▁expanded 1
▁Wales 1
▁attached 1
▁formal 1
▁En 1
▁branch 1
▁hockey 1
▁tone 1
▁Picture 1
▁Vancouver 1
▁Land 1
▁Mountain 1
▁purposes 1
▁bomb 1
▁Kate 1
▁absence 1
▁elsewhere 1
▁finds 1
▁spokesperson 1
▁searching 1
▁conversations 1
▁smell 1
▁ratings 1
▁Cross 1
▁grant 1
sh 1
▁cheese 1
ize 1
▁aspects 1
▁Thompson 1
▁poverty 1
▁Windows 1
▁Hamilton 1
▁$4 1
▁belief 1
▁traveling 1
▁Jon 1
▁recognition 1
▁restaurants 1
▁Father 1
▁extensive 1
▁scandal 1
▁pet 1
▁touchdown 1
▁representing 1
▁investments 1
▁requests 1
▁thousand 1
▁rush 1
week 1
▁Greek 1
▁7, 1
▁diet 1
▁marks 1
▁Senior 1
▁random 1
▁caption 1
▁networks 1
▁extension 1
▁improving 1
▁Gary 1
▁comedy 1
▁pants 1
▁engage 1
▁1,000 1
▁IT 1
▁limits 1
town 1
▁km 1
▁gang 1
▁delay 1
▁thin 1
▁eggs 1
▁75 1
▁sand 1
▁refugees 1
▁laughing 1
▁Aaron 1
▁symptoms 1
▁funeral 1
▁wondered 1
▁Arab 1
▁enable 1
▁express 1
▁Maryland 1
▁titles 1
▁Turkish 1
wing 1
▁150 1
pa 1
▁Massachusetts 1
▁ocean 1
▁lowest 1
▁Check 1
▁journalist 1
▁wing 1
ak 1
▁updated 1
▁loose 1
▁blocked 1
▁Am 1
30 1
op 1
▁complaints 1
▁Charlie 1
Yes 1
▁tank 1
▁oldest 1
▁Duke 1
▁medium 1
▁invest 1
▁healthcare 1
▁developers 1
▁Technology 1
▁writers 1
▁vacation 1
▁contained 1
▁Professor 1
▁provider 1
www 1
▁atmosphere 1
▁forth 1
▁peak 1
ham 1
▁liberal 1
▁providers 1
season 1
ji 1
▁Jonathan 1
▁signal 1
▁Jean 1
▁damaged 1
▁extend 1
▁recovered 1
▁bars 1
▁Area 1
▁mail 1
▁stadium 1
▁Saint 1
▁fears 1
▁prefer 1
▁loving 1
▁ate 1
▁assume 1
▁yield 1
▁Graham 1
▁pot 1
▁Soviet 1
▁gains 1
▁offices 1
▁Sean 1
▁bread 1
▁Va 1
▁Madrid 1
▁surrounded 1
▁Stone 1
▁counsel 1
▁formula 1
▁proof 1
▁contracts 1
▁touched 1
▁Follow 1
▁observed 1
▁Book 1
▁abortion 1
▁confirm 1
▁Uber 1
za 1
▁burning 1
▁careful 1
▁tariffs 1
▁apparent 1
ney 1
▁electronic 1
▁exposure 1
ger 1
▁wage 1
▁Arts 1
▁Luke 1
▁Cohen 1
▁graduate 1
▁Baltimore 1
▁redistributed 1
▁vital 1
▁gym 1
▁Denver 1
▁dismissed 1
▁overnight 1
▁scores 1
▁attending 1
▁royal 1
▁shocked 1
▁load 1
▁personality 1
▁celebration 1
▁depression 1
▁Ha 1
▁wrapped 1
▁missile 1
▁wheel 1
▁association 1
▁occasion 1
▁Ron 1
▁cooking 1
▁buried 1
▁knife 1
bar 1
▁dispute 1
▁5, 1
▁favourite 1
▁Barack 1
▁depth 1
▁attitude 1
▁disappointed 1
ance 1
▁whenever 1
▁Being 1
▁brands 1
▁2010, 1
é 1
style 1
▁publication 1
▁Samsung 1
One 1
▁Trade 1
▁terror 1
▁Bureau 1
▁installed 1
▁Report 1
▁establish 1
▁pocket 1
▁reviews 1
▁” 1
▁deficit 1
▁bird 1
▁38 1
▁Lu 1
▁Part 1
▁prayer 1
▁gifts 1
▁papers 1
▁2020 1
▁DNA 1
▁deadline 1
▁Things 1
▁Affairs 1
▁walks 1
▁grass 1
▁Square 1
▁Pa 1
▁2005 1
▁clock 1
▁managing 1
▁hung 1
▁Howard 1
▁Bible 1
▁anybody 1
▁pm 1
▁posting 1
▁Cruz 1
can 1
▁crude 1
▁boxes 1
▁Ka 1
▁Eagles 1
▁Winter 1
▁reminded 1
▁rolling 1
▁addressed 1
ti 1
▁landing 1
▁maintained 1
▁resistance 1
▁Kennedy 1
▁reasonable 1
▁outstanding 1
▁fishing 1
▁passion 1
▁37 1
▁banned 1
▁writes 1
▁pipeline 1
▁exclusive 1
▁seed 1
▁complicated 1
▁dying 1
▁rent 1
▁Scottish 1
▁Phil 1
▁Pittsburgh 1
▁articles 1
▁mad 1
▁conclusion 1
▁Egypt 1
▁moral 1
▁narrow 1
▁harassment 1
▁(1 1
▁everyday 1
mi 1
▁Warriors 1
▁22, 1
▁anxiety 1
▁depending 1
▁Atlantic 1
▁register 1
▁shelter 1
▁label 1
▁shook 1
ard 1
▁1. 1
▁spots 1
▁audio 1
▁files 1
▁ideal 1
▁AM 1
ster 1
▁polls 1
▁playoffs 1
▁questioned 1
▁28, 1
▁solve 1
▁hill 1
▁Champions 1
ki 1
ga 1
▁volunteers 1
▁Oak 1
▁badly 1
▁discussions 1
▁abandoned 1
▁decent 1
▁dramatic 1
▁rushed 1
▁pursue 1
▁output 1
▁.. 1
▁recalled 1
▁gear 1
▁wounded 1
▁Andy 1
▁concrete 1
▁highway 1
▁flew 1
der 1
▁lips 1
▁ages 1
▁suspects 1
▁Policy 1
▁eligible 1
▁requested 1
▁courts 1
▁swimming 1
▁cable 1
▁regardless 1
▁Cal 1
▁Nothing 1
use 1
▁circle 1
life 1
▁versus 1
▁Mother 1
▁acknowledged 1
▁ownership 1
▁maintenance 1
▁prospect 1
▁Anna 1
▁Edward 1
▁24, 1
▁horses 1
▁divided 1
▁behaviour 1
▁30, 1
▁Murray 1
▁Russell 1
▁opinions 1
▁knocked 1
▁protesters 1
▁menu 1
▁independence 1
▁NCAA 1
▁defined 1
▁DC 1
who 1
▁neighbors 1
ten 1
▁ships 1
▁8, 1
net 1
▁garage 1
▁landscape 1
▁facts 1
▁Ukraine 1
▁21, 1
▁incidents 1
▁colors 1
▁Antonio 1
▁rookie 1
▁objective 1
▁Jane 1
▁lesson 1
▁2004 1
▁Field 1
▁18, 1
Don 1
▁Carter 1
▁Boy 1
▁Memorial 1
▁lineup 1
▁judges 1
▁Ridge 1
▁eighth 1
▁Okay 1
▁Francis 1
▁Jo 1
▁viewers 1
▁expenses 1
UNK 1
▁Greg 1
▁trends 1
▁involvement 1
▁contribute 1
▁machines 1
▁trailer 1
▁2013. 1
Re 1
▁winds 1
▁suffer 1
making 1
cha 1
▁principal 1
▁puts 1
▁cleared 1
▁chart 1
▁receiver 1
▁Fair 1
▁Kyle 1
▁universe 1
▁Ar 1
▁fault 1
▁sensitive 1
▁platforms 1
▁grounds 1
▁helpful 1
▁gathering 1
▁cannabis 1
▁remote 1
▁Bruce 1
▁Note 1
▁mining 1
▁violation 1
NASDAQ 1
▁solo 1
▁dates 1
▁Drive 1
▁emotions 1
▁item 1
▁lessons 1
▁Price 1
▁rapidly 1
▁sheet 1
▁actors 1
▁performances 1
▁Fed 1
▁Space 1
At 1
▁handful 1
▁affairs 1
▁26, 1
▁joke 1
▁probe 1
▁producers 1
▁repeated 1
▁deadly 1
▁inter 1
▁rail 1
▁Cook 1
▁Creek 1
▁Maria 1
▁physically 1
▁Make 1
▁consumption 1
▁Line 1
▁hosts 1
▁celebrated 1
▁amounts 1
▁banking 1
▁Channel 1
▁accurate 1
▁height 1
▁emissions 1
▁speaks 1
▁deeper 1
Why 1
▁string 1
▁episodes 1
▁hero 1
▁beside 1
▁submitted 1
▁19, 1
▁Wood 1
▁visible 1
▁overseas 1
▁speaker 1
dy 1
▁Pre 1
▁promises 1
▁producing 1
▁nights 1
ating 1
▁testimony 1
▁momentum 1
▁cook 1
▁copyright 1
▁31, 1
les 1
▁lock 1
▁cabinet 1
▁23, 1
▁terrorism 1
▁silent 1
▁industries 1
▁sing 1
▁Him 1
war 1
gen 1
ite 1
▁asset 1
▁steady 1
▁Express 1
▁scenario 1
▁attempting 1
▁saving 1
▁Mc 1
▁equivalent 1
▁Jews 1
▁contacted 1
▁n 1
▁Dean 1
▁Warren 1
que 1
▁Authorities 1
▁falls 1
▁cried 1
▁2019, 1
▁thankful 1
▁lap 1
US 1
▁Deputy 1
▁Whether 1
ik 1
▁impressed 1
lan 1
▁Vietnam 1
▁forgotten 1
▁Ko 1
▁Orleans 1
▁Latin 1
▁browser 1
▁cats 1
inch 1
▁27, 1
▁Point 1
▁pride 1
▁reduction 1
▁Muslims 1
▁couch 1
▁Everything 1
▁Captain 1
▁42 1
$ 1
▁14, 1
▁Constitution 1
▁emerging 1
▁encounter 1
▁55 1
▁Melbourne 1
▁assessment 1
▁representatives 1
▁READ 1
▁residential 1
▁residence 1
▁sisters 1
▁Summer 1
▁throat 1
▁secondary 1
▁reducing 1
known 1
▁smooth 1
▁Ann 1
▁craft 1
▁coaching 1
▁deck 1
ED 1
▁confused 1
▁briefly 1
▁visits 1
▁Authority 1
▁swing 1
▁transferred 1
▁micro 1
▁Tesla 1
▁ballot 1
▁intent 1
▁smartphone 1
▁aspect 1
▁grandmother 1
▁Call 1
▁adventure 1
▁kiss 1
▁citing 1
▁Reserve 1
12 1
▁recover 1
▁tape 1
▁surprising 1
▁grocery 1
▁Exchange 1
▁gross 1
▁threatening 1
▁constitutional 1
▁processes 1
▁referring 1
▁repair 1
▁Steven 1
▁Jimmy 1
▁Tech 1
▁surveillance 1
▁generate 1
▁horrible 1
▁skill 1
): 1
▁$ 1
▁salary 1
▁veterans 1
▁generated 1
▁factory 1
▁~ 1
▁merely 1
▁criticized 1
ball 1
▁Way 1
▁districts 1
▁indicate 1
▁savings 1
▁Cooper 1
▁yeah 1
▁comprehensive 1
▁Iranian 1
PA 1
▁Dutch 1
▁migrants 1
▁compensation 1
▁engagement 1
▁Forest 1
▁rid 1
▁Sign 1
▁affordable 1
▁acquisition 1
▁discover 1
▁25, 1
▁pure 1
▁soil 1
ex 1
▁Film 1
▁abroad 1
▁announce 1
▁11, 1
▁12- 1
▁bowl 1
po 1
▁rely 1
▁settle 1
▁seemingly 1
▁defending 1
▁fled 1
▁monitoring 1
▁AI 1
▁minority 1
▁mistakes 1
▁focusing 1
▁quarterly 1
▁cooperation 1
▁handling 1
▁Data 1
▁alert 1
million 1
▁winners 1
▁format 1
▁streaming 1
▁climb 1
▁crossing 1
▁Da 1
▁raw 1
ang 1
▁nodded 1
▁iron 1
▁lately 1
▁unlike 1
▁operates 1
▁Class 1
▁Hotel 1
▁flights 1
▁expects 1
▁fence 1
▁Du 1
▁Ball 1
▁waves 1
▁operated 1
▁horror 1
▁gate 1
▁luxury 1
red 1
▁authors 1
▁collapse 1
▁Jake 1
50 1
45 1
▁titled 1
▁stairs 1
▁15, 1
mm 1
▁restrictions 1
▁homeless 1
▁Moon 1
▁Giants 1
▁viewed 1
▁Jacob 1
▁drinks 1
▁Play 1
▁Su 1
▁arts 1
▁encouraging 1
▁Patriots 1
▁Gen 1
▁SEC 1
▁comparison 1
▁20- 1
▁screaming 1
▁bail 1
▁efficient 1
pe 1
▁tips 1
looking 1
▁suggesting 1
▁Chi 1
▁App 1
▁16, 1
▁deserve 1
▁provincial 1
▁Stanley 1
▁interviews 1
▁Hope 1
▁Information 1
▁29, 1
▁widespread 1
▁breast 1
▁Amy 1
▁recommendations 1
▁trips 1
▁firing 1
▁shoulders 1
mar 1
▁Far 1
90 1
▁Sure 1
▁institutional 1
▁lab 1
▁objects 1
▁wound 1
▁supports 1
ny 1
▁Look 1
▁Phoenix 1
▁Gordon 1
▁Crown 1
▁dust 1
▁demanded 1
▁17, 1
ng 1
▁Nelson 1
▁Through 1
▁Commissioner 1
▁racial 1
▁processing 1
▁toys 1
▁breathing 1
▁intention 1
▁Brad 1
▁nomination 1
▁equally 1
▁Gulf 1
▁painful 1
▁spell 1
▁commit 1
▁collaboration 1
▁2012. 1
▁burned 1
▁9, 1
▁Test 1
▁wider 1
▁presentation 1
▁44 1
▁2009, 1
▁ranks 1
19 1
▁proven 1
▁TO 1
▁regard 1
▁studying 1
▁checking 1
▁cousin 1
▁timing 1
▁hardware 1
Now 1
▁Lisa 1
▁medal 1
▁ears 1
▁III 1
▁rounds 1
▁virtual 1
▁balls 1
▁slept 1
▁warrant 1
ara 1
▁Grant 1
▁followers 1
▁suppose 1
▁Palestinian 1
▁System 1
▁graduated 1
▁tracking 1
▁striking 1
▁visual 1
vi 1
▁hospitals 1
fi 1
▁13, 1
▁mini 1
▁© 1
▁neighbor 1
▁Lo 1
..." 1
▁script 1
light 1
▁par 1
▁Leader 1
▁39 1
▁FC 1
▁ignored 1
▁hip 1
▁departure 1
▁demanding 1
▁attractive 1
▁educational 1
▁journal 1
▁legacy 1
▁NEW 1
▁belt 1
▁del 1
▁substantial 1
▁automatically 1
▁NOT 1
▁innovation 1
▁venture 1
see 1
▁Story 1
▁Camp 1
▁adviser 1
▁adoption 1
▁fighters 1
▁dancing 1
▁establishment 1
▁Ke 1
▁sessions 1
▁honestly 1
▁assumed 1
▁exception 1
▁1950 1
she 1
▁implementation 1
▁dropping 1
▁interior 1
▁duties 1
▁Labor 1
state 1
▁competing 1
▁holes 1
▁breaks 1
▁Six 1
▁pleasure 1
ber 1
▁stages 1
▁rewritten 1
▁Marine 1
▁UFC 1
▁documentary 1
▁ads 1
▁Berlin 1
ino 1
▁explanation 1
▁Modi 1
▁shops 1
60 1
▁Economic 1
▁Montreal 1
ship 1
ze 1
hold 1
▁Charlotte 1
▁promotion 1
buy 1
▁inner 1
▁techniques 1
▁41 1
▁examples 1
▁Given 1
▁Spring 1
▁excitement 1
▁cents 1
ee 1
▁stressed 1
▁Metro 1
▁donations 1
▁sexually 1
▁voices 1
▁improvements 1
▁rapid 1
▁divorce 1
▁manufacturers 1
▁lifetime 1
▁element 1
▁components 1
▁Theatre 1
Reporting 1
▁brilliant 1
▁Arsenal 1
▁membership 1
▁Thanksgiving 1
▁Conservative 1
▁Mississippi 1
▁strikes 1
▁mirror 1
▁disappeared 1
▁repeat 1
▁NASA 1
▁description 1
▁sits 1
▁elite 1
▁mainstream 1
▁gather 1
▁summary 1
18 1
ns 1
▁$20 1
▁narrative 1
▁expanding 1
▁referendum 1
▁Sweden 1
▁dis 1
▁quietly 1
▁involves 1
▁Library 1
▁Master 1
▁destroy 1
▁dirty 1
▁Holy 1
▁venue 1
▁legislative 1
▁volunteer 1
▁Until 1
ci 1
▁Program 1
▁Christopher 1
▁prompted 1
▁destination 1
▁20, 1
▁Jeremy 1
▁orange 1
▁Nevada 1
▁overcome 1
▁tower 1
berg 1
▁employed 1
▁crack 1
▁Alan 1
▁versions 1
▁WASHINGTON 1
▁painted 1
▁2003 1
▁premium 1
▁hire 1
▁purchasing 1
▁centers 1
▁odds 1
▁innocent 1
▁log 1
▁Regional 1
▁flood 1
▁12, 1
▁Craig 1
▁describes 1
▁regulatory 1
▁tear 1
▁controversy 1
▁Country 1
▁Liberal 1
▁obtain 1
▁Harvey 1
▁salt 1
▁stopping 1
▁MR 1
▁pointing 1
▁fate 1
▁Mount 1
▁Bitcoin 1
▁column 1
▁hiding 1
half 1
▁anticipated 1
party 1
▁Battle 1
▁Collins 1
▁sons 1
▁diverse 1
▁Credit 1
▁Robinson 1
▁chat 1
▁Thus 1
▁Barcelona 1
▁sounded 1
▁2008, 1
▁Portland 1
▁forcing 1
▁profits 1
▁professionals 1
▁hedge 1
▁structures 1
▁promoted 1
▁Orange 1
▁diagnosed 1
▁carries 1
▁lifestyle 1
▁Does 1
▁introduction 1
▁welcomed 1
▁Lane 1
▁longest 1
▁presents 1
▁ESPN 1
▁qualified 1
▁trillion 1
▁Roy 1
▁regulation 1
▁dialogue 1
▁Eve 1
▁contributions 1
▁convince 1
▁burn 1
▁ignore 1
▁climbed 1
▁defender 1
▁lane 1
▁Oakland 1
▁theater 1
▁investigations 1
▁BJP 1
▁hunting 1
▁fiction 1
▁sheriff 1
▁daughters 1
▁clinical 1
owned 1
▁Ottawa 1
▁functions 1
▁dirt 1
▁subsequently 1
▁feedback 1
▁advised 1
▁consent 1
▁congressional 1
▁bound 1
▁resolve 1
hi 1
▁Cameron 1
▁hosting 1
▁spiritual 1
▁ninth 1
▁g 1
▁naturally 1
On 1
▁Sa 1
▁Susan 1
▁investor 1
▁slipped 1
▁Nation 1
▁strategies 1
▁introduce 1
!! 1
▁guitar 1
▁aims 1
▁talented 1
▁revenues 1
▁teen 1
▁sample 1
▁coat 1
ho 1
▁Guard 1
▁designer 1
▁capabilities 1
-10 1
▁tail 1
isation 1
▁definition 1
▁websites 1
▁Tyler 1
▁Had 1
▁Queensland 1
▁preferred 1
▁History 1
▁teenager 1
GB 1
▁procedure 1
▁witnesses 1
▁completion 1
▁Season 1
▁LA 1
▁Others 1
▁Del 1
▁fundamental 1
▁inspiration 1
▁attacking 1
▁scary 1
chi 1
▁noting 1
▁2001 1
▁Fla 1
ani 1
▁surely 1
▁Yesterday 1
▁30- 1
▁discovery 1
▁drunk 1
made 1
jo 1
▁involve 1
work 1
▁broader 1
-12 1
▁uncomfortable 1
ran 1
▁desperate 1
▁awful 1
▁crashed 1
ker 1
winning 1
▁Lincoln 1
▁illegally 1
▁projected 1
▁Anne 1
▁entitled 1
▁Jerry 1
▁containing 1
▁champions 1
▁bone 1
▁targeting 1
▁participation 1
▁motor 1
▁jacket 1
▁Anyone 1
▁tons 1
▁rivals 1
▁hungry 1
▁mountains 1
▁52 1
▁plain 1
▁mystery 1
▁implement 1
▁praised 1
▁Galaxy 1
▁Mitchell 1
▁protecting 1
▁Islam 1
▁fantasy 1
▁shake 1
▁resigned 1
▁unexpected 1
▁oh 1
▁Main 1
▁Buy 1
▁trades 1
▁movements 1
▁Looking 1
▁resort 1
▁separated 1
▁subsequent 1
▁Besides 1
▁Larry 1
▁fed 1
▁remind 1
board 1
▁Cape 1
very 1
air 1
▁Additionally 1
▁Kavanaugh 1
▁activist 1
These 1
new 1
▁43 1
ano 1
▁Indeed 1
tic 1
▁Lions 1
▁nowhere 1
▁Editing 1
tz 1
▁Jennifer 1
▁slide 1
▁!!! 1
▁REUTERS 1
hand 1
▁contribution 1
▁Ocean 1
▁organic 1
▁2011. 1
▁recipe 1
ING 1
▁custom 1
si 1
▁AND 1
▁Much 1
▁suspension 1
▁meals 1
▁Key 1
▁Stewart 1
▁patterns 1
▁Inter 1
▁2002 1
▁gaming 1
han 1
▁furniture 1
▁McDonald 1
▁Campbell 1
▁airline 1
▁citizen 1
▁presidency 1
▁programming 1
▁managers 1
▁Douglas 1
▁promising 1
ring 1
▁expense 1
▁spin 1
▁teammates 1
▁alerts 1
▁developer 1
▁diversity 1
▁alarm 1
▁accessible 1
▁petition 1
▁absolute 1
▁predicted 1
▁experiment 1
▁disclosed 1
▁nominee 1
mon 1
▁Brooklyn 1
▁Finance 1
▁executives 1
▁Oscar 1
▁substance 1
▁rank 1
▁ordinary 1
▁consideration 1
▁Mass 1
zi 1
bit 1
▁Adams 1
▁seized 1
▁attract 1
▁Light 1
▁participated 1
?) 1
▁youngest 1
▁Brady 1
▁OF 1
▁$6 1
▁sustained 1
▁promoting 1
▁popularity 1
▁prayers 1
▁tag 1
-19 1
hu 1
▁stops 1
ons 1
▁delayed 1
▁peaceful 1
▁Unlike 1
▁holidays 1
▁Hunter 1
▁forgot 1
▁Carl 1
▁Ram 1
▁closest 1
▁Baker 1
▁Wright 1
▁trains 1
▁proposals 1
▁implemented 1
▁CD 1
▁guarantee 1
ology 1
▁midnight 1
▁AT 1
▁$8 1
km 1
▁highlight 1
ez 1
▁ultimate 1
▁beaten 1
▁secured 1
▁invested 1
▁conspiracy 1
▁relatives 1
▁dear 1
▁Review 1
▁Tokyo 1
▁affair 1
▁toilet 1
▁enormous 1
▁$15 1
▁journalism 1
ut 1
▁racist 1
▁frustrated 1
▁occasions 1
▁destruction 1
▁Murphy 1
▁funded 1
▁• 1
▁Ni 1
▁radical 1
ola 1
▁pending 1
▁loaded 1
▁efficiency 1
▁ok 1
▁Treasury 1
▁reader 1
▁differently 1
▁wooden 1
▁Garden 1
▁keen 1
▁egg 1
▁guards 1
▁Mel 1
▁arguments 1
▁Na 1
▁organisation 1
▁uncertainty 1
▁nominated 1
▁Something 1
▁Cor 1
▁counties 1
let 1
▁welfare 1
▁panic 1
▁connections 1
ft 1
▁Control 1
▁universities 1
17 1
▁hunt 1
▁cricket 1
▁killer 1
▁resource 1
▁Louisiana 1
▁Officials 1
▁investing 1
▁imposed 1
▁Parker 1
are 1
election 1
▁occasionally 1
▁Emma 1
▁Plan 1
▁Grace 1
▁Rachel 1
▁diplomatic 1
▁trick 1
▁categories 1
▁traveled 1
ray 1
▁pizza 1
▁Moreover 1
▁Tigers 1
▁happiness 1
▁Wars 1
▁prosecutor 1
▁muscle 1
mann 1
▁barrel 1
▁Remember 1
▁server 1
▁external 1
▁infection 1
▁Greece 1
▁accompanied 1
▁Never 1
▁notable 1
▁Roger 1
▁blamed 1
▁refuse 1
▁Down 1
▁partly 1
▁wet 1
▁beneath 1
▁Alberta 1
▁Pan 1
▁Hawaii 1
▁bin 1
▁Evans 1
▁exists 1
▁blind 1
▁comic 1
▁feeding 1
▁SO 1
▁damn 1
▁longtime 1
▁discussing 1
▁maker 1
▁trash 1
▁naked 1
▁channels 1
▁Ian 1
▁periods 1
▁Action 1
▁discrimination 1
▁Wayne 1
▁Use 1
▁ladies 1
▁$100 1
▁commented 1
▁Silver 1
▁arguing 1
Not 1
▁flash 1
▁consistently 1
▁blessed 1
▁controls 1
▁Manager 1
▁(2 1
▁listened 1
▁instructions 1
▁View 1
▁Protection 1
▁slight 1
▁Organization 1
▁colour 1
▁Warner 1
▁hearts 1
▁drag 1
ck 1
▁editorial 1
▁Franklin 1
▁Brandon 1
▁rated 1
▁smiling 1
▁minds 1
▁backing 1
▁Arena 1
▁disorder 1
▁tongue 1
▁Dakota 1
▁assured 1
▁10, 1
▁laundry 1
▁darkness 1
▁intervention 1
▁Empire 1
▁romantic 1
▁Har 1
▁et 1
▁CIA 1
▁occupied 1
▁crore 1
▁Bishop 1
▁challenged 1
▁stability 1
▁deployed 1
▁Poland 1
▁shadow 1
▁favour 1
▁sorts 1
▁dominated 1
dis 1
▁blast 1
▁Jamie 1
▁Woods 1
▁outdoor 1
▁frequent 1
▁fleet 1
▁generations 1
port 1
▁smoking 1
▁reserve 1
▁End 1
▁punishment 1
▁celebrating 1
▁practical 1
▁exhibition 1
▁god 1
▁Billy 1
▁trucks 1
ow 1
▁sustainable 1
▁Soon 1
▁(18 1
▁adjusted 1
▁safely 1
▁lit 1
▁filling 1
▁competitors 1
▁w 1
▁quoted 1
▁technique 1
▁pressed 1
▁Entertainment 1
▁tourists 1
▁collective 1
▁Wild 1
▁GM 1
▁flooding 1
▁towns 1
▁Trudeau 1
▁Laura 1
▁shutdown 1
▁statistics 1
▁dynamic 1
degree 1
▁precious 1
▁participating 1
▁unemployment 1
Let 1
▁Bad 1
▁protein 1
▁grandfather 1
▁Philippines 1
▁Keep 1
Man 1
▁Maine 1
‘ 1
▁witnessed 1
▁Enter 1
11 1
▁Safety 1
▁buyers 1
▁staring 1
▁butter 1
▁Keith 1
▁curious 1
▁mum 1
▁Jerusalem 1
▁households 1
▁chase 1
▁revolution 1
play 1
▁acted 1
▁administrative 1
▁reverse 1
fer 1
▁Marc 1
▁Cambridge 1
▁inquiry 1
▁permit 1
▁refer 1
▁telephone 1
ial 1
▁designs 1
▁arriving 1
▁highlights 1
▁remarkable 1
▁jet 1
▁Hurricane 1
▁associate 1
▁checks 1
▁disabled 1
▁Come 1
▁steal 1
▁explosion 1
▁plea 1
▁McCain 1
▁importantly 1
▁beta 1
▁signature 1
▁institution 1
▁touchdowns 1
▁attracted 1
▁excuse 1
▁stance 1
▁civilians 1
▁slip 1
▁registration 1
▁Capitol 1
▁starter 1
▁Emily 1
▁Final 1
▁swim 1
▁Hart 1
▁reward 1
▁outfit 1
▁glasses 1
▁romance 1
▁picks 1
▁flu 1
▁commander 1
▁Michelle 1
▁Would 1
gar 1
▁friendship 1
▁burden 1
▁struggles 1
▁dining 1
▁Lawrence 1
▁stunning 1
▁delivering 1
▁commonly 1
▁Rio 1
▁charging 1
▁contemporary 1
▁greatly 1
our 1
▁k 1
▁trans 1
▁knock 1
▁principles 1
-3 1
king 1
▁Ya 1
▁medication 1
▁Place 1
▁labour 1
▁knees 1
▁midfielder 1
▁default 1
▁Village 1
▁Ham 1
▁tragedy 1
= 1
▁nationwide 1
▁opener 1
▁bat 1
▁ministers 1
▁accusations 1
▁Ta 1
▁1.5 1
▁worn 1
▁computers 1
▁Order 1
▁fatal 1
▁impression 1
▁tennis 1
Just 1
▁waters 1
▁http 1
▁rocks 1
▁mis 1
▁Ever 1
▁shame 1
▁foods 1
▁ISIS 1
▁passage 1
▁classroom 1
▁Eventually 1
▁ha 1
bi 1
ju 1
▁persons 1
▁outlets 1
▁Kings 1
▁$0 1
▁nursing 1
▁overwhelming 1
▁Band 1
▁submit 1
che 1
scale 1
▁Alliance 1
▁spaces 1
▁meaningful 1
▁Sha 1
▁Rangers 1
▁ID 1
▁pile 1
▁communicate 1
▁chaos 1
▁desert 1
▁speculation 1
room 1
▁Rams 1
low 1
▁Tri 1
▁Orlando 1
water 1
▁rushing 1
▁experiencing 1
▁liquid 1
▁Danny 1
▁Junior 1
ane 1
ita 1
ability 1
▁Stock 1
▁initiatives 1
▁fighter 1
je 1
▁rice 1
just 1
ab 1
▁Perry 1
▁hike 1
▁reforms 1
▁deny 1
▁ceiling 1
▁64 1
▁reliable 1
▁ingredients 1
▁Rome 1
▁pricing 1
▁basement 1
▁detained 1
▁warming 1
▁mall 1
▁pit 1
▁languages 1
▁Han 1
▁72 1
▁agriculture 1
▁theft 1
▁10,000 1
▁Manhattan 1
▁opt 1
▁database 1
▁2007, 1
▁interviewed 1
▁removal 1
▁freshman 1
this 1
▁leather 1
▁Federation 1
▁virus 1
▁succeed 1
▁BC 1
▁Sri 1
▁handled 1
▁ET 1
▁Philip 1
▁Alaska 1
▁noon 1
▁procedures 1
AM 1
▁frustration 1
▁assembly 1
▁47 1
▁Se 1
▁asylum 1
▁Palace 1
▁holdings 1
▁grey 1
▁Swiss 1
▁Securities 1
▁fucking 1
▁Happy 1
▁Pi 1
▁Apparently 1
▁stared 1
▁Tu 1
▁Corps 1
▁Hot 1
▁complained 1
▁Tar 1
▁operator 1
▁46 1
▁outlook 1
▁fabric 1
two 1
▁Quebec 1
▁Venezuela 1
▁Ash 1
▁66 1
▁survival 1
▁strip 1
▁Spirit 1
▁Girl 1
▁guidelines 1
▁dated 1
▁uncle 1
▁preparation 1
▁Mi 1
▁copies 1
gi 1
▁exports 1
▁Cole 1
▁politician 1
▁cock 1
▁nap 1
▁prospects 1
With 1
▁converted 1
▁Col 1
▁Ward 1
▁ranging 1
▁embrace 1
▁tasks 1
▁Should 1
▁Speaker 1
▁fitness 1
now 1
▁Building 1
▁Buffalo 1
▁trigger 1
▁Therefore 1
▁satellite 1
▁Christians 1
▁EPS 1
▁Within 1
ini 1
▁elderly 1
▁Switzerland 1
▁wash 1
▁golden 1
▁Tower 1
▁actively 1
▁utility 1
▁calendar 1
▁frozen 1
▁Ku 1
▁Intelligence 1
▁phrase 1
▁annually 1
▁dishes 1
▁MPs 1
▁travelling 1
▁Doug 1
▁diseases 1
▁dominant 1
▁hiring 1
▁adopt 1
▁topics 1
▁designated 1
▁artificial 1
▁judgment 1
▁engineer 1
▁twin 1
▁snap 1
▁Easter 1
▁tribute 1
▁ 1
▁healing 1
▁philosophy 1
▁twelve 1
▁depends 1
▁ridiculous 1
ru 1
▁15- 1
▁Work 1
▁clinic 1
▁corn 1
▁Argentina 1
▁operational 1
▁temple 1
ó 1
▁triple 1
▁shipping 1
▁misconduct 1
▁CO 1
▁drives 1
▁sectors 1
▁belong 1
▁attendance 1
▁Anti 1
▁advocates 1
▁Mal 1
▁sole 1
▁Puerto 1
▁Malaysia 1
▁creates 1
▁conviction 1
▁carpet 1
ada 1
▁earning 1
▁mortgage 1
▁coordinator 1
▁Sh 1
▁Sox 1
▁railway 1
▁voter 1
▁bite 1
vo 1
▁praise 1
▁enemies 1
▁Morris 1
▁component 1
▁Todd 1
under 1
▁lasted 1
▁24- 1
▁Ted 1
▁virtually 1
▁alliance 1
oh 1
▁tap 1
▁ambassador 1
▁innovative 1
▁Dark 1
People 1
▁Johnny 1
ung 1
ong 1
▁Watson 1
▁detention 1
▁formation 1
▁highlighted 1
▁IN 1
▁Penn 1
▁clip 1
▁tensions 1
▁na 1
▁beloved 1
▁pollution 1
▁woods 1
▁distributed 1
▁donated 1
▁Doctor 1
▁Amendment 1
▁strengthen 1
▁parade 1
▁explaining 1
▁Halloween 1
▁trapped 1
▁roots 1
▁NO 1
▁Coach 1
▁wages 1
▁bonds 1
▁£1 1
▁march 1
win 1
▁Video 1
good 1
▁Par 1
▁18- 1
▁settings 1
pro 1
▁provision 1
▁throws 1
▁Related 1
▁stating 1
▁meters 1
▁None 1
▁bonus 1
min 1
▁runner 1
▁overtime 1
▁eager 1
▁tourism 1
▁{ 1
▁layer 1
▁Terry 1
▁meets 1
▁sum 1
▁sparked 1
▁speakers 1
▁Te 1
▁literature 1
▁Hills 1
▁duo 1
▁shareholders 1
▁theatre 1
▁Baby 1
▁2010. 1
▁gray 1
▁shy 1
▁Oil 1
▁dual 1
▁spare 1
▁boots 1
▁Turner 1
▁burst 1
▁developments 1
▁stored 1
▁Roberts 1
▁architecture 1
▁chip 1
▁symbol 1
▁integrated 1
news 1
▁framework 1
including 1
▁retailers 1
▁headlines 1
▁transactions 1
▁input 1
▁transit 1
▁globe 1
▁Blake 1
ups 1
▁$7 1
▁samples 1
▁violations 1
▁adjust 1
▁FA 1
▁jumping 1
▁extraordinary 1
▁soldier 1
▁chamber 1
▁Madison 1
▁defended 1
▁constructed 1
▁confusion 1
▁NATO 1
ated 1
mile 1
▁Comey 1
ising 1
▁delicious 1
▁carrier 1
vin 1
▁Between 1
▁upgrade 1
▁amongst 1
▁senator 1
▁tremendous 1
▁Mars 1
▁questioning 1
▁consists 1
▁mph 1
▁restore 1
▁convention 1
▁crews 1
▁beliefs 1
▁Ex 1
▁resignation 1
▁difficulty 1
▁jeans 1
▁100% 1
▁Analysis 1
▁makeup 1
▁Marvel 1
▁PA 1
▁investigated 1
▁Has 1
▁fastest 1
▁Marshall 1
▁scope 1
▁Early 1
▁campaigns 1
ok 1
▁employers 1
▁Yu 1
▁choosing 1
▁wealthy 1
▁sufficient 1
▁56 1
▁advocate 1
▁displayed 1
▁opens 1
▁ethnic 1
▁Around 1
▁laptop 1
▁Sessions 1
▁escaped 1
▁thirty 1
ble 1
▁51 1
▁uniform 1
▁thrilled 1
▁Pope 1
▁legitimate 1
▁addiction 1
▁demonstrated 1
▁usage 1
▁prosecution 1
▁pen 1
▁specialist 1
set 1
▁imports 1
▁subjects 1
▁Very 1
▁Connecticut 1
▁Asked 1
▁root 1
▁Got 1
▁Members 1
ac 1
▁tunnel 1
▁Records 1
▁acres 1
▁meanwhile 1
▁Arthur 1
▁enhance 1
▁cheaper 1
▁lighting 1
▁execution 1
len 1
14 1
mail 1
wide 1
ria 1
▁silly 1
Con 1
▁attorneys 1
sex 1
▁quote 1
▁Assistant 1
▁parked 1
▁requirement 1
▁reveals 1
▁Netherlands 1
▁Arkansas 1
▁electoral 1
▁Too 1
▁maintaining 1
▁appearing 1
ella 1
▁Freedom 1
▁ensuring 1
▁iconic 1
▁Po 1
from 1
▁helicopter 1
istic 1
▁surge 1
▁teenage 1
sized 1
▁routes 1
ura 1
▁Castle 1
ig 1
▁viewing 1
▁Indonesia 1
▁Pete 1
top 1
cho 1
▁wise 1
▁classified 1
▁Bi 1
▁Princess 1
ent 1
▁Cincinnati 1
▁bother 1
▁beef 1
▁volatility 1
▁reads 1
▁Mumbai 1
▁76 1
Getty 1
▁responding 1
▁Robin 1
▁dealt 1
▁(3 1
▁teens 1
▁Milwaukee 1
▁survivors 1
▁directions 1
▁Web 1
▁branches 1
part 1
▁principle 1
▁trials 1
-2 1
▁Jessica 1
▁Based 1
▁churches 1
▁Barbara 1
▁pan 1
▁pound 1
▁euro 1
▁memorial 1
▁Xi 1
some 1
▁arena 1
▁legally 1
▁Nathan 1
▁ugly 1
▁confirmation 1
-7 1
▁prisoners 1
they 1
▁Wi 1
box 1
▁Sar 1
▁IS 1
▁accomplished 1
99 1
▁humanity 1
▁euros 1
▁FREE 1
▁removing 1
▁Saints 1
▁democratic 1
▁Peace 1
▁Morning 1
rate 1
▁Harvard 1
▁deemed 1
▁Neil 1
du 1
▁transformation 1
▁transgender 1
▁Karen 1
▁Getty 1
▁tension 1
only 1
▁grace 1
▁instant 1
▁lists 1
▁Ok 1
▁Run 1
▁pose 1
▁directors 1
▁civilian 1
▁instantly 1
▁progressive 1
▁reply 1
▁rocket 1
▁robust 1
▁stroke 1
▁600 1
▁Chase 1
▁launching 1
▁reminder 1
▁Want 1
▁boards 1
▁hated 1
▁wire 1
▁tune 1
▁gradually 1
▁printed 1
▁militants 1
▁engines 1
▁recommendation 1
▁cookie 1
▁Zacks 1
▁Third 1
▁Independent 1
▁sword 1
there 1
▁afterwards 1
▁concerning 1
á 1
▁partially 1
ities 1
▁basket 1
▁Nancy 1
kar 1
▁2006, 1
Hey 1
▁climbing 1
▁shed 1
▁Calif 1
▁Rich 1
▁metres 1
▁origin 1
▁parks 1
▁grave 1
▁moderate 1
▁Fred 1
▁Shares 1
ium 1
▁Child 1
▁1999 1
Go 1
▁flip 1
ping 1
tra 1
▁preserve 1
▁Brazilian 1
▁logo 1
▁math 1
▁reflected 1
▁bands 1
fa 1
▁Oliver 1
▁Albert 1
place 1
▁shifted 1
▁murdered 1
dale 1
▁Model 1
▁reception 1
▁underground 1
▁Currently 1
▁sin 1
▁creature 1
▁Small 1
▁qualify 1
▁Due 1
▁approaching 1
▁courage 1
65 1
▁indication 1
ski 1
▁Commerce 1
▁Digital 1
▁foster 1
pur 1
▁centuries 1
▁tweets 1
iya 1
▁heritage 1
ich 1
▁politically 1
▁measured 1
24 1
▁Theresa 1
▁operators 1
▁collecting 1
▁Jong 1
▁ankle 1
▁2,000 1
▁dish 1
▁replacing 1
▁bottles 1
▁58 1
▁anytime 1
▁requiring 1
qui 1
▁Calgary 1
▁compare 1
▁Tampa 1
▁Seven 1
world 1
▁collapsed 1
▁Sony 1
▁underway 1
▁terrorists 1
ky 1
▁Ratings 1
▁athletic 1
▁Juan 1
▁ranking 1
▁Benjamin 1
rich 1
▁bare 1
▁agricultural 1
▁devastating 1
profile 1
▁placing 1
▁reviewed 1
▁marry 1
▁Flynn 1
▁median 1
▁Using 1
▁120 1
▁Samuel 1
▁hug 1
-5 1
▁sections 1
16 1
▁Along 1
▁Cat 1
▁auction 1
▁bio 1
market 1
▁celebrity 1
ins 1
key 1
▁Indians 1
▁sink 1
▁FILE 1
▁candy 1
▁accuracy 1
ula 1
▁Angel 1
▁cancelled 1
ning 1
▁senators 1
▁$50 1
ER 1
▁wishes 1
La 1
▁chips 1
par 1
▁relax 1
▁WWE 1
▁respective 1
▁wireless 1
▁cave 1
▁85 1
15 1
▁Index 1
▁Bears 1
▁dig 1
▁humor 1
▁pension 1
▁isolated 1
▁Dead 1
▁ta 1
▁catching 1
▁array 1
5,000 1
▁Share 1
▁seeks 1
▁segments 1
ika 1
▁Thailand 1
profit 1
▁closure 1
▁addressing 1
▁integrity 1
ev 1
▁keys 1
ette 1
▁disclosure 1
▁eliminate 1
▁tenure 1
▁Gas 1
▁unfortunately 1
▁sauce 1
▁Nashville 1
▁export 1
▁lands 1
▁legend 1
▁250 1
ever 1
▁Chuck 1
▁laying 1
▁notion 1
▁Smart 1
▁fires 1
▁Dodgers 1
▁tables 1
96 1
▁tourist 1
▁pitcher 1
art 1
▁buses 1
▁install 1
▁Net 1
▁Neither 1
70 1
▁Limited 1
▁predict 1
▁Pet 1
▁Rather 1
▁Mason 1
▁habit 1
After 1
▁genetic 1
▁honour 1
▁tale 1
▁Dar 1
▁Native 1
▁Shah 1
▁Could 1
▁photographs 1
▁Harrison 1
gan 1
▁striker 1
▁Partners 1
▁motivated 1
▁Whatever 1
▁Chapter 1
88 1
▁wings 1
Me 1
▁Fame 1
ren 1
▁exploring 1
▁abilities 1
▁Think 1
▁departments 1
▁stranger 1
ging 1
▁preliminary 1
▁conventional 1
▁engaging 1
▁Afghan 1
▁composed 1
▁genuine 1
▁insight 1
-9 1
▁pin 1
▁sake 1
▁vocal 1
▁grief 1
▁describing 1
▁67 1
▁Technologies 1
▁Snow 1
▁Heart 1
▁Further 1
▁5- 1
▁Magic 1
▁gently 1
▁1998 1
▁Hopefully 1
▁54 1
Be 1
▁Euro 1
▁worship 1
page 1
▁68 1
five 1
▁Friends 1
▁Mid 1
▁Sport 1
▁foul 1
▁Resources 1
▁$9 1
De 1
▁decrease 1
▁whereas 1
▁Vladimir 1
▁53 1
▁siblings 1
▁wished 1
▁tens 1
▁blanket 1
▁cyber 1
▁Marcus 1
▁Mail 1
▁financing 1
▁exhausted 1
▁formally 1
▁subscription 1
▁urge 1
▁invasion 1
▁lined 1
was 1
▁productive 1
▁Farm 1
▁monster 1
ou 1
▁bath 1
▁upside 1
▁Tan 1
▁Nor 1
▁Taiwan 1
▁brave 1
▁hopeful 1
▁gorgeous 1
▁Raiders 1
▁penalties 1
▁shaking 1
gate 1
▁trusted 1
▁Jets 1
▁2009. 1
▁temporarily 1
▁Overall 1
▁57 1
▁sometime 1
▁True 1
▁publishing 1
▁resume 1
▁Gray 1
▁Ty 1
▁crop 1
63 1
▁Section 1
▁Sara 1
▁Staff 1
▁gallery 1
▁lo 1
> 1
▁discipline 1
▁inch 1
▁donation 1
▁Hunt 1
▁Store 1
▁marathon 1
▁doubled 1
▁Meghan 1
▁MS 1
▁occasional 1
▁sooner 1
▁robbery 1
▁accepting 1
▁worries 1
▁taxi 1
▁YORK 1
▁suspicious 1
▁evolution 1
yn 1
New 1
▁breach 1
▁Guardian 1
▁borders 1
ku 1
▁Page 1
▁Rico 1
▁stepping 1
▁touching 1
ai 1
▁Bal 1
▁cabin 1
▁Katie 1
▁brick 1
▁Ja 1
friendly 1
▁Barry 1
▁arranged 1
▁representation 1
▁rental 1
▁Cha 1
▁delays 1
▁Swedish 1
▁regret 1
▁creatures 1
▁intellectual 1
▁Springs 1
▁AFP 1
▁strict 1
▁shore 1
▁Lakers 1
▁refugee 1
▁gaining 1
▁crown 1
▁Someone 1
ence 1
get 1
▁Pen 1
yan 1
▁Gaza 1
▁electrical 1
56 1
▁Auto 1
▁sentiment 1
▁Dis 1
▁enterprise 1
what 1
▁sacrifice 1
▁boring 1
Fi 1
▁piano 1
▁cruise 1
▁chairs 1
▁$12 1
▁para 1
▁cleaned 1
▁6- 1
▁approve 1
bn 1
▁addresses 1
▁deciding 1
▁62 1
▁unveiled 1
▁1/2 1
▁ERA 1
▁fuck 1
▁firefighters 1
▁mutual 1
▁Tommy 1
▁Ave 1
▁quarters 1
▁Zimbabwe 1
▁credits 1
▁Carlos 1
▁Add 1
▁wisdom 1
▁Hell 1
will 1
▁indicates 1
▁Iraqi 1
▁bones 1
▁Son 1
▁Drew 1
▁2-1 1
care 1
▁clash 1
▁Students 1
▁(5 1
▁peers 1
▁impose 1
▁awake 1
▁Bradley 1
▁mentally 1
▁statue 1
▁Marie 1
lock 1
ible 1
▁booked 1
▁compromise 1
▁equipped 1
▁proceedings 1
▁mechanism 1
▁announcing 1
▁unprecedented 1
▁Transportation 1
▁existed 1
van 1
▁Dublin 1
▁openly 1
school 1
▁focuses 1
▁weighed 1
-4 1
▁heaven 1
▁brutal 1
▁boats 1
ett 1
▁acquire 1
iness 1
▁underlying 1
▁Age 1
▁react 1
▁wrap 1
▁stole 1
-6 1
▁camps 1
▁consist 1
▁acknowledge 1
▁agreements 1
▁Low 1
▁screening 1
▁Death 1
home 1
most 1
▁kingdom 1
▁span 1
left 1
MP 1
▁59 1
tu 1
▁swept 1
stone 1
▁diagnosis 1
▁approaches 1
▁arrangements 1
than 1
lu 1
▁Fisher 1
▁Kenya 1
▁2- 1
▁caring 1
▁Nigerian 1
ston 1
▁Youth 1
▁mere 1
▁SA 1
▁Musk 1
AL 1
▁(4 1
▁bug 1
▁mud 1
▁retain 1
▁tent 1
▁depend 1
▁bases 1
▁torture 1
▁whilst 1
▁demonstrate 1
▁Communications 1
▁heels 1
▁snapped 1
▁bulk 1
▁Spencer 1
▁Ro 1
▁expertise 1
▁lowered 1
▁Code 1
▁backup 1
▁Environmental 1
-8 1
▁humanitarian 1
ative 1
▁emotion 1
▁grip 1
▁robot 1
80 1
▁Pence 1
▁Furthermore 1
▁perceived 1
▁interact 1
▁parliamentary 1
▁radar 1
▁Er 1
▁Prior 1
▁RELATED 1
▁Ti 1
▁constitution 1
▁commissioner 1
▁racism 1
-20 1
▁Reed 1
▁Officers 1
▁automatic 1
▁Ga 1
▁Ca 1
▁bold 1
quarter 1
▁Harper 1
Can 1
▁ 1
▁publisher 1
▁interim 1
▁blocking 1
▁Lucas 1
▁iOS 1
▁flower 1
▁optimistic 1
▁occurs 1
▁considerable 1
▁Gar 1
ari 1
▁meantime 1
▁clouds 1
▁satisfied 1
▁Prize 1
▁priest 1
▁mothers 1
▁Tonight 1
▁verdict 1
▁villages 1
▁scientist 1
sky 1
▁releasing 1
▁disappointing 1
▁leaned 1
▁Stan 1
▁transmission 1
▁juice 1
▁25- 1
▁harsh 1
▁imagination 1
▁bullet 1
▁blew 1
▁matching 1
▁awkward 1
▁define 1
▁acid 1
▁Upon 1
▁ski 1
ven 1
▁Canadians 1
▁nonprofit 1
shirt 1
▁revealing 1
▁starring 1
▁mandate 1
▁spectrum 1
▁sweat 1
▁relation 1
▁Falls 1
▁sang 1
▁trafficking 1
▁Knight 1
▁(“ 1
▁corporations 1
▁desperately 1
▁imagined 1
▁Almost 1
▁Weather 1
▁Airlines 1
Yeah 1
▁exclusively 1
▁Brett 1
▁valid 1
tin 1
▁2008. 1
▁l 1
▁tactics 1
▁Yemen 1
32 1
▁wildlife 1
▁kilometers 1
▁invite 1
▁Intel 1
ric 1
▁anonymous 1
income 1
▁compliance 1
▁dramatically 1
▁Trail 1
▁urging 1
▁DJ 1
▁Representatives 1
▁CA 1
▁flesh 1
▁faculty 1
▁Alice 1
▁Investors 1
▁17- 1
▁Walmart 1
▁upstairs 1
LA 1
▁interference 1
▁Crime 1
▁wherever 1
▁praying 1
ery 1
yo 1
13 1
▁besides 1
▁posed 1
▁Defence 1
▁16- 1
▁relaxed 1
▁feared 1
▁911 1
▁locker 1
▁ya 1
▁69 1
▁Yankees 1
▁couples 1
white 1
▁breathe 1
▁nurses 1
▁Mission 1
▁offseason 1
▁soup 1
▁workplace 1
▁integration 1
▁1930 1
even 1
▁surprisingly 1
▁neutral 1
▁Dennis 1
▁purple 1
non 1
▁crap 1
ue 1
▁Classic 1
▁distinct 1
▁resist 1
▁trauma 1
▁distant 1
med 1
▁sequence 1
▁makers 1
▁Cowboys 1
▁grid 1
▁courses 1
▁Belgium 1
▁HIV 1
▁fancy 1
▁rifle 1
▁14- 1
▁underneath 1
▁lyrics 1
▁Ashley 1
▁seeds 1
▁Hal 1
▁Qatar 1
▁Macron 1
▁Bel 1
▁treating 1
▁felony 1
ira 1
▁Taliban 1
▁workforce 1
▁interaction 1
ell 1
▁runners 1
▁manufacturer 1
▁disappointment 1
▁Abu 1
▁shorter 1
▁hub 1
▁Rev 1
▁guilt 1
▁Bobby 1
▁patch 1
▁Emergency 1
▁margins 1
▁2.5 1
▁resolved 1
▁Unit 1
▁Brussels 1
▁da 1
▁angle 1
▁Convention 1
▁responses 1
tro 1
▁Delta 1
▁leverage 1
view 1
▁punch 1
▁SC 1
▁Dick 1
▁Columbus 1
▁marine 1
▁bitter 1
▁signals 1
▁Championships 1
▁wounds 1
▁pump 1
▁Medicine 1
plus 1
▁packages 1
ries 1
▁counting 1
▁influenced 1
▁shoe 1
▁intersection 1
▁Margaret 1
▁Ad 1
century 1
▁searched 1
▁guaranteed 1
▁Medicaid 1
▁exhibit 1
▁viral 1
▁organisations 1
ff 1
▁Palm 1
▁lets 1
cent 1
▁succeeded 1
▁sporting 1
67 1
▁Room 1
▁finale 1
lee 1
▁Cabinet 1
ap 1
▁regarded 1
person 1
▁vegetables 1
▁Kent 1
▁Studies 1
▁citizenship 1
▁× 1
▁Ice 1
▁aired 1
▁collision 1
▁Systems 1
▁modest 1
▁63 1
▁achievement 1
▁Rogers 1
▁aunt 1
elect 1
▁Garcia 1
▁Temple 1
▁Oxford 1
▁VR 1
▁95 1
▁brush 1
▁complain 1
▁discount 1
▁supportive 1
▁800 1
▁purchases 1
25 1
▁realised 1
▁slammed 1
▁Salt 1
ph 1
▁municipal 1
book 1
▁costume 1
▁executed 1
▁1997 1
▁patrol 1
▁switched 1
▁premier 1
▁unions 1
▁renewed 1
▁Linda 1
▁exploration 1
An 1
ily 1
▁vessel 1
▁availability 1
▁Side 1
▁genre 1
1, 1
▁Boeing 1
49 1
▁drought 1
▁decides 1
▁Circuit 1
▁suggestions 1
▁reserves 1
▁Front 1
▁dragged 1
▁acceptable 1
▁Actually 1
▁pipe 1
▁du 1
í 1
▁editing 1
▁PS 1
▁Polish 1
▁Broadway 1
▁Wells 1
▁Standard 1
▁accounting 1
▁forum 1
▁Tournament 1
▁Natural 1
▁withdraw 1
▁missiles 1
▁magical 1
▁Cam 1
▁withdrawal 1
▁slot 1
▁Border 1
▁Wa 1
▁contributing 1
▁influential 1
▁torn 1
▁avoided 1
▁Sch 1
▁steep 1
▁tube 1
▁Birmingham 1
▁GDP 1
ken 1
▁riders 1
.50 1
founder 1
▁coastal 1
▁chronic 1
▁triggered 1
▁belly 1
▁deputies 1
▁kit 1
▁bias 1
ram 1
nes 1
▁patience 1
▁equality 1
▁Girls 1
29 1
▁firmly 1
▁Walter 1
▁Obviously 1
aka 1
▁Phillips 1
▁generous 1
▁flames 1
▁Dow 1
▁oxygen 1
▁2005, 1
▁File 1
▁cow 1
▁quest 1
▁provisions 1
▁difficulties 1
▁formerly 1
▁ally 1
night 1
▁priorities 1
pre 1
▁Motor 1
▁organised 1
▁thanked 1
▁musician 1
▁Edwards 1
▁sheep 1
▁engineers 1
▁opted 1
▁sponsored 1
▁privilege 1
▁shocking 1
▁shooter 1
▁scrutiny 1
▁Val 1
▁barn 1
▁pictured 1
▁twist 1
▁Bear 1
has 1
▁YOU 1
▁Butler 1
▁vowed 1
ably 1
▁delighted 1
▁drone 1
cut 1
▁FIFA 1
▁invitation 1
wan 1
▁Pentagon 1
▁tragic 1
har 1
▁correctly 1
▁Election 1
▁Born 1
▁boundaries 1
▁modified 1
▁acquiring 1
▁bronze 1
▁Nu 1
▁10% 1
▁Bennett 1
▁bi 1
sch 1
▁Norway 1
▁arrives 1
▁Milan 1
speed 1
▁testified 1
▁Victor 1
▁Nazi 1
▁anxious 1
▁premiere 1
▁inform 1
▁migration 1
▁Alpha 1
▁universal 1
▁photograph 1
▁habits 1
ero 1
▁Trans 1
▁Cardinals 1
▁comeback 1
▁drafted 1
▁Really 1
▁pitched 1
▁employer 1
▁Daddy 1
▁Region 1
▁Carr 1
▁conducting 1
▁amendment 1
▁Kan 1
date 1
▁suspicion 1
▁Costa 1
▁Route 1
54 1
▁explosive 1
27 1
▁($1 1
▁Guy 1
▁Ver 1
▁2-0 1
▁rescued 1
▁Bryan 1
IT 1
▁diabetes 1
▁Richmond 1
▁restored 1
tor 1
▁exchanges 1
▁Blues 1
▁transparency 1
▁drops 1
▁shell 1
▁donate 1
▁musicians 1
▁barrier 1
▁dependent 1
▁workout 1
▁reflects 1
▁Mad 1
▁$25 1
▁rumors 1
▁refers 1
▁crowded 1
Some 1
▁frequency 1
▁memo 1
▁Bio 1
▁pressing 1
▁Logan 1
▁73 1
▁Luckily 1
Ma 1
▁phenomenon 1
▁deserves 1
▁ultra 1
▁Islands 1
▁acceptance 1
ius 1
ned 1
▁Panthers 1
▁yelled 1
▁Industry 1
▁closet 1
▁Yorkshire 1
zo 1
▁Angela 1
▁heroes 1
▁Online 1
▁proceed 1
▁Storm 1
ide 1
ming 1
▁minimal 1
▁intelligent 1
▁mask 1
▁pledged 1
▁Si 1
▁gene 1
▁domain 1
▁hardest 1
real 1
▁RBI 1
▁Kar 1
▁pastor 1
▁1996 1
▁violated 1
▁Dream 1
tech 1
▁heal 1
▁rebels 1
▁recovering 1
▁floating 1
53 1
▁kicking 1
▁'' 1
▁safer 1
▁emphasis 1
▁passionate 1
▁mysterious 1
▁rode 1
▁EPA 1
▁pursuit 1
2,000 1
▁photographer 1
▁Mu 1
▁fights 1
▁Register 1
ena 1
▁grants 1
▁filming 1
▁Cuba 1
▁boot 1
▁inmates 1
▁sophomore 1
▁ambitious 1
▁abused 1
▁notably 1
▁fame 1
▁halt 1
▁opposing 1
▁attributed 1
▁islands 1
▁frustrating 1
▁Pakistani 1
ach 1
▁locally 1
▁fever 1
▁assaulted 1
▁excess 1
▁instruments 1
▁Iron 1
▁61 1
▁Forces 1
▁garbage 1
▁edit 1
▁upgraded 1
▁Mor 1
tar 1
▁Military 1
▁hook 1
▁affects 1
▁arrests 1
tal 1
▁toxic 1
▁errors 1
While 1
▁appreciated 1
▁parallel 1
DC 1
▁terminal 1
▁admission 1
▁Pop 1
▁shouted 1
lon 1
▁Hudson 1
▁unfair 1
▁examined 1
ick 1
▁pretend 1
▁insider 1
▁planes 1
▁Cold 1
▁wheels 1
▁blessing 1
▁indicating 1
▁outcomes 1
hr 1
▁Za 1
▁newspapers 1
▁hurricane 1
▁displays 1
▁endless 1
▁devoted 1
▁publish 1
▁washed 1
▁Che 1
▁pole 1
handed 1
bound 1
.00 1
▁Golf 1
▁Wolf 1
▁Julie 1
▁loyal 1
▁solely 1
ala 1
▁Mohammed 1
nan 1
shot 1
▁tissue 1
▁produces 1
▁census 1
▁barriers 1
▁outbreak 1
▁nerve 1
▁implications 1
▁eliminated 1
▁immune 1
▁judicial 1
▁soap 1
▁pie 1
▁Kumar 1
▁hotels 1
▁bow 1
ice 1
▁ambulance 1
▁calculated 1
OR 1
▁stealing 1
▁Sacramento 1
team 1
▁lobby 1
▁tender 1
▁77 1
▁Fu 1
▁Sal 1
ag 1
▁Nintendo 1
▁Fe 1
▁repeal 1
▁mate 1
▁circuit 1
▁spotlight 1
▁rhetoric 1
▁lip 1
▁suitable 1
▁Bangladesh 1
▁Tell 1
▁chemicals 1
▁ST 1
▁qualifying 1
ud 1
▁Woman 1
▁victories 1
▁males 1
▁2020. 1
▁Ukrainian 1
00 1
▁prevented 1
▁offset 1
▁Ber 1
▁lanes 1
▁slid 1
type 1
▁Liberty 1
tel 1
▁su 1
▁eaten 1
▁pickup 1
▁dressing 1
▁determination 1
▁worthy 1
▁Rod 1
▁honored 1
▁gentle 1
▁respected 1
▁teenagers 1
▁import 1
▁Sound 1
▁Montana 1
▁100,000 1
▁jokes 1
▁mandatory 1
stein 1
ida 1
▁Glen 1
▁arrangement 1
▁Mill 1
▁assess 1
▁strain 1
2. 1
▁Hey 1
▁info 1
▁superior 1
▁psychological 1
▁retreat 1
▁filmed 1
▁restricted 1
py 1
▁happily 1
▁lengthy 1
▁Joshua 1
▁matched 1
▁deer 1
▁Chiefs 1
▁Access 1
▁Talk 1
▁spray 1
▁Total 1
ator 1
▁apologize 1
▁Eddie 1
ye 1
▁€ 1
▁Off 1
▁audiences 1
▁MarketBeat 1
▁retailer 1
▁outlet 1
▁laughter 1
▁spreading 1
▁castle 1
▁accomplish 1
▁fifty 1
▁aviation 1
▁Jefferson 1
▁pleasant 1
▁colleague 1
▁porch 1
ver 1
▁Reid 1
▁averaged 1
▁Bloomberg 1
▁regulators 1
▁countless 1
▁Sanchez 1
▁connecting 1
▁Target 1
▁Money 1
▁condemned 1
▁Bond 1
▁completing 1
▁Industrial 1
▁strongest 1
▁battles 1
▁50% 1
▁Broncos 1
▁Dog 1
▁Magazine 1
▁Pay 1
▁purse 1
▁NY 1
▁perception 1
▁packaging 1
68 1
▁glory 1
75 1
ens 1
▁Stars 1
▁Holdings 1
▁comply 1
▁prescription 1
▁Fa 1
▁concise 1
-16 1
▁Yo 1
▁transported 1
Co 1
▁relate 1
▁Baptist 1
▁trainer 1
▁charter 1
▁Cancer 1
▁Commonwealth 1
▁affecting 1
▁vessels 1
▁delegation 1
▁BTC 1
▁Jared 1
▁pursuing 1
best 1
▁lean 1
▁console 1
▁bloody 1
▁counted 1
pi 1
▁muscles 1
▁fluid 1
▁Sorry 1
▁females 1
▁boosted 1
range 1
▁cattle 1
▁hometown 1
▁Shi 1
▁stem 1
▁Libya 1
▁spectacular 1
▁stretched 1
ding 1
▁lease 1
tion 1
▁elaborate 1
esh 1
▁consultant 1
▁Change 1
▁grandchildren 1
▁detect 1
▁Win 1
▁queen 1
▁Receive 1
MA 1
▁athlete 1
▁Palestinians 1
▁biological 1
▁wrestling 1
71 1
69 1
▁(6 1
▁powered 1
▁midst 1
▁Angels 1
▁1995 1
▁Hughes 1
▁globally 1
▁separation 1
▁Ci 1
▁puck 1
▁19- 1
▁reaches 1
▁Brooks 1
ile 1
▁impacted 1
▁teammate 1
▁argues 1
Mo 1
▁le 1
▁kissed 1
▁installation 1
01 1
▁educated 1
▁rage 1
▁podcast 1
▁preventing 1
▁rubber 1
▁Foster 1
▁governing 1
▁1992 1
▁trio 1
▁Design 1
▁AR 1
▁casual 1
▁bears 1
▁Kane 1
▁impacts 1
▁legislature 1
▁logic 1
▁bull 1
▁Mercedes 1
▁aftermath 1
▁Find 1
▁storms 1
▁successor 1
elle 1
-15 1
▁1920 1
▁economies 1
▁$11 1
hit 1
▁understands 1
▁los 1
▁sticking 1
▁inevitable 1
▁inappropriate 1
▁Hockey 1
▁Visit 1
▁goalkeeper 1
▁ME 1
▁vet 1
▁Lauren 1
▁Stanford 1
CO 1
▁Leonard 1
▁4- 1
form 1
▁treatments 1
Who 1
▁Hard 1
64 1
▁motivation 1
▁Mario 1
▁Manafort 1
▁Romney 1
▁spirits 1
▁Eli 1
▁taxpayers 1
87 1
2, 1
▁thread 1
8,000 1
▁slowed 1
▁topped 1
▁Fortunately 1
▁Secret 1
▁oppose 1
▁fits 1
▁IV 1
▁steam 1
▁goodbye 1
▁businessman 1
about 1
▁1-0 1
cy 1
‚ 1
▁rugby 1
▁transparent 1
▁concentration 1
▁Kids 1
▁bitcoin 1
▁spy 1
▁Short 1
▁realistic 1
burg 1
maker 1
▁Ki 1
▁applying 1
▁Heritage 1
▁pronounced 1
▁tobacco 1
▁scratch 1
▁sued 1
dar 1
▁saves 1
▁ought 1
▁Mobile 1
▁Barr 1
▁Vincent 1
▁realise 1
▁washing 1
▁Helen 1
▁1994 1
▁aboard 1
▁finals 1
▁epic 1
▁Left 1
▁Caribbean 1
▁container 1
▁Rodriguez 1
7,000 1
▁critic 1
▁Carson 1
▁Inside 1
▁missions 1
▁singles 1
▁immigrant 1
▁r 1
▁raises 1
▁SUV 1
bu 1
▁releases 1
had 1
–19 1
list 1
▁cargo 1
▁Travis 1
▁cared 1
▁Noah 1
▁farmer 1
▁valley 1
▁71 1
▁examine 1
86 1
▁suggestion 1
▁backyard 1
▁linebacker 1
being 1
▁crowds 1
▁Player 1
▁offence 1
ese 1
▁Claire 1
▁Russians 1
cher 1
CA 1
▁Reagan 1
▁Cloud 1
▁caution 1
▁planted 1
rin 1
News 1
▁< 1
▁Gabriel 1
▁decreased 1
▁Mon 1
▁visa 1
▁Jesse 1
▁OS 1
▁Xbox 1
▁governance 1
▁simultaneously 1
▁volumes 1
▁Bailey 1
▁Ana 1
▁flows 1
▁contrary 1
worth 1
▁Ju 1
▁powder 1
6,000 1
▁setup 1
▁halfway 1
▁founding 1
▁Colin 1
▁pale 1
ward 1
▁cop 1
▁significance 1
▁nasty 1
▁Luis 1
▁Revolution 1
▁circles 1
▁polling 1
▁Indianapolis 1
▁cops 1
▁negotiate 1
▁authorized 1
ix 1
▁5,000 1
▁screens 1
▁3,000 1
▁99 1
Are 1
▁batteries 1
▁unfortunate 1
▁Dylan 1
97 1
▁hurting 1
57 1
▁Shaw 1
▁Commons 1
backed 1
▁$30 1
▁Television 1
▁diesel 1
-18 1
▁dubbed 1
▁Lopez 1
▁rides 1
su 1
▁earthquake 1
bank 1
▁convenience 1
▁Dubai 1
▁Round 1
▁poured 1
▁appeals 1
ties 1
rated 1
▁Karl 1
▁Especially 1
▁vendors 1
▁opioid 1
▁fundraising 1
▁retire 1
▁intensity 1
▁Edmonton 1
▁accommodate 1
▁bass 1
▁honey 1
▁21- 1
▁boom 1
▁fifteen 1
▁awhile 1
▁cab 1
61 1
▁hills 1
▁evolved 1
▁coup 1
21 1
▁Source 1
▁Mitch 1
▁insights 1
sk 1
▁kilometres 1
▁conservation 1
▁proceeds 1
▁Tax 1
66 1
▁Nebraska 1
▁Township 1
▁sunny 1
▁partial 1
▁entertaining 1
▁fascinating 1
▁bay 1
responsibilities 1
82 1
▁Merkel 1
▁(7 1
36 1
89 1
▁gaze 1
▁Ra 1
▁similarly 1
▁weakness 1
▁Derek 1
▁believing 1
▁deposit 1
▁worrying 1
26 1
79 1
▁82 1
▁billions 1
▁halftime 1
▁logged 1
▁glimpse 1
▁conversion 1
ado 1
▁reminds 1
▁bra 1
SC 1
▁bombing 1
▁Sussex 1
3,000 1
▁overwhelmed 1
▁Ru 1
▁monetary 1
▁pets 1
▁populations 1
▁Ghana 1
▁fossil 1
▁debris 1
▁Griffin 1
▁Beth 1
▁Carol 1
▁waist 1
▁productivity 1
▁Command 1
▁appealing 1
▁Type 1
▁Troy 1
▁rotation 1
▁rebel 1
▁Valentine 1
iz 1
▁maps 1
▁Martinez 1
ington 1
▁photography 1
▁Powell 1
▁newest 1
ification 1
▁Toyota 1
▁Electric 1
▁yoga 1
▁Fish 1
▁refusing 1
▁Prosecutors 1
▁bacteria 1
▁fitting 1
▁yelling 1
▁panels 1
▁Nearly 1
▁possibilities 1
▁Sub 1
▁Pradesh 1
▁disturbing 1
▁Potter 1
final 1
▁lens 1
▁Sciences 1
▁NHS 1
▁Fall 1
▁weigh 1
ID 1
▁propaganda 1
▁Ruth 1
▁22- 1
▁scream 1
rk 1
▁raid 1
▁sheets 1
▁wrist 1
▁trap 1
▁Future 1
del 1
▁Met 1
▁traders 1
fire 1
▁Wal 1
▁slower 1
▁justify 1
▁Chamber 1
▁cult 1
▁reflection 1
bed 1
▁; 1
▁vary 1
▁lifting 1
▁ripped 1
Trump 1
▁apology 1
▁balanced 1
▁Joel 1
▁risen 1
▁Hampshire 1
▁recession 1
▁northeast 1
▁cooked 1
yes 1
▁sentences 1
▁Lin 1
▁Netanyahu 1
Good 1
▁Chad 1
▁dump 1
▁] 1
▁commentary 1
▁commissioned 1
second 1
sey 1
▁casting 1
▁farming 1
▁Nature 1
▁bubble 1
▁Edinburgh 1
▁albums 1
▁courtesy 1
▁renewable 1
▁automotive 1
▁Wade 1
▁researcher 1
nt 1
▁Lucy 1
▁battling 1
▁Ger 1
▁Communist 1
▁Cox 1
▁poorly 1
▁McConnell 1
▁elementary 1
▁OR 1
▁leaked 1
▁revised 1
▁criteria 1
▁Bryant 1
▁Dame 1
▁Bur 1
▁coin 1
▁fortunate 1
3, 1
▁legendary 1
▁Amanda 1
▁copper 1
OS 1
▁Elliott 1
▁Lou 1
91 1
▁dose 1
▁goodness 1
shi 1
▁Brisbane 1
▁Ahmed 1
▁warnings 1
▁Investigators 1
▁altogether 1
▁autonomous 1
▁loop 1
▁farms 1
▁Song 1
▁Taking 1
▁Memphis 1
▁anonymity 1
▁advocacy 1
▁emotionally 1
▁Fast 1
▁101 1
▁twins 1
▁briefing 1
▁inspection 1
gun 1
▁2007. 1
1,000 1
▁inclusion 1
▁por 1
▁inventory 1
▁earliest 1
▁Challenge 1
illa 1
▁emerge 1
ros 1
▁alike 1
member 1
▁resign 1
ene 1
▁Recently 1
SE 1
▁practically 1
▁curve 1
▁shortage 1
AC 1
▁graduation 1
▁grandparents 1
▁examination 1
▁motorcycle 1
59 1
sell 1
▁Egyptian 1
▁severely 1
▁encountered 1
▁conservatives 1
▁identical 1
▁instances 1
▁defendant 1
▁annoying 1
▁paintings 1
By 1
▁declaration 1
▁icon 1
▁interface 1
▁curb 1
tter 1
▁Full 1
▁dairy 1
dan 1
▁consciousness 1
val 1
▁compound 1
▁novels 1
▁securities 1
ip 1
▁reject 1
▁travelled 1
▁jazz 1
▁Patrol 1
▁Hu 1
▁FDA 1
▁Bull 1
▁socks 1
▁combine 1
▁folk 1
▁Urban 1
▁zoo 1
▁enhanced 1
how 1
-17 1
▁barrels 1
▁batting 1
Ra 1
▁tanks 1
▁yields 1
▁forming 1
▁leak 1
▁bankruptcy 1
▁grows 1
▁hybrid 1
▁Blood 1
▁shade 1
▁identifying 1
▁78 1
▁flavor 1
▁swear 1
▁Either 1
▁licensed 1
▁driveway 1
ban 1
▁blowing 1
▁secrets 1
tan 1
▁rings 1
▁Leon 1
▁Liam 1
▁centres 1
ris 1
▁Boys 1
▁donors 1
▁chasing 1
ua 1
▁Mall 1
▁complaining 1
ST 1
▁ghost 1
▁Drug 1
▁protective 1
pp 1
85 1
▁accidentally 1
▁ON 1
▁Bird 1
▁benchmark 1
▁Non 1
▁instrument 1
hill 1
▁poetry 1
▁Evan 1
▁Norman 1
▁historically 1
▁beans 1
▁Forum 1
▁criminals 1
98 1
▁LGBT 1
▁damaging 1
ending 1
▁trademark 1
▁relating 1
▁compelling 1
▁bent 1
▁needing 1
▁2004, 1
▁Beyond 1
yl 1
▁freeze 1
▁Lynch 1
-14 1
▁SP 1
▁infant 1
▁clue 1
▁Nobody 1
▁exam 1
▁thoroughly 1
▁Jen 1
▁20% 1
▁density 1
CC 1
ama 1
where 1
▁accusing 1
▁proceeded 1
▁beds 1
▁cheek 1
ata 1
IL 1
"), 1
▁conscious 1
▁functional 1
▁peer 1
▁facilitate 1
four 1
▁tossed 1
MC 1
▁headline 1
▁catches 1
▁hallway 1
▁sells 1
▁Knights 1
▁nightmare 1
▁threshold 1
▁graphic 1
▁applies 1
▁blown 1
▁evident 1
▁23- 1
▁relieved 1
▁Say 1
▁blank 1
▁cloth 1
▁credited 1
▁trophy 1
▁salad 1
▁cope 1
▁Sand 1
▁clearing 1
▁controlling 1
▁Thai 1
▁unnecessary 1
▁Heat 1
▁Support 1
▁delight 1
TA 1
▁offerings 1
▁radiation 1
▁Box 1
▁crops 1
▁fortune 1
▁Tree 1
▁screamed 1
▁Together 1
100 1
▁mixture 1
▁avoiding 1
▁listing 1
▁belonged 1
ela 1
▁Riley 1
▁rope 1
▁preseason 1
▁blonde 1
▁neighborhoods 1
▁Shortly 1
▁assuming 1
51 1
show 1
▁Transport 1
▁bleeding 1
▁memorable 1
▁permitted 1
▁Set 1
▁apologized 1
▁mature 1
▁uncertain 1
▁lighter 1
▁Agreement 1
pound 1
▁Den 1
▁Summit 1
▁subtle 1
▁kinda 1
▁transformed 1
▁Obamacare 1
▁intimate 1
▁flexible 1
▁horizon 1
▁entity 1
▁initiated 1
quality 1
▁characteristics 1
▁speeds 1
▁plates 1
▁Schools 1
▁Cap 1
▁Wind 1
92 1
▁Brothers 1
▁13- 1
▁oversight 1
▁Pyongyang 1
▁Tor 1
▁assisted 1
▁apple 1
▁Word 1
▁guided 1
olo 1
▁Reports 1
▁conflicts 1
46 1
▁Insurance 1
▁Railway 1
▁Dawn 1
row 1
▁Cubs 1
▁declare 1
▁oven 1
▁Ban 1
▁Gun 1
ure 1
▁breakdown 1
▁Vermont 1
▁tackles 1
▁seal 1
▁Assad 1
Pro 1
▁Simpson 1
76 1
▁loyalty 1
▁Ronald 1
▁#1 1
▁Vikings 1
▁disagree 1
▁Gi 1
▁Lebanon 1
▁Grey 1
▁wars 1
▁jailed 1
▁Isaac 1
▁rolls 1
▁competed 1
cap 1
▁stabbed 1
▁Denmark 1
▁certificate 1
▁cure 1
▁1993 1
FA 1
sville 1
▁transform 1
▁DVD 1
oni 1
▁fur 1
▁(8 1
▁remainder 1
▁shelf 1
▁manual 1
af 1
▁Zach 1
▁celebrities 1
▁substitute 1
▁sighed 1
▁interactions 1
▁Porter 1
PM 1
▁intentions 1
▁opera 1
▁glanced 1
DA 1
▁Against 1
Today 1
▁supporter 1
▁smartphones 1
▁entities 1
Al 1
ea 1
48 1
▁treats 1
▁Catherine 1
▁scan 1
▁Ri 1
▁Bernie 1
▁mechanical 1
▁Common 1
▁Rescue 1
Where 1
▁Leeds 1
▁intend 1
73 1
▁Montgomery 1
▁urgent 1
▁slave 1
▁Portugal 1
▁embassy 1
▁Tiger 1
▁gut 1
▁championships 1
▁sweeping 1
▁Ba 1
▁recreational 1
▁traditionally 1
via 1
▁cage 1
▁Casey 1
▁flexibility 1
▁chef 1
▁freezing 1
▁Late 1
▁artistic 1
▁Hernandez 1
▁Throughout 1
▁shaped 1
eh 1
▁translated 1
▁bizarre 1
▁Rain 1
ians 1
▁Dam 1
▁flooded 1
▁Medicare 1
▁mouse 1
TM 1
▁Companies 1
▁reactions 1
▁mild 1
▁whispered 1
▁> 1
▁Hannah 1
▁Buhari 1
▁pause 1
▁Congressional 1
▁tonnes 1
▁firearms 1
▁Herald 1
ay 1
▁technological 1
▁blaze 1
95 1
▁strangers 1
▁Steelers 1
▁AL 1
28 1
▁sexy 1
sha 1
▁Getting 1
▁enthusiasm 1
az 1
▁Nine 1
▁workshop 1
▁sore 1
▁Nevertheless 1
▁sizes 1
▁Julia 1
▁Fi 1
lia 1
▁continent 1
▁iPad 1
▁Mas 1
card 1
▁Race 1
▁Browns 1
▁clicking 1
▁demonstration 1
▁pledge 1
▁ward 1
▁sealed 1
▁Bon 1
▁precisely 1
▁merger 1
▁1940 1
▁layers 1
▁pub 1
▁blogs 1
▁£ 1
▁Dragon 1
ped 1
▁$13 1
▁Wow 1
▁Leo 1
▁Ambassador 1
▁greeted 1
▁Half 1
39 1
▁deployment 1
▁adjacent 1
▁continuous 1
▁Curry 1
▁supposedly 1
▁Spurs 1
▁convert 1
31 1
▁Rice 1
▁1000 1
▁Tribune 1
▁Ferguson 1
▁Dale 1
▁showcase 1
rie 1
▁potatoes 1
▁literary 1
face 1
▁Sierra 1
▁sequel 1
▁snake 1
▁tends 1
▁Steel 1
-13 1
▁nuts 1
▁$14 1
▁assignment 1
▁Muhammad 1
▁Industries 1
▁consumed 1
▁heated 1
▁Link 1
▁Nicole 1
▁stakeholders 1
▁Swift 1
▁attraction 1
▁cocaine 1
▁Kat 1
▁prevention 1
▁Austria 1
MS 1
▁tropical 1
▁£2 1
▁companion 1
▁unity 1
▁Ren 1
▁sponsor 1
▁74 1
▁Kay 1
▁cotton 1
▁Players 1
▁Weinstein 1
▁Sweet 1
▁bounce 1
▁Baseball 1
▁accountable 1
▁plug 1
▁Connor 1
▁stuffed 1
▁theories 1
var 1
▁Glenn 1
▁Vi 1
▁disability 1
▁animated 1
ë 1
▁draws 1
▁vaccine 1
▁lasting 1
▁customs 1
ob 1
master 1
Then 1
▁sentencing 1
away 1
die 1
▁interpretation 1
52 1
▁DO 1
▁AG 1
▁belonging 1
after 1
▁Myanmar 1
General 1
-11 1
35 1
▁sophisticated 1
▁skirt 1
▁scattered 1
▁Housing 1
▁popped 1
▁Punjab 1
▁Editor 1
▁sensor 1
▁exercises 1
▁alien 1
first 1
▁NSW 1
oma 1
▁deserved 1
▁orbit 1
▁privately 1
▁TD 1
▁Pelosi 1
▁warn 1
▁Legislature 1
▁damages 1
mate 1
cat 1
▁freely 1
72 1
▁flags 1
▁81 1
▁hyper 1
▁licensing 1
▁flagship 1
lie 1
din 1
▁flowing 1
▁jaw 1
▁inspire 1
▁financially 1
▁ethics 1
▁Julian 1
have 1
▁shifting 1
▁scholarship 1
post 1
▁prayed 1
▁Sandy 1
▁HD 1
eau 1
▁traditions 1
ware 1
ot 1
▁valuation 1
▁tri 1
▁styles 1
lic 1
▁Newcastle 1
▁bump 1
▁insists 1
▁Engineering 1
IN 1
▁contacts 1
▁reviewing 1
▁Writing 1
▁adapt 1
▁Des 1
▁colleges 1
▁ALL 1
▁adequate 1
▁fails 1
▁extending 1
▁electronics 1
▁Thunder 1
▁Suddenly 1
▁divisions 1
▁prince 1
▁Put 1
▁downstairs 1
▁Bus 1
▁Athletic 1
▁Chan 1
▁Shanghai 1
▁jewelry 1
▁Heather 1
4,000 1
▁exceptional 1
his 1
▁establishing 1
▁corrupt 1
▁notified 1
▁northwest 1
action 1
▁rapper 1
▁documented 1
▁indigenous 1
▁84 1
▁} 1
▁Bre 1
▁neat 1
▁glance 1
ON 1
clock 1
zu 1
▁nicely 1
▁divide 1
▁mounted 1
▁11- 1
▁drill 1
▁spite 1
▁blockchain 1
▁Kashmir 1
because 1
RA 1
▁Metropolitan 1
▁amateur 1
▁Goldman 1
▁prompting 1
▁PR 1
▁seniors 1
▁postseason 1
pictured 1
EL 1
▁Going 1
▁Agriculture 1
▁anthem 1
▁thumb 1
▁permits 1
▁MVP 1
▁cart 1
▁Indigenous 1
LY 1
▁Kirk 1
▁1991 1
▁Interior 1
ans 1
▁manages 1
▁Henderson 1
three 1
▁appreciation 1
▁cancel 1
▁gig 1
▁700 1
▁offshore 1
▁internationally 1
SS 1
▁u 1
58 1
▁consulting 1
▁Uncle 1
▁Card 1
Your 1
▁dive 1
▁mill 1
▁hurts 1
▁Dear 1
story 1
▁pilots 1
▁disclose 1
▁Give 1
▁leaning 1
pin 1
RC 1
▁waking 1
Picture 1
▁corners 1
▁Greater 1
▁Mer 1
07 1
▁LP 1
▁Reading 1
▁Honda 1
▁grades 1
▁suburban 1
size 1
▁averaging 1
▁Nicholas 1
▁pockets 1
▁Southeast 1
▁hatred 1
▁raped 1
▁dare 1
▁Morrison 1
▁lawn 1
▁references 1
▁sharply 1
▁Revenue 1
▁certified 1
▁physician 1
wo 1
▁introducing 1
▁Rugby 1
stop 1
▁Drake 1
▁receives 1
▁Huawei 1
▁Seth 1
▁advisory 1
▁Century 1
▁Marco 1
▁Homeland 1
▁Starbucks 1
▁Universal 1
tis 1
▁Twenty 1
▁alter 1
uri 1
▁equities 1
▁insane 1
▁Triple 1
ks 1
▁ramp 1
▁kicks 1
▁Masters 1
▁aide 1
▁Ab 1
▁capability 1
▁trace 1
▁Sheffield 1
▁bored 1
▁desired 1
▁Tickets 1
▁patent 1
▁serial 1
IS 1
▁Ah 1
▁tub 1
▁Deep 1
▁Help 1
▁occupation 1
▁Environment 1
▁Sullivan 1
▁Lt 1
▁contractor 1
▁suits 1
▁Manning 1
▁List 1
▁classical 1
▁AC 1
▁sheer 1
▁treaty 1
door 1
▁Kardashian 1
▁printing 1
▁Coalition 1
▁nearest 1
▁ma 1
▁troubled 1
▁Ge 1
▁excessive 1
▁password 1
screen 1
▁pitching 1
SA 1
▁Gandhi 1
▁mice 1
▁distinction 1
▁navigate 1
▁Mama 1
elli 1
mark 1
▁Brent 1
▁Owen 1
▁vertical 1
vis 1
▁Mourinho 1
▁lover 1
▁priced 1
▁hint 1
Even 1
May 1
▁hence 1
▁Norwegian 1
▁enabled 1
▁proportion 1
▁grain 1
kan 1
▁palm 1
▁decorated 1
▁predecessor 1
▁Pass 1
▁organ 1
▁Budget 1
▁lazy 1
▁identification 1
▁TODAY 1
▁Article 1
▁Years 1
TS 1
▁facial 1
▁belongs 1
▁Cu 1
▁mo 1
meter 1
▁1- 1
▁shield 1
▁Ralph 1
▁$200 1
▁accidents 1
▁Base 1
▁elevated 1
▁mm 1
▁appointments 1
▁chin 1
hard 1
▁0.1 1
▁smiles 1
Po 1
▁lawsuits 1
strong 1
▁3-0 1
▁lonely 1
▁organize 1
put 1
▁Delaware 1
act 1
▁sensors 1
▁infected 1
▁technically 1
▁Tottenham 1
▁skilled 1
▁Privacy 1
▁Tomorrow 1
▁repairs 1
▁exchanged 1
▁Grove 1
▁satisfaction 1
▁Mind 1
▁$16 1
▁1989 1
▁Relations 1
▁cu 1
▁skip 1
▁expectation 1
▁chemistry 1
▁Except 1
▁Villa 1
▁Daniels 1
▁aging 1
▁coins 1
tier 1
EC 1
▁southeast 1
▁indicator 1
▁architect 1
▁startup 1
▁lung 1
▁texts 1
▁embarrassed 1
▁Animal 1
▁poem 1
▁scare 1
▁3.5 1
other 1
▁tablet 1
▁Bro 1
▁79 1
▁wheelchair 1
▁costly 1
▁bothered 1
aki 1
▁Consumer 1
▁forgive 1
Thank 1
God 1
"). 1
▁NC 1
Because 1
▁shouting 1
▁dragon 1
▁Earl 1
▁canceled 1
▁beneficial 1
▁holy 1
▁Eagle 1
▁bucket 1
▁evaluation 1
▁40- 1
▁Elementary 1
▁revenge 1
▁suppliers 1
▁bombs 1
▁recruiting 1
▁abandon 1
▁Colombia 1
▁paperwork 1
▁shifts 1
▁negotiating 1
▁pad 1
▁poster 1
▁limitations 1
lar 1
,500 1
▁nail 1
▁admits 1
▁retained 1
▁2000, 1
too 1
boy 1
▁Thomson 1
▁Lynn 1
▁floors 1
▁fierce 1
▁indictment 1
▁charts 1
▁sigh 1
Ha 1
▁sadness 1
▁dam 1
▁(10 1
▁surviving 1
▁clever 1
bridge 1
▁declining 1
▁convenient 1
rock 1
▁Louisville 1
▁threaten 1
▁firearm 1
▁starred 1
▁sweep 1
burn 1
▁recognised 1
▁protections 1
▁Honor 1
▁88 1
▁absent 1
▁Similarly 1
▁Private 1
▁miracle 1
▁creativity 1
▁confronted 1
▁Modern 1
▁disappear 1
▁pills 1
▁graphics 1
▁chains 1
▁Czech 1
▁keyboard 1
▁protocol 1
▁sticks 1
▁liver 1
▁Barnes 1
iv 1
▁consultation 1
▁portrait 1
▁HBO 1
▁Stop 1
▁drilling 1
▁whoever 1
▁economist 1
▁jurisdiction 1
▁Berkeley 1
▁Ob 1
▁southwest 1
▁Racing 1
▁incumbent 1
▁Imagine 1
▁entries 1
NA 1
▁viable 1
▁grin 1
▁Quinn 1
ona 1
ations 1
▁wiped 1
▁Ph 1
ps 1
AD 1
▁sends 1
▁stays 1
▁Lab 1
▁experiments 1
Of 1
▁Try 1
▁stones 1
▁Palmer 1
▁Stay 1
▁Studios 1
▁Leave 1
▁Cuban 1
▁McCarthy 1
▁Sudan 1
▁Wallace 1
onic 1
▁rang 1
▁gesture 1
▁drank 1
cu 1
▁Reynolds 1
▁composition 1
▁Tre 1
▁adorable 1
▁ladder 1
▁lacking 1
▁zones 1
!!! 1
▁anchor 1
▁Em 1
▁creator 1
▁licence 1
▁Abe 1
▁Jazz 1
▁stack 1
▁Zone 1
▁Criminal 1
▁bearing 1
Or 1
9,000 1
▁Aunt 1
▁Email 1
▁magazines 1
▁probation 1
▁Gates 1
▁permanently 1
▁Kurdish 1
site 1
▁fabulous 1
ert 1
▁h 1
▁puppy 1
▁medals 1
zer 1
▁accessed 1
▁themes 1
▁willingness 1
▁sandwich 1
▁Kai 1
▁Crystal 1
▁achieving 1
▁audit 1
ali 1
▁$500 1
▁Training 1
▁Holland 1
▁cruel 1
▁rankings 1
▁greenhouse 1
▁FOR 1
▁2006. 1
▁evaluate 1
▁derived 1
▁lending 1
▁lone 1
▁Florence 1
▁advances 1
▁Kit 1
▁harmful 1
▁heroin 1
weight 1
▁Rebecca 1
▁awaiting 1
▁Asset 1
▁deliberately 1
▁aluminum 1
▁stunned 1
▁Hitler 1
▁Pra 1
▁essay 1
62 1
Look 1
▁prohibited 1
bin 1
▁Chancellor 1
▁Usually 1
▁Living 1
▁watches 1
▁massacre 1
▁respondents 1
▁Nova 1
mal 1
▁structural 1
▁experimental 1
▁marking 1
▁0.5 1
▁vacuum 1
▁palace 1
▁flee 1
▁Trevor 1
▁cooler 1
▁outer 1
ica 1
▁affiliate 1
▁trails 1
▁mega 1
▁Better 1
▁nationally 1
▁favorable 1
▁86 1
▁endorsed 1
▁blogging 1
▁87 1
▁MD 1
coming 1
▁suck 1
▁bikes 1
▁92 1
▁rebuild 1
▁UP 1
▁Cash 1
▁unhappy 1
▁achievements 1
▁porn 1
▁Lanka 1
▁toddler 1
▁profitable 1
▁orientation 1
▁Gallery 1
▁Draft 1
▁marketplace 1
▁Wang 1
▁defenders 1
▁overhaul 1
▁backwards 1
▁DA 1
▁arc 1
▁slated 1
▁Brock 1
▁aiming 1
▁Student 1
▁offences 1
▁packing 1
▁welcoming 1
▁stripped 1
▁op 1
▁pa 1
23 1
▁stakes 1
▁Joint 1
▁boxing 1
▁Lloyd 1
44 1
47 1
▁7:30 1
▁alternate 1
▁GMT 1
▁si 1
▁regards 1
▁Fans 1
▁Prof 1
▁slowing 1
▁void 1
▁appealed 1
▁Adrian 1
▁(9 1
▁Movement 1
▁Gro 1
▁outrage 1
▁consisted 1
▁Shore 1
05 1
▁counterparts 1
▁nod 1
▁hilarious 1
▁Bee 1
gy 1
▁neighboring 1
▁tribe 1
bs 1
▁rhythm 1
▁shelves 1
▁Political 1
▁forecasts 1
500 1
▁83 1
Here 1
▁Bella 1
▁expressing 1
▁gates 1
▁rebound 1
▁Thankfully 1
dal 1
▁Globe 1
▁Fo 1
▁referee 1
▁embarrassing 1
▁Blair 1
▁ports 1
wi 1
▁Idaho 1
▁arguably 1
▁Richardson 1
▁conclude 1
▁harvest 1
▁denies 1
▁suburb 1
.0% 1
▁inaugural 1
▁Kam 1
▁Tea 1
▁Holmes 1
▁competitions 1
▁showers 1
▁matchup 1
▁Eight 1
▁insiders 1
▁timeline 1
▁billionaire 1
▁Duncan 1
ati 1
▁FOX 1
▁enforce 1
aw 1
▁robots 1
▁gunman 1
take 1
▁lightning 1
55 1
▁Seoul 1
▁depressed 1
read 1
▁Working 1
ase 1
▁angel 1
▁empire 1
▁Bulls 1
▁reluctant 1
▁USB 1
▁dip 1
▁oral 1
▁Newton 1
▁finances 1
▁homicide 1
▁tightly 1
▁Construction 1
▁subscribe 1
▁hostile 1
83 1
▁provinces 1
▁Stuart 1
▁Lily 1
▁edited 1
▁helmet 1
▁defendants 1
nic 1
Every 1
▁subscribers 1
▁Olivia 1
▁Joy 1
▁Walk 1
▁Ze 1
▁concepts 1
▁miserable 1
▁sidewalk 1
▁deceased 1
rick 1
▁2003, 1
▁BMW 1
▁Kerry 1
▁Immigration 1
▁apartments 1
such 1
shaped 1
▁concentrate 1
▁accounted 1
▁Harbor 1
▁fog 1
▁Starting 1
▁buttons 1
▁embedded 1
▁fleeing 1
▁unconscious 1
34 1
▁UCLA 1
▁Abdul 1
▁realm 1
▁embraced 1
▁Strong 1
▁contractors 1
▁Carroll 1
▁pays 1
▁110 1
▁Fan 1
▁Falcons 1
Source 1
▁considers 1
Le 1
▁Ste 1
▁epidemic 1
▁GPS 1
▁terrified 1
▁adventures 1
▁breeze 1
▁bits 1
▁recruit 1
▁triumph 1
▁Min 1
▁translation 1
▁persistent 1
▁rub 1
▁Wing 1
▁PHOTO 1
ions 1
▁incorporated 1
▁physics 1
▁filter 1
▁Gil 1
▁Rosa 1
▁Gibson 1
▁precise 1
▁Ethan 1
▁knocking 1
ical 1
ther 1
▁semester 1
▁hunger 1
▁anticipate 1
▁cheer 1
▁salaries 1
▁Tel 1
▁organizers 1
▁Bor 1
▁accessories 1
minded 1
▁aides 1
▁dug 1
▁Pompeo 1
▁MLS 1
▁Andrea 1
SP 1
grade 1
▁Sgt 1
▁obligation 1
▁parish 1
▁gloves 1
▁Melissa 1
▁runway 1
▁1.2 1
▁PE 1
▁kills 1
▁1988 1
▁landmark 1
▁resting 1
▁sustain 1
▁agrees 1
▁grasp 1
▁thereby 1
▁Kris 1
▁doubles 1
▁Days 1
▁lightly 1
▁undermine 1
▁Dana 1
▁realizing 1
anna 1
RE 1
▁lied 1
▁implementing 1
▁arch 1
▁Peterson 1
▁genes 1
human 1
▁AD 1
▁Southwest 1
▁Making 1
▁50- 1
▁celebrations 1
▁forty 1
▁handy 1
NO 1
▁reunion 1
▁municipality 1
▁camping 1
▁Stephanie 1
▁strictly 1
▁Char 1
▁Jeffrey 1
▁backlash 1
▁Advisors 1
bal 1
▁exploded 1
Mr 1
▁Glasgow 1
▁Shop 1
▁instructed 1
▁2001, 1
▁Ky 1
▁cinema 1
▁Amber 1
▁fireworks 1
▁observe 1
▁careers 1
lyn 1
▁Commander 1
▁3-1 1
▁detected 1
▁Corbyn 1
▁Tory 1
▁dumb 1
▁dried 1
▁Shane 1
▁Member 1
▁Com 1
▁Kal 1
▁jam 1
▁accountability 1
ele 1
▁eleven 1
▁clarity 1
FC 1
▁economics 1
▁compiled 1
▁Emmanuel 1
▁magnitude 1
% 1
nu 1
▁amazed 1
▁Works 1
▁0.2 1
▁detective 1
▁inauguration 1
▁treasure 1
fish 1
▁dawn 1
iest 1
▁tense 1
33 1
▁2.0 1
▁observation 1
▁Megan 1
▁94 1
$1 1
▁collar 1
▁profession 1
fe 1
▁shirts 1
▁nephew 1
▁Diamond 1
▁lungs 1
▁gauge 1
▁turkey 1
ES 1
▁Erdogan 1
▁tougher 1
▁tribal 1
▁Sin 1
▁carriers 1
▁Abraham 1
▁violating 1
▁commitments 1
▁killings 1
▁incentives 1
▁evacuated 1
▁Vo 1
▁Average 1
41 1
▁Packers 1
▁gotta 1
▁nest 1
▁accent 1
▁programmes 1
▁happier 1
81 1
▁homework 1
▁Ne 1
CP 1
▁paused 1
▁wheat 1
▁Wildlife 1
▁shine 1
▁designers 1
▁wallet 1
▁ecosystem 1
▁ka 1
▁feat 1
▁testify 1
▁Ellis 1
ches 1
▁Block 1
▁caps 1
▁comparable 1
▁organizing 1
▁93 1
▁Celtics 1
▁fined 1
▁steadily 1
▁recipes 1
▁Veterans 1
▁Clarke 1
GA 1
▁Rex 1
▁bloc 1
▁united 1
▁secretly 1
▁devastated 1
▁Probably 1
▁blade 1
▁Diana 1
hander 1
▁spark 1
▁betting 1
▁bout 1
▁7- 1
File 1
▁28- 1
▁cups 1
▁indoor 1
▁servers 1
▁suite 1
▁adapted 1
78 1
▁blend 1
▁Ch 1
▁warehouse 1
▁Brother 1
▁Sales 1
▁execute 1
▁contents 1
▁syndrome 1
▁puzzle 1
▁restoration 1
▁situated 1
powered 1
▁Case 1
▁fraction 1
▁Randy 1
84 1
▁NPR 1
▁WA 1
▁RCMP 1
▁sneak 1
/2 1
▁distracted 1
▁Dance 1
▁securing 1
▁duration 1
▁Es 1
▁Lagos 1
▁obligations 1
▁enables 1
AS 1
▁casino 1
Day 1
▁pig 1
▁unaware 1
▁Bin 1
mel 1
▁Cho 1
Brien 1
dor 1
▁Workers 1
▁digging 1
▁beast 1
▁starters 1
▁travels 1
▁inequality 1
gu 1
▁extract 1
kg 1
▁interactive 1
▁Lower 1
▁Chile 1
▁reiterated 1
▁clerk 1
▁drones 1
▁tire 1
▁grandson 1
▁milestone 1
▁trim 1
▁fist 1
▁Cricket 1
▁edges 1
▁sa 1
▁passport 1
▁Bu 1
any 1
09 1
▁Survey 1
hole 1
▁profound 1
▁practicing 1
74 1
▁elevator 1
▁yen 1
▁Glass 1
▁hacking 1
▁Canyon 1
▁comedian 1
▁ignoring 1
ec 1
▁projections 1
▁ritual 1
▁26- 1
▁essence 1
mat 1
cal 1
▁accurately 1
▁Seahawks 1
▁tires 1
▁Pac 1
▁fond 1
▁booth 1
link 1
controlled 1
ME 1
▁crystal 1
▁poses 1
ranked 1
▁$40 1
▁91 1
▁Maduro 1
DE 1
▁Winnipeg 1
▁insist 1
DS 1
▁Devils 1
▁imported 1
aba 1
Pacific 1
▁Salman 1
▁weekends 1
gue 1
▁Gay 1
also 1
ub 1
▁VA 1
▁constituency 1
▁parole 1
rus 1
▁criticised 1
▁Guide 1
▁renamed 1
▁debuted 1
▁frankly 1
▁snack 1
▁waved 1
▁Virgin 1
bad 1
▁cracked 1
▁Boulevard 1
▁colored 1
▁wasted 1
▁Fine 1
▁cognitive 1
ock 1
wise 1
▁cigarette 1
▁Ce 1
▁processed 1
▁favorites 1
▁adaptation 1
▁pitches 1
▁Windsor 1
▁bell 1
▁LONDON 1
▁rap 1
4, 1
nce 1
OK 1
gal 1
▁lesser 1
3. 1
▁Liberals 1
▁hay 1
when 1
▁reign 1
▁Fargo 1
▁confusing 1
▁dumped 1
▁aggravated 1
▁Edge 1
▁toast 1
ib 1
▁laser 1
▁Gu 1
driven 1
▁disabilities 1
▁Banks 1
▁Batman 1
▁52- 1
▁Sol 1
▁Abbott 1
hood 1
▁Grandma 1
▁mosque 1
▁EP 1
▁faithful 1
rat 1
▁scholars 1
▁Curtis 1
▁Self 1
▁shorts 1
▁positioned 1
▁Heights 1
▁Rodgers 1
▁thrust 1
verse 1
▁Malcolm 1
▁Ellen 1
▁pill 1
▁Mur 1
▁placement 1
▁shallow 1
▁crackdown 1
PL 1
ral 1
▁1984 1
▁outlined 1
▁Contact 1
▁cousins 1
una 1
▁bipartisan 1
pen 1
▁Mis 1
▁Markle 1
:00 1
▁baking 1
front 1
▁gambling 1
▁Nasdaq 1
▁tin 1
▁inspiring 1
▁Vol 1
▁Bristol 1
▁intends 1
▁Province 1
▁Shu 1
bus 1
▁Trophy 1
▁Bernard 1
billion 1
▁ballots 1
▁Poor 1
# 1
Ta 1
▁vacant 1
▁alternatives 1
qua 1
▁presenting 1
▁Fourth 1
▁180 1
wick 1
▁dedication 1
77 1
▁Chargers 1
▁hurry 1
▁Andre 1
▁deleted 1
▁armor 1
▁neighbours 1
▁rivers 1
▁desktop 1
▁Less 1
▁FM 1
oli 1
▁GP 1
▁20,000 1
oo 1
sson 1
▁answering 1
▁Nixon 1
▁Bros 1
▁Raj 1
▁Gene 1
IC 1
▁detectives 1
▁construct 1
▁doubts 1
▁towel 1
▁Mat 1
▁consequence 1
east 1
driving 1
▁ammunition 1
order 1
▁Perez 1
▁SAN 1
▁0.3 1
▁Peninsula 1
▁hop 1
▁playground 1
▁Mills 1
oc 1
▁liability 1
▁surgeon 1
court 1
name 1
▁giants 1
▁leap 1
▁Tamil 1
▁tide 1
fall 1
▁Campaign 1
ory 1
des 1
▁Jar 1
▁Seriously 1
tie 1
▁Rush 1
▁lakh 1
▁Sue 1
ima 1
▁Researchers 1
▁overhead 1
▁Kor 1
▁Joey 1
▁fruits 1
▁demonstrations 1
▁possess 1
▁Upper 1
▁lottery 1
▁genuinely 1
▁locate 1
▁Emirates 1
▁Belgian 1
▁cease 1
▁Legal 1
▁Outside 1
▁Christine 1
▁weighing 1
thirds 1
▁Mediterranean 1
▁nickname 1
▁Ak 1
lis 1
▁horrific 1
▁130 1
▁heating 1
▁Westminster 1
▁dignity 1
▁talents 1
▁sworn 1
lam 1
▁Linux 1
▁steering 1
▁massage 1
▁es 1
▁duck 1
▁preference 1
▁legislators 1
▁subsidiary 1
▁deportation 1
Ro 1
▁gaps 1
▁disappearance 1
▁schemes 1
standing 1
▁portrayed 1
▁rallied 1
▁Tillerson 1
▁UC 1
▁Portuguese 1
▁committing 1
▁Hindu 1
TO 1
▁cord 1
▁kindness 1
▁evacuation 1
▁incentive 1
▁Minneapolis 1
▁warmer 1
22 1
▁Ring 1
▁autism 1
▁Studio 1
cor 1
▁corridor 1
▁Pearl 1
ami 1
▁MA 1
depth 1
▁hearings 1
▁batch 1
▁Tehran 1
▁Cosby 1
▁limiting 1
} 1
▁supplied 1
eri 1
▁displaced 1
▁Ruby 1
▁diaper 1
▁casualties 1
▁interrupted 1
▁pouring 1
▁tours 1
▁enabling 1
▁Spa 1
▁Caroline 1
risk 1
▁raced 1
▁Unless 1
42 1
▁intact 1
▁independently 1
▁cautious 1
▁Dolphins 1
LE 1
▁bullying 1
▁squeeze 1
eo 1
▁1986 1
▁prestigious 1
▁Sterling 1
▁diamond 1
▁fridge 1
▁crushed 1
▁performers 1
▁generating 1
▁prey 1
▁confrontation 1
▁89 1
▁fare 1
▁Weekly 1
▁rider 1
ei 1
▁Core 1
mont 1
▁GT 1
▁Welsh 1
▁MI 1
▁bargain 1
▁considerably 1
▁entrepreneurs 1
▁compassion 1
▁Baldwin 1
▁historian 1
▁shadows 1
▁relaxing 1
▁poet 1
▁Silva 1
▁cycling 1
▁(17 1
cost 1
▁Miles 1
SU 1
tri 1
▁logical 1
▁disorders 1
▁Ravens 1
▁Armed 1
▁im 1
▁Kremlin 1
▁heck 1
▁credible 1
Come 1
▁Climate 1
▁comparing 1
.25 1
▁sir 1
▁Lance 1
▁Ag 1
▁holders 1
▁ICE 1
▁proving 1
▁Annual 1
▁militant 1
▁dresses 1
▁quilt 1
From 1
▁credentials 1
▁Reply 1
▁layout 1
▁rewards 1
▁disruption 1
▁territories 1
▁outright 1
Car 1
▁8- 1
fu 1
▁elbow 1
▁minus 1
▁glow 1
▁LeBron 1
PS 1
▁Always 1
▁Durant 1
▁qualities 1
▁handsome 1
▁Grande 1
▁forests 1
tes 1
▁prisoner 1
▁Operation 1
▁venues 1
▁Faith 1
▁Holly 1
▁tolerance 1
▁curriculum 1
▁wolf 1
▁incoming 1
▁una 1
▁gardens 1
▁Pe 1
▁slavery 1
▁mentor 1
▁Les 1
▁Pierre 1
▁spine 1
▁MLB 1
”) 1
▁destroying 1
▁ordering 1
▁cemetery 1
▁ideology 1
▁reflecting 1
▁albeit 1
▁Christie 1
ening 1
▁labels 1
▁isolation 1
▁diving 1
▁corporation 1
▁distress 1
table 1
▁shareholder 1
▁forehead 1
▁Finland 1
▁Beast 1
enberg 1
▁Clay 1
▁Shin 1
▁Jackie 1
▁Start 1
▁Hamas 1
▁USC 1
▁declaring 1
▁touches 1
▁aisle 1
▁Theater 1
▁Arnold 1
▁Cookies 1
PC 1
▁MO 1
▁dies 1
▁artwork 1
▁Foods 1
.99 1
▁tendency 1
▁des 1
▁Sp 1
▁Markets 1
▁Christianity 1
▁hood 1
▁Wil 1
▁sadly 1
▁anticipation 1
▁ETF 1
▁stats 1
▁Champion 1
▁calories 1
▁medications 1
▁Cemetery 1
▁gasoline 1
▁computing 1
▁Notre 1
▁Horse 1
▁2005. 1
▁partisan 1
▁enjoys 1
▁ego 1
▁haul 1
▁Jenkins 1
far 1
▁warmth 1
▁USD 1
▁laboratory 1
▁Bachelor 1
pper 1
▁delivers 1
▁buyer 1
▁denying 1
▁differ 1
▁skull 1
▁maintains 1
▁demo 1
▁eclipse 1
▁Bruins 1
▁unacceptable 1
▁27- 1
▁throne 1
▁Leicester 1
ello 1
▁credibility 1
▁paths 1
▁SE 1
▁accommodation 1
▁subsidies 1
▁colours 1
▁1987 1
▁hammer 1
▁Pink 1
PO 1
▁tricks 1
▁bend 1
▁97 1
▁allegation 1
▁shootings 1
▁Auburn 1
▁tooth 1
▁Bra 1
▁dominate 1
▁airports 1
▁junk 1
▁handing 1
▁Pitt 1
▁Pin 1
ema 1
▁Matthews 1
▁attacker 1
▁flies 1
▁Ronaldo 1
▁academy 1
▁explicitly 1
▁explicit 1
▁Cavaliers 1
▁enrolled 1
▁containers 1
▁Lan 1
▁accelerate 1
▁rip 1
RO 1
▁HE 1
▁Bru 1
▁bicycle 1
▁presumably 1
43 1
▁atop 1
▁pond 1
tte 1
▁Stein 1
▁sensation 1
nia 1
▁bridges 1
▁partnerships 1
eye 1
▁2002, 1
▁mainland 1
▁Fun 1
▁autumn 1
▁Hispanic 1
nis 1
▁retiring 1
▁overly 1
John 1
▁96 1
▁convincing 1
▁AFC 1
▁counterpart 1
▁chill 1
▁Vatican 1
tha 1
▁stare 1
▁Clean 1
▁banner 1
▁columnist 1
big 1
▁Micro 1
▁drain 1
rum 1
▁weekday 1
▁Hungary 1
▁Enterprise 1
▁scrap 1
▁Chen 1
▁Hay 1
▁fool 1
▁poised 1
▁teaches 1
▁flown 1
▁Deal 1
▁Know 1
▁complications 1
▁Jill 1
▁hackers 1
▁automated 1
▁weaker 1
▁Jenny 1
▁Kra 1
▁Fraser 1
▁Kenny 1
▁bugs 1
▁fiber 1
cus 1
west 1
▁optimism 1
▁authentic 1
▁subway 1
▁surrender 1
▁pupils 1
▁loudly 1
generation 1
▁Beck 1
▁Inspector 1
▁Colts 1
▁locals 1
▁instructor 1
AT 1
▁scam 1
▁Tam 1
fo 1
▁pairs 1
▁abusive 1
▁lovers 1
▁fulfill 1
▁Regardless 1
▁Gregory 1
▁Mont 1
▁staged 1
▁appetite 1
▁twisted 1
anti 1
▁paired 1
▁inbox 1
▁Ser 1
▁pork 1
▁relay 1
▁Wonder 1
▁Simmons 1
▁naval 1
AR 1
▁thrive 1
▁hiking 1
▁mansion 1
▁CITY 1
▁ho 1
▁advantages 1
▁charm 1
lit 1
▁likelihood 1
▁Disease 1
▁Northwest 1
▁Historic 1
Hi 1
▁Customs 1
▁Grade 1
▁shipped 1
▁mat 1
▁donor 1
▁streams 1
▁mindset 1
▁Tra 1
▁sliding 1
▁afterward 1
.75 1
▁cultures 1
▁compact 1
▁Imperial 1
▁verify 1
His 1
▁habitat 1
▁Silicon 1
bel 1
▁visitor 1
38 1
▁Mets 1
▁Kin 1
▁sacks 1
zy 1
▁Var 1
▁pepper 1
▁140 1
base 1
▁Ry 1
▁dangers 1
▁Zoo 1
ep 1
▁justified 1
▁drum 1
going 1
wall 1
▁Nar 1
▁Je 1
37 1
▁denial 1
ridge 1
▁educate 1
▁functioning 1
▁mobility 1
ido 1
▁Armstrong 1
▁offenders 1
▁specialty 1
▁airlines 1
▁economists 1
Na 1
▁Mag 1
▁namely 1
▁Raymond 1
▁Culture 1
SO 1
▁BE 1
running 1
bra 1
▁spill 1
▁stiff 1
▁tracked 1
▁intensive 1
▁slaves 1
▁withdrew 1
▁Welcome 1
▁revelation 1
▁Munich 1
piece 1
▁IP 1
▁employ 1
▁rounded 1
▁scent 1
▁sucked 1
▁complexity 1
▁graduating 1
▁joked 1
▁Interstate 1
ade 1
▁homer 1
eg 1
▁poison 1
▁spinning 1
▁Titans 1
▁seasonal 1
▁Stevens 1
▁Hand 1
▁directing 1
▁1985 1
▁failures 1
▁sponsors 1
▁shoppers 1
▁LED 1
93 1
▁Gal 1
▁Planning 1
▁infamous 1
▁presently 1
▁comics 1
▁inability 1
▁Chu 1
▁obstacles 1
▁metro 1
▁Verizon 1
▁parenting 1
▁Mah 1
-25 1
finals 1
▁Op 1
▁sunshine 1
▁ferry 1
El 1
▁echoed 1
▁litigation 1
▁98 1
▁expose 1
▁Dal 1
▁therapist 1
▁someday 1
▁accordance 1
▁daddy 1
▁Voice 1
▁railroad 1
▁Ros 1
▁cows 1
▁LG 1
▁coupled 1
▁bilateral 1
▁collections 1
▁processor 1
▁skies 1
▁slim 1
▁Hat 1
▁tuition 1
breaking 1
▁breasts 1
though 1
▁Alexa 1
▁Finals 1
ux 1
▁elder 1
▁critically 1
▁Conservatives 1
▁mob 1
chan 1
▁altered 1
nal 1
▁Coleman 1
app 1
▁tricky 1
▁instrumental 1
▁recalls 1
▁Sharks 1
▁seated 1
▁switching 1
step 1
▁thorough 1
▁turnout 1
▁Chair 1
▁volatile 1
08 1
▁celebrates 1
▁deposits 1
through 1
▁mi 1
▁owe 1
▁farther 1
▁Below 1
▁Representative 1
▁needle 1
▁hooked 1
▁9/11 1
▁clearance 1
▁Arctic 1
▁dock 1
03 1
▁crush 1
▁lacked 1
▁Made 1
▁bust 1
▁cornerback 1
sley 1
cur 1
▁’” 1
▁cheating 1
▁grabbing 1
▁accord 1
▁Enforcement 1
▁vibrant 1
▁QB 1
author 1
▁contested 1
▁den 1
▁kidney 1
▁utilities 1
▁ensemble 1
▁rainfall 1
▁voluntary 1
▁Sat 1
▁Liz 1
▁humble 1
▁separately 1
▁surveyed 1
mit 1
▁statewide 1
▁Alzheimer 1
▁Residents 1
▁detection 1
▁Nate 1
▁Sally 1
ified 1
▁neighbourhood 1
▁descent 1
▁Additional 1
® 1
▁Sophie 1
▁taxpayer 1
▁Sho 1
▁joins 1
press 1
▁Nike 1
▁rejection 1
▁preview 1
▁promptly 1
▁solidarity 1
▁Yahoo 1
▁CT 1
▁Flash 1
▁Para 1
▁colorful 1
▁pedestrian 1
▁vegan 1
▁buzz 1
▁lining 1
▁3-2 1
▁Pu 1
filled 1
▁infections 1
▁Echo 1
▁crashing 1
▁migrant 1
-21 1
▁tuned 1
▁suburbs 1
gel 1
▁Reds 1
▁borrowing 1
▁soundtrack 1
great 1
space 1
▁Mack 1
ori 1
▁ethical 1
▁administrator 1
ila 1
▁relied 1
▁bride 1
▁Haven 1
▁Lang 1
▁Burns 1
▁lobbying 1
▁capitalization 1
stock 1
▁stumbled 1
▁6:30 1
▁environments 1
▁currencies 1
▁undergo 1
▁Annie 1
▁searches 1
▁Jacksonville 1
▁varied 1
▁kidnapping 1
ration 1
▁Sharon 1
▁spends 1
▁stint 1
▁advancing 1
▁Table 1
▁Victorian 1
▁j 1
▁RE 1
▁messaging 1
lla 1
▁Derby 1
▁Flight 1
▁liquor 1
▁$18 1
▁Presidential 1
ture 1
China 1
▁substantially 1
▁Mick 1
▁advisers 1
cia 1
▁Kara 1
▁Walsh 1
▁Martha 1
▁gratitude 1
▁30% 1
▁defeating 1
▁HR 1
▁wears 1
▁Kushner 1
▁recycling 1
▁cheeks 1
pers 1
core 1
▁smashed 1
third 1
▁ruin 1
▁beaches 1
▁bitch 1
▁settling 1
▁Brighton 1
▁disputed 1
ments 1
▁Bit 1
▁Soccer 1
▁purely 1
▁fixing 1
▁colonial 1
▁Senators 1
▁Sr 1
▁enters 1
▁Professional 1
▁deploy 1
▁headache 1
▁premises 1
▁erupted 1
Lo 1
▁rat 1
▁disposal 1
▁Mum 1
▁encourages 1
▁Chip 1
black 1
▁Universe 1
▁Truth 1
▁$100,000 1
▁supermarket 1
▁conclusions 1
gle 1
▁lol 1
▁observations 1
▁Fool 1
ora 1
bury 1
▁manufactured 1
▁Bannon 1
▁Peru 1
▁breakthrough 1
▁Books 1
▁Messi 1
▁sacred 1
▁pursued 1
▁Inn 1
MO 1
▁Emperor 1
▁enjoyable 1
stage 1
ose 1
▁fictional 1
ET 1
▁leagues 1
▁shuttle 1
▁scenarios 1
▁Corey 1
▁stove 1
▁Hello 1
▁NDP 1
▁Kil 1
▁suited 1
▁fitted 1
▁rented 1
▁remembering 1
▁crawl 1
▁lion 1
▁rude 1
%) 1
▁advisor 1
▁pulls 1
yu 1
▁Zo 1
aj 1
uma 1
Black 1
▁Hor 1
▁NSA 1
▁recognise 1
▁cooperate 1
▁quotes 1
▁Zuckerberg 1
▁hack 1
04 1
power 1
mes 1
▁instruction 1
▁Broad 1
bert 1
▁socialist 1
▁wishing 1
family 1
?! 1
gas 1
▁disputes 1
▁submission 1
▁Branch 1
▁Spider 1
▁invisible 1
▁terribly 1
ious 1
▁UAE 1
▁Fear 1
▁Winston 1
▁Erin 1
▁assumptions 1
▁Die 1
dollar 1
dia 1
ash 1
▁Reddit 1
▁las 1
rah 1
▁IBM 1
▁voiced 1
log 1
▁concentrated 1
▁inherited 1
▁Jam 1
▁stretching 1
▁Janet 1
▁divorced 1
▁rested 1
▁intentionally 1
▁encouragement 1
government 1
▁cryptocurrency 1
▁verse 1
▁absorb 1
▁associates 1
▁leaf 1
▁psychology 1
▁revolutionary 1
▁merit 1
▁minorities 1
▁Rad 1
▁dominance 1
▁Performance 1
digit 1
▁jersey 1
▁terrifying 1
IP 1
▁doll 1
▁generic 1
ae 1
▁Ivan 1
▁Danish 1
▁Ultimately 1
▁lid 1
▁Fri 1
▁honors 1
▁endured 1
▁trunk 1
▁wrongdoing 1
▁useless 1
▁50,000 1
▁observers 1
▁kissing 1
▁Papa 1
▁vague 1
something 1
▁civic 1
▁Solutions 1
▁ca 1
▁1979 1
▁inviting 1
▁curse 1
▁routinely 1
▁Eye 1
▁choir 1
▁utterly 1
▁Update 1
▁portal 1
▁monument 1
▁Ground 1
▁tucked 1
▁32- 1
▁rational 1
▁flank 1
▁40% 1
▁travelers 1
▁Medal 1
▁Ly 1
▁tier 1
▁Travel 1
▁concerts 1
▁nutrition 1
▁Java 1
commerce 1
▁behave 1
▁yarn 1
▁(16 1
▁cooling 1
▁supplier 1
▁Mommy 1
▁smoothly 1
▁tee 1
hal 1
▁unlimited 1
ago 1
▁baked 1
▁Omar 1
nie 1
▁confront 1
▁occurring 1
▁immense 1
▁shining 1
Okay 1
▁measuring 1
▁demon 1
▁Pictures 1
▁1982 1
▁$17 1
BC 1
▁boarding 1
▁Duterte 1
▁AS 1
▁Panama 1
▁stamp 1
▁bounced 1
nick 1
▁Aviation 1
▁Sebastian 1
▁gods 1
▁Fashion 1
▁devil 1
▁roller 1
▁GE 1
▁Judiciary 1
▁4,000 1
▁glorious 1
▁renowned 1
▁servants 1
▁Often 1
:) 1
▁Investigation 1
▁delicate 1
▁Buck 1
▁Zen 1
▁Burke 1
▁cigarettes 1
▁pharmaceutical 1
▁Maggie 1
▁sanctuary 1
▁masses 1
dom 1
▁ballistic 1
▁Ji 1
cast 1
President 1
▁mounting 1
▁spun 1
▁scorer 1
▁Nissan 1
▁fines 1
▁owed 1
▁refusal 1
▁loads 1
▁GO 1
▁backpack 1
▁wreck 1
▁eventual 1
▁SS 1
▁5% 1
▁beautifully 1
▁touring 1
Un 1
▁bureau 1
▁murders 1
▁2004. 1
▁bowling 1
▁umbrella 1
▁lounge 1
▁specialized 1
Mar 1
▁Freeman 1
aging 1
▁attendees 1
▁issuing 1
▁goalie 1
▁refuses 1
▁injection 1
▁Strip 1
▁fold 1
ser 1
Please 1
iff 1
fold 1
hen 1
▁Nat 1
▁DE 1
▁Sharma 1
▁ER 1
▁tribes 1
Maybe 1
▁Rai 1
▁MY 1
▁160 1
▁courtroom 1
say 1
▁annoyed 1
hop 1
▁winger 1
▁Confederate 1
▁terrain 1
▁CR 1
nell 1
▁rallies 1
▁laughs 1
▁dynamics 1
▁tournaments 1
sic 1
tax 1
ets 1
▁Hawks 1
▁dull 1
▁Opera 1
▁invented 1
AF 1
▁faded 1
▁assessed 1
▁graduates 1
▁Seeking 1
▁licenses 1
▁commodity 1
HS 1
▁Mus 1
▁potato 1
▁Perth 1
▁poly 1
▁Maple 1
▁Sadly 1
▁Prix 1
▁objectives 1
▁Rivers 1
▁Belt 1
▁Gate 1
zen 1
▁resumed 1
▁Cody 1
▁assassination 1
▁tariff 1
▁distinctive 1
html 1
▁finishes 1
▁Estate 1
selling 1
▁advise 1
▁acquisitions 1
▁7. 1
▁contributor 1
▁Originally 1
▁Finn 1
▁Actor 1
▁shark 1
▁VI 1
kel 1
▁analytics 1
▁applicants 1
pointers 1
▁29- 1
mie 1
â 1
▁Author 1
▁misleading 1
br 1
▁recipient 1
▁genius 1
▁regulator 1
▁exploit 1
tur 1
▁Robertson 1
▁variable 1
▁Mari 1
▁forthcoming 1
▁skeptical 1
▁superstar 1
▁Rail 1
▁flipped 1
▁Hopkins 1
▁factories 1
“ 1
▁Meyer 1
▁Cut 1
▁aggression 1
▁folded 1
▁dessert 1
▁Coming 1
▁stir 1
▁1) 1
body 1
▁nationalist 1
love 1
▁obsessed 1
▁preparations 1
▁$10,000 1
▁Kha 1
▁soda 1
▁Joan 1
▁Step 1
▁administrators 1
▁Naval 1
▁Bat 1
▁Darren 1
▁Gilbert 1
media 1
kov 1
▁clashes 1
NC 1
▁Superior 1
▁competitor 1
▁FCC 1
▁Double 1
ees 1
▁alley 1
▁Circle 1
HA 1
fan 1
▁Thor 1
▁assumption 1
▁alleging 1
▁alleges 1
▁dealer 1
▁Nice 1
▁Switch 1
▁Carrie 1
▁restrict 1
▁continually 1
▁breed 1
acre 1
▁mu 1
USA 1
▁Edition 1
▁supervisor 1
IM 1
▁notorious 1
▁admitting 1
▁solved 1
▁sank 1
▁rises 1
lands 1
▁theaters 1
▁prizes 1
▁consume 1
▁shapes 1
▁Adelaide 1
▁Shawn 1
CBS 1
▁corresponding 1
aged 1
▁launches 1
▁sh 1
▁Donna 1
▁Operations 1
▁Sister 1
▁1999, 1
▁Erik 1
iti 1
▁slice 1
▁connectivity 1
▁oath 1
▁Dee 1
▁unsure 1
sur 1
▁dealers 1
▁Otherwise 1
▁algorithm 1
ole 1
▁regain 1
Buy 1
▁priests 1
ova 1
▁RT 1
building 1
▁consistency 1
▁tenants 1
TR 1
▁chickens 1
▁shrugged 1
▁navy 1
▁affiliated 1
matic 1
▁marched 1
▁Wait 1
▁particles 1
▁certification 1
▁chased 1
▁Mt 1
▁mercy 1
Vi 1
▁shout 1
▁binding 1
▁Roth 1
▁lecture 1
largest 1
▁punished 1
▁continuously 1
▁HERE 1
▁Range 1
ante 1
▁smallest 1
▁tattoo 1
▁vintage 1
▁spacecraft 1
▁Aside 1
DP 1
aya 1
PD 1
▁pillow 1
▁surplus 1
▁Jess 1
▁Louise 1
▁lucrative 1
▁Wyoming 1
▁Jail 1
See 1
▁reversed 1
▁Shadow 1
▁uncovered 1
▁DH 1
nik 1
▁publications 1
▁buddy 1
▁hats 1
▁noble 1
▁kidding 1
▁Title 1
fin 1
▁Close 1
▁elect 1
▁Critics 1
people 1
▁speeches 1
▁IRS 1
▁crashes 1
▁inclusive 1
▁boundary 1
▁cement 1
▁selfish 1
▁subjected 1
▁PlayStation 1
▁1983 1
▁snacks 1
pan 1
EA 1
▁Opposition 1
▁ruined 1
▁risky 1
▁watchdog 1
▁Brand 1
uka 1
­ 1
▁locks 1
Get 1
▁Shannon 1
▁borrow 1
▁spouse 1
▁Nobel 1
pointer 1
▁Cro 1
▁Hassan 1
▁Face 1
6, 1
▁Davidson 1
▁hi 1
▁diplomats 1
▁Walt 1
▁flour 1
▁$1.5 1
▁Luther 1
▁logistics 1
▁freak 1
▁characterized 1
▁naming 1
▁forensic 1
▁fundraiser 1
▁contracted 1
▁Slam 1
▁Independence 1
held 1
om 1
▁Saskatchewan 1
▁allocation 1
▁confidential 1
▁gravity 1
▁princess 1
▁reasonably 1
▁feminist 1
ox 1
▁rehabilitation 1
▁Apart 1
▁bullets 1
▁Fat 1
▁Kerr 1
▁recruitment 1
▁Detective 1
▁Growth 1
horn 1
▁McGregor 1
▁emphasized 1
▁Bulldogs 1
BA 1
▁2) 1
watch 1
▁ashamed 1
▁owing 1
▁furious 1
▁Diane 1
▁Gonzalez 1
▁jealous 1
▁Med 1
▁tasked 1
▁Crawford 1
▁assembled 1
▁tipped 1
▁Ve 1
mu 1
▁questionable 1
▁Hundreds 1
city 1
▁shiny 1
▁varying 1
▁newer 1
▁Horn 1
▁LOL 1
▁departed 1
▁broadly 1
▁Ask 1
▁float 1
SD 1
▁upward 1
▁Wilder 1
▁neo 1
▁quo 1
▁Emmy 1
▁filings 1
▁midfield 1
▁Save 1
▁brains 1
▁coached 1
▁backdrop 1
▁debates 1
▁Garrett 1
▁boycott 1
▁recordings 1
▁interfere 1
▁libraries 1
▁costumes 1
etti 1
fully 1
vy 1
▁Manuel 1
▁$1,000 1
▁punched 1
▁jets 1
Ex 1
▁Briefs 1
▁underwear 1
▁unsuccessful 1
▁Heaven 1
▁meter 1
▁outdoors 1
▁disrupt 1
▁olive 1
▁convictions 1
▁Gor 1
ava 1
▁rehab 1
▁jungle 1
▁Said 1
▁verbal 1
▁Tai 1
▁Current 1
▁practiced 1
WA 1
▁hips 1
▁spike 1
▁niece 1
▁exterior 1
▁fatally 1
▁Brook 1
▁settlements 1
▁bush 1
▁negotiated 1
xi 1
threatening 1
▁nominations 1
▁Commercial 1
▁Biden 1
▁Pine 1
▁unchanged 1
▁Study 1
RT 1
Big 1
▁beard 1
▁civilization 1
uff 1
▁contention 1
▁Tucker 1
▁capped 1
▁Initiative 1
▁Ny 1
ben 1
▁Patterson 1
▁Pokemon 1
Like 1
▁Monica 1
▁TR 1
▁sympathy 1
▁conceded 1
pal 1
▁Number 1
▁Twin 1
▁Pirates 1
▁(12 1
▁Marathon 1
▁chunk 1
▁enterprises 1
▁Der 1
▁CLOSE 1
bb 1
MB 1
ef 1
▁labeled 1
▁35- 1
▁messy 1
▁NASCAR 1
▁prosperity 1
▁recruited 1
kh 1
▁Ducks 1
▁newborn 1
▁stressful 1
▁calculations 1
▁Molly 1
▁Castro 1
▁Dun 1
▁Syracuse 1
▁Mattis 1
▁Mini 1
▁turnovers 1
▁Lion 1
▁quicker 1
▁sewing 1
▁investigator 1
▁broadcaster 1
▁emailed 1
▁Kurt 1
▁bore 1
First 1
▁Conservation 1
▁integrate 1
▁1,500 1
iva 1
▁functionality 1
▁350 1
▁Pot 1
▁Orthodox 1
gg 1
06 1
án 1
▁chatting 1
Bo 1
▁softly 1
▁affidavit 1
▁́ 1
▁magnetic 1
▁clause 1
gov 1
▁towers 1
▁witch 1
▁Thousands 1
▁evolve 1
▁1-1 1
▁swung 1
▁correspondent 1
▁Grammy 1
▁Cy 1
▁1967 1
▁intake 1
▁explored 1
300 1
More 1
ological 1
▁acute 1
CL 1
nk 1
▁Queens 1
hy 1
▁1.3 1
▁delegates 1
▁sunset 1
ander 1
▁dental 1
match 1
▁Reform 1
▁leaks 1
▁Hugh 1
▁pistol 1
▁Wu 1
▁cluster 1
▁caravan 1
▁effectiveness 1
ants 1
▁payout 1
▁% 1
▁attitudes 1
▁upgrades 1
▁strengthening 1
▁pour 1
▁Latest 1
▁shelters 1
▁Wo 1
▁imminent 1
▁0.4 1
▁Rhode 1
▁lawmaker 1
▁Schumer 1
▁Elder 1
▁gown 1
▁jack 1
...” 1
▁Monte 1
▁Planet 1
Com 1
▁Formula 1
mis 1
▁Pedro 1
▁Texans 1
▁Pretty 1
▁commands 1
▁traits 1
▁inhabitants 1
▁unlock 1
▁von 1
▁adjustments 1
▁swap 1
▁Gross 1
▁Istanbul 1
specific 1
▁sofa 1
▁MMA 1
▁stall 1
▁Ferrari 1
▁Moving 1
▁healthier 1
▁Lieutenant 1
president 1
ili 1
mus 1
▁overdose 1
▁mechanisms 1
▁Roll 1
rise 1
▁Michel 1
▁prop 1
▁Rest 1
▁boasts 1
▁topping 1
▁Lightning 1
▁Hold 1
▁wickets 1
▁Scientists 1
▁liberty 1
▁Yale 1
▁underwent 1
▁cafe 1
▁documentation 1
▁relying 1
▁whatsoever 1
sta 1
▁banning 1
▁2020, 1
▁motive 1
▁regulate 1
▁undergoing 1
▁undoubtedly 1
▁endure 1
▁30,000 1
▁Ghost 1
▁faint 1
▁personalities 1
▁posing 1
▁Walking 1
,000 1
▁Narendra 1
▁WE 1
iki 1
▁nonetheless 1
▁profiles 1
nor 1
eb 1
▁wives 1
▁positively 1
▁futures 1
▁animation 1
▁Superintendent 1
ō 1
changing 1
▁Sim 1
▁Joyce 1
▁Cre 1
▁header 1
▁committees 1
▁necessity 1
▁housed 1
▁cares 1
▁Sugar 1
▁Germans 1
▁shattered 1
ico 1
▁Holiday 1
agh 1
eta 1
▁thriller 1
oz 1
equity 1
▁Gardner 1
▁chapters 1
▁freed 1
▁darker 1
▁LSU 1
osa 1
▁sack 1
▁intervene 1
▁packs 1
▁Rand 1
▁pee 1
02 1
▁Juventus 1
▁Leslie 1
▁broadband 1
▁fried 1
▁relies 1
square 1
▁nails 1
▁surfaced 1
▁Fer 1
▁broker 1
▁Clemson 1
▁Tro 1
normal 1
▁Ay 1
▁outing 1
bri 1
▁encounters 1
▁determining 1
▁disc 1
▁centered 1
\ 1
TH 1
▁Latino 1
VA 1
dra 1
▁Mugabe 1
West 1
although 1
▁statistical 1
▁turnover 1
eyed 1
▁societies 1
▁hubby 1
▁Hy 1
▁refuge 1
▁famously 1
▁Lost 1
▁straw 1
▁Berry 1
Most 1
▁$300 1
▁Sachs 1
case 1
may 1
▁martial 1
▁exceed 1
▁nominees 1
▁LI 1
▁Chapel 1
▁prescribed 1
▁assure 1
▁aerial 1
▁examining 1
▁Frederick 1
▁8:30 1
▁hid 1
▁Davies 1
▁intriguing 1
▁Mich 1
▁terrific 1
▁Timothy 1
▁Standing 1
▁finest 1
▁ranch 1
▁lieutenant 1
▁skating 1
▁imprisonment 1
▁BP 1
▁Philippine 1
▁Betty 1
▁translate 1
▁judgement 1
▁25% 1
ā 1
aro 1
▁Prevention 1
▁publicity 1
six 1
▁Pri 1
▁Analysts 1
▁Kid 1
▁recipients 1
▁barred 1
tle 1
▁Train 1
▁hugged 1
▁Sel 1
▁decisive 1
▁Parks 1
▁networking 1
self 1
▁neuro 1
ato 1
▁Ala 1
▁downward 1
▁sp 1
UN 1
▁Haley 1
▁Match 1
▁API 1
▁Plant 1
FL 1
▁1976 1
▁Colonel 1
▁composer 1
▁timely 1
▁neighbouring 1
▁lethal 1
▁precedent 1
▁sidelines 1
▁comp 1
▁whip 1
▁distribute 1
▁problematic 1
▁admire 1
▁enthusiastic 1
bach 1
▁Austrian 1
▁Holocaust 1
▁Bills 1
▁Pride 1
▁prospective 1
▁entrepreneur 1
▁Petroleum 1
ill 1
▁dentist 1
▁reacted 1
▁1981 1
▁Breaking 1
▁LOVE 1
▁tapped 1
▁Ol 1
word 1
▁automation 1
makers 1
▁Moses 1
▁mono 1
▁Geneva 1
▁groceries 1
▁origins 1
▁activated 1
▁dividends 1
▁1968 1
▁superhero 1
▁RAM 1
▁contender 1
▁prone 1
▁eliminating 1
▁Wagner 1
▁Wendy 1
▁Croatia 1
▁homemade 1
TC 1
▁Stage 1
lay 1
▁PGA 1
94 1
▁secular 1
▁preserved 1
▁tales 1
▁branded 1
▁clan 1
▁dire 1
▁meditation 1
▁5:30 1
▁servant 1
▁cough 1
▁loading 1
▁holder 1
▁inevitably 1
▁1% 1
▁sunlight 1
▁dismiss 1
▁nerves 1
▁confessed 1
▁figuring 1
▁Wildcats 1
ically 1
▁destructive 1
▁readily 1
IA 1
▁mines 1
ä 1
▁Million 1
av 1
▁Telegraph 1
▁fragile 1
8, 1
▁Need 1
▁Rockets 1
▁sovereignty 1
▁litter 1
▁Tara 1
▁$60 1
▁CM 1
▁Clippers 1
▁visibility 1
race 1
och 1
▁picnic 1
▁indicted 1
▁hailed 1
▁Lots 1
kind 1
▁st 1
▁performer 1
▁feast 1
▁alright 1
▁cellphone 1
▁Hans 1
▁ordinance 1
▁Indonesian 1
▁Aid 1
▁Safe 1
▁Irving 1
wear 1
▁destinations 1
▁mock 1
inger 1
▁tablets 1
▁Tur 1
▁Healthcare 1
▁ambition 1
▁Bolton 1
▁loses 1
leg 1
▁machinery 1
▁bless 1
▁baseman 1
▁aggressively 1
▁Miguel 1
▁1.1 1
▁"" 1
aga 1
pop 1
▁merchandise 1
▁Trinity 1
▁Join 1
▁wipe 1
▁stabbing 1
▁Gardens 1
▁predictions 1
▁mount 1
▁demographic 1
▁Clearly 1
▁investigative 1
200 1
▁Lindsey 1
▁physicians 1
▁1974 1
▁clay 1
sion 1
▁Qualcomm 1
▁neighbour 1
▁frames 1
▁Pastor 1
▁Statistics 1
og 1
▁survivor 1
▁airplane 1
funded 1
ching 1
▁arrange 1
▁curiosity 1
▁merged 1
▁lump 1
sharing 1
▁speeding 1
ras 1
▁Congo 1
▁Majority 1
▁wholesale 1
▁signatures 1
til 1
▁NYC 1
▁strategist 1
▁Somehow 1
▁900 1
▁breeding 1
Last 1
▁cliff 1
mates 1
NY 1
▁Break 1
▁Stra 1
▁sights 1
▁Were 1
▁tan 1
▁Yang 1
▁aggregate 1
▁Rocky 1
▁Preston 1
▁Level 1
▁Debbie 1
uch 1
▁unbelievable 1
▁portions 1
▁workshops 1
▁linking 1
▁Allah 1
workers 1
▁stark 1
▁Wine 1
▁extends 1
▁Mann 1
▁unbeaten 1
▁Mountains 1
sburg 1
▁widow 1
▁burial 1
▁Cost 1
March 1
▁blogger 1
mph 1
▁compromised 1
▁thoughtful 1
▁planting 1
▁Wimbledon 1
▁Parish 1
▁insisting 1
ew 1
OL 1
▁Funeral 1
▁prototype 1
▁Terms 1
▁Everton 1
▁dude 1
brook 1
▁trailing 1
▁narrowly 1
▁unlawful 1
▁bang 1
▁Worth 1
▁Mohamed 1
7, 1
▁(15 1
▁endorsement 1
▁Learn 1
▁poop 1
▁gifted 1
▁designation 1
▁straightforward 1
ute 1
▁Pur 1
illo 1
▁Duchess 1
▁Khashoggi 1
CH 1
▁Phase 1
▁punt 1
▁podium 1
▁bosses 1
▁Buddhist 1
open 1
▁Liu 1
▁1.4 1
▁tactical 1
met 1
▁Arabic 1
▁violate 1
▁proudly 1
▁navigation 1
▁pics 1
▁Census 1
unconstitutional 1
▁BB 1
▁Mir 1
▁satisfy 1
▁Soul 1
▁Cardinal 1
▁neglect 1
shan 1
▁cleaner 1
.:) 1
length 1
▁creek 1
▁(20 1
▁Mine 1
▁discharge 1
▁cartoon 1
▁pine 1
▁Consider 1
ug 1
▁Fleet 1
▁ambitions 1
▁campaigning 1
▁hikes 1
▁Celtic 1
▁dash 1
cer 1
▁Blog 1
EP 1
mun 1
▁spiral 1
▁receivers 1
▁stretches 1
▁takeover 1
▁Isn 1
▁Ahmad 1
▁Advisory 1
▁capitalism 1
▁superintendent 1
▁imposing 1
▁protesting 1
▁predominantly 1
▁attackers 1
▁proposition 1
▁Nigerians 1
▁der 1
▁obtaining 1
▁transplant 1
PR 1
▁ju 1
leading 1
▁mommy 1
▁applicable 1
▁silk 1
▁regulated 1
▁Metal 1
▁charming 1
▁sailing 1
▁Past 1
▁1972 1
▁Fellow 1
▁enrollment 1
▁Sai 1
▁PhD 1
▁mold 1
RP 1
▁McG 1
▁sue 1
▁Myers 1
▁analyze 1
▁Phillip 1
band 1
ui 1
▁Wings 1
▁pal 1
▁organs 1
▁parameters 1
▁Lam 1
▁divine 1
▁outreach 1
▁Ur 1
▁Charleston 1
▁WR 1
▁Trek 1
hall 1
▁Insider 1
▁Hence 1
▁tying 1
▁carved 1
▁slap 1
ters 1
▁Palestine 1
CE 1
▁Sur 1
aries 1
▁Form 1
▁Lok 1
▁surveys 1
▁laps 1
▁Fin 1
▁125 1
▁Bet 1
ale 1
oon 1
▁beverage 1
▁CBC 1
help 1
▁Broadcasting 1
service 1
▁rewarded 1
▁trailed 1
▁0.7 1
▁Jenner 1
▁Bart 1
▁doorway 1
▁Islamist 1
▁charities 1
▁NJ 1
▁£3 1
▁souls 1
▁pipes 1
▁Search 1
ered 1
tch 1
ique 1
mine 1
jan 1
▁1973 1
▁thereafter 1
▁Large 1
▁Anaheim 1
▁(0 1
▁Everybody 1
▁Astros 1
▁slam 1
around 1
▁dragging 1
working 1
▁condemn 1
▁accordingly 1
▁clinics 1
▁utilize 1
▁foreigners 1
▁Az 1
▁congregation 1
eth 1
▁revival 1
▁fatigue 1
woman 1
▁controller 1
▁deliberate 1
IE 1
Her 1
▁Solar 1
▁rivalry 1
store 1
▁rocked 1
▁100- 1
▁successive 1
▁Task 1
▁despair 1
▁begging 1
▁affection 1
▁Pick 1
EM 1
▁Au 1
▁Color 1
▁bullpen 1
▁township 1
▁Leafs 1
▁fuels 1
ual 1
▁crisp 1
hot 1
▁Beer 1
▁pressures 1
▁Cathedral 1
▁Midwest 1
▁aesthetic 1
▁wrapping 1
▁Kenneth 1
▁insurers 1
yr 1
▁Bengal 1
▁Ranch 1
▁distraction 1
▁Shakespeare 1
▁reckless 1
▁Nan 1
road 1
▁Samantha 1
▁deter 1
▁desires 1
▁guitarist 1
▁blasted 1
▁identities 1
tine 1
▁guessed 1
▁Hayes 1
▁dreamed 1
▁teamed 1
RI 1
ifying 1
▁unnamed 1
▁Uganda 1
▁Forbes 1
ground 1
▁MC 1
▁Affordable 1
▁Natalie 1
▁profitability 1
area 1
▁Athens 1
▁clarify 1
▁Comp 1
▁Parents 1
▁dementia 1
▁designing 1
▁lace 1
▁Extra 1
▁Roosevelt 1
▁bacon 1
▁efficiently 1
▁wildly 1
▁midterm 1
▁0.6 1
▁judged 1
▁Already 1
phone 1
▁conditioning 1
▁eldest 1
▁Stories 1
▁persuade 1
▁Return 1
▁Alexis 1
▁ob 1
ore 1
▁responders 1
▁Content 1
roll 1
▁sting 1
▁calculate 1
▁lamp 1
▁ATR 1
▁recommends 1
▁ACC 1
▁APC 1
▁(11 1
▁creepy 1
▁Gill 1
▁Ant 1
▁remembers 1
▁flame 1
▁gentleman 1
▁norm 1
▁EBITDA 1
force 1
▁1969 1
▁Turn 1
▁Turnbull 1
▁exceptions 1
double 1
▁fixture 1
▁Beauty 1
▁Name 1
▁antibiotics 1
▁ni 1
test 1
▁Initially 1
value 1
Did 1
▁elevation 1
▁Trent 1
▁IPO 1
Love 1
▁Chloe 1
▁360 1
▁waving 1
▁juvenile 1
▁Basically 1
▁Guinea 1
▁Seeing 1
▁complement 1
rt 1
▁distinguished 1
▁Santiago 1
▁benefited 1
▁Jet 1
▁drift 1
▁Gavin 1
▁punish 1
▁Municipal 1
▁restructuring 1
▁freelance 1
▁elephant 1
▁adjustment 1
▁postponed 1
▁posters 1
▁proximity 1
▁fairy 1
anga 1
▁LGBTQ 1
ii 1
▁threatens 1
track 1
▁envelope 1
▁incorporate 1
▁Deutsche 1
▁kindergarten 1
▁supervision 1
▁builds 1
▁Bayern 1
ologist 1
▁1998, 1
mb 1
▁quantity 1
▁Cindy 1
▁Hol 1
▁Sharif 1
▁tastes 1
▁associations 1
lot 1
▁_ 1
check 1
bag 1
▁monsters 1
▁jurors 1
▁initiate 1
▁2001. 1
▁moms 1
▁Primary 1
▁Harold 1
America 1
▁Rosen 1
▁mineral 1
▁Charlottesville 1
▁Patricia 1
▁hospitalized 1
▁Eden 1
▁Motors 1
▁withdrawn 1
▁Bud 1
NS 1
▁2003. 1
▁Lamb 1
▁pushes 1
][ 1
▁Abby 1
▁Iceland 1
▁Vision 1
▁Meeting 1
▁Few 1
▁CC 1
wife 1
▁Subscribe 1
▁coordination 1
▁Advanced 1
▁highlighting 1
▁tornado 1
▁gospel 1
▁spit 1
▁1975 1
look 1
▁configuration 1
▁1.6 1
▁HP 1
▁Software 1
▁satisfying 1
▁bidding 1
▁Steam 1
▁Paradise 1
▁Springfield 1
▁tomatoes 1
▁Learning 1
bee 1
▁wagon 1
▁Plaza 1
▁Basketball 1
▁transcript 1
▁Zero 1
▁1978 1
▁31- 1
▁Steele 1
▁1900 1
▁9:30 1
▁deliveries 1
▁notification 1
▁Partnership 1
nar 1
▁unwanted 1
▁municipalities 1
▁adverse 1
▁spells 1
▁variations 1
▁analyzed 1
▁inspector 1
▁Rohingya 1
▁doctrine 1
▁Coffee 1
‐ 1
▁Monroe 1
▁1977 1
▁allocated 1
▁judging 1
▁reasoning 1
oriented 1
▁Kemp 1
▁tumor 1
▁pussy 1
▁Vienna 1
▁hydrogen 1
▁Sabha 1
▁livestock 1
▁transfers 1
▁Behind 1
Neill 1
▁mechanics 1
▁burns 1
▁portable 1
MR 1
▁surroundings 1
▁turmoil 1
ush 1
▁mortality 1
▁Enjoy 1
▁polite 1
awa 1
wal 1
▁semifinals 1
▁NOW 1
▁administered 1
▁battled 1
▁rocky 1
▁Macon 1
▁overturned 1
▁polar 1
▁flaws 1
▁prompt 1
▁dense 1
▁promotional 1
0.00 1
would 1
▁Mohammad 1
▁Barrett 1
▁wandering 1
▁Sherman 1
▁rains 1
▁accompanying 1
ERS 1
▁patches 1
▁socially 1
▁interceptions 1
▁expedition 1
▁festive 1
▁excluded 1
control 1
▁absurd 1
▁veto 1
▁sacked 1
▁vulnerability 1
▁outfits 1
▁ft 1
▁codes 1
shirts 1
▁preferences 1
▁rows 1
▁rebuilding 1
▁footsteps 1
▁Ker 1
▁jar 1
▁grim 1
▁booking 1
▁hydro 1
pt 1
DO 1
▁riot 1
▁publishers 1
▁agreeing 1
▁Chrome 1
iel 1
▁NFC 1
▁poisoning 1
▁Oval 1
▁Pixel 1
▁knitting 1
▁adopting 1
berry 1
▁Lyon 1
▁horn 1
▁Federer 1
EU 1
▁favored 1
▁constitute 1
▁Chang 1
▁canvas 1
▁Yellow 1
group 1
▁institute 1
▁editors 1
▁Northeast 1
▁Levi 1
▁manufacture 1
▁Body 1
▁Fantasy 1
▁dial 1
▁yuan 1
▁elegant 1
Ar 1
▁Computer 1
▁backward 1
▁suspend 1
pet 1
▁robbed 1
▁brushed 1
▁Pokémon 1
▁wander 1
▁downhill 1
▁abruptly 1
▁Appeals 1
▁HA 1
▁stranded 1
Once 1
▁hey 1
▁pornography 1
▁vegetable 1
▁borrowed 1
▁Month 1
▁$35 1
▁Whenever 1
▁Judy 1
▁expired 1
▁certainty 1
▁Flint 1
▁Romania 1
▁rubbed 1
ón 1
▁PAC 1
▁OPEC 1
MAN 1
▁rumours 1
▁Klein 1
▁tab 1
▁Snapchat 1
Those 1
▁Touch 1
▁nightclub 1
▁Lindsay 1
▁guarantees 1
▁enacted 1
▁grandma 1
ego 1
▁wandered 1
▁Caleb 1
▁Methodist 1
▁Premium 1
▁Hood 1
uck 1
▁swift 1
▁0.8 1
▁Gr 1
still 1
▁tenth 1
▁clues 1
▁Hogan 1
▁gunshot 1
od 1
▁variation 1
▁originated 1
gh 1
▁Hub 1
▁consuming 1
both 1
▁obsession 1
▁Singer 1
▁unanimously 1
South 1
▁Bengaluru 1
▁Kylie 1
▁arise 1
▁raids 1
▁Surrey 1
▁colony 1
▁Malaysian 1
▁ITV 1
▁10:30 1
▁Roma 1
▁festivals 1
-35 1
▁wanna 1
▁scholar 1
green 1
▁Volkswagen 1
▁sustainability 1
▁exploitation 1
▁circular 1
▁sculpture 1
▁endangered 1
▁JavaScript 1
▁Knicks 1
sign 1
Right 1
▁mixing 1
▁pretending 1
pping 1
▁Cool 1
▁stationed 1
▁misdemeanor 1
▁uniforms 1
▁Ole 1
▁abstract 1
▁Boss 1
▁malicious 1
▁THIS 1
▁Cardiff 1
50,000 1
▁Dor 1
▁Quick 1
▁outline 1
avi 1
▁steals 1
▁WhatsApp 1
▁AB 1
▁inadequate 1
▁troubles 1
▁sponsorship 1
▁candles 1
ged 1
▁Rat 1
▁handles 1
▁Brendan 1
▁connects 1
▁quantum 1
▁Running 1
▁Bol 1
▁nonsense 1
▁Job 1
▁Focus 1
▁aforementioned 1
▁catcher 1
▁exceeded 1
▁warrants 1
▁Rubio 1
▁aligned 1
▁diapers 1
▁elimination 1
▁commerce 1
▁strings 1
▁hugely 1
▁Morocco 1
▁Income 1
▁Sex 1
▁sovereign 1
▁Petersburg 1
▁Shell 1
TE 1
▁Zu 1
▁Kill 1
dle 1
▁Host 1
▁integral 1
▁tally 1
tus 1
▁stigma 1
▁coordinated 1
▁concussion 1
ify 1
▁charitable 1
▁seating 1
▁wildfire 1
▁vocals 1
▁Mile 1
stra 1
▁pumpkin 1
park 1
▁broadcasting 1
▁Hon 1
▁lenders 1
▁Lowe 1
las 1
▁kidnapped 1
▁marker 1
▁demonstrates 1
▁interception 1
▁extremist 1
▁CAGR 1
▁partnered 1
▁proves 1
▁contests 1
▁cereal 1
▁Speed 1
cing 1
▁adjusting 1
▁mentality 1
▁gameplay 1
▁texture 1
▁sweater 1
▁diplomat 1
▁symbols 1
owski 1
▁sexuality 1
▁Charter 1
▁Sad 1
AA 1
▁halted 1
▁attracting 1
▁creators 1
▁beats 1
food 1
▁variant 1
▁Brigade 1
▁Fight 1
▁Mae 1
▁expressions 1
▁salmon 1
▁reservations 1
▁Listen 1
▁balloon 1
▁premise 1
gra 1
▁snaps 1
▁wary 1
▁chorus 1
▁Property 1
▁Mega 1
▁Mai 1
▁assaulting 1
GO 1
▁footprint 1
▁tackling 1
▁dismissal 1
talk 1
SH 1
cc 1
▁keeper 1
▁looming 1
▁extensively 1
▁80% 1
MM 1
▁miners 1
▁blankets 1
▁Neu 1
▁Thrones 1
▁Franco 1
▁potty 1
▁biology 1
▁classmates 1
growing 1
sar 1
▁90% 1
▁jumper 1
** 1
▁assisting 1
800 1
▁Tina 1
▁helicopters 1
seeded 1
▁TA 1
▁balcony 1
▁underwater 1
▁Ethiopia 1
▁superb 1
▁easiest 1
▁Planned 1
▁Lori 1
▁bachelor 1
▁conscience 1
▁revelations 1
▁Marketing 1
did 1
▁strive 1
▁min 1
▁specialists 1
wheel 1
▁govern 1
▁defining 1
▁apples 1
▁Jun 1
▁danced 1
▁Riverside 1
▁seekers 1
FM 1
▁60- 1
▁beers 1
▁1.8 1
▁unrelated 1
▁obesity 1
lly 1
▁whistle 1
2.5 1
▁LOS 1
▁Dollar 1
▁Somalia 1
▁ANC 1
tas 1
▁blaming 1
▁edged 1
focused 1
▁payroll 1
▁sandwiches 1
▁Sid 1
▁weed 1
▁Mara 1
▁wonders 1
▁mentions 1
▁planets 1
▁Embassy 1
▁impeachment 1
ax 1
und 1
▁Mil 1
▁discomfort 1
▁precision 1
ites 1
▁learnt 1
▁tactic 1
▁possessions 1
▁slapped 1
▁shotgun 1
▁imp 1
last 1
▁disgusting 1
▁midway 1
gin 1
▁Penny 1
▁burglary 1
▁Sta 1
▁[1] 1
▁prep 1
▁studios 1
▁NEWS 1
fest 1
▁module 1
yer 1
source 1
▁swinging 1
▁inmate 1
▁floods 1
▁bishop 1
▁Dell 1
▁warfare 1
▁Noble 1
▁Jin 1
▁Fitzgerald 1
▁Parenthood 1
▁dioxide 1
▁Raptors 1
▁uncommon 1
▁minimize 1
uf 1
▁1951 1
chu 1
▁Lives 1
Ba 1
▁mama 1
▁idiot 1
▁Pierce 1
▁15% 1
▁handgun 1
▁Select 1
▁Jays 1
igan 1
▁Principal 1
▁renewal 1
▁eternal 1
▁z 1
▁Pack 1
▁pissed 1
▁discovering 1
deal 1
▁metric 1
oy 1
▁columns 1
▁com 1
ska 1
▁lbs 1
▁monitored 1
AN 1
▁Traffic 1
▁lemon 1
▁randomly 1
Men 1
▁Resort 1
▁brokerage 1
▁burnt 1
▁Beverly 1
.15 1
▁Kingston 1
▁requesting 1
▁Actress 1
bone 1
▁thunder 1
▁Fifth 1
▁retaliation 1
▁Aurora 1
▁helm 1
boat 1
▁Auckland 1
▁marble 1
▁Moss 1
▁daylight 1
▁solving 1
▁glowing 1
pay 1
chen 1
▁ditch 1
▁medieval 1
▁probability 1
▁Apollo 1
▁Date 1
▁ultrasound 1
▁renovation 1
▁sleeve 1
▁petrol 1
▁cheering 1
tti 1
▁sensitivity 1
▁Ter 1
▁pact 1
▁successes 1
▁Forward 1
▁>> 1
▁Falcon 1
▁realization 1
▁(1) 1
ering 1
▁Il 1
▁troubling 1
▁Desert 1
▁Fresh 1
nch 1
▁mound 1
bat 1
SL 1
▁urgency 1
▁Prison 1
▁uploaded 1
▁[...] 1
▁THAT 1
▁Plymouth 1
▁Williamson 1
▁illnesses 1
▁quarterbacks 1
▁lure 1
▁Newman 1
▁downside 1
Since 1
-22 1
bot 1
▁tended 1
▁freight 1
▁foam 1
Am 1
▁lightweight 1
▁gum 1
▁raining 1
▁coincidence 1
▁informal 1
▁squeezed 1
▁staffers 1
▁Corporate 1
▁Kathy 1
▁ideological 1
▁Mun 1
▁punk 1
▁Transit 1
▁170 1
▁CDC 1
▁comprised 1
▁skinny 1
▁homeowners 1
▁spa 1
▁Record 1
ls 1
▁yell 1
▁knit 1
▁conjunction 1
▁cm 1
▁borough 1
▁minors 1
▁Um 1
▁reduces 1
▁ounce 1
▁Stand 1
▁Hilton 1
▁stellar 1
▁compatible 1
▁Allison 1
▁Technical 1
▁medicines 1
▁passive 1
▁Movie 1
▁peanut 1
▁chaotic 1
▁thermal 1
Over 1
▁villain 1
▁tolerate 1
nn 1
▁Download 1
▁laundering 1
▁Progressive 1
▁dislike 1
▁rainbow 1
▁pat 1
▁succession 1
wer 1
▁reminding 1
▁1: 1
▁delete 1
▁Dur 1
▁vampire 1
▁Durham 1
▁dough 1
Li 1
▁convey 1
▁Caller 1
▁guessing 1
SON 1
▁NE 1
▁undergraduate 1
▁dancers 1
▁cum 1
▁startups 1
eng 1
▁slope 1
▁Tracy 1
▁sized 1
▁macro 1
▁replay 1
▁halls 1
▁mod 1
▁Mia 1
▁refreshing 1
▁Damascus 1
▁Gomez 1
▁Machine 1
▁Hull 1
sp 1
▁backgrounds 1
▁temper 1
ree 1
▁overlooked 1
▁Norfolk 1
▁cries 1
,400 1
▁orchestra 1
▁amendments 1
▁plunged 1
▁PT 1
mp 1
▁Clinic 1
▁Berg 1
▁forgiveness 1
▁4.5 1
▁homeland 1
ked 1
▁rim 1
▁Experts 1
▁static 1
ics 1
▁confirming 1
▁concealed 1
▁compelled 1
▁dick 1
lived 1
▁subscriber 1
▁Continue 1
▁warrior 1
▁combining 1
mas 1
▁Vietnamese 1
▁Neal 1
▁niche 1
▁Vince 1
▁proteins 1
▁measurements 1
▁whale 1
▁progression 1
▁classification 1
▁rooted 1
▁WikiLeaks 1
▁diameter 1
▁capturing 1
▁0.9 1
▁refund 1
▁1961 1
NT 1
▁sour 1
▁Pam 1
▁fueled 1
▁Gul 1
▁Counsel 1
atory 1
▁Direct 1
eva 1
uz 1
▁inclined 1
▁undertaken 1
late 1
edge 1
▁canal 1
▁1971 1
▁collusion 1
▁Canal 1
▁unexpectedly 1
▁Cuomo 1
▁norms 1
▁decorations 1
▁filmmaker 1
▁Row 1
▁bolster 1
then 1
▁performs 1
▁Choice 1
▁Products 1
▁lifelong 1
wire 1
▁Clara 1
▁copied 1
▁exotic 1
cross 1
▁abundance 1
▁Hero 1
▁rack 1
▁vanished 1
▁Bang 1
▁individually 1
▁feud 1
sea 1
▁freezer 1
▁Loading 1
hat 1
OT 1
:10 1
▁ash 1
▁Boris 1
▁concludes 1
▁surgical 1
bell 1
▁wool 1
▁luggage 1
SF 1
▁supplement 1
▁propose 1
tone 1
▁Pinterest 1
▁depicted 1
▁pulse 1
▁Southampton 1
▁EV 1
▁#2 1
2) 1
▁Mostly 1
lli 1
▁slick 1
▁comfortably 1
400 1
▁Ultra 1
▁$19 1
▁symbolic 1
▁Value 1
▁Wy 1
▁discharged 1
bre 1
wind 1
▁Multi 1
▁Fernando 1
▁Meet 1
▁silently 1
▁alerted 1
▁brakes 1
▁swiftly 1
▁communist 1
▁rebellion 1
▁indicators 1
▁Newport 1
▁collectively 1
▁sucks 1
▁WHO 1
▁smelled 1
▁Amsterdam 1
▁peninsula 1
▁specified 1
▁exams 1
▁Willie 1
bie 1
▁swallow 1
▁stray 1
ann 1
However 1
▁aliens 1
▁behaviors 1
Ka 1
▁attributes 1
▁freaking 1
▁policing 1
▁Skip 1
▁disk 1
league 1
▁countryside 1
▁BA 1
▁melt 1
▁boosting 1
▁cooperative 1
▁Chemical 1
▁ordeal 1
` 1
IR 1
▁Cyber 1
▁stunt 1
▁architectural 1
▁cracks 1
▁excellence 1
▁2002. 1
▁Ava 1
iah 1
World 1
web 1
▁blows 1
▁entertain 1
▁reunited 1
▁Dawson 1
▁poems 1
▁sedan 1
▁preceded 1
kick 1
▁absorbed 1
▁ra 1
▁varieties 1
▁rainy 1
▁$21 1
mos 1
▁steer 1
feld 1
Di 1
wen 1
▁2000. 1
▁timber 1
hara 1
oka 1
▁prolonged 1
▁summoned 1
▁Floyd 1
▁Kerala 1
▁Bradford 1
▁Hungarian 1
▁eve 1
▁grounded 1
▁Paper 1
BO 1
▁Carey 1
SB 1
cell 1
▁Lakes 1
▁Serbia 1
stick 1
▁Bend 1
▁Vernon 1
▁hacked 1
▁turnaround 1
▁glove 1
▁Raw 1
▁Fra 1
OP 1
▁louder 1
▁corrected 1
▁Figure 1
▁Argentine 1
▁sprint 1
iri 1
▁Heath 1
Up 1
SM 1
▁dancer 1
rest 1
June 1
Life 1
▁Pal 1
▁artillery 1
nine 1
▁equation 1
Ga 1
▁offender 1
▁embarrassment 1
▁disastrous 1
tive 1
▁repeating 1
▁consult 1
used 1
▁develops 1
▁disasters 1
▁magnificent 1
pack 1
▁appoint 1
▁cycles 1
▁circulation 1
▁Mitt 1
etic 1
SCNG 1
▁predictable 1
AG 1
▁queue 1
break 1
▁“[ 1
▁Regiment 1
▁CP 1
▁Previously 1
ike 1
▁Camera 1
rr 1
▁rendered 1
▁youths 1
▁innocence 1
▁honesty 1
▁Chapman 1
▁Creative 1
▁stalled 1
▁Scout 1
▁evolving 1
rating 1
ass 1
▁Dixon 1
▁confined 1
ude 1
▁accelerated 1
▁conferences 1
▁2% 1
▁tempted 1
▁warns 1
▁influences 1
▁weakened 1
▁monitors 1
▁CAPA 1
▁Birthday 1
tta 1
▁excuses 1
ech 1
▁$22 1
▁Devon 1
▁Nokia 1
▁Clayton 1
▁Doc 1
▁mentioning 1
▁vest 1
▁vicious 1
▁visas 1
imo 1
▁Pruitt 1
▁sounding 1
▁swings 1
▁Swan 1
▁Tab 1
▁Gre 1
▁Collection 1
▁Legion 1
▁Xavier 1
▁Barclays 1
turn 1
▁progressed 1
▁flavors 1
▁EA 1
▁jumps 1
▁1964 1
▁blessings 1
▁jo 1
▁militia 1
▁tearing 1
▁nude 1
▁surged 1
▁MRS 1
▁beam 1
▁drummer 1
▁campuses 1
▁traction 1
ando 1
▁condo 1
rag 1
▁Redskins 1
▁Across 1
▁smells 1
▁Eva 1
▁Kre 1
▁counseling 1
▁Bag 1
llo 1
▁Sears 1
° 1
▁Hebrew 1
▁Snyder 1
▁Cer 1
▁Conway 1
▁(2) 1
▁framed 1
▁merchant 1
uda 1
chy 1
language 1
deep 1
▁Calvin 1
▁heavier 1
▁impress 1
▁Ran 1
▁composite 1
▁synthetic 1
rid 1
▁ne 1
▁Koch 1
aire 1
▁Higher 1
▁seller 1
▁surprises 1
▁Pie 1
▁Bruno 1
▁Santos 1
▁Manitoba 1
▁Armenian 1
proof 1
▁berth 1
▁constituents 1
▁Shan 1
▁NL 1
▁Jer 1
quin 1
▁retrieve 1
▁comprising 1
▁BO 1
▁PTI 1
▁pardon 1
▁economically 1
▁screw 1
▁spur 1
▁Doctors 1
▁Nam 1
▁Chester 1
▁obstacle 1
▁Historical 1
▁candle 1
▁Nicolas 1
:50 1
make 1
▁NAFTA 1
▁ONE 1
EE 1
▁Kas 1
▁Burton 1
▁meds 1
▁Sunni 1
▁105 1
its 1
▁implied 1
▁$24 1
▁nursery 1
▁marching 1
▁Retail 1
▁Diaz 1
▁Anything 1
▁lowering 1
sia 1
▁Downtown 1
▁premiums 1
▁Bucks 1
State 1
▁arrow 1
▁hinted 1
file 1
▁undocumented 1
gro 1
▁($0. 1
▁motorists 1
▁youngsters 1
alo 1
▁Twins 1
▁vendor 1
▁slogan 1
▁bloggers 1
▁Mak 1
▁recreation 1
▁Alfred 1
▁Rd 1
▁empathy 1
▁concessions 1
sis 1
▁chapel 1
▁NRA 1
▁pleading 1
ü 1
fair 1
▁sellers 1
adi 1
▁Belle 1
▁detailing 1
▁founders 1
▁Track 1
try 1
dic 1
▁curtain 1
▁Production 1
▁kits 1
▁33- 1
▁unidentified 1
▁eyebrows 1
ened 1
▁patio 1
bon 1
ucci 1
▁Ricky 1
DR 1
▁SpaceX 1
▁frightening 1
▁rats 1
▁cocktail 1
social 1
▁electorate 1
▁Gran 1
▁Nadal 1
cker 1
▁$1.2 1
▁dipped 1
▁Gear 1
▁Teachers 1
▁hostage 1
▁Baron 1
▁CPU 1
▁refrigerator 1
▁traumatic 1
▁prepares 1
built 1
hn 1
▁slate 1
▁peaked 1
▁unusually 1
goal 1
▁Cas 1
▁Sheikh 1
▁sketch 1
▁screams 1
▁subscribing 1
▁slipping 1
▁granddaughter 1
▁heightened 1
▁Australians 1
▁respects 1
▁Bean 1
▁unpredictable 1
elected 1
▁Marty 1
▁Mormon 1
▁altitude 1
▁Crow 1
▁populated 1
een 1
▁Lodge 1
▁pasta 1
▁token 1
▁tasted 1
▁strained 1
▁ARE 1
▁frightened 1
lor 1
▁demolished 1
▁Tap 1
lat 1
ean 1
▁shoved 1
▁Pizza 1
▁Sandra 1
▁probable 1
▁Same 1
▁Sergio 1
▁crosses 1
▁shades 1
▁Honestly 1
▁reconciliation 1
▁Sunshine 1
▁supper 1
ien 1
inspired 1
▁remark 1
▁incorrect 1
▁contempt 1
▁manipulation 1
▁SR 1
▁» 1
▁insects 1
▁Webb 1
▁ancestors 1
▁Halifax 1
▁Alexandria 1
▁thrill 1
pot 1
▁rep 1
▁overwhelmingly 1
▁hospitality 1
▁remarked 1
your 1
▁(13 1
tia 1
▁imprisoned 1
▁drills 1
gon 1
▁2: 1
itis 1
▁siege 1
▁Kitchen 1
plan 1
▁Nolan 1
▁shoots 1
▁hype 1
▁Jaguars 1
▁interpreted 1
▁Haiti 1
▁scanning 1
▁mar 1
india 1
▁lacks 1
▁[2] 1
▁Catalan 1
rio 1
▁pigs 1
▁Cruise 1
▁4-0 1
▁kisses 1
▁1956 1
▁Tyson 1
▁Kur 1
▁unrest 1
▁Bass 1
▁photographed 1
▁Innovation 1
▁relocated 1
▁verge 1
▁revive 1
themed 1
taking 1
CD 1
sal 1
▁seize 1
▁RB 1
seat 1
full 1
▁sickness 1
▁Malik 1
▁1996, 1
▁accomplishments 1
rel 1
▁monkey 1
▁Holding 1
▁Cast 1
▁ANGELES 1
▁Jacobs 1
▁deaf 1
▁Ramos 1
▁descended 1
▁Shaun 1
▁4-1 1
chief 1
▁alcoholic 1
CR 1
▁spider 1
▁pumping 1
atic 1
sel 1
▁Salvador 1
▁Teen 1
▁stems 1
vers 1
int 1
ario 1
▁utter 1
▁forefront 1
▁Hammond 1
▁expenditure 1
▁Pol 1
▁feeds 1
▁gunfire 1
ivo 1
▁Considering 1
Everyone 1
▁upright 1
▁align 1
▁junction 1
▁Belfast 1
▁substances 1
▁Roe 1
▁plunge 1
▁acclaimed 1
▁Tin 1
aria 1
▁foremost 1
▁surgeries 1
▁pavement 1
▁DS 1
▁($ 1
"; 1
▁Complet 1
6. 1
▁insult 1
▁6,000 1
▁melted 1
▁Europa 1
▁exposing 1
▁courthouse 1
Pa 1
▁declines 1
▁stimulus 1
▁surrendered 1
600 1
▁shutting 1
▁painter 1
▁metals 1
▁badge 1
Thanks 1
▁premiered 1
Opens 1
▁outgoing 1
▁Knowing 1
▁presidents 1
▁staggering 1
▁Restaurant 1
▁reopened 1
*** 1
▁Reporter 1
▁characteristic 1
▁lesbian 1
▁surf 1
kie 1
▁Lamar 1
▁offended 1
paid 1
▁Citizens 1
▁hobby 1
▁strikeouts 1
▁EC 1
▁Clare 1
,800 1
▁Recent 1
Time 1
▁Bed 1
▁contentious 1
▁Generation 1
▁Nash 1
▁Ade 1
▁standings 1
Mart 1
▁clips 1
▁Similar 1
▁resolutions 1
▁chambers 1
▁tomato 1
political 1
▁strengths 1
▁Tru 1
▁amended 1
April 1
▁bucks 1
▁potent 1
mic 1
▁knot 1
-23 1
▁awe 1
▁Brooke 1
▁1938 1
▁Johnston 1
▁Booker 1
.95 1
itz 1
▁tick 1
▁statute 1
▁shrink 1
▁Gla 1
▁shortages 1
▁hugs 1
mid 1
▁therapeutic 1
▁bundle 1
▁blunt 1
▁NA 1
▁Owens 1
▁greet 1
▁Mosul 1
▁discounts 1
▁wildfires 1
ré 1
▁tortured 1
▁notices 1
▁SD 1
▁spelling 1
▁Ark 1
cryptocurrencies 1
▁Turns 1
▁Organisation 1
▁commute 1
▁Sergeant 1
▁Tal 1
▁standpoint 1
▁Bri 1
▁1997, 1
Hold 1
▁UEFA 1
▁Nepal 1
▁Ye 1
works 1
▁Mali 1
▁storyline 1
▁preschool 1
▁Melania 1
▁PG 1
▁1965 1
live 1
▁Fran 1
▁ruins 1
▁typing 1
▁Gospel 1
▁unemployed 1
▁ver 1
tom 1
▁Harley 1
▁Ella 1
▁rig 1
▁demons 1
▁ignorance 1
▁obstruction 1
ended 1
▁misses 1
▁Courtney 1
▁Yep 1
▁thigh 1
▁Gus 1
▁sync 1
▁rendering 1
country 1
▁memoir 1
▁demolition 1
▁Gur 1
▁dorm 1
▁curled 1
cott 1
▁Phone 1
▁swallowed 1
needed 1
RS 1
▁floated 1
▁recurring 1
▁pinch 1
▁Venezuelan 1
ssel 1
▁hello 1
▁flawed 1
▁compares 1
▁Likewise 1
ao 1
▁beverages 1
anda 1
▁footballer 1
▁ALSO 1
▁Ivanka 1
▁Audi 1
kha 1
share 1
▁Marsh 1
▁rewarding 1
▁angels 1
miss 1
▁toured 1
▁neglected 1
▁6-2 1
▁unanimous 1
▁enduring 1
▁Sources 1
▁Egg 1
Mobile 1
▁hunters 1
▁undertake 1
▁Cow 1
▁Abbey 1
▁sinking 1
▁collaborative 1
rian 1
▁Rules 1
▁pharmacy 1
▁submarine 1
▁grabs 1
▁hamstring 1
▁cracking 1
▁contenders 1
OC 1
▁Nazis 1
▁verified 1
▁catastrophic 1
▁Cousins 1
▁ace 1
erson 1
▁mathematics 1
▁territorial 1
▁disciplinary 1
▁Honey 1
▁roommate 1
▁Royals 1
▁(14 1
St 1
▁protested 1
▁Braves 1
▁eligibility 1
▁correlation 1
▁Solomon 1
▁Maj 1
pass 1
▁Treaty 1
▁knockout 1
▁piled 1
HC 1
▁Oz 1
▁Regina 1
Many 1
▁tighter 1
▁Conte 1
Any 1
▁meddling 1
arm 1
▁Brennan 1
▁Nikki 1
▁geo 1
especially 1
▁Ship 1
▁Patel 1
▁accumulated 1
AFP 1
▁villagers 1
▁Herbert 1
girl 1
▁compounds 1
▁Gang 1
▁Bun 1
▁bees 1
▁shootout 1
▁Beat 1
▁Wheeler 1
▁famed 1
LO 1
ote 1
▁Kel 1
▁battlefield 1
▁satellites 1
▁Hai 1
▁Schmidt 1
▁destined 1
▁Cable 1
▁AIDS 1
▁Orchestra 1
ct 1
▁tractor 1
▁Lind 1
▁maximize 1
▁discourse 1
▁algorithms 1
Red 1
▁garnered 1
▁confirms 1
▁3% 1
▁renew 1
eli 1
▁myth 1
▁fu 1
▁rabbit 1
▁pencil 1
▁sail 1
▁stab 1
▁lend 1
▁dispatched 1
▁Cell 1
▁dreaming 1
▁Greene 1
▁Monster 1
▁MTV 1
▁Language 1
▁fade 1
▁brake 1
▁unfamiliar 1
▁CCTV 1
▁Rahul 1
▁ingredient 1
▁penis 1
▁te 1
▁optional 1
▁dictator 1
▁demonstrators 1
▁40,000 1
▁haunted 1
▁inconsistent 1
PE 1
▁1800 1
▁flashed 1
▁Beau 1
▁constraints 1
▁budgets 1
▁2017-18 1
▁abortions 1
▁Lucky 1
hir 1
▁Cory 1
▁Cultural 1
▁Gore 1
▁buck 1
▁semifinal 1
▁dunk 1
▁pivotal 1
▁Needless 1
▁Deb 1
▁limbs 1
▁implies 1
▁Kapoor 1
▁mighty 1
▁wholly 1
▁Kathleen 1
▁reliability 1
yi 1
▁sci 1
▁deported 1
▁Wan 1
▁Sharp 1
▁winding 1
▁brass 1
ear 1
▁Jamaica 1
▁popping 1
▁Normally 1
jar 1
▁recognizing 1
▁Pool 1
▁$5,000 1
▁34- 1
▁bake 1
▁strengthened 1
▁Boo 1
▁imperative 1
▁explode 1
▁Dem 1
▁Certainly 1
COM 1
▁Maya 1
▁Ibrahim 1
▁rubbing 1
▁17. 1
▁harbor 1
▁kg 1
▁Eugene 1
▁Stark 1
▁Original 1
▁suffers 1
▁crib 1
▁Rockies 1
▁Opening 1
▁chores 1
growth 1
▁perfection 1
▁Electoral 1
▁Spicer 1
▁Cher 1
▁calf 1
▁$1.3 1
▁Coin 1
▁Ottoman 1
▁manifest 1
▁Tourism 1
RR 1
▁Manila 1
▁participant 1
colored 1
▁splash 1
FS 1
▁restart 1
▁healed 1
neutral 1
▁zombie 1
▁Count 1
pu 1
▁Details 1
▁drums 1
▁reopen 1
▁Liga 1
▁Chance 1
▁DR 1
▁Bath 1
▁bypass 1
▁possessed 1
▁Rule 1
▁Pad 1
▁$50,000 1
▁weighs 1
▁headphones 1
▁ceased 1
▁($2 1
▁showdown 1
▁max 1
▁Nassar 1
▁wicket 1
▁Superman 1
▁Rafael 1
▁pedestrians 1
▁remotely 1
GP 1
▁downgraded 1
▁justification 1
▁Agent 1
-0 1
▁segmented 1
▁Nielsen 1
▁Laboratory 1
tron 1
sec 1
▁debts 1
ía 1
?? 1
▁Marines 1
▁empower 1
coin 1
▁Katherine 1
▁Simply 1
▁4:30 1
▁rocking 1
ENT 1
Americans 1
▁Gerald 1
▁Heavy 1
▁$150 1
▁Hardy 1
idi 1
▁saga 1
lies 1
▁VP 1
▁Maxwell 1
▁Rising 1
▁Talking 1
▁cottage 1
▁paddle 1
▁volcano 1
▁stylish 1
▁Lancaster 1
pad 1
▁Bou 1
lane 1
▁contestants 1
▁Hampton 1
▁Miranda 1
▁scroll 1
science 1
▁Lim 1
▁lingering 1
▁Whole 1
▁installing 1
▁upload 1
▁unsafe 1
▁Experience 1
tain 1
▁Wellington 1
▁PDP 1
▁seizure 1
▁Cities 1
▁manslaughter 1
▁scoreless 1
▁Chronicle 1
zing 1
▁volunteered 1
LP 1
,700 1
▁patrons 1
lines 1
▁Prosecutor 1
▁mistaken 1
▁closures 1
TON 1
▁Pharmaceuticals 1
▁Ramirez 1
▁1959 1
▁abuses 1
▁Toby 1
▁Boyd 1
▁ribbon 1
▁Peters 1
path 1
▁Comcast 1
▁GB 1
load 1
▁surreal 1
▁Competition 1
▁moisture 1
▁200,000 1
-3) 1
▁ensured 1
▁Official 1
▁Bas 1
▁fo 1
ators 1
▁Que 1
▁Mercury 1
▁ribs 1
▁Airbus 1
▁Sentinel 1
▁lord 1
▁blah 1
▁grind 1
LD 1
ici 1
▁Shepherd 1
▁Mirror 1
hin 1
▁60% 1
▁microphone 1
▁Zoe 1
▁wardrobe 1
▁Fr 1
▁appropriately 1
▁pools 1
▁unpleasant 1
▁hottest 1
▁Richards 1
▁stacked 1
▁digits 1
print 1
OM 1
▁skipped 1
▁Vote 1
▁Rey 1
vey 1
▁exile 1
▁Neo 1
trade 1
è 1
▁Dunn 1
▁skiing 1
▁dissent 1
▁rifles 1
▁angles 1
▁1958 1
▁oak 1
fly 1
–20 1
< 1
zone 1
▁reservation 1
▁sympathetic 1
▁Waters 1
▁demise 1
raj 1
▁steak 1
▁heavyweight 1
▁Azerbaijan 1
▁IMF 1
▁imagery 1
▁Brunswick 1
▁whipped 1
tty 1
▁spilled 1
▁exited 1
5, 1
headed 1
▁commanded 1
▁gossip 1
▁RV 1
▁Comments 1
▁ample 1
▁Christina 1
▁taller 1
▁sorrow 1
-24 1
writer 1
▁drawer 1
▁bark 1
▁19. 1
▁Strange 1
▁Ellie 1
▁evaluated 1
▁Andrews 1
▁hose 1
▁Fowler 1
▁Hours 1
Connor 1
rc 1
▁interpret 1
▁fundamentally 1
▁Sto 1
▁Dominic 1
▁upheld 1
att 1
▁linear 1
▁virtue 1
▁Geo 1
▁employs 1
▁tunnels 1
▁Course 1
▁000 1
▁WHAT 1
▁noticeable 1
▁SF 1
Da 1
lio 1
▁heroic 1
▁owning 1
▁Nonetheless 1
active 1
▁Mariners 1
$2 1
▁classrooms 1
eight 1
▁perimeter 1
stand 1
EST 1
▁def 1
▁pinned 1
▁Mickey 1
sub 1
▁pads 1
▁Kir 1
▁Blu 1
▁bo 1
lle 1
▁1966 1
rant 1
Ho 1
▁heel 1
zan 1
▁banana 1
▁whales 1
▁jerk 1
▁Jobs 1
▁garlic 1
using 1
▁Yan 1
CT 1
▁Frost 1
▁Wake 1
▁bomber 1
DF 1
▁metrics 1
earnings 1
▁cybersecurity 1
▁Keeping 1
Two 1
AU 1
▁injustice 1
eur 1
▁Kon 1
▁Fletcher 1
▁SL 1
▁Discovery 1
▁AU 1
▁sailed 1
▁111 1
▁geography 1
▁grinned 1
1) 1
▁presenter 1
▁Mental 1
▁$23 1
▁Scotia 1
▁imaging 1
▁Kendall 1
▁CAN 1
▁Associates 1
▁inquiries 1
▁Cairo 1
▁Abuja 1
UR 1
▁nano 1
iga 1
▁eased 1
▁sober 1
▁liking 1
LT 1
▁Zuma 1
▁Spin 1
ome 1
▁RBIs 1
▁leaking 1
▁insufficient 1
▁TE 1
▁faction 1
section 1
North 1
wave 1
▁extremists 1
▁FY 1
tors 1
▁gangs 1
▁upwards 1
▁liquidity 1
▁accuse 1
▁variables 1
-30 1
▁masks 1
▁Rivera 1
▁drastically 1
▁catalyst 1
▁Gujarat 1
▁prosecuted 1
/10 1
▁endorse 1
▁1995, 1
▁highways 1
▁homers 1
▁AMD 1
▁Zack 1
▁Ski 1
▁Spotify 1
▁Perfect 1
▁touted 1
▁jointly 1
▁joking 1
▁hitter 1
▁injunction 1
▁counselor 1
▁similarities 1
▁asserted 1
▁Growing 1
1.5 1
▁hates 1
▁Pit 1
▁exempt 1
bur 1
playing 1
▁15,000 1
▁Send 1
▁Essex 1
▁Darwin 1
▁Bright 1
▁Guild 1
▁attractions 1
▁Felix 1
▁Rec 1
▁pumped 1
▁heights 1
▁sunglasses 1
▁Roberto 1
▁Campus 1
▁hints 1
▁1953 1
▁hunter 1
▁gravel 1
▁relentless 1
▁catalog 1
▁standout 1
▁Clear 1
▁Economics 1
▁1957 1
▁enforced 1
▁Led 1
▁oversee 1
▁contingent 1
▁replies 1
▁Milton 1
▁unite 1
▁recruits 1
▁Cinema 1
ison 1
▁smoked 1
▁Anton 1
▁undercover 1
▁ba 1
▁meta 1
▁spoil 1
ath 1
▁cloudy 1
worthy 1
▁commenting 1
▁sensible 1
▁Complex 1
TT 1
▁specially 1
▁zip 1
▁Albany 1
▁Hang 1
▁lava 1
Mark 1
▁alarming 1
▁exemption 1
▁negotiation 1
rina 1
▁traced 1
▁36- 1
▁Poly 1
▁iTunes 1
▁resisted 1
▁Bengals 1
▁statues 1
record 1
▁AA 1
▁Sche 1
▁6-1 1
▁Persian 1
▁singled 1
▁accessing 1
▁dimension 1
▁nevertheless 1
▁televised 1
▁Edgar 1
▁prolific 1
▁procurement 1
▁offenses 1
▁nut 1
▁pairing 1
▁simpler 1
,600 1
▁contaminated 1
▁impaired 1
:35 1
dad 1
▁ink 1
▁researching 1
▁Marion 1
▁spectacle 1
cas 1
▁plead 1
▁Near 1
▁Tate 1
▁liberals 1
▁em 1
▁1929 1
▁Cliff 1
▁manipulate 1
▁Raven 1
▁slowdown 1
▁debated 1
▁ser 1
▁theatrical 1
▁influx 1
▁activism 1
CS 1
▁SB 1
▁objections 1
▁tubes 1
▁drunken 1
kins 1
seven 1
▁grassroots 1
▁governors 1
▁prints 1
tim 1
host 1
▁burger 1
▁relates 1
▁thankfully 1
▁bites 1
▁RSI 1
▁heap 1
▁Gala 1
GE 1
:25 1
▁Ramsey 1
▁peek 1
▁sidelined 1
▁noticing 1
▁peacefully 1
sie 1
▁costing 1
▁overseeing 1
issa 1
▁unpaid 1
▁sticky 1
▁ruler 1
UM 1
▁distinguish 1
▁tomb 1
▁Wolves 1
economic 1
▁Canberra 1
▁federation 1
▁respiratory 1
▁Cornell 1
▁escort 1
▁criticize 1
▁Penguins 1
▁unwilling 1
▁Rochester 1
▁cables 1
shire 1
▁coconut 1
▁blur 1
▁belongings 1
▁intercepted 1
▁lengths 1
▁setback 1
▁Bug 1
▁smarter 1
▁plagued 1
▁specify 1
▁Danielle 1
▁diplomacy 1
▁Acting 1
craft 1
▁Kanye 1
▁shipments 1
▁instinct 1
lik 1
placed 1
▁Katrina 1
▁SM 1
▁Robbie 1
▁irony 1
▁obscure 1
▁Payne 1
▁Alison 1
▁1919 1
▁caucus 1
▁prediction 1
▁Serie 1
!). 1
▁noises 1
▁skate 1
▁fascinated 1
▁negatively 1
▁Sprint 1
▁supreme 1
▁quake 1
▁hesitate 1
▁whisper 1
itt 1
▁Brewers 1
▁excluding 1
▁inherent 1
▁$27 1
▁Ale 1
▁Reserved 1
▁Hank 1
▁communicating 1
▁populist 1
▁thriving 1
▁Feel 1
▁blockbuster 1
▁announcements 1
▁1941 1
▁Craft 1
ying 1
duc 1
ied 1
▁Playing 1
▁daycare 1
▁Depression 1
▁Niagara 1
▁schedules 1
▁Ebola 1
PP 1
▁Victory 1
▁Dai 1
dell 1
▁Athletics 1
iko 1
▁measurement 1
▁pioneer 1
▁ceremonies 1
▁cherry 1
▁revolt 1
▁1999. 1
▁trainers 1
▁CF 1
▁1946 1
▁demonstrating 1
▁rant 1
▁Yi 1
▁reconstruction 1
▁shaft 1
guard 1
▁Denis 1
▁Legislative 1
▁CAPTION 1
▁tasting 1
▁brewing 1
▁distract 1
▁XL 1
▁Sell 1
▁bikini 1
▁login 1
ovic 1
▁persona 1
▁Hugo 1
▁width 1
▁gallon 1
ATE 1
▁Georgetown 1
nen 1
▁Appeal 1
▁Pic 1
▁tasty 1
▁basin 1
▁Thi 1
abi 1
▁staple 1
▁illicit 1
▁remarkably 1
▁vitamin 1
▁overview 1
▁Personal 1
▁pitchers 1
▁Cedar 1
▁professors 1
▁cater 1
▁foundations 1
▁Sk 1
ito 1
▁utilized 1
▁commodities 1
▁Jinping 1
▁AFL 1
special 1
▁activate 1
▁um 1
▁accustomed 1
▁1914 1
Will 1
won 1
tail 1
▁optical 1
▁intentional 1
▁Meg 1
ular 1
▁Move 1
▁tapping 1
▁crushing 1
▁cruelty 1
▁turf 1
▁XI 1
▁tv 1
vel 1
▁graph 1
▁slack 1
▁illusion 1
▁flock 1
▁sewer 1
▁weaken 1
▁teased 1
▁Vale 1
▁lodged 1
▁Elite 1
▁Gaga 1
▁reset 1
▁Beckham 1
▁psychologist 1
▁psychiatric 1
▁arose 1
▁Politics 1
ú 1
▁icy 1
rine 1
▁cheered 1
▁tray 1
MT 1
aver 1
▁shaken 1
uh 1
▁LE 1
▁Observer 1
▁Jerome 1
▁Rouge 1
▁21. 1
▁Sei 1
offs 1
▁Gan 1
▁condolences 1
▁mornings 1
▁Serena 1
▁Avengers 1
NE 1
5. 1
▁comforting 1
▁ko 1
worker 1
▁Question 1
▁1943 1
▁115 1
▁respectful 1
▁CH 1
▁Baghdad 1
▁thirteen 1
▁voluntarily 1
pped 1
Ed 1
▁Willis 1
▁Lock 1
▁Luc 1
scape 1
3) 1
▁Shield 1
▁rein 1
▁spoon 1
▁Walton 1
enko 1
ister 1
GR 1
chin 1
para 1
note 1
▁blues 1
heart 1
▁Raja 1
▁Dia 1
▁bedrooms 1
▁mattress 1
▁accompany 1
▁separating 1
▁Islamabad 1
▁Salah 1
rey 1
▁plaintiffs 1
▁misery 1
▁recognizes 1
▁indie 1
▁anime 1
▁privileged 1
/1 1
▁echo 1
▁Luck 1
PF 1
▁Gloria 1
▁bids 1
▁Tiffany 1
▁brighter 1
▁settlers 1
▁1994, 1
▁toughest 1
▁bait 1
▁bonuses 1
▁Sale 1
▁Bollywood 1
▁malware 1
▁preservation 1
▁Churchill 1
Super 1
enter 1
▁Lead 1
▁Assange 1
▁judiciary 1
▁prejudice 1
▁professionally 1
sexual 1
▁128 1
▁Tang 1
▁Eu 1
▁lust 1
▁stool 1
▁bracket 1
elo 1
5% 1
▁eagle 1
arian 1
▁insert 1
▁dilemma 1
▁cheat 1
▁11:30 1
▁DACA 1
▁Rapids 1
▁fingerprint 1
imi 1
▁sins 1
▁injuring 1
▁lavish 1
▁illustrated 1
▁Cass 1
▁begged 1
national 1
▁scales 1
▁1955 1
▁lag 1
▁baseline 1
▁entitle 1
▁poker 1
India 1
▁dimensions 1
▁Armenia 1
▁suing 1
kill 1
July 1
▁JPMorgan 1
▁Breitbart 1
▁structured 1
▁Battalion 1
uli 1
bro 1
▁Abbas 1
▁internally 1
▁uprising 1
chair 1
▁Socialist 1
▁Expo 1
▁Ari 1
trick 1
come 1
▁reproductive 1
▁drawings 1
▁Frankfurt 1
▁hail 1
▁shells 1
▁immunity 1
▁paragraph 1
▁zee 1
nation 1
▁captive 1
▁damp 1
▁expresses 1
▁circus 1
▁sideline 1
▁accepts 1
▁Tide 1
▁Event 1
▁Cafe 1
▁Kaepernick 1
▁Rolling 1
000 1
▁fallout 1
▁th 1
mouth 1
▁councillors 1
▁optimal 1
▁Parkland 1
present 1
▁qualification 1
▁Brain 1
▁ringing 1
▁collided 1
▁accomplishment 1
▁refined 1
▁Ras 1
▁competent 1
▁Jude 1
▁downloaded 1
▁contend 1
▁flick 1
▁Site 1
▁selfie 1
aid 1
▁lakes 1
▁soaked 1
▁relieve 1
▁rebuilt 1
pic 1
▁bushes 1
▁Hale 1
▁1939 1
ult 1
▁Than 1
▁pathway 1
mir 1
▁Fly 1
▁heartbeat 1
▁vault 1
ern 1
▁crafted 1
▁Chicken 1
▁guiding 1
▁Bluetooth 1
▁Math 1
▁avail 1
cio 1
▁Princeton 1
▁Mix 1
▁corps 1
▁autopsy 1
▁chemo 1
▁landlord 1
▁weaknesses 1
▁bans 1
▁admired 1
▁bro 1
▁senses 1
ple 1
▁flashing 1
HD 1
▁TMZ 1
▁heartbreaking 1
think 1
▁Satan 1
tting 1
▁defines 1
▁surfaces 1
▁disturbed 1
call 1
▁Writer 1
▁shaping 1
▁Quality 1
stan 1
▁Leadership 1
▁Allan 1
▁1954 1
▁1945 1
sport 1
▁occupy 1
▁Orioles 1
▁bouncing 1
▁brewery 1
▁Believe 1
▁sixteen 1
keeper 1
▁needles 1
▁Ace 1
▁gem 1
▁Roland 1
▁tags 1
▁erected 1
▁1942 1
▁CB 1
uring 1
▁1935 1
▁1.7 1
▁Chandler 1
▁exhibited 1
▁Isaiah 1
TP 1
▁buffer 1
▁viewer 1
fra 1
▁Beautiful 1
▁creep 1
ack 1
Muslim 1
▁republic 1
▁Milo 1
▁humour 1
▁abusing 1
hurst 1
▁listeners 1
▁Vic 1
▁clearer 1
▁Ng 1
▁storytelling 1
HO 1
, 1
▁Hurricanes 1
▁1949 1
MeToo 1
▁swamp 1
▁bets 1
▁Programme 1
▁promotes 1
▁combo 1
▁Wong 1
▁lodge 1
▁necklace 1
▁Torres 1
▁appliances 1
eu 1
▁Zhang 1
▁emergence 1
▁$26 1
speaking 1
▁divisive 1
▁bodily 1
▁Beatles 1
▁bolt 1
▁Snap 1
▁[4] 1
ire 1
osis 1
▁pumps 1
▁Basin 1
▁urine 1
▁Pioneer 1
▁Dev 1
isa 1
▁thrilling 1
▁outskirts 1
▁commissioners 1
▁Elon 1
Have 1
▁CE 1
CBC 1
▁prisons 1
demand 1
▁Legend 1
▁yearly 1
▁maritime 1
▁hollow 1
▁Uttar 1
inc 1
▁expelled 1
▁merchants 1
▁sufficiently 1
▁wax 1
tree 1
▁gamers 1
▁embracing 1
▁coroner 1
▁literacy 1
▁layup 1
▁VIP 1
▁skipper 1
▁Turning 1
EF 1
▁hashtag 1
▁tsunami 1
▁Bahrain 1
▁displaying 1
▁chatted 1
▁refrain 1
Ch 1
▁premature 1
▁Civic 1
▁humidity 1
▁hurdles 1
▁­ 1
LC 1
▁Peak 1
super 1
▁installment 1
▁parental 1
▁Families 1
▁Flat 1
▁reboot 1
▁Single 1
▁Avery 1
izer 1
▁freeway 1
▁proposing 1
▁Monaco 1
▁phenomenal 1
▁Herman 1
oi 1
▁1910 1
▁sip 1
▁Archbishop 1
▁destiny 1
▁Casino 1
▁Scroll 1
▁Capt 1
ient 1
▁Guardiola 1
EN 1
uni 1
▁Holt 1
▁FL 1
▁vaccines 1
▁whopping 1
▁Yard 1
▁unpopular 1
▁Vanguard 1
▁Admiral 1
▁phases 1
▁drained 1
▁Horizon 1
▁Lau 1
▁monuments 1
▁unified 1
▁fairness 1
▁tweeting 1
▁Hoffman 1
written 1
▁Cyprus 1
▁candidacy 1
▁impending 1
▁genocide 1
UP 1
▁Farmers 1
▁altar 1
▁Jamal 1
▁Klopp 1
teen 1
▁wasting 1
▁eco 1
▁easing 1
▁Attack 1
,200 1
▁galaxy 1
▁Malta 1
▁rib 1
▁molecules 1
▁airing 1
▁congressman 1
▁wolves 1
▁Elvis 1
beat 1
San 1
▁trajectory 1
▁wizard 1
▁volleyball 1
outs 1
▁stormed 1
▁Moody 1
ö 1
▁surpassed 1
▁grill 1
▁aka 1
▁allege 1
▁Cla 1
▁Bryce 1
▁pounding 1
▁Cru 1
▁stern 1
▁Depot 1
▁bedtime 1
▁Hook 1
▁Fields 1
▁decree 1
child 1
▁brew 1
AB 1
▁Hezbollah 1
▁fulfilling 1
▁9- 1
▁slash 1
▁reinforced 1
▁Bert 1
▁melting 1
▁Wenger 1
▁[3] 1
▁tangible 1
▁Daisy 1
TER 1
tern 1
pl 1
▁harassed 1
▁compensate 1
▁rec 1
▁Marlins 1
▁texted 1
▁bargaining 1
▁resistant 1
▁psychiatrist 1
▁slew 1
saving 1
▁Vel 1
▁Lip 1
▁mates 1
▁Becky 1
▁fertility 1
▁tightening 1
▁Typically 1
▁discretion 1
IF 1
.05 1
▁grams 1
▁telecommunicati 1
▁Dustin 1
▁pity 1
▁autonomy 1
▁proprietary 1
▁standoff 1
▁Zi 1
▁compliment 1
▁1934 1
▁Spot 1
▁22. 1
▁discusses 1
▁Grandpa 1
▁replica 1
▁persecution 1
▁fiery 1
▁vent 1
▁Brands 1
▁feathers 1
nder 1
▁deepest 1
▁accusation 1
▁po 1
▁chess 1
▁Hit 1
blue 1
▁render 1
▁paramedics 1
▁irrelevant 1
▁Qu 1
▁vibe 1
rn 1
▁challenger 1
▁briefed 1
▁wilderness 1
▁Providence 1
▁Guatemala 1
dimensional 1
safe 1
RD 1
MI 1
▁Railroad 1
▁calmly 1
▁RHP 1
▁Quarter 1
lah 1
▁guides 1
▁Employees 1
▁Valencia 1
▁naive 1
▁stamps 1
▁$400 1
▁Map 1
▁remake 1
▁explosives 1
▁helpless 1
▁fork 1
▁Must 1
▁fourteen 1
asi 1
▁Rita 1
▁crafts 1
▁modes 1
▁goat 1
▁scar 1
▁Middleton 1
▁Noel 1
▁farewell 1
▁insulin 1
▁Bates 1
▁Vin 1
▁HS 1
▁Mul 1
kes 1
▁outspoken 1
▁councillor 1
ction 1
vision 1
▁DNC 1
ibility 1
▁swollen 1
▁thieves 1
▁Ek 1
▁Hyde 1
▁Breeze 1
udi 1
▁maiden 1
▁correction 1
▁Beginning 1
▁lu 1
▁Episode 1
tum 1
pat 1
▁Multiple 1
▁poles 1
▁outrageous 1
▁2.2 1
▁Progress 1
▁relegation 1
▁penny 1
▁SU 1
▁comprises 1
▁Adventure 1
Mu 1
▁Truck 1
▁academics 1
Russian 1
▁Comic 1
lum 1
▁Managing 1
▁gal 1
▁Jae 1
vid 1
hearted 1
public 1
▁strips 1
▁stroller 1
▁promotions 1
▁Popular 1
▁innovations 1
▁philosophical 1
Ne 1
▁quantities 1
▁Hicks 1
▁4-3 1
▁AAP 1
Out 1
▁Arch 1
▁cautioned 1
thy 1
stream 1
▁Easy 1
▁manually 1
▁Tristan 1
▁Burger 1
▁sway 1
ancy 1
▁Institution 1
▁harmony 1
▁congestion 1
▁advocated 1
▁groom 1
▁marginal 1
▁indefinitely 1
center 1
▁Weiss 1
founded 1
▁Matter 1
▁Naomi 1
▁Interestingly 1
▁squadron 1
▁fulfilled 1
▁cardboard 1
White 1
▁doses 1
▁vivid 1
▁petroleum 1
tag 1
code 1
▁certificates 1
▁sums 1
▁Anglo 1
dog 1
vor 1
▁pope 1
▁Bai 1
▁confession 1
▁Uni 1
▁Kenyan 1
lier 1
▁homelessness 1
▁protagonist 1
▁mug 1
▁cushion 1
▁disregard 1
▁glue 1
▁bailout 1
▁acknowledging 1
▁cache 1
▁Ladies 1
Ah 1
▁Risk 1
▁lows 1
▁bumper 1
▁knives 1
▁resilience 1
general 1
▁Hartford 1
▁neutrality 1
cin 1
ullah 1
▁Lar 1
▁CBD 1
▁acoustic 1
uru 1
▁Prophet 1
▁dynasty 1
▁comparisons 1
Tech 1
▁incomplete 1
▁Leah 1
▁commemorate 1
Bar 1
▁bald 1
▁sleeves 1
▁Shelby 1
▁Nigel 1
▁2.4 1
▁Aussie 1
▁cancellation 1
▁shutout 1
fit 1
▁Otto 1
▁Thirty 1
ND 1
▁Finding 1
etta 1
▁denounced 1
▁addicted 1
duty 1
▁Lebanese 1
▁Chef 1
▁Arc 1
▁tagged 1
▁escalating 1
▁contamination 1
mond 1
▁soared 1
▁Rory 1
▁evacuate 1
▁saddle 1
▁70% 1
▁brink 1
▁Stephens 1
▁dwarf 1
▁fearful 1
centric 1
▁lenses 1
vent 1
▁developmental 1
▁Phillies 1
▁Wealth 1
▁Cheryl 1
▁Specifically 1
inning 1
▁Didn 1
▁mitigate 1
▁undertaking 1
▁escorted 1
▁TRENDING 1
▁Carpenter 1
▁Porsche 1
▁Cherry 1
▁Northwestern 1
emi 1
UK 1
▁MRI 1
▁notifications 1
eno 1
▁convoy 1
flight 1
▁tow 1
omo 1
▁messed 1
▁singers 1
Great 1
▁Sunderland 1
▁Democracy 1
▁prohibition 1
▁patron 1
▁Kot 1
–2 1
▁tribunal 1
little 1
▁exhaust 1
▁Vista 1
mani 1
▁sperm 1
▁fireplace 1
▁Jedi 1
▁annualized 1
▁forums 1
turned 1
zz 1
▁1993, 1
▁slump 1
▁sprawling 1
▁councils 1
▁UT 1
Make 1
▁telecom 1
▁Pablo 1
▁Piper 1
▁texting 1
▁residency 1
▁rigid 1
▁rot 1
hoo 1
eon 1
ame 1
▁4% 1
▁Origin 1
▁behavioral 1
ges 1
▁carriage 1
rous 1
▁Bach 1
▁branding 1
eck 1
▁4-2 1
▁definitive 1
MD 1
▁45- 1
nin 1
▁envoy 1
▁Earnings 1
▁23. 1
▁Billboard 1
▁Alt 1
▁wit 1
▁wires 1
▁quad 1
▁Lego 1
email 1
▁contractions 1
▁allied 1
▁salon 1
▁factions 1
PT 1
▁critique 1
▁Ivy 1
▁Vijay 1
▁genus 1
rac 1
▁disrupted 1
FI 1
▁Cara 1
▁forged 1
bor 1
▁collaborate 1
▁Hun 1
▁Chart 1
rak 1
▁surround 1
▁circulating 1
ashi 1
▁commentator 1
Wow 1
▁gallons 1
▁sphere 1
David 1
hart 1
floor 1
▁Pyeongchang 1
liter 1
▁observing 1
▁microwave 1
spec 1
▁predicting 1
ista 1
▁1952 1
▁1962 1
▁scarf 1
▁mourning 1
ulation 1
▁spectators 1
▁BuzzFeed 1
▁Surely 1
▁Eco 1
▁1963 1
AI 1
uro 1
▁undisclosed 1
▁Venice 1
War 1
▁understandable 1
▁gradual 1
Although 1
▁markers 1
▁conceived 1
sponsored 1
▁vinyl 1
ão 1
▁Fortune 1
▁mirrors 1
League 1
▁Petro 1
▁smash 1
▁paved 1
▁myriad 1
inter 1
hon 1
▁Tele 1
▁Canucks 1
▁Savannah 1
▁Hammer 1
again 1
▁Above 1
cause 1
▁merge 1
▁grieving 1
VI 1
▁repaired 1
▁$250 1
▁Whit 1
▁energetic 1
▁Arlington 1
▁Jorge 1
▁Fur 1
▁dim 1
▁inserted 1
▁proclaimed 1
▁photographers 1
▁strokes 1
▁logging 1
▁1998. 1
pie 1
▁antique 1
▁lender 1
▁maternal 1
▁maturity 1
▁analyses 1
▁Romanian 1
▁exhibits 1
▁huh 1
▁Sy 1
▁justices 1
▁Scientific 1
▁Snowden 1
▁filters 1
▁balancing 1
▁leash 1
qu 1
▁Bern 1
▁selecting 1
secret 1
dies 1
aq 1
▁consulate 1
▁ham 1
lings 1
▁RA 1
▁sincere 1
▁Bla 1
nge 1
▁perceive 1
▁realities 1
▁Dortmund 1
▁barbecue 1
▁Motley 1
▁altercation 1
▁uphold 1
▁depths 1
▁Weekend 1
▁lineman 1
▁Stella 1
▁Pep 1
▁Salem 1
osh 1
▁Shirley 1
▁cardiac 1
▁diary 1
▁drowned 1
▁1932 1
cro 1
▁Score 1
block 1
▁synagogue 1
▁Harbour 1
▁projection 1
▁suppress 1
▁sorted 1
▁vi 1
▁prevents 1
serving 1
los 1
▁Conor 1
Reilly 1
▁triangle 1
▁prevalent 1
▁assurance 1
▁Highland 1
▁AJ 1
▁ECB 1
▁Boxing 1
▁conductor 1
Game 1
▁Oracle 1
▁Wrestling 1
▁vegetarian 1
▁unlocked 1
▁ridge 1
BS 1
▁raft 1
▁IoT 1
▁scenery 1
▁trousers 1
▁finalists 1
ML 1
got 1
▁nausea 1
▁1928 1
▁escaping 1
▁festivities 1
IB 1
▁2.3 1
▁Advisor 1
▁combines 1
▁scheduling 1
▁Crosby 1
▁emphasize 1
▁legalization 1
▁Panther 1
▁stubborn 1
▁rash 1
▁applause 1
▁cuisine 1
▁hypothesis 1
▁yacht 1
▁Speedway 1
player 1
ess 1
▁Citizen 1
▁monarch 1
▁1992, 1
▁Lil 1
▁capita 1
▁Sil 1
▁Gee 1
▁Byron 1
▁bats 1
▁inflammation 1
ounce 1
▁uncertainties 1
▁varies 1
▁cowboy 1
▁madness 1
LF 1
▁positioning 1
▁Places 1
Sometimes 1
▁Devin 1
▁syrup 1
▁shrine 1
iser 1
flu 1
▁restraining 1
▁ballet 1
▁dissolved 1
▁1:30 1
▁assessments 1
▁crunch 1
▁metaphor 1
▁Isle 1
▁uranium 1
yne 1
▁occurrence 1
CK 1
▁!!!! 1
▁1,200 1
▁motel 1
▁criticizing 1
▁campaigned 1
▁casually 1
▁asthma 1
▁crises 1
never 1
pel 1
▁CI 1
▁bathrooms 1
▁--- 1
▁Bir 1
lett 1
▁Wikipedia 1
▁Moto 1
▁Airways 1
▁entirety 1
▁Hansen 1
▁brace 1
▁Bashar 1
▁Sleep 1
▁raided 1
▁Tenn 1
▁advocating 1
▁workouts 1
▁Barn 1
▁gel 1
,300 1
▁1918 1
▁congress 1
▁Artist 1
▁entertained 1
. 1
▁hefty 1
▁breakout 1
▁Sep 1
▁aspirations 1
▁Stefan 1
▁Paula 1
▁ANY 1
▁Ethereum 1
▁Riyadh 1
▁whereabouts 1
▁coffin 1
▁01 1
▁Hawaiian 1
▁Maha 1
▁hopped 1
▁GA 1
interest 1
bedroom 1
▁commanding 1
▁asshole 1
▁prohibit 1
▁1924 1
start 1
▁disagreed 1
ille 1
umi 1
▁£5 1
Sorry 1
▁Elections 1
▁Solo 1
▁attribute 1
onia 1
▁Simple 1
▁cyclists 1
▁Abdullah 1
▁contributors 1
▁fraudulent 1
▁Arm 1
▁GI 1
▁JD 1
▁severity 1
▁Infantry 1
▁manuscript 1
▁circulated 1
▁MIT 1
▁commenced 1
▁scoop 1
▁Rama 1
business 1
▁punches 1
▁2.1 1
▁Maharashtra 1
▁Stockholm 1
▁doc 1
▁slaughter 1
sum 1
▁Guess 1
▁millennials 1
▁journals 1
▁plague 1
▁Weber 1
▁adequately 1
▁phrases 1
▁LNG 1
▁2016-17 1
▁PF 1
▁crawling 1
▁Parade 1
▁terminated 1
gard 1
▁descriptions 1
▁1948 1
▁Shot 1
ggy 1
▁Nuclear 1
▁Hawkins 1
▁wicked 1
▁warriors 1
▁toilets 1
▁ICC 1
▁religions 1
▁1991, 1
▁Strategic 1
▁dumping 1
▁Basic 1
▁Path 1
ivity 1
▁reigning 1
▁wow 1
▁Wii 1
▁blockade 1
▁defect 1
storm 1
▁Coca 1
Obviously 1
▁avid 1
▁Investments 1
▁induced 1
▁undefeated 1
▁Gareth 1
▁Whitney 1
▁retaining 1
▁McCoy 1
▁SW 1
Everything 1
Ja 1
▁plight 1
▁rockets 1
▁Ankara 1
BL 1
▁trek 1
▁revived 1
▁greeting 1
▁CS 1
▁accidental 1
▁advertisement 1
▁invention 1
▁Flames 1
▁Properties 1
▁forbidden 1
▁Minority 1
▁goaltender 1
▁Dinner 1
ars 1
TU 1
LL 1
esque 1
▁exercising 1
hil 1
▁Constitutional 1
▁Bring 1
▁expire 1
cle 1
Dr 1
▁defenseman 1
▁oppression 1
▁butterfly 1
▁wa 1
▁Om 1
▁desirable 1
▁fries 1
▁caller 1
sted 1
▁soaring 1
▁oversees 1
▁doubling 1
▁crypto 1
BR 1
▁drifted 1
▁Kelley 1
▁regained 1
▁rogue 1
▁Af 1
▁punching 1
š 1
▁continuation 1
▁Gupta 1
▁biased 1
Cal 1
▁Reno 1
▁SG 1
▁foolish 1
▁lame 1
▁assertion 1
▁kindly 1
▁Leigh 1
▁polled 1
▁Devil 1
CM 1
.60 1
-2) 1
▁identifies 1
▁referenced 1
▁termination 1
▁reductions 1
▁Wash 1
▁Av 1
▁scout 1
▁torch 1
ride 1
3.5 1
▁Foot 1
▁Dash 1
▁shovel 1
▁assignments 1
▁450 1
els 1
▁Imran 1
▁Qa 1
▁boarded 1
▁enlisted 1
▁175 1
▁notch 1
▁definite 1
▁Scouts 1
Mexico 1
lb 1
▁Chevrolet 1
▁Freddie 1
▁fatalities 1
FR 1
▁2:30 1
ld 1
ELL 1
▁await 1
mor 1
▁Stalin 1
ota 1
▁dice 1
▁magnet 1
sided 1
▁Fal 1
▁scrambled 1
▁Poll 1
▁outfielder 1
▁overlooking 1
▁masters 1
▁Crew 1
ache 1
▁realizes 1
neck 1
▁Mnangagwa 1
▁Rural 1
▁infants 1
amba 1
▁breastfeeding 1
▁diminished 1
▁Abrams 1
▁discourage 1
▁slides 1
▁interrogation 1
FE 1
▁Oilers 1
▁Electronic 1
▁printer 1
▁Airbnb 1
▁reversal 1
▁Purdue 1
▁3.0 1
▁apiece 1
▁Fury 1
▁fe 1
BI 1
▁logs 1
▁ranged 1
▁UPDATE 1
▁Marshal 1
▁Allied 1
▁Cri 1
▁Strike 1
▁Observatory 1
▁apparel 1
▁reconsider 1
▁Nord 1
▁daytime 1
Pic 1
▁intra 1
▁artifacts 1
▁theoretical 1
▁inaccurate 1
▁Pilot 1
▁richest 1
▁fixtures 1
▁remedy 1
▁Pas 1
▁Counter 1
▁attach 1
▁interventions 1
▁laptops 1
▁biting 1
▁Venus 1
▁OnePlus 1
▁$28 1
▁Log 1
rou 1
▁modeling 1
▁Djokovic 1
▁voyage 1
▁proxy 1
▁vastly 1
▁audition 1
▁drowning 1
▁Blade 1
▁Chat 1
▁concession 1
▁Sophia 1
▁towels 1
▁supplements 1
▁fucked 1
▁cozy 1
En 1
▁Impact 1
▁Evil 1
▁coordinate 1
▁baggage 1
▁versatile 1
▁extinction 1
▁RM 1
▁mist 1
nel 1
▁updating 1
tric 1
▁KC 1
9.99 1
▁Buddy 1
▁batter 1
Pre 1
▁advertised 1
▁ranges 1
▁translates 1
▁CW 1
smith 1
▁transmitted 1
▁intermediate 1
▁BT 1
hawk 1
▁$70 1
▁Mira 1
▁disbelief 1
▁104 1
▁extradition 1
▁unto 1
▁errands 1
FT 1
▁automobile 1
▁reminiscent 1
▁notebook 1
▁friendships 1
▁daring 1
▁frowned 1
▁assaults 1
▁Paso 1
▁responds 1
▁museums 1
▁pod 1
▁prevail 1
Mi 1
▁facebook 1
▁Woo 1
▁eighteen 1
▁vain 1
▁Therapeutics 1
▁traces 1
▁arsenal 1
▁Perkins 1
▁Rodney 1
ched 1
▁sibling 1
▁darn 1
▁Comics 1
▁harness 1
▁lamb 1
▁dread 1
▁chooses 1
▁tu 1
▁thesis 1
▁heir 1
BE 1
▁Whereas 1
▁vicinity 1
▁MSNBC 1
▁alumni 1
▁Bab 1
frame 1
Take 1
5) 1
phy 1
▁flush 1
▁cakes 1
▁unofficial 1
▁Dodge 1
▁Archer 1
▁subsidiaries 1
▁yogurt 1
′′ 1
▁tiger 1
▁curtains 1
▁3:30 1
cum 1
him 1
▁possessing 1
▁daunting 1
▁encryption 1
▁Alphabet 1
▁Amid 1
▁Baylor 1
▁Emails 1
bird 1
▁exclusion 1
▁temptation 1
▁Doyle 1
▁Savage 1
▁CJ 1
▁Gazette 1
▁Rica 1
▁cellular 1
▁Kohli 1
▁chic 1
NR 1
▁Sc 1
▁maid 1
▁Honduras 1
▁peculiar 1
▁vegetation 1
▁genome 1
▁PSG 1
▁regrets 1
▁vein 1
▁― 1
really 1
▁Dogs 1
▁£4 1
▁ignorant 1
▁Jonas 1
▁Reich 1
mount 1
▁Crazy 1
▁piles 1
▁ODI 1
▁90- 1
▁PRO 1
▁coral 1
▁clergy 1
▁adhere 1
▁disciplined 1
▁Infrastructure 1
▁ensuing 1
▁McCabe 1
uv 1
cm 1
▁Katy 1
▁snakes 1
faced 1
RY 1
▁Randall 1
▁advertisers 1
▁108 1
IO 1
▁Wis 1
▁customized 1
▁sergeant 1
▁Stoke 1
▁Wol 1
▁200- 1
fil 1
RB 1
▁enthusiasts 1
rod 1
▁Cave 1
forward 1
strom 1
large 1
▁amenities 1
▁orgasm 1
▁Sounds 1
▁tents 1
▁bullish 1
▁Nina 1
▁communal 1
▁offline 1
▁Engineers 1
▁Factory 1
▁AN 1
▁PD 1
▁embarked 1
▁1916 1
▁stitches 1
▁Cotton 1
▁Cambodia 1
▁Rae 1
▁woes 1
▁dolls 1
ense 1
▁falsely 1
iro 1
Per 1
▁Gau 1
▁harbour 1
▁chemotherapy 1
▁gases 1
▁Adding 1
anne 1
▁26. 1
▁Tha 1
▁historians 1
▁resemble 1
▁spoiled 1
▁Pasadena 1
▁Hastings 1
▁José 1
▁Th 1
▁collaborated 1
▁granting 1
▁narrowed 1
hai 1
zon 1
:05 1
▁amounted 1
▁$45 1
▁Indies 1
shed 1
▁1922 1
OD 1
▁Renaissance 1
isi 1
▁Grill 1
▁Newark 1
▁Jag 1
▁blond 1
▁lecturer 1
▁sensational 1
▁Aberdeen 1
▁cathedral 1
▁Dalton 1
▁twitter 1
mmer 1
▁JP 1
▁incomes 1
▁Quite 1
▁testament 1
▁reliance 1
▁37- 1
▁Wide 1
▁103 1
▁Jeep 1
▁Wei 1
camp 1
▁emperor 1
▁Yadav 1
▁Squadron 1
▁defenses 1
▁Pratt 1
▁Rosie 1
▁Fest 1
▁Minor 1
▁clicked 1
▁tattoos 1
▁2-3 1
▁Comedy 1
Mom 1
kowski 1
▁ED 1
scoring 1
▁Celsius 1
▁Rookie 1
▁scars 1
▁suitcase 1
▁102 1
▁Hydro 1
▁motives 1
eer 1
▁Erie 1
▁Dominican 1
▁Catholics 1
▁retention 1
▁scandals 1
Ad 1
▁Watts 1
ovich 1
Sa 1
▁compilation 1
▁2-2 1
▁Cobb 1
▁stat 1
moving 1
▁Carlson 1
UT 1
▁waiver 1
▁polished 1
▁splitting 1
▁BUT 1
▁aided 1
▁Islanders 1
▁nationalism 1
▁Marina 1
▁Indy 1
▁blink 1
Ru 1
▁froze 1
▁verification 1
▁Bronx 1
gui 1
▁softball 1
▁favourites 1
owner 1
▁posture 1
Hu 1
▁swelling 1
▁Kap 1
Ben 1
▁coaster 1
▁darling 1
▁bishops 1
gri 1
▁Screen 1
▁exploited 1
eal 1
▁Notice 1
▁sunk 1
Journal 1
▁Pier 1
ester 1
▁Feeling 1
▁variants 1
hee 1
▁pins 1
▁tighten 1
▁consolidated 1
ación 1
▁Por 1
gie 1
▁scholarships 1
▁fury 1
TB 1
▁Jos 1
fight 1
security 1
6) 1
▁friction 1
▁8,000 1
▁archive 1
▁pirate 1
▁enhancing 1
▁constructive 1
roy 1
▁Hamburg 1
▁horizontal 1
▁attendant 1
ION 1
▁pros 1
▁Jupiter 1
▁brigade 1
Che 1
▁preserving 1
▁bells 1
▁Scar 1
▁liar 1
▁drastic 1
▁molecular 1
▁spinal 1
▁roast 1
▁Product 1
▁FX 1
▁Rocket 1
▁Gina 1
▁sciences 1
shaw 1
▁Karnataka 1
▁miniature 1
▁evaluating 1
▁browsing 1
▁lectures 1
▁33, 1
▁worthwhile 1
▁Recreation 1
▁damned 1
▁bombers 1
▁Kabul 1
▁speculate 1
▁Pel 1
▁Paulo 1
lessness 1
▁songwriter 1
hem 1
▁Barton 1
hor 1
▁Bangkok 1
gli 1
▁Cle 1
▁Firefighters 1
▁dryer 1
▁(3) 1
▁persuaded 1
▁restoring 1
700 1
▁arbitrary 1
▁Manufacturing 1
▁Kiev 1
kat 1
▁fountain 1
▁29. 1
mad 1
ith 1
itu 1
▁Dorothy 1
▁alleviate 1
▁Cavs 1
▁Karachi 1
▁Male 1
TY 1
▁continental 1
▁booming 1
▁recycled 1
▁Lev 1
▁$500,000 1
▁1925 1
▁tele 1
▁sucking 1
▁ironic 1
▁Events 1
▁stereotypes 1
▁screwed 1
▁aerospace 1
▁inducted 1
▁courtyard 1
▁Reese 1
▁obey 1
▁Das 1
▁tiles 1
▁goats 1
▁Haram 1
▁Donovan 1
▁Contest 1
VR 1
▁Ul 1
▁dominating 1
▁Reg 1
▁overweight 1
bling 1
▁Derrick 1
▁whiskey 1
▁Rhodes 1
▁gestures 1
▁pains 1
▁Alert 1
▁Mos 1
▁SH 1
heim 1
▁runoff 1
wed 1
▁fringe 1
▁Sem 1
▁additions 1
▁WI 1
▁protects 1
▁sequences 1
▁7,000 1
▁analyse 1
▁Icon 1
King 1
▁beneficiaries 1
▁formidable 1
▁Revolutionary 1
▁inspections 1
▁Dom 1
▁thru 1
▁Vanessa 1
▁32, 1
Se 1
▁Alta 1
ega 1
▁Teresa 1
▁Sergei 1
▁spat 1
▁Mau 1
▁leisure 1
▁filmmakers 1
Hello 1
▁bury 1
▁stained 1
▁champagne 1
▁cafeteria 1
▁exceptionally 1
▁finalized 1
▁fishermen 1
▁educators 1
▁Equity 1
▁portrayal 1
▁chancellor 1
▁Flyers 1
4) 1
▁Norton 1
▁Ola 1
▁1-2 1
▁atomic 1
▁leftist 1
max 1
▁vanilla 1
▁Yorker 1
▁1912 1
RL 1
ving 1
▁generator 1
▁// 1
▁Busch 1
▁Adult 1
▁screened 1
▁consulted 1
▁chilly 1
goers 1
▁Pearson 1
▁exhaustion 1
▁shale 1
▁organizer 1
▁Active 1
▁doomed 1
▁expenditures 1
▁preacher 1
▁electro 1
arch 1
ranking 1
▁acquitted 1
▁amusement 1
walk 1
▁Meredith 1
isha 1
uga 1
eni 1
between 1
▁Associate 1
▁Mut 1
▁Cunningham 1
▁repay 1
fast 1
▁NRL 1
▁seizures 1
▁Fre 1
own 1
http 1
▁LB 1
▁escalated 1
▁Rooney 1
▁muddy 1
iron 1
▁Chin 1
/20 1
▁tapes 1
▁Trafford 1
▁Knoxville 1
▁invasive 1
▁windy 1
ée 1
▁Sultan 1
▁lumber 1
...) 1
▁subjective 1
▁Hour 1
▁administer 1
▁Boat 1
▁breaches 1
▁kickoff 1
▁unstable 1
uc 1
▁$29 1
▁cam 1
CB 1
▁ji 1
▁Bulgaria 1
sun 1
▁Boone 1
▁hazard 1
▁coma 1
▁speculated 1
char 1
▁1931 1
▁Jew 1
▁tar 1
Pi 1
▁boo 1
▁fractured 1
▁Aleppo 1
▁Sutton 1
▁staircase 1
▁Stoppers 1
▁mapping 1
▁predators 1
▁Corner 1
hua 1
▁analyzing 1
▁primaries 1
▁Maurice 1
▁Continental 1
▁smuggling 1
~ 1
▁headset 1
▁procession 1
▁Von 1
▁Brewing 1
▁discovers 1
▁Gallagher 1
▁advising 1
▁1921 1
▁Schultz 1
▁Kristen 1
▁Minutes 1
▁ounces 1
▁Directors 1
▁Conn 1
▁geographic 1
▁maternity 1
brand 1
▁spear 1
▁violently 1
thi 1
▁bully 1
dos 1
▁prosecute 1
▁forgetting 1
▁solitary 1
▁strap 1
Jo 1
▁devotion 1
▁Naturally 1
▁Photograph 1
ifer 1
une 1
▁Clement 1
▁Dane 1
▁distributors 1
▁Photos 1
▁razor 1
▁ACLU 1
▁Nana 1
▁LinkedIn 1
▁Nawaz 1
▁alignment 1
▁5.5 1
▁NT 1
▁switches 1
▁Hyundai 1
▁folder 1
▁Sitting 1
▁tease 1
wash 1
▁Ahead 1
trip 1
▁axe 1
▁gag 1
▁honoured 1
▁outdated 1
IG 1
▁cubic 1
▁Clo 1
▁slumped 1
NN 1
▁Neymar 1
▁praising 1
▁firefighter 1
▁batters 1
▁rampant 1
▁killers 1
.'' 1
▁USS 1
▁Cain 1
▁recess 1
▁Watching 1
▁Rudy 1
▁Elijah 1
▁correspondence 1
▁arbitration 1
▁Holder 1
▁numb 1
▁instincts 1
▁systematic 1
▁directive 1
dling 1
▁abundant 1
–18 1
gram 1
dam 1
beck 1
▁verses 1
inder 1
▁Damn 1
nam 1
▁icons 1
▁Spaniard 1
haired 1
▁Finnish 1
▁Secondary 1
BB 1
▁invites 1
should 1
▁gardening 1
▁replicate 1
▁conglomerate 1
▁Productions 1
percent 1
▁brokers 1
▁boast 1
▁pedal 1
▁depressing 1
conscious 1
▁coats 1
▁battered 1
▁Bran 1
▁formats 1
▁companions 1
▁Analytica 1
▁Sidney 1
▁dye 1
▁frontier 1
▁converting 1
▁protocols 1
▁Courtesy 1
▁24/7 1
▁rematch 1
▁disagreement 1
Va 1
,’” 1
▁betrayed 1
▁bookstore 1
▁rod 1
▁explosions 1
▁Chain 1
▁lent 1
▁eagerly 1
▁generates 1
▁distances 1
▁yielded 1
▁Deputies 1
▁collector 1
listed 1
▁patiently 1
▁Lyn 1
vie 1
▁footing 1
▁Chennai 1
▁Murder 1
▁sings 1
▁acknowledges 1
▁Atletico 1
▁Wyatt 1
▁infectious 1
▁confess 1
▁Gift 1
▁Thinking 1
▁athletics 1
▁Rabbi 1
dividend 1
husband 1
▁Ride 1
▁metropolitan 1
▁Niger 1
▁Libyan 1
▁triggering 1
▁Denise 1
▁Stick 1
▁basics 1
▁aloud 1
ios 1
▁Emanuel 1
▁lunar 1
▁hormone 1
▁transferring 1
▁Results 1
▁honorary 1
▁balloons 1
▁advertisements 1
▁IOC 1
▁scrub 1
▁downturn 1
▁Cove 1
▁Fighting 1
▁cleanup 1
▁donating 1
▁Palin 1
▁archives 1
position 1
▁marriages 1
▁thief 1
hana 1
▁Pike 1
▁TM 1
▁Lawyers 1
▁Cork 1
▁authorization 1
AGE 1
▁ACT 1
▁° 1
done 1
RF 1
▁resisting 1
▁Prairie 1
▁desperation 1
▁pneumonia 1
▁ousted 1
perfect 1
▁wraps 1
/4 1
▁28. 1
nz 1
▁intensified 1
▁Lahore 1
▁Sinclair 1
▁Ryder 1
SR 1
▁blueprint 1
nee 1
▁editions 1
ency 1
▁powerhouse 1
▁creditors 1
CU 1
:55 1
citation 1
▁crust 1
▁rotating 1
▁breadth 1
▁Funny 1
▁1936 1
▁Musical 1
ete 1
Michael 1
▁stimulate 1
▁rubbish 1
bay 1
▁floral 1
▁Rainbow 1
▁mandated 1
▁1989, 1
ops 1
▁morality 1
▁jurisdictions 1
▁112 1
▁headquartered 1
▁consolidation 1
▁Rifle 1
▁levy 1
▁Surface 1
▁haircut 1
▁gentlemen 1
▁fibre 1
many 1
▁Bonnie 1
▁109 1
▁pathetic 1
▁slots 1
▁pun 1
oid 1
▁patents 1
▁instability 1
▁3) 1
▁gluten 1
▁infantry 1
▁rightly 1
7.5 1
▁embark 1
▁sampling 1
▁Mayo 1
▁Corn 1
▁yo 1
▁robotic 1
▁specifics 1
▁multitude 1
▁humid 1
▁eBay 1
▁meltdown 1
▁2030 1
▁ghosts 1
uba 1
▁guts 1
itch 1
▁1927 1
▁biography 1
▁multinational 1
▁Celebrity 1
▁busiest 1
▁va 1
ault 1
▁wellness 1
▁indoors 1
▁Ultimate 1
▁fortunes 1
▁Oscars 1
▁headaches 1
▁scramble 1
▁CV 1
▁prostitution 1
▁scanned 1
▁Hop 1
▁disruptive 1
hl 1
▁Pig 1
▁policeman 1
leigh 1
▁lick 1
▁hormones 1
▁$32 1
▁Ac 1
▁mattered 1
▁Padres 1
▁ceasefire 1
nny 1
count 1
Dis 1
acy 1
▁bunker 1
▁perspectives 1
▁rumored 1
runner 1
▁Jenna 1
▁Cra 1
plane 1
▁1915 1
▁Len 1
▁teasing 1
▁staging 1
health 1
▁Willow 1
ichi 1
▁Dayton 1
▁assessing 1
▁timetable 1
▁unauthorized 1
▁hazardous 1
▁undergone 1
▁query 1
▁missionary 1
.08 1
IV 1
▁Elliot 1
▁1917 1
MU 1
▁governed 1
▁northeastern 1
▁Launch 1
▁skeleton 1
▁1.0 1
▁Til 1
▁Chambers 1
▁assistants 1
▁announces 1
facing 1
▁opioids 1
▁HB 1
▁sung 1
▁Nadu 1
▁Damon 1
fat 1
▁inception 1
▁OH 1
▁Thing 1
zero 1
▁Mina 1
▁disposable 1
.'" 1
▁1996. 1
flow 1
▁bakery 1
▁1500 1
defense 1
5.00 1
▁delightful 1
Semitism 1
▁Dozens 1
since 1
▁Hayden 1
▁Witnesses 1
▁Mining 1
▁Nope 1
▁Webster 1
▁Hawk 1
▁31. 1
bet 1
▁descendants 1
▁harmless 1
▁Kickstarter 1
▁Elsewhere 1
holder 1
▁Stanton 1
▁grilled 1
▁Lambert 1
▁Bloom 1
▁Era 1
▁Ethiopian 1
▁elders 1
▁1926 1
▁rumor 1
▁modify 1
▁admissions 1
▁clutch 1
▁Lima 1
Frank 1
▁receipt 1
sti 1
▁awoke 1
▁batsman 1
▁supernatural 1
▁Tories 1
cel 1
▁Flying 1
▁royalty 1
▁disadvantage 1
▁Via 1
▁Alba 1
▁overlook 1
▁whites 1
▁processors 1
zel 1
rig 1
▁startled 1
▁mechanic 1
▁Pepper 1
▁Rao 1
▁elusive 1
why 1
▁bricks 1
▁caretaker 1
▁Kind 1
▁spared 1
▁Filipino 1
▁attachment 1
rew 1
▁500,000 1
ign 1
Nothing 1
▁signaled 1
Fa 1
▁Provincial 1
▁Schwartz 1
▁HTML 1
▁Electronics 1
▁perpetrators 1
Free 1
▁sailors 1
▁hectares 1
▁rink 1
▁Tata 1
▁assign 1
▁plots 1
▁fuss 1
▁psycho 1
▁Interest 1
▁6.5 1
▁sixty 1
▁Norris 1
▁generosity 1
▁legitimacy 1
▁secrecy 1
▁Swansea 1
▁Nas 1
▁Ned 1
▁Guyana 1
▁Wizards 1
wel 1
▁Bali 1
▁objected 1
setting 1
metre 1
▁tokens 1
▁25,000 1
▁youngster 1
▁facto 1
▁boil 1
▁Spark 1
▁crowned 1
▁Tanzania 1
▁restraint 1
▁queer 1
GS 1
▁resilient 1
▁libertarian 1
▁relegated 1
▁condemnation 1
▁ashes 1
clear 1
▁Philly 1
▁regiment 1
▁reservoir 1
▁1937 1
▁amusing 1
money 1
▁warmed 1
▁Colo 1
Semitic 1
Net 1
▁Strategy 1
▁Users 1
▁riots 1
▁thighs 1
▁sitcom 1
▁illustrate 1
▁rigorous 1
▁Aston 1
▁Wish 1
spot 1
▁12:30 1
▁sideways 1
▁6-3 1
▁Py 1
agent 1
lap 1
▁106 1
▁foil 1
▁Gorsuch 1
▁Rosenstein 1
hey 1
▁Squad 1
▁hog 1
▁Voters 1
ural 1
▁Expect 1
ois 1
▁nutrients 1
▁Kun 1
▁Cannon 1
▁Coal 1
▁Kuwait 1
▁inspect 1
▁sped 1
▁Tag 1
▁Marx 1
▁elephants 1
were 1
▁Amnesty 1
▁compassionate 1
▁seafood 1
-1) 1
▁Dancing 1
▁:) 1
pes 1
▁Aviv 1
▁Nicola 1
▁Customers 1
▁tile 1
▁baskets 1
▁2025 1
▁Trading 1
▁loser 1
-40 1
▁Tweet 1
▁Marvin 1
▁Hur 1
▁wines 1
▁pressured 1
ume 1
▁upbeat 1
▁portray 1
▁Motion 1
▁trusting 1
oko 1
▁Success 1
MG 1
▁Borough 1
▁panicked 1
▁crawled 1
trained 1
▁spoilers 1
BM 1
▁deprived 1
▁2018-19 1
Live 1
DOT 1
string 1
▁depicting 1
borne 1
▁Period 1
▁evenings 1
▁Composite 1
▁acceleration 1
▁catastrophe 1
▁trilogy 1
▁tunes 1
▁coveted 1
▁Poe 1
▁Ven 1
▁Doing 1
▁Malawi 1
▁velocity 1
▁2,500 1
▁trustees 1
▁descend 1
▁contributes 1
▁hesitant 1
ulated 1
▁parted 1
▁capitalist 1
▁Aboriginal 1
▁obliged 1
wy 1
▁ro 1
.80 1
▁commanders 1
▁Kindle 1
▁GST 1
ography 1
cock 1
▁Hair 1
ndi 1
leaning 1
expected 1
▁Lawson 1
Mac 1
▁billing 1
▁Testament 1
▁Crisis 1
▁quoting 1
▁Hussein 1
▁Violence 1
▁1923 1
–3 1
rov 1
▁300,000 1
▁reinforce 1
dry 1
▁salvation 1
▁Ventura 1
idae 1
▁discounted 1
▁Daughter 1
▁advancement 1
▁sc 1
ced 1
▁Lutheran 1
▁shortfall 1
▁specializes 1
▁Previous 1
▁sausage 1
▁Imp 1
▁mimic 1
▁neural 1
▁grammar 1
4.5 1
▁Hubby 1
▁policymakers 1
▁gateway 1
Sports 1
▁backers 1
▁netted 1
shop 1
ingham 1
▁Terminal 1
▁upgrading 1
▁Fairfax 1
▁modules 1
▁colonies 1
▁chuckled 1
▁38- 1
haven 1
▁quarterfinals 1
▁1890 1
▁idol 1
col 1
▁curves 1
▁restriction 1
▁policemen 1
▁Automotive 1
▁MT 1
▁Mode 1
yang 1
loss 1
▁Flu 1
Smith 1
▁Dover 1
II 1
▁prevalence 1
▁censorship 1
▁Depending 1
▁Sum 1
-4) 1
xa 1
▁Westbrook 1
▁ed 1
fake 1
▁Hyderabad 1
▁nowadays 1
▁clarified 1
▁horrified 1
▁shrinking 1
Back 1
▁unleashed 1
das 1
▁rug 1
▁Sikh 1
▁6-4 1
▁tightened 1
▁invaded 1
▁fox 1
▁hurdle 1
▁colon 1
▁Lancashire 1
▁Wichita 1
▁hierarchy 1
▁Suite 1
▁detainees 1
▁witnessing 1
▁Frontier 1
▁mesh 1
▁indirectly 1
▁Generally 1
▁envisioned 1
..... 1
▁Luna 1
kai 1
▁Philippe 1
▁landfill 1
▁Genesis 1
▁oceans 1
oe 1
lets 1
WD 1
▁ventures 1
▁proceeding 1
▁Kos 1
▁buddies 1
▁Renault 1
ific 1
▁Knox 1
lem 1
▁** 1
▁Tay 1
▁12,000 1
▁chanting 1
▁interviewing 1
▁extremism 1
▁persist 1
▁1944 1
▁sentiments 1
▁Trey 1
▁blades 1
realDonaldTrump 1
▁Territory 1
▁Bolt 1
▁CAR 1
▁onions 1
▁Horton 1
▁assumes 1
Air 1
▁Gwen 1
gor 1
▁compartment 1
▁intimidation 1
▁Symphony 1
▁precipitation 1
▁popcorn 1
▁boxer 1
▁travellers 1
▁Morton 1
▁bubbles 1
▁fusion 1
▁Fuller 1
hoe 1
▁bankers 1
▁sharks 1
▁Qaeda 1
▁Emery 1
UL 1
▁mortal 1
CF 1
▁Lionel 1
production 1
heavy 1
Best 1
▁cardiovascular 1
▁cooperating 1
Paul 1
▁totaled 1
Rourke 1
▁locking 1
▁reassure 1
▁Chrysler 1
▁Weaver 1
▁Sab 1
▁Rou 1
▁technicians 1
▁Poli 1
street 1
▁folding 1
▁tenant 1
▁Brun 1
ción 1
▁culinary 1
▁billed 1
▁1997. 1
sol 1
sure 1
Th 1
▁corpse 1
▁intrigued 1
▁exclude 1
▁Shar 1
▁homosexuality 1
▁Trying 1
▁exhausting 1
tool 1
-27 1
▁hostel 1
▁Heidi 1
▁trending 1
HR 1
▁prefers 1
▁wi 1
▁jackets 1
gio 1
▁pageant 1
▁Jennings 1
▁workload 1
▁hostility 1
sil 1
▁Macy 1
eus 1
▁ES 1
oun 1
▁€1 1
▁GOOD 1
▁rehearsal 1
▁Unity 1
▁tackled 1
▁Eat 1
▁Dragons 1
▁Vis 1
▁engineered 1
▁Ranger 1
▁Parkinson 1
▁shaky 1
East 1
▁Burn 1
▁renting 1
▁illustration 1
▁simulation 1
▁Alexandra 1
▁exclaimed 1
▁interval 1
▁Qui 1
▁Pla 1
▁chilling 1
▁ripe 1
▁Wear 1
▁$80 1
▁1995. 1
▁presentations 1
▁indications 1
▁translator 1
▁evolutionary 1
▁interstate 1
PG 1
▁builder 1
▁3-4 1
▁smear 1
▁infinite 1
▁backlog 1
▁legends 1
covered 1
▁vigil 1
▁immensely 1
▁Duck 1
yama 1
▁Immediately 1
▁220 1
▁Tunisia 1
▁raging 1
▁Gaming 1
City 1
▁soak 1
▁Cynthia 1
▁VERY 1
metric 1
oku 1
▁SEE 1
▁specifications 1
▁Harden 1
▁notify 1
etz 1
▁Mnuchin 1
▁Practice 1
▁McLaren 1
rik 1
▁Dani 1
▁2022 1
▁27. 1
Har 1
▁Moor 1
▁troop 1
▁Bueno 1
▁Connect 1
▁Wesley 1
▁starving 1
▁sparkling 1
electric 1
ates 1
▁4: 1
along 1
▁sleepy 1
▁Kro 1
aud 1
▁inquest 1
▁[5] 1
GC 1
operation 1
▁genres 1
▁singular 1
▁ValuEngine 1
sten 1
▁decay 1
▁Ronnie 1
▁template 1
▁Mint 1
▁Resource 1
▁pensions 1
▁0-0 1
▁Disclosure 1
▁termed 1
/5 1
without 1
TION 1
▁mathematical 1
▁stride 1
nov 1
December 1
zza 1
▁durable 1
▁Bale 1
▁southeastern 1
▁slightest 1
▁dome 1
▁Diet 1
▁intimidating 1
▁WILL 1
▁surfing 1
▁BY 1
▁Sunny 1
▁Wire 1
nom 1
▁systemic 1
▁fading 1
hari 1
lea 1
▁Schneider 1
▁midday 1
▁Stern 1
▁Economy 1
▁puppies 1
▁dossier 1
▁Firefox 1
▁impairment 1
▁receptions 1
▁OB 1
▁Parkway 1
▁Alec 1
▁fathers 1
rl 1
▁choke 1
▁Meadows 1
▁greed 1
▁sacrifices 1
system 1
▁swell 1
▁Sit 1
▁Flake 1
▁conform 1
▁Scha 1
▁diocese 1
▁Prescott 1
▁Brittany 1
vert 1
▁Leading 1
▁weeds 1
▁contestant 1
▁angered 1
▁reflective 1
▁Category 1
▁scrambling 1
▁unarmed 1
▁disappearing 1
▁Cr 1
▁inputs 1
▁chi 1
▁bloom 1
fiction 1
▁visually 1
Sha 1
▁exceeding 1
▁cites 1
▁Rise 1
pra 1
▁Cover 1
▁SK 1
▁fearing 1
▁Hus 1
▁colder 1
▁intricate 1
▁supplying 1
▁Burlington 1
▁Afterwards 1
▁inconvenience 1
▁beforehand 1
▁drying 1
▁proactive 1
▁therapies 1
▁Membership 1
▁Claus 1
apa 1
▁withstand 1
▁automaker 1
▁$75 1
▁AAA 1
except 1
▁Sochi 1
▁atmospheric 1
▁REALLY 1
▁Jammu 1
▁decorating 1
▁Lyft 1
▁unhealthy 1
fashioned 1
▁pots 1
ić 1
▁brutality 1
▁DL 1
▁ch 1
▁woo 1
▁Tall 1
asa 1
▁Amazing 1
▁ensures 1
▁comprehend 1
▁liberation 1
▁trait 1
▁depart 1
▁ye 1
▁Text 1
▁Lac 1
▁1.9 1
▁allegiance 1
▁resentment 1
Gen 1
▁Supporters 1
▁hurried 1
▁likewise 1
▁Titan 1
▁Ecuador 1
▁disgust 1
▁susceptible 1
,900 1
▁Engine 1
▁Councillor 1
▁Sofia 1
2). 1
▁lively 1
▁tumbled 1
▁antenna 1
▁widened 1
▁literal 1
▁café 1
▁consortium 1
▁Legacy 1
▁Julius 1
▁Burnley 1
tr 1
lip 1
nah 1
lov 1
▁offspring 1
▁Protestant 1
▁differential 1
▁MN 1
Happy 1
▁Alvarez 1
▁Thornton 1
CNN 1
▁TB 1
▁1947 1
▁Crimea 1
▁selective 1
▁irregular 1
▁Boko 1
▁rulers 1
▁1933 1
▁reside 1
▁observer 1
▁Sak 1
▁Lay 1
▁graves 1
▁tummy 1
▁Leone 1
gay 1
August 1
▁Factor 1
▁frog 1
▁chopped 1
▁longstanding 1
▁merits 1
▁bullshit 1
▁beg 1
▁endeavor 1
▁Congressman 1
▁Gerard 1
▁Grab 1
▁Sporting 1
▁eats 1
▁$1.4 1
▁Mercy 1
▁Serbian 1
▁3.1 1
igo 1
▁Dwight 1
▁executing 1
▁Operating 1
▁betrayal 1
▁ineffective 1
▁odor 1
dder 1
▁uncover 1
▁astonishing 1
▁combinations 1
▁dean 1
September 1
▁cheated 1
bug 1
▁abide 1
▁Nottingham 1
▁mogul 1
▁MLA 1
▁tilt 1
▁nearing 1
▁petty 1
▁commuters 1
▁rejecting 1
▁deficits 1
omi 1
could 1
Qaeda 1
▁gamble 1
▁crater 1
▁architects 1
▁Ready 1
▁insurgents 1
▁villa 1
▁crossover 1
▁113 1
▁uphill 1
▁minerals 1
▁improper 1
▁2.6 1
▁Communication 1
▁browse 1
▁havoc 1
▁neatly 1
▁Chocolate 1
▁Brit 1
▁considerations 1
ATION 1
zzo 1
▁dent 1
▁roar 1
▁publishes 1
raw 1
▁fills 1
▁Vanderbilt 1
▁gigantic 1
▁Omaha 1
▁Bentley 1
▁1994. 1
▁Ariana 1
▁Mayweather 1
NP 1
▁squash 1
▁Dy 1
▁manifesto 1
natural 1
▁aspiring 1
▁1/3 1
▁distributor 1
lk 1
▁Kom 1
▁2026 1
▁tissues 1
ç 1
▁statutory 1
▁Bieber 1
▁Hazard 1
▁escalation 1
content 1
lau 1
▁shrimp 1
▁Consequently 1
▁taxation 1
▁honoring 1
▁Ara 1
▁Krishna 1
▁fin 1
rrell 1
▁stalls 1
▁breathed 1
▁scratched 1
▁Sioux 1
▁Brotherhood 1
▁accountant 1
▁downstream 1
asse 1
▁1880 1
▁Tennis 1
▁Laurie 1
▁Wave 1
▁polish 1
▁vomiting 1
▁limp 1
Everybody 1
▁Giuliani 1
▁brawl 1
▁CBI 1
▁$2.5 1
▁Materials 1
▁reaffirmed 1
ded 1
▁6% 1
▁Res 1
▁Gram 1
▁ideals 1
▁Portsmouth 1
▁Brenda 1
▁FTSE 1
keeping 1
▁cursed 1
▁plaque 1
cen 1
▁Braun 1
▁hesitation 1
▁prominence 1
▁yummy 1
▁deadliest 1
▁drainage 1
▁Tanner 1
Home 1
▁shutter 1
▁Bowie 1
▁Kang 1
▁overlap 1
▁syndicated 1
ffer 1
▁Ont 1
▁Albion 1
dine 1
terrorism 1
hang 1
▁$34 1
▁renovated 1
▁Disneyland 1
▁mortar 1
▁unfolded 1
.04 1
figure 1
▁erase 1
.35 1
▁Boulder 1
▁bartender 1
▁stirring 1
▁reliever 1
▁Dil 1
▁Sexual 1
▁Absolutely 1
▁shortstop 1
▁ropes 1
boro 1
bol 1
▁interacting 1
oil 1
gren 1
train 1
▁bumps 1
▁1913 1
▁Internal 1
erman 1
▁believer 1
▁believers 1
▁muscular 1
▁playful 1
ulo 1
▁DM 1
▁revision 1
▁Hanson 1
▁Concert 1
▁Valerie 1
official 1
▁readiness 1
tell 1
cra 1
▁240 1
RM 1
▁Mora 1
▁Investor 1
▁bowed 1
▁shepherd 1
▁uh 1
▁discoveries 1
zie 1
▁Hip 1
▁renovations 1
▁MU 1
▁Osborne 1
▁chaired 1
kal 1
amine 1
▁portraits 1
ttle 1
▁SMS 1
▁unsuccessfully 1
FF 1
▁bun 1
▁Python 1
▁registering 1
▁(25 1
▁Style 1
▁explanations 1
▁grad 1
laws 1
▁1911 1
▁1987, 1
▁armies 1
phi 1
▁kitten 1
stemming 1
▁8% 1
▁chuckle 1
zar 1
egan 1
ente 1
▁Et 1
▁tailored 1
▁Mesa 1
▁essays 1
LS 1
▁1990, 1
▁$1.6 1
global 1
▁threads 1
▁Bala 1
▁skepticism 1
▁sock 1
▁Dillon 1
▁discouraged 1
cru 1
▁astronauts 1
series 1
▁Edwin 1
▁rubble 1
▁Journey 1
▁Flag 1
ador 1
▁bogey 1
▁Carlo 1
▁taped 1
▁Arrow 1
▁Moran 1
signed 1
▁NI 1
dem 1
▁traps 1
FO 1
▁7% 1
gger 1
▁fentanyl 1
▁seasoned 1
▁chew 1
▁improves 1
▁hovering 1
▁horns 1
▁discarded 1
▁valve 1
▁diverted 1
ule 1
▁allowance 1
▁Lydia 1
▁admiration 1
▁scouting 1
tina 1
kon 1
ines 1
▁incremental 1
▁Sis 1
▁node 1
▁earrings 1
▁penetration 1
▁circumstance 1
Cola 1
▁clashed 1
abad 1
▁VW 1
▁unfairly 1
▁screenplay 1
▁transforming 1
▁sanctioned 1
▁devastation 1
▁erosion 1
▁"[ 1
▁Pure 1
▁inspectors 1
mers 1
cis 1
▁Beta 1
▁noisy 1
▁OT 1
▁feminine 1
▁austerity 1
▁pony 1
▁Rot 1
▁Talent 1
▁pipelines 1
▁Caesar 1
sample 1
▁poke 1
▁Caucus 1
▁privileges 1
bul 1
▁methodology 1
▁inexpensive 1
▁volunteering 1
▁garner 1
▁landlords 1
vol 1
▁neurons 1
▁Aero 1
FP 1
▁Greens 1
▁disguise 1
▁intern 1
▁Flores 1
▁Byrne 1
▁pier 1
▁revoked 1
▁grains 1
▁Bul 1
▁geographical 1
▁107 1
▁incidence 1
▁NEVER 1
▁Kirby 1
▁Supply 1
▁Weight 1
▁Priest 1
▁Petr 1
stead 1
▁scans 1
DB 1
ias 1
▁guardian 1
▁Dhabi 1
bos 1
▁pinpoint 1
EPS 1
▁flagged 1
idad 1
▁rituals 1
▁Cur 1
▁recount 1
▁Marin 1
Never 1
▁bribery 1
▁adore 1
bia 1
▁abducted 1
▁mg 1
▁addict 1
▁commentators 1
▁Centers 1
ink 1
bbing 1
▁temples 1
▁relocate 1
▁fraternity 1
▁lithium 1
▁NYPD 1
▁extraction 1
▁iPhones 1
▁packet 1
▁Boyle 1
▁KS 1
▁fielder 1
English 1
▁Relief 1
▁seldom 1
▁Elaine 1
▁fumble 1
▁Og 1
▁YOUR 1
▁Kia 1
Matt 1
▁Magistrates 1
▁Hussain 1
▁slit 1
▁teaser 1
Col 1
Ti 1
▁Elk 1
▁Runner 1
▁hauled 1
▁limb 1
lene 1
ake 1
know 1
▁chick 1
▁Kiss 1
▁35, 1
▁imperial 1
▁murderer 1
▁cal 1
performance 1
▁commercials 1
▁penned 1
▁Sector 1
▁spurred 1
▁Hoover 1
▁carving 1
▁Bike 1
▁strides 1
▁banker 1
▁roadway 1
yon 1
▁cynical 1
▁excel 1
▁apparatus 1
▁losers 1
▁Reach 1
▁Giant 1
▁nicknamed 1
ulu 1
text 1
”). 1
▁defeats 1
▁WAS 1
ready 1
▁Barb 1
writing 1
linked 1
▁swipe 1
▁saint 1
▁eternity 1
▁scrapped 1
▁Watt 1
ija 1
▁bowls 1
Ni 1
HL 1
tation 1
▁onion 1
corn 1
▁dealings 1
▁Infinity 1
▁hygiene 1
▁savage 1
▁[6] 1
gna 1
stown 1
▁cloak 1
▁Demand 1
▁funnel 1
▁predecessors 1
▁Epic 1
▁Lone 1
▁imply 1
▁gasped 1
▁contacting 1
▁amused 1
ij 1
▁groove 1
significant 1
culture 1
▁mic 1
▁Baba 1
▁indirect 1
▁scripts 1
▁bombings 1
▁submissions 1
▁doping 1
▁ci 1
▁spec 1
▁fragments 1
▁2.8 1
▁dubious 1
▁Matrix 1
▁Teddy 1
▁diversion 1
▁Jessie 1
▁Founded 1
▁supervised 1
stad 1
ight 1
▁Ama 1
▁unfold 1
▁Administrator 1
▁Suarez 1
▁reassuring 1
▁pyramid 1
▁Israelis 1
ides 1
director 1
▁Gui 1
▁hum 1
▁Monetary 1
▁boutique 1
▁prevailing 1
▁unavailable 1
▁liable 1
▁Mam 1
▁occupants 1
Book 1
▁1992. 1
▁2.7 1
▁Dub 1
▁politely 1
▁Farmer 1
▁makeshift 1
▁Tank 1
uki 1
▁masterpiece 1
▁mushrooms 1
▁ecological 1
▁eruption 1
▁signaling 1
▁strapped 1
▁Drama 1
gold 1
EX 1
CN 1
ope 1
▁curling 1
▁waitress 1
▁mon 1
▁passwords 1
▁showcased 1
▁Saunders 1
▁enjoyment 1
▁stirred 1
▁responsive 1
▁parcel 1
BF 1
▁HC 1
▁Institutional 1
sham 1
▁inherently 1
▁automakers 1
nai 1
▁boiling 1
▁abdomen 1
▁enforcing 1
▁Promotion 1
▁earthquakes 1
▁choked 1
▁prescriptions 1
▁Pew 1
smart 1
▁Granted 1
▁Lester 1
▁ri 1
▁UI 1
▁boasted 1
▁operatives 1
▁slashed 1
▁brightly 1
▁zoning 1
▁glaring 1
▁strains 1
▁Plains 1
▁PBS 1
▁spying 1
▁114 1
| 1
▁salute 1
▁irrigation 1
▁Kosovo 1
▁Politico 1
▁loneliness 1
established 1
▁Gone 1
▁newcomers 1
▁canned 1
▁Bancorp 1
▁insecurity 1
azi 1
House 1
▁PTSD 1
▁buffet 1
lton 1
▁hangs 1
▁Russ 1
▁Alicia 1
hum 1
▁fastball 1
Part 1
▁Goa 1
900 1
lift 1
▁commence 1
▁Wembley 1
▁suicidal 1
▁Female 1
▁Clint 1
▁insect 1
TI 1
rium 1
▁Booth 1
▁pits 1
▁mantra 1
▁Tip 1
▁Xiaomi 1
▁introduces 1
▁tra 1
▁defensively 1
▁frantic 1
▁McMahon 1
▁Hindi 1
fed 1
▁genetically 1
▁Benedict 1
borough 1
▁bur 1
▁KO 1
▁Aires 1
▁Bod 1
▁prohibits 1
▁Contract 1
▁empowered 1
▁pi 1
▁..." 1
▁Alonso 1
▁Cisco 1
▁outings 1
▁Ancient 1
▁5-1 1
▁MW 1
▁Laden 1
▁digit 1
▁Writers 1
bill 1
data 1
Little 1
▁earnest 1
.70 1
▁debit 1
▁COUNTY 1
▁coping 1
▁kicker 1
bang 1
GH 1
▁constitutes 1
▁reactor 1
▁Keller 1
▁fetch 1
▁Sammy 1
▁MB 1
▁decks 1
▁mankind 1
▁breakup 1
▁Cad 1
▁Networks 1
▁TORONTO 1
▁caffeine 1
▁primitive 1
▁perfume 1
▁Citigroup 1
▁spree 1
▁curator 1
▁Morales 1
drive 1
dhi 1
▁Root 1
bid 1
▁Kali 1
▁stash 1
▁insulting 1
▁drafting 1
▁smack 1
gre 1
▁fixes 1
▁Hornets 1
Green 1
▁cue 1
AH 1
tank 1
▁Koreans 1
▁calculation 1
energy 1
▁Participants 1
▁Br 1
️ 1
▁Caldwell 1
▁Casa 1
▁southwestern 1
shore 1
▁slippery 1
▁freaked 1
jin 1
▁Sing 1
opening 1
▁thumbs 1
▁organisers 1
▁Ingram 1
▁Friend 1
▁freshly 1
▁Retirement 1
▁mocked 1
▁terrace 1
click 1
▁Maritime 1
TF 1
▁assemble 1
cco 1
▁Drop 1
▁slopes 1
▁stickers 1
▁gubernatorial 1
▁simplicity 1
▁Different 1
▁onboard 1
▁forgiven 1
-28 1
▁imbalance 1
uta 1
▁breached 1
▁DOJ 1
close 1
▁li 1
▁overturn 1
INE 1
▁hassle 1
▁Stacey 1
▁Pai 1
▁hardship 1
▁disappoint 1
Sure 1
▁Farrell 1
▁swearing 1
▁financed 1
▁guarded 1
later 1
ingly 1
▁nitrogen 1
Gu 1
pit 1
▁Huntington 1
▁Coke 1
▁alpha 1
▁capsule 1
▁Doesn 1
▁crab 1
storey 1
▁Hatch 1
Christian 1
▁vulnerabilities 1
▁Deborah 1
▁cannon 1
▁canoe 1
▁Ironically 1
▁Charity 1
▁arson 1
▁Stocks 1
▁Giving 1
▁marrying 1
▁Explorer 1
yet 1
▁ethic 1
▁shave 1
cht 1
small 1
▁Anita 1
▁Fuel 1
before 1
▁roses 1
▁Rajasthan 1
▁graffiti 1
bow 1
▁internship 1
▁kings 1
▁Rapid 1
▁loosely 1
▁dots 1
▁technician 1
▁Veteran 1
▁Yay 1
▁fend 1
▁Atlas 1
▁nightmares 1
▁Banking 1
▁BIG 1
▁Capitals 1
▁Pharma 1
▁explores 1
▁nationals 1
▁viruses 1
October 1
▁lettuce 1
Ca 1
▁Lei 1
▁Mod 1
▁RC 1
Cha 1
▁buys 1
▁Claude 1
▁coughing 1
▁affiliation 1
baby 1
▁materially 1
▁Mol 1
flower 1
trust 1
▁curved 1
▁motto 1
▁Paige 1
▁thanking 1
▁Gru 1
▁champ 1
▁Finch 1
▁employing 1
▁Bow 1
▁turtle 1
▁Scho 1
▁bullied 1
▁dictatorship 1
▁biblical 1
▁Door 1
▁rents 1
▁disconnect 1
▁Pacers 1
▁conceal 1
▁poorest 1
▁dividing 1
▁unanswered 1
▁Homes 1
▁Amelia 1
▁Warsaw 1
▁progressing 1
▁Heroes 1
▁Comment 1
▁34, 1
Ver 1
▁trivial 1
▁Augusta 1
here 1
▁chefs 1
▁sneakers 1
Only 1
▁!) 1
rup 1
▁vigilant 1
women 1
▁recap 1
▁rained 1
▁Fern 1
▁Variety 1
▁Visa 1
▁Away 1
▁accumulation 1
▁Kazakhstan 1
▁Watkins 1
▁Oprah 1
▁Wedding 1
▁Geoff 1
▁tempting 1
▁Eleven 1
▁Yoga 1
▁SI 1
▁asteroid 1
Saturday 1
▁Murdoch 1
▁volcanic 1
▁Breakfast 1
▁Milk 1
▁1993. 1
ement 1
▁Ada 1
tance 1
wu 1
▁Paw 1
▁scarce 1
▁seminar 1
ste 1
UD 1
▁captures 1
▁Bernardino 1
jack 1
▁116 1
▁HTC 1
▁2021. 1
believe 1
▁reluctantly 1
▁Rover 1
▁Kaiser 1
▁glamorous 1
▁feasible 1
▁spelled 1
▁7.5 1
▁Marilyn 1
▁fellowship 1
▁Lilly 1
▁Nile 1
▁Sisters 1
▁Kei 1
ONE 1
▁Exxon 1
▁Nairobi 1
▁plasma 1
▁135 1
▁Realty 1
▁partnering 1
▁stressing 1
nut 1
▁sticker 1
▁wonderfully 1
▁Cars 1
▁hatch 1
linger 1
▁concede 1
▁snapping 1
▁Cry 1
need 1
▁agony 1
▁outward 1
ender 1
pc 1
▁linger 1
▁akin 1
▁practitioners 1
▁Saw 1
▁luxurious 1
▁Vogue 1
▁3.2 1
▁derby 1
▁IRA 1
attack 1
▁recounted 1
.06 1
▁2021 1
▁UFO 1
▁Rican 1
▁Stream 1
▁finalist 1
▁Standards 1
▁peaks 1
▁PP 1
▁Prayer 1
lick 1
▁ACA 1
▁prank 1
▁irrational 1
▁nickel 1
▁membrane 1
▁murdering 1
▁fences 1
▁Qua 1
▁tempo 1
▁bruises 1
▁stringent 1
oro 1
Assad 1
▁retreated 1
▁chipped 1
▁sorting 1
▁Cardi 1
▁revel 1
▁PDT 1
▁dwell 1
▁Rowe 1
▁resides 1
▁Spike 1
plate 1
▁attire 1
wyn 1
BLE 1
▁cha 1
▁staffing 1
▁Clifford 1
▁Violet 1
▁cane 1
cz 1
▁bothering 1
▁Somali 1
▁Fit 1
vic 1
tics 1
▁geared 1
▁Dion 1
▁overthrow 1
▁extensions 1
▁accelerating 1
▁homage 1
▁preceding 1
▁continuity 1
▁torque 1
▁paradigm 1
▁Response 1
▁Hulu 1
▁bleak 1
▁batted 1
user 1
▁Gregg 1
▁speedy 1
BT 1
▁favors 1
▁Colombian 1
▁3: 1
▁departing 1
▁debating 1
▁semiconductor 1
▁Cornwall 1
▁advent 1
▁spanning 1
▁republished 1
Jack 1
▁1986, 1
border 1
▁misuse 1
Mad 1
▁Rwanda 1
▁grapes 1
▁waivers 1
holders 1
▁Won 1
▁governmental 1
change 1
▁allergies 1
▁provocative 1
▁Warrior 1
▁irresponsible 1
▁strangely 1
ddy 1
▁clinch 1
▁Personally 1
▁Kla 1
▁Monument 1
▁Downing 1
▁Bezos 1
▁Higgins 1
▁urges 1
Under 1
fur 1
▁plotting 1
,'" 1
▁var 1
▁violin 1
lim 1
rot 1
▁captioned 1
▁novelist 1
▁sparking 1
▁saddened 1
▁Melanie 1
▁Gra 1
▁hut 1
hel 1
▁injected 1
▁presumed 1
▁PO 1
▁stripes 1
▁GoFundMe 1
▁Ipswich 1
▁dripping 1
▁modifications 1
▁quirky 1
▁unused 1
organ 1
▁Suns 1
rent 1
▁commercially 1
150 1
.00. 1
▁5-0 1
▁bankrupt 1
▁Salisbury 1
▁Ernest 1
▁scouts 1
▁Alma 1
▁outraged 1
ain 1
▁Esp 1
▁spam 1
▁amidst 1
▁trumpet 1
▁Flood 1
▁Raleigh 1
▁flurry 1
▁shakes 1
▁predicts 1
▁Words 1
DER 1
Coin 1
Russia 1
▁frenzy 1
▁Osaka 1
▁Prague 1
▁Bald 1
▁hurricanes 1
▁Bowman 1
▁Deer 1
▁Kick 1
▁socio 1
CI 1
▁idle 1
▁postal 1
probably 1
▁alarmed 1
version 1
▁Ethics 1
▁rendition 1
▁liabilities 1
▁Clarence 1
▁scanner 1
▁48- 1
▁swam 1
▁cherish 1
Du 1
▁fulfil 1
▁Panel 1
▁10:00 1
▁consultants 1
▁bum 1
pod 1
▁sal 1
▁belts 1
▁snatched 1
▁Driver 1
▁Fil 1
▁sidewalks 1
▁Sci 1
▁maneuver 1
▁OUT 1
$3 1
▁lb 1
▁Carbon 1
▁resembles 1
plant 1
▁relevance 1
▁Jacques 1
▁Bomb 1
▁bathing 1
▁muttered 1
▁[7] 1
PH 1
▁stitch 1
jet 1
▁Meng 1
▁Hazel 1
vas 1
▁emergencies 1
▁supremacy 1
▁Buddha 1
▁snapshot 1
▁disturbance 1
▁proposes 1
ø 1
▁groin 1
Stop 1
▁disrespect 1
PI 1
▁Irma 1
▁RAF 1
▁coastline 1
▁Platform 1
DM 1
▁pantry 1
EV 1
▁exaggerated 1
▁spice 1
▁tossing 1
root 1
mber 1
aku 1
▁08 1
▁accuses 1
▁Wilmington 1
▁cheque 1
▁Toys 1
▁cosmetic 1
▁airstrikes 1
▁1985, 1
▁Shay 1
▁assert 1
▁Elena 1
▁digest 1
▁retro 1
▁Lot 1
▁sq 1
ako 1
▁vocabulary 1
▁decorate 1
▁Kraft 1
▁spicy 1
▁teachings 1
▁fuzzy 1
▁vaccination 1
▁Cab 1
▁Wen 1
DD 1
▁wakes 1
eem 1
▁Elias 1
▁tolerated 1
▁crafting 1
▁Ashton 1
▁inspirational 1
▁Canadiens 1
▁varsity 1
▁edible 1
▁sliced 1
▁Hayward 1
▁jewellery 1
▁flashlight 1
▁cheers 1
mini 1
Pe 1
▁Print 1
▁installations 1
▁moist 1
dio 1
▁SNP 1
▁sleek 1
▁facade 1
ders 1
stin 1
▁racially 1
▁activation 1
▁mint 1
▁Cathy 1
▁dusty 1
▁complainant 1
▁rays 1
▁ATM 1
▁Burr 1
▁Monk 1
▁EST 1
▁Plain 1
ahead 1
eller 1
▁Fallon 1
mod 1
▁organisms 1
VE 1
color 1
0% 1
▁Butter 1
▁Hanna 1
▁veil 1
▁recalling 1
cover 1
▁plausible 1
▁Lexington 1
ough 1
▁Alcohol 1
▁learns 1
▁Crews 1
▁dictate 1
▁Magistrate 1
▁listings 1
▁Benson 1
▁torso 1
▁Kala 1
UC 1
▁attic 1
▁sweating 1
▁Kensington 1
▁staffer 1
▁rob 1
▁personalized 1
▁foe 1
▁visions 1
.85 1
▁unveil 1
▁Taco 1
November 1
▁intervened 1
▁Husband 1
▁Wise 1
▁platinum 1
▁uniquely 1
▁Fen 1
inski 1
▁Larson 1
▁plaintiff 1
bler 1
▁deduction 1
fired 1
▁flowed 1
each 1
encia 1
▁Einstein 1
▁WITH 1
▁Bottom 1
▁Cyrus 1
▁FB 1
▁Ratio 1
▁engulfed 1
▁Tribe 1
▁commended 1
existing 1
▁safeguard 1
▁Hut 1
▁beads 1
▁Hearts 1
▁cons 1
.07 1
▁terminate 1
▁barrage 1
▁pint 1
▁Opinion 1
Chris 1
eti 1
lined 1
▁qualifications 1
▁hardcore 1
▁Arms 1
▁trophies 1
▁utilizing 1
▁honeymoon 1
▁Barber 1
▁365 1
cla 1
▁Uruguay 1
▁veins 1
▁apologise 1
▁McKenzie 1
▁subsidy 1
▁?! 1
▁inject 1
▁humorous 1
▁Secondly 1
▁insults 1
▁Cecil 1
▁refresh 1
▁vaguely 1
blood 1
vu 1
produced 1
▁booster 1
▁visibly 1
▁Kho 1
▁protector 1
bil 1
▁diploma 1
▁Swa 1
▁intercept 1
▁Volunteer 1
sim 1
▁fiercely 1
▁disqualified 1
▁doorstep 1
▁catalogue 1
▁giveaway 1
▁Friedman 1
▁poked 1
aux 1
friend 1
Watch 1
▁Chick 1
▁Suzuki 1
forth 1
▁harmed 1
▁bounds 1
▁elites 1
▁sensory 1
▁Ap 1
▁respectable 1
▁$31 1
hine 1
▁37, 1
▁monkeys 1
sheet 1
▁dependence 1
▁Cristiano 1
▁Mach 1
▁oversaw 1
corp 1
parent 1
▁GPU 1
During 1
▁battalion 1
▁qualifier 1
▁Reality 1
▁temp 1
agon 1
▁44, 1
▁Films 1
▁twists 1
▁cholesterol 1
▁inferior 1
▁swore 1
▁McDaniel 1
▁Wynn 1
▁Nichols 1
▁Hou 1
▁entitlement 1
▁Minn 1
▁herbs 1
 1
▁Theory 1
▁cues 1
▁Own 1
▁Tucson 1
▁të 1
backs 1
▁imagining 1
▁organizational 1
▁hugging 1
Jan 1
▁IQ 1
rule 1
▁60,000 1
▁revisit 1
▁bash 1
▁737 1
▁forge 1
▁wee 1
▁Elm 1
▁caste 1
▁Twelve 1
▁negligence 1
heads 1
▁relocation 1
.36 1
▁Skype 1
▁Blazers 1
▁confronting 1
▁Midlands 1
▁opting 1
▁Cameroon 1
bey 1
▁vows 1
▁Stakes 1
▁Fresno 1
▁carrots 1
▁Johannesburg 1
lus 1
▁Organ 1
▁CNBC 1
▁vapor 1
▁Kitty 1
▁remnants 1
▁cheerful 1
▁glare 1
▁brutally 1
lab 1
▁Syn 1
▁conquer 1
▁Spartans 1
▁intervals 1
KE 1
pha 1
▁jackpot 1
nothing 1
▁panties 1
▁luckily 1
▁meaningless 1
grown 1
▁metallic 1
▁nodes 1
▁uneven 1
▁bruised 1
▁Millions 1
▁paycheck 1
DL 1
fund 1
coat 1
▁comprise 1
▁franchises 1
▁flaw 1
▁1988, 1
▁robe 1
▁225 1
▁Ple 1
Ri 1
▁grit 1
▁veggies 1
▁Kolkata 1
▁mascot 1
▁windshield 1
▁redemption 1
▁empowerment 1
▁depot 1
▁Purple 1
rry 1
▁motions 1
▁2/3 1
▁mut 1
▁NZ 1
▁Siri 1
▁flare 1
▁trimmed 1
▁dashboard 1
Fox 1
Lu 1
▁Evening 1
▁Angus 1
▁conflicting 1
ref 1
umba 1
pho 1
▁6-0 1
▁Copper 1
▁bumped 1
▁butcher 1
High 1
▁authoritarian 1
▁packaged 1
▁pretended 1
▁decreasing 1
▁Alibaba 1
.55 1
▁Avi 1
gged 1
▁shores 1
▁flourish 1
mom 1
performing 1
▁pointless 1
▁troll 1
anta 1
▁monopoly 1
European 1
nj 1
▁reproduction 1
▁prom 1
▁Carolyn 1
▁Rag 1
”— 1
▁Wheel 1
Cu 1
▁chunks 1
▁sniper 1
▁flipping 1
▁weights 1
▁informing 1
▁meme 1
▁clad 1
▁binary 1
gent 1
▁lime 1
▁conception 1
▁Wai 1
▁virgin 1
▁Jakarta 1
▁Jade 1
▁Registration 1
▁authenticity 1
▁Publications 1
▁illustrates 1
▁manipulated 1
▁muster 1
packed 1
▁Teams 1
Blue 1
▁Liberation 1
▁Waste 1
ALL 1
▁Rate 1
▁MM 1
▁lauded 1
▁trader 1
Cap 1
▁inspected 1
.29 1
▁courageous 1
Times 1
▁Bundesliga 1
▁wiping 1
▁1908 1
Su 1
▁bleed 1
▁extracted 1
▁barking 1
HE 1
▁spouses 1
▁busted 1
▁pillows 1
▁tones 1
▁diamonds 1
▁nostalgia 1
▁Woody 1
▁borrowers 1
▁slamming 1
▁feminism 1
num 1
▁thunderstorms 1
▁interpreter 1
▁Edmund 1
oga 1
insky 1
▁Merrill 1
nett 1
▁pasture 1
▁projecting 1
▁owes 1
▁Lines 1
▁bind 1
▁Suffolk 1
▁endurance 1
▁Syndrome 1
▁cockpit 1
▁WATCH 1
▁BS 1
usa 1
▁perennial 1
▁blackmail 1
▁123 1
▁labelled 1
Boy 1
▁Gol 1
▁Tau 1
▁Lis 1
nda 1
▁Rovers 1
▁onset 1
▁Sens 1
▁Stu 1
▁Pleasant 1
.67 1
▁Lena 1
Read 1
▁midwife 1
▁Rudd 1
▁Duty 1
Cat 1
▁“( 1
▁anonymously 1
▁nutritional 1
Sun 1
▁waived 1
▁crow 1
▁violates 1
iers 1
▁Messenger 1
▁paranoid 1
gus 1
▁hoax 1
NI 1
oa 1
▁Wool 1
▁vocalist 1
ICE 1
▁coupon 1
▁rabbi 1
mind 1
▁Goodman 1
▁allergic 1
▁Guam 1
Art 1
cular 1
▁mural 1
▁CHICAGO 1
▁Broward 1
▁evenly 1
▁queries 1
▁Trend 1
▁FT 1
▁insurgency 1
nier 1
▁sincerely 1
▁Africans 1
▁Mate 1
▁Gabe 1
▁goodies 1
▁monastery 1
WT 1
▁focal 1
▁fundamentals 1
▁overdue 1
▁Kri 1
▁lifts 1
▁weddings 1
▁soaking 1
▁Feinstein 1
▁attends 1
▁reap 1
▁Gam 1
Benz 1
▁Leaders 1
▁victorious 1
▁experimenting 1
gers 1
▁gripped 1
▁rooftop 1
▁ol 1
LU 1
drop 1
▁Sheila 1
issue 1
THE 1
▁kernel 1
▁Ortiz 1
▁masked 1
▁salvage 1
▁apex 1
▁Kurds 1
loving 1
▁Ravi 1
▁Carmen 1
ologists 1
bas 1
▁Palo 1
books 1
▁$1.1 1
▁Dodd 1
▁enact 1
▁avalanche 1
▁imaginary 1
▁segregation 1
▁36, 1
▁Pogba 1
▁Stamford 1
▁Elsa 1
▁promo 1
unda 1
▁Fifty 1
almost 1
paying 1
▁7-6 1
▁Moh 1
▁Alternative 1
▁mosquito 1
▁roadside 1
▁railing 1
▁$25,000 1
Unfortunately 1
/8 1
-26 1
▁Brick 1
▁Safari 1
▁Ariel 1
▁canyon 1
average 1
.02 1
▁communicated 1
rose 1
▁unveiling 1
▁tug 1
à 1
January 1
▁ornaments 1
▁Copenhagen 1
Canada 1
▁Saturn 1
▁Jensen 1
Sam 1
▁strategically 1
WE 1
▁controllers 1
▁coloured 1
▁homeowner 1
▁Nico 1
▁spontaneous 1
▁Trojans 1
moral 1
positive 1
▁anticipating 1
▁Rutgers 1
▁incorporating 1
▁liner 1
Si 1
▁Toni 1
▁deeds 1
▁hash 1
dr 1
▁squirrel 1
▁stabilize 1
▁dreaded 1
▁je 1
▁telescope 1
rab 1
▁Georgian 1
▁$200,000 1
▁Pune 1
▁Berkshire 1
▁rugged 1
▁sanity 1
amo 1
▁Stoneman 1
▁Cards 1
▁Blind 1
bomb 1
▁Parliamentary 1
ely 1
ald 1
▁Barbie 1
▁zombies 1
▁Goff 1
▁Bis 1
▁diagnostic 1
▁Mata 1
▁Rays 1
▁inadvertently 1
▁Audrey 1
▁$600 1
▁yeast 1
▁Quest 1
tner 1
▁playback 1
▁amazingly 1
20,000 1
▁patrols 1
▁methamphetamine 1
▁Employment 1
▁choking 1
▁dagger 1
▁arcade 1
▁Trip 1
▁geopolitical 1
▁snowfall 1
▁empowering 1
▁sm 1
▁ruthless 1
▁neon 1
▁Visitors 1
.09 1
▁Rebels 1
their 1
majority 1
▁refinery 1
▁Segment 1
▁psychic 1
▁weakening 1
▁TI 1
▁fares 1
▁provisional 1
▁stoppage 1
▁rollout 1
Donnell 1
▁skipping 1
▁marketed 1
ctor 1
▁Manny 1
▁suspicions 1
▁RO 1
▁reel 1
dent 1
▁reacts 1
much 1
played 1
▁Junction 1
▁prioritize 1
▁Lawmakers 1
▁Ox 1
▁moth 1
▁Richie 1
-5) 1
▁weary 1
▁Glad 1
▁Ang 1
▁Pelicans 1
▁Tomas 1
▁poorer 1
tight 1
▁1906 1
▁approving 1
▁contemplating 1
▁distributing 1
▁heroine 1
▁Thames 1
▁Tulsa 1
▁07 1
▁750 1
▁amp 1
▁permitting 1
▁barring 1
▁TT 1
▁cite 1
mill 1
▁clown 1
▁numbered 1
▁Belichick 1
▁Pistons 1
▁dared 1
▁miscarriage 1
▁deferred 1
▁Sims 1
▁Plc 1
▁passer 1
▁PLC 1
▁ensued 1
▁cheapest 1
▁grinding 1
bies 1
▁LOT 1
▁classics 1
▁restroom 1
▁Daytona 1
▁reps 1
▁capitalize 1
oso 1
▁applicant 1
choice 1
▁raping 1
▁Saul 1
▁redevelopment 1
▁Lights 1
otic 1
staff 1
▁outperform 1
▁sur 1
▁Jasper 1
▁Patriot 1
serve 1
HP 1
vil 1
▁compression 1
▁Bha 1
rays 1
▁rationale 1
▁Mani 1
??? 1
▁ducks 1
▁acre 1
▁drip 1
▁Adobe 1
▁rallying 1
▁marvel 1
▁[8] 1
▁Rupert 1
▁Ulster 1
▁Bravo 1
▁Woodward 1
▁pupil 1
▁Irvine 1
▁UNC 1
▁Gel 1
loved 1
mission 1
▁$250,000 1
▁lieu 1
▁EX 1
wp 1
rim 1
▁birdie 1
iba 1
▁ceremonial 1
▁peripheral 1
▁hiatus 1
▁Madonna 1
▁arrivals 1
▁Catch 1
Israel 1
▁labs 1
▁Eng 1
▁constituted 1
▁Manu 1
▁Scarborough 1
▁Watford 1
▁sewage 1
▁conventions 1
▁Tammy 1
▁surname 1
▁mindful 1
ook 1
▁Napoli 1
charge 1
▁Ore 1
pon 1
▁diluted 1
▁scratching 1
▁schooling 1
Brexit 1
Police 1
while 1
VC 1
▁seas 1
ugh 1
▁mocking 1
lich 1
office 1
lav 1
▁mammals 1
▁emerges 1
▁Fleming 1
ographic 1
▁eyed 1
▁slogans 1
▁keynote 1
▁erect 1
▁marshal 1
▁Odd 1
▁passports 1
▁230 1
▁Bos 1
Sc 1
▁Maker 1
▁atrocities 1
▁Stafford 1
imp 1
▁Rim 1
▁dietary 1
▁($3 1
▁Loch 1
▁flavour 1
▁rift 1
rail 1
▁retrieved 1
nde 1
▁gala 1
▁CON 1
▁Nvidia 1
▁liberties 1
▁waiter 1
▁RS 1
▁brow 1
▁$36 1
▁multiplayer 1
▁chili 1
stars 1
▁missionaries 1
▁mortgages 1
▁checkpoint 1
▁ripping 1
▁Plans 1
▁spreads 1
uddin 1
▁Domestic 1
.38 1
▁HAVE 1
▁oddly 1
ition 1
▁societal 1
▁measles 1
▁Chavez 1
▁Flowers 1
▁Leaf 1
▁abandoning 1
▁CL 1
▁tad 1
▁condemning 1
▁Heck 1
serious 1
▁39- 1
▁TH 1
▁Advance 1
▁Enrique 1
▁Located 1
▁Famer 1
lev 1
▁Dot 1
▁Nora 1
itude 1
ranging 1
▁Cannabis 1
▁enclosed 1
igh 1
▁bee 1
▁triggers 1
▁Create 1
▁applauded 1
touch 1
▁adamant 1
▁Amir 1
corruption 1
▁slain 1
▁nicer 1
▁Foley 1
▁Baltic 1
▁Cannes 1
▁prostate 1
▁bot 1
alia 1
Wait 1
▁Frenchman 1
▁deposited 1
▁Frankie 1
▁scaled 1
▁mundane 1
▁sabotage 1
▁Bahamas 1
▁FedEx 1
agan 1
▁reacting 1
lake 1
▁CPR 1
▁overcame 1
▁hull 1
▁collectors 1
Far 1
▁Judicial 1
▁concentrations 1
▁Dry 1
soft 1
▁stereo 1
▁$20,000 1
▁Alto 1
▁wellbeing 1
nica 1
▁Gale 1
lou 1
▁trooper 1
▁Mayfield 1
350 1
▁puppet 1
▁stresses 1
▁standalone 1
▁Nationals 1
hab 1
▁sucker 1
▁Keys 1
tical 1
▁Holden 1
▁congratulated 1
▁inherit 1
▁Fernandez 1
▁angrily 1
▁Answer 1
▁rotate 1
aught 1
▁stumble 1
▁undermining 1
▁flap 1
▁Visual 1
▁pens 1
▁nailed 1
▁Est 1
▁Meat 1
trans 1
▁pediatric 1
▁Clyde 1
▁treadmill 1
▁Indo 1
pool 1
▁bulb 1
▁Lara 1
▁Witch 1
▁wrestler 1
▁75% 1
▁Reyes 1
.31 1
▁interrupt 1
▁businessmen 1
ional 1
▁chassis 1
▁showcasing 1
▁crept 1
▁Build 1
▁Tr 1
▁painfully 1
▁graft 1
▁depicts 1
▁como 1
▁Strait 1
▁gasp 1
▁Roof 1
pol 1
Before 1
▁Gha 1
▁Fiona 1
▁insistence 1
▁Barkley 1
those 1
ilo 1
▁disciples 1
▁ejected 1
▁Det 1
▁Vance 1
▁distressed 1
▁doom 1
▁Liberia 1
mma 1
▁Known 1
▁geek 1
cam 1
▁particle 1
iana 1
▁racked 1
▁Confederation 1
▁Rashid 1
▁Chaffey 1
▁orphanage 1
▁gunmen 1
▁cyclone 1
▁TS 1
every 1
▁$37 1
▁FAA 1
▁Def 1
▁awaited 1
▁scooter 1
▁Conner 1
▁corrections 1
dha 1
lé 1
▁Nurse 1
▁Fighter 1
▁Lastly 1
▁residing 1
▁bureaucracy 1
▁apologised 1
▁fluids 1
EG 1
▁kittens 1
▁validity 1
glass 1
complete 1
▁hitters 1
▁womb 1
▁softer 1
▁Enough 1
▁irritated 1
nna 1
▁9:00 1
▁CFO 1
▁advises 1
▁Bihar 1
▁greens 1
gee 1
▁motorcycles 1
▁coding 1
▁Vera 1
▁amend 1
.03 1
▁AK 1
▁morally 1
▁weighted 1
eff 1
▁Worldwide 1
▁shove 1
▁Catalonia 1
▁Defensive 1
▁divers 1
▁voltage 1
▁2017) 1
sensitive 1
▁Forget 1
▁KP 1
▁41- 1
▁estranged 1
▁glucose 1
▁solicitor 1
▁tipping 1
▁Hil 1
▁fracture 1
wn 1
▁guru 1
▁reckon 1
▁Cream 1
▁conceptual 1
▁Write 1
pine 1
▁tame 1
▁fencing 1
blo 1
Billboard 1
▁Harvest 1
▁Autumn 1
▁impacting 1
▁Anonymous 1
▁cruiser 1
named 1
meaning 1
▁Monkey 1
National 1
▁aspire 1
gam 1
▁casinos 1
ı 1
▁paradise 1
▁storing 1
▁adrenaline 1
▁socialism 1
▁Lea 1
▁Hole 1
▁burgers 1
pri 1
▁transporting 1
▁stroll 1
▁Teacher 1
▁tram 1
▁UBS 1
▁builders 1
OW 1
▁Gy 1
▁Publishing 1
▁Rodrigo 1
▁Wick 1
induced 1
▁sweetheart 1
▁Fry 1
▁TIME 1
▁possesses 1
▁deed 1
▁zoom 1
▁Everett 1
▁Sonny 1
▁arrogant 1
▁eccentric 1
▁Resolution 1
mur 1
▁sunrise 1
ifies 1
▁Baton 1
▁ransom 1
▁getaway 1
▁warranty 1
▁mins 1
▁versa 1
Bi 1
▁greatness 1
▁shrug 1
▁sluggish 1
songwriter 1
cup 1
▁Kol 1
▁richer 1
▁Vehicle 1
▁insurer 1
▁bowel 1
ket 1
erry 1
▁Lap 1
Dec 1
▁outcry 1
▁Huskies 1
▁pseudo 1
▁butterflies 1
Ab 1
▁seriousness 1
▁dr 1
cip 1
▁escalate 1
▁philosopher 1
▁binge 1
▁maze 1
▁Buzz 1
▁abrupt 1
▁robotics 1
ump 1
sports 1
▁42- 1
eman 1
▁flashes 1
▁Olive 1
▁Ricardo 1
▁bulls 1
▁Leonardo 1
moderate 1
▁Ou 1
▁Ped 1
▁Till 1
▁spiders 1
▁swords 1
▁calmed 1
appointed 1
▁diligence 1
▁optimization 1
▁Eleanor 1
uel 1
,’’ 1
▁outsider 1
▁Ai 1
▁southbound 1
▁bible 1
avan 1
▁1991. 1
▁chatter 1
Note 1
wald 1
▁3000 1
▁widening 1
▁$33 1
▁Agricultural 1
▁Bournemouth 1
▁fortress 1
▁GBX 1
sdale 1
cycle 1
▁Melvin 1
▁Combat 1
▁poo 1
mack 1
▁onwards 1
WC 1
▁inflicted 1
▁readings 1
mother 1
▁cameo 1
ways 1
▁wedge 1
▁selections 1
▁Fried 1
▁Hoo 1
▁youthful 1
▁rupees 1
▁attain 1
ager 1
.44 1
▁freedoms 1
▁Mercer 1
▁Kendrick 1
giving 1
ere 1
Fe 1
▁Cougars 1
▁newcomer 1
str 1
▁brushing 1
Ko 1
▁Blvd 1
▁más 1
▁gearing 1
▁gatherings 1
▁Theodore 1
▁inaugurated 1
rol 1
▁Duffy 1
▁Rally 1
▁detached 1
▁Pole 1
hm 1
▁motivate 1
▁hourly 1
▁Loop 1
▁marches 1
fill 1
▁fashioned 1
▁slender 1
▁lipstick 1
▁Maps 1
▁Sample 1
40,000 1
▁erased 1
▁Creator 1
▁117 1
{ 1
▁MGM 1
▁Rust 1
▁Rap 1
▁advisors 1
▁Francois 1
purpose 1
▁2.9 1
IX 1
▁elevate 1
▁duct 1
▁piss 1
▁Sham 1
▁Grass 1
▁sch 1
dro 1
▁Gap 1
▁Cir 1
▁restricting 1
▁tumble 1
pipe 1
rea 1
▁Thorn 1
▁Pos 1
February 1
▁inheritance 1
▁candid 1
▁breathtaking 1
▁consolidate 1
▁Mona 1
▁wearable 1
▁pleasing 1
▁hesitated 1
▁Archie 1
▁Nets 1
oda 1
▁devote 1
▁quota 1
dir 1
▁Nest 1
cutting 1
▁Fix 1
Their 1
▁narrator 1
▁registry 1
▁infringement 1
▁Jasmine 1
▁Various 1
▁Happ 1
▁Costco 1
ih 1
▁lashed 1
▁avenues 1
▁behaved 1
rm 1
▁transcripts 1
0.5 1
effective 1
▁tanker 1
-29 1
▁alt 1
▁Goldberg 1
▁` 1
▁bribes 1
▁environmentally 1
▁onstage 1
▁Toledo 1
▁extinct 1
▁lobster 1
▁Flo 1
▁amassed 1
▁Nunes 1
▁northbound 1
▁coating 1
▁Zak 1
▁dangerously 1
▁bastard 1
▁impulse 1
▁drilled 1
▁Sinn 1
dead 1
▁cartoons 1
▁admin 1
▁Buffett 1
BU 1
▁organise 1
▁mysteries 1
▁vacancy 1
▁bowler 1
▁reunite 1
▁BBQ 1
▁hover 1
▁puff 1
▁Lowry 1
▁Lor 1
▁whereby 1
▁mutually 1
[...]
